<unk>	0
<s>	0
</s>	0
":	-0
":"	-1
,"	-2
","	-3
er	-4
ty	-5
al	-6
"@	-7
{"@	-8
pe	-9
it	-10
re	-11
ic	-12
ue	-13
type	-14
alue	-15
nt	-16
"}	-17
ice	-18
me	-19
em	-20
rice	-21
id	-22
on	-23
at	-24
":"#	-25
":{"@	-26
st	-27
ss	-28
ame	-29
dd	-30
,{"@	-31
price	-32
name	-33
or	-34
ress	-35
item	-36
ddress	-37
ro	-38
fer	-39
el	-40
ati	-41
value	-42
Value	-43
"},{"@	-44
Pro	-45
ffer	-46
ant	-47
--	-48
uant	-49
nit	-50
per	-51
in	-52
","@	-53
Quant	-54
der	-55
address	-56
nc	-57
ex	-58
le	-59
perty	-60
Property	-61
ity	-62
"},"	-63
ur	-64
an	-65
ation	-66
PropertyValue	-67
order	-68
▁"	-69
et	-70
if	-71
unit	-72
</	-73
▁S	-74
Co	-75
ext	-76
ot	-77
Offer	-78
gi	-79
ncy	-80
ay	-81
urre	-82
urrency	-83
ed	-84
ema	-85
priceC	-86
priceCurrency	-87
ch	-88
Spe	-89
ific	-90
cific	-91
Specific	-92
Specification	-93
ve	-94
om	-95
eli	-96
-1	-97
----	-98
ar	-99
Text	-100
unitText	-101
ment	-102
offer	-103
ust	-104
ell	-105
otal	-106
Address	-107
ht	-108
Quantity	-109
ative	-110
Quantit	-111
ativeValue	-112
ct	-113
Re	-114
il	-115
total	-116
Price	-117
ayment	-118
ps	-119
ing	-120
><	-121
}}	-122
▁1	-123
ost	-124
ostal	-125
//	-126
://	-127
htt	-128
https	-129
ustom	-130
ustomer	-131
unt	-132
-2	-133
eller	-134
▁N	-135
de	-136
sh	-137
seller	-138
org	-139
reet	-140
am	-141
Or	-142
ip	-143
ce	-144
sch	-145
schema	-146
20	-147
ble	-148
um	-149
ver	-150
Unit	-151
customer	-152
00	-153
lin	-154
":1	-155
Regi	-156
},{"@	-157
td	-158
ple	-159
du	-160
":[	-161
":[{"@	-162
duct	-163
ber	-164
co	-165
▁A	-166
line	-167
eliver	-168
ac	-169
▁C	-170
▁T	-171
":"1	-172
ax	-173
elivery	-174
ph	-175
and	-176
oc	-177
ku	-178
umber	-179
us	-180
▁P	-181
},"	-182
eligi	-183
Offered	-184
eligible	-185
itemOffered	-186
eligibleQuantity	-187
nce	-188
▁M	-189
ion	-190
--------	-191
▁I	-192
-3	-193
Code	-194
payment	-195
▁St	-196
▁2	-197
ry	-198
ence	-199
ference	-200
reference	-201
":1}}	-202
UnitPrice	-203
th	-204
":1}}},{"@	-205
postal	-206
exam	-207
Loc	-208
Postal	-209
PostalAddress	-210
ub	-211
street	-212
Local	-213
streetAddress	-214
Locality	-215
addressLocality	-216
postalCode	-217
example	-218
▁<	-219
untry	-220
Region	-221
addressRegion	-222
",	-223
"}]	-224
ier	-225
sku	-226
atus	-227
Country	-228
addressCountry	-229
Payment	-230
-0	-231
Product	-232
email	-233
St	-234
Order	-235
"}],"	-236
erv	-237
▁B	-238
-1","@	-239
IN	-240
od	-241
GB	-242
ervice	-243
ER	-244
US	-245
-4	-246
GBP	-247
ipt	-248
iz	-249
ent	-250
is	-251
Status	-252
ate	-253
UR	-254
orderD	-255
0.	-256
EUR	-257
24	-258
ra	-259
2.	-260
▁=	-261
ia	-262
▁3	-263
6.	-264
delivery	-265
25	-266
▁s	-267
▁D	-268
en	-269
gan	-270
ore	-271
tax	-272
ash	-273
one	-274
Organ	-275
ad	-276
8.	-277
ZD	-278
UD	-279
ship	-280
ster	-281
pro	-282
Organiz	-283
3.	-284
▁Street	-285
="	-286
Organization	-287
▁R	-288
1.	-289
son	-290
26	-291
GD	-292
-2","@	-293
▁Number	-294
7.	-295
USD	-296
ceipt	-297
ou	-298
></	-299
land	-300
▁line	-301
5.	-302
ack	-303
4.	-304
phone	-305
Service	-306
Due	-307
PaymentDue	-308
tr	-309
mo	-310
ard	-311
ubtotal	-312
9.	-313
▁-	-314
▁W	-315
cont	-316
AD	-317
▁4	-318
8","	-319
":"3	-320
OR	-321
-5	-322
▁order	-323
▁5	-324
":"20	-325
2","	-326
INR	-327
pt	-328
nd	-329
AUD	-330
6","	-331
eth	-332
▁K	-333
▁total	-334
ew	-335
NZD	-336
Cash	-337
----------------	-338
▁G	-339
4","	-340
ition	-341
mount	-342
tel	-343
▁Amount	-344
SGD	-345
ethod	-346
Receipt	-347
ill	-348
▁ID	-349
▁Mo	-350
TA	-351
shipper	-352
Method	-353
▁L	-354
ifier	-355
lo	-356
ephone	-357
telephone	-358
ident	-359
identifier	-360
gra	-361
61	-362
add	-363
":"4	-364
▁{	-365
65	-366
":"2	-367
9","	-368
context	-369
acce	-370
accept	-371
accepted	-372
▁E	-373
te	-374
7","	-375
▁{"@	-376
graph	-377
totalPaymentDue	-378
itional	-379
additional	-380
▁0	-381
▁}	-382
3","	-383
Number	-384
acceptedOffer	-385
-1"},"	-386
orderDate	-387
▁Co	-388
▁8	-389
CAD	-390
orderNumber	-391
▁7	-392
91	-393
es	-394
Tax	-395
64	-396
ap	-397
paymentStatus	-398
able	-399
▁9	-400
paymentMethod	-401
ail	-402
":"5	-403
ERR	-404
ERROR	-405
":"[	-406
as	-407
ck	-408
5","	-409
▁Name	-410
product	-411
"}},{"@	-412
-3","@	-413
":1},"	-414
ID	-415
Customer	-416
▁d	-417
▁Mode	-418
ype	-419
▁Type	-420
Cashier	-421
18	-422
Subtotal	-423
1","	-424
Register	-425
":"8	-426
}]	-427
}]}	-428
"}}]}	-429
url	-430
▁6	-431
ral	-432
17	-433
taxID	-434
orderStatus	-435
44	-436
up	-437
▁c	-438
ak	-439
quant	-440
quantity	-441
35	-442
qty	-443
▁H	-444
United	-445
0","	-446
▁(	-447
":"7	-448
▁x	-449
ort	-450
cess	-451
99	-452
erson	-453
-1"},{"@	-454
":"+	-455
Tr	-456
MY	-457
-7	-458
28	-459
▁O	-460
▁Ro	-461
-2"},"	-462
MYR	-463
2},"	-464
apore	-465
ingapore	-466
":2},"	-467
-8	-468
60	-469
unitPrice	-470
ri	-471
mer	-472
cessing	-473
21	-474
67	-475
68	-476
linePrice	-477
Person	-478
out	-479
la	-480
▁F	-481
ans	-482
ton	-483
ge	-484
15	-485
":"9	-486
Com	-487
▁b	-488
10	-489
14	-490
ork	-491
acking	-492
upp	-493
mar	-494
23	-495
▁p	-496
Processing	-497
bal	-498
27	-499
13	-500
UN	-501
op	-502
isco	-503
▁n	-504
69	-505
▁20	-506
ction	-507
ire	-508
lobal	-509
ington	-510
63	-511
03	-512
ir	-513
New	-514
arc	-515
red	-516
▁},	-517
plete	-518
Complete	-519
PaymentComplete	-520
und	-521
-4","@	-522
04	-523
redit	-524
97	-525
07	-526
▁g	-527
iscount	-528
▁Road	-529
illing	-530
▁</	-531
05	-532
08	-533
Delivery	-534
98	-535
▁J	-536
▁t	-537
UNC	-538
ERTA	-539
ERTAIN	-540
UNCERTAIN	-541
12	-542
irect	-543
▁seller	-544
_1	-545
_1_	-546
ol	-547
94	-548
chant	-549
billing	-550
34	-551
38	-552
▁Z	-553
arcel	-554
prov	-555
merchant	-556
95	-557
▁King	-558
11	-559
orders	-560
upport	-561
Card	-562
ff	-563
6"},{"@	-564
Credit	-565
CreditCard	-566
eck	-567
Parcel	-568
TAL	-569
▁IN	-570
Discount	-571
shop	-572
2,	-573
Singapore	-574
ng	-575
eal	-576
art	-577
eckout	-578
ider	-579
provider	-580
orderDelivery	-581
ParcelDelivery	-582
deliveryAddress	-583
2"},{"@	-584
-2"},{"@	-585
/20	-586
▁tax	-587
58	-588
78	-589
ut	-590
▁EUR	-591
ne	-592
▁Pack	-593
act	-594
-3"},"	-595
▁GBP	-596
ection	-597
kup	-598
store	-599
undle	-600
▁Y	-601
29	-602
support	-603
dom	-604
19	-605
54	-606
ales	-607
Tracking	-608
ickup	-609
▁Kingdom	-610
74	-611
▁INR	-612
6,	-613
">	-614
ralia	-615
ustralia	-616
ellington	-617
status	-618
OrderProcessing	-619
▁Zeal	-620
▁Zealand	-621
▁re	-622
▁Sh	-623
ank	-624
uck	-625
2_	-626
_2_	-627
▁totals	-628
cr	-629
reland	-630
01	-631
uckland	-632
57	-633
▁ship	-634
▁NZD	-635
▁w	-636
33	-637
09	-638
FA	-639
are	-640
▁Re	-641
▁+	-642
2</	-643
▁Bundle	-644
▁name	-645
39	-646
In	-647
entral	-648
▁f	-649
ah	-650
ig	-651
ndia	-652
FATAL	-653
anc	-654
37	-655
com	-656
88	-657
16	-658
▁AUD	-659
▁=>	-660
":3	-661
scr	-662
iption	-663
48	-664
scription	-665
Ch	-666
items	-667
":3},"	-668
Pickup	-669
age	-670
ada	-671
30	-672
55	-673
▁SGD	-674
ee	-675
ates	-676
direct	-677
checkout	-678
▁:	-679
ner	-680
ang	-681
anada	-682
press	-683
ubscription	-684
RD	-685
47	-686
▁States	-687
▁id	-688
0.00	-689
tem	-690
ead	-691
▁Col	-692
-9	-693
ME	-694
▁$	-695
22	-696
▁V	-697
▁Tr	-698
84	-699
PO	-700
ket	-701
▁USD	-702
ea	-703
▁Set	-704
our	-705
mary	-706
un	-707
▁Ex	-708
KU	-709
▁no	-710
hi	-711
▁CAD	-712
ummary	-713
▁/	-714
:00	-715
aced	-716
▁payment	-717
vel	-718
-3"},{"@	-719
PRD	-720
▁a	-721
SKU	-722
laced	-723
global	-724
contact	-725
77	-726
":"6	-727
50	-728
▁gst	-729
mail	-730
1,	-731
-2"}],"	-732
ngland	-733
>1	-734
Wellington	-735
RE	-736
Australia	-737
▁o	-738
-4"},"	-739
3,	-740
85	-741
ument	-742
ai	-743
▁Con	-744
ocument	-745
bod	-746
06	-747
":"2024	-748
ris	-749
body	-750
tbody	-751
thead	-752
":"2025	-753
section	-754
Ireland	-755
ine	-756
▁14	-757
":"2026	-758
ware	-759
▁|	-760
etail	-761
va	-762
orderDocument	-763
service	-764
1>	-765
90	-766
vo	-767
totals	-768
Auckland	-769
subtotal	-770
table	-771
▁Code	-772
87	-773
▁Global	-774
ith	-775
▁Q	-776
ok	-777
":4	-778
3"},{"@	-779
umb	-780
elhi	-781
io	-782
voice	-783
-5","@	-784
ansfer	-785
-1"}],"	-786
▁co	-787
▁New	-788
India	-789
▁date	-790
ORD	-791
Central	-792
▁In	-793
work	-794
36	-795
45	-796
79	-797
▁18	-798
▁am	-799
":4},"	-800
1"},{"@	-801
75	-802
▁&	-803
aker	-804
ffice	-805
▁j	-806
▁Express	-807
team	-808
▁Not	-809
▁Ch	-810
▁Notice	-811
▁in	-812
▁United	-813
3_	-814
_3_	-815
ite	-816
ark	-817
▁and	-818
fir	-819
32	-820
cot	-821
bert	-822
▁Receipt	-823
02	-824
▁Le	-825
>2</	-826
amp	-827
lass	-828
outh	-829
66	-830
9,	-831
etails	-832
he	-833
ood	-834
Canada	-835
ag	-836
ceipts	-837
ueen	-838
▁Pay	-839
0000	-840
31	-841
tle	-842
▁Singapore	-843
▁15	-844
inster	-845
▁Summary	-846
▁10	-847
ublin	-848
receipts	-849
Sh	-850
ul	-851
▁17	-852
ond	-853
etwork	-854
▁details	-855
80	-856
use	-857
bs	-858
os	-859
ward	-860
arn	-861
ven	-862
":"2025-0	-863
itch	-864
row	-865
CC	-866
rig	-867
ions	-868
▁Confir	-869
ban	-870
orth	-871
mation	-872
▁Confirmation	-873
ho	-874
▁r	-875
▁sr	-876
46	-877
76	-878
oh	-879
56	-880
REG	-881
▁ch	-882
>1</	-883
9"},{"@	-884
CA	-885
":"2024-0	-886
":"2026-0	-887
ST	-888
-6	-889
▁price	-890
▁cash	-891
▁Service	-892
ount	-893
":"14	-894
▁Ed	-895
▁13	-896
96	-897
ich	-898
POS	-899
83	-900
vail	-901
ender	-902
England	-903
vailable	-904
41	-905
40	-906
atch	-907
":"15	-908
meth	-909
":"24	-910
method	-911
elivered	-912
XN	-913
43	-914
ary	-915
li	-916
000	-917
tor	-918
lace	-919
▁Place	-920
CP	-921
eb	-922
▁m	-923
353	-924
ain	-925
92	-926
Le	-927
ansit	-928
tracking	-929
▁Package	-930
▁subtotal	-931
▁Pl	-932
alan	-933
ange	-934
86	-935
ern	-936
▁12	-937
53	-938
00","	-939
Subscription	-940
gh	-941
Total	-942
UST	-943
les	-944
▁email	-945
▁amount	-946
LI	-947
ide	-948
ime	-949
81	-950
way	-951
online	-952
unster	-953
bo	-954
all	-955
bl	-956
▁Su	-957
Ship	-958
Delivered	-959
70	-960
":"25	-961
ast	-962
let	-963
loor	-964
▁11	-965
,1	-966
73	-967
Ad	-968
UY	-969
Bank	-970
anche	-971
-3"}],"	-972
7,	-973
▁Direct	-974
51	-975
71	-976
ive	-977
5},"	-978
IP	-979
NZ	-980
▁Office	-981
NT	-982
ondon	-983
▁Delhi	-984
ger	-985
int	-986
▁York	-987
▁with	-988
▁phone	-989
_4	-990
":"+1	-991
":5},"	-992
93	-993
im	-994
iel	-995
▁contact	-996
ly	-997
ight	-998
▁South	-999
-4"}],"	-1000
4,	-1001
62	-1002
_4_	-1003
ish	-1004
ding	-1005
ru	-1006
▁U	-1007
▁[	-1008
ley	-1009
arter	-1010
▁19	-1011
UYER	-1012
49	-1013
ictor	-1014
ictoria	-1015
Item	-1016
illi	-1017
▁Suite	-1018
mi	-1019
▁#	-1020
ter	-1021
▁customer	-1022
USR	-1023
▁is	-1024
":"13	-1025
59	-1026
▁Network	-1027
▁product	-1028
▁k	-1029
ift	-1030
"}]}	-1031
ase	-1032
Dublin	-1033
Leinster	-1034
eat	-1035
venue	-1036
ily	-1037
rand	-1038
▁Floor	-1039
0,	-1040
bur	-1041
mart	-1042
▁Way	-1043
ueens	-1044
▁Avenue	-1045
▁Subscription	-1046
INV	-1047
gro	-1048
42	-1049
72	-1050
▁l	-1051
isp	-1052
bane	-1053
risbane	-1054
▁placed	-1055
::	-1056
oo	-1057
-11	-1058
ect	-1059
rit	-1060
▁16	-1061
▁of	-1062
str	-1063
/2024	-1064
8,	-1065
89	-1066
▁y	-1067
enn	-1068
ispatch	-1069
ueensland	-1070
>3	-1071
EB	-1072
MEM	-1073
":"11	-1074
placed	-1075
Transfer	-1076
▁delivery	-1077
rown	-1078
CLI	-1079
CUST	-1080
▁Ser	-1081
utions	-1082
▁Store	-1083
NE	-1084
▁]	-1085
eng	-1086
ist	-1087
yd	-1088
-10	-1089
olutions	-1090
ubj	-1091
ubject	-1092
▁Customer	-1093
▁0.00	-1094
At	-1095
Qty	-1096
▁/>	-1097
▁Your	-1098
itchen	-1099
▁status	-1100
-4"},{"@	-1101
52	-1102
WB	-1103
-12	-1104
▁],	-1105
▁th	-1106
ield	-1107
▁Card	-1108
currency	-1109
▁section	-1110
="+	-1111
dat	-1112
loy	-1113
ello	-1114
burgh	-1115
datet	-1116
field	-1117
market	-1118
inburgh	-1119
By	-1120
ney	-1121
▁1,	-1122
Adva	-1123
ByBank	-1124
InAdva	-1125
datetime	-1126
InAdvance	-1127
ByBankTransfer	-1128
ale	-1129
elb	-1130
led	-1131
▁"+	-1132
":"10	-1133
cotland	-1134
ashington	-1135
▁placedAt	-1136
20.	-1137
tems	-1138
number	-1139
82	-1140
lines	-1141
ritish	-1142
▁class	-1143
PaymentMethod	-1144
▁h	-1145
ydney	-1146
▁Wales	-1147
,2	-1148
ED	-1149
▁2,	-1150
BUYER	-1151
▁Hello	-1152
stration	-1153
▁Auckland	-1154
,+	-1155
av	-1156
ners	-1157
artners	-1158
anchester	-1159
ahar	-1160
asht	-1161
/2025	-1162
-5"},"	-1163
ashtra	-1164
-5"}],"	-1165
aharashtra	-1166
SO	-1167
ploy	-1168
umbai	-1169
▁Unit	-1170
ployee	-1171
5"},{"@	-1172
Registration	-1173
cl	-1174
ams	-1175
▁Colle	-1176
▁Australia	-1177
▁Registration	-1178
ustin	-1179
KG	-1180
▁(1	-1181
remi	-1182
ourne	-1183
elbourne	-1184
▁Subject	-1185
▁shipper	-1186
8"},{"@	-1187
▁invoice	-1188
AY	-1189
▁Central	-1190
GST	-1191
ett	-1192
▁00	-1193
18-0	-1194
7"},{"@	-1195
▁Wellington	-1196
5,	-1197
aka	-1198
ont	-1199
Cork	-1200
0"},{"@	-1201
4"},{"@	-1202
MENT	-1203
ancou	-1204
▁Items	-1205
PickupA	-1206
ancouver	-1207
OrderPickupA	-1208
Ed	-1209
XP	-1210
ping	-1211
remium	-1212
Munster	-1213
▁Seller	-1214
ote	-1215
tra	-1216
":"16	-1217
HIP	-1218
hom	-1219
res	-1220
alur	-1221
":"18	-1222
umbia	-1223
▁Level	-1224
OrderDelivered	-1225
▁mo	-1226
/2026	-1227
▁Fl	-1228
▁India	-1229
RT	-1230
blem	-1231
ataka	-1232
▁Columbia	-1233
TXN	-1234
aluru	-1235
engaluru	-1236
gary	-1237
24","	-1238
cer	-1239
ois	-1240
▁Ho	-1241
▁Kit	-1242
":"17	-1243
▁unit	-1244
RK	-1245
":"19	-1246
lbert	-1247
▁Transfer	-1248
any	-1249
6},"	-1250
hd	-1251
▁24	-1252
reen	-1253
▁pro	-1254
lberta	-1255
ud	-1256
ies	-1257
▁(2	-1258
":6},"	-1259
algary	-1260
▁Ireland	-1261
▁e	-1262
▁NZ	-1263
akea	-1264
akeaway	-1265
▁Invoice	-1266
den	-1267
▁23	-1268
oods	-1269
▁Com	-1270
London	-1271
Victoria	-1272
dn	-1273
>3</	-1274
▁ORD	-1275
▁Plan	-1276
▁Edition	-1277
▁receipt	-1278
▁Apt	-1279
emote	-1280
Problem	-1281
arnataka	-1282
AT	-1283
new	-1284
▁to	-1285
25","	-1286
▁Renew	-1287
RCP	-1288
ohor	-1289
urch	-1290
▁Tra	-1291
solutions	-1292
>4	-1293
but	-1294
▁RE	-1295
▁de	-1296
InTr	-1297
right	-1298
▁Renewal	-1299
InTransit	-1300
OrderInTransit	-1301
>5	-1302
▁21	-1303
2026	-1304
Premium	-1305
ems	-1306
OTAL	-1307
":"12	-1308
":"26	-1309
istri	-1310
CE	-1311
est	-1312
yst	-1313
ctive	-1314
ystems	-1315
▁Canada	-1316
ey	-1317
00.	-1318
WEB	-1319
Sales	-1320
":"+61	-1321
▁quantity	-1322
Em	-1323
Ma	-1324
▁25	-1325
upply	-1326
Ro	-1327
001	-1328
ord	-1329
ario	-1330
istribut	-1331
ade	-1332
app	-1333
▁28	-1334
cott	-1335
onto	-1336
orge	-1337
▁Gro	-1338
":"28	-1339
28","	-1340
▁Ship	-1341
eattle	-1342
ntario	-1343
oronto	-1344
ardware	-1345
Brisbane	-1346
▁address	-1347
Queensland	-1348
▁i	-1349
26","	-1350
meric	-1351
ohn	-1352
less	-1353
":"+44	-1354
":"2018-0	-1355
uy	-1356
aff	-1357
ics	-1358
que	-1359
▁No	-1360
▁ro	-1361
iver	-1362
▁Date	-1363
ennett	-1364
▁England	-1365
24.	-1366
25.	-1367
bil	-1368
edu	-1369
▁1.	-1370
chedu	-1371
▁Cour	-1372
▁0.	-1373
▁on	-1374
ated	-1375
nline	-1376
cheduled	-1377
alk	-1378
ose	-1379
▁Ad	-1380
64","	-1381
Store	-1382
eorge	-1383
Sydney	-1384
Scotland	-1385
Edinburgh	-1386
▁Or	-1387
2025	-1388
ound	-1389
house	-1390
":"+64	-1391
▁Baker	-1392
":"+353	-1393
Checkout	-1394
ab	-1395
urbs	-1396
":"27	-1397
32","	-1398
orage	-1399
":"+91	-1400
urbside	-1401
ool	-1402
▁CA	-1403
▁em	-1404
Delhi	-1405
▁Tender	-1406
Takeaway	-1407
Melbourne	-1408
of	-1409
port	-1410
▁Per	-1411
group	-1412
OD	-1413
▁v	-1414
ake	-1415
▁26	-1416
▁30	-1417
exas	-1418
":"21	-1419
Remote	-1420
$1	-1421
-09	-1422
igit	-1423
▁due	-1424
04","	-1425
":"+65	-1426
British	-1427
aw	-1428
gy	-1429
ow	-1430
▁@	-1431
aya	-1432
tex	-1433
2024	-1434
":"29	-1435
92","	-1436
orner	-1437
▁Jalan	-1438
▁07	-1439
▁3,	-1440
":"23	-1441
44","	-1442
AYMENT	-1443
56","	-1444
icket	-1445
bility	-1446
▁jalan	-1447
LE	-1448
rm	-1449
-67	-1450
ped	-1451
▁27	-1452
":"67	-1453
Mumbai	-1454
▁Series	-1455
Manchester	-1456
Maharashtra	-1457
-65	-1458
ick	-1459
oper	-1460
rian	-1461
76","	-1462
▁code	-1463
igital	-1464
▁X	-1465
ory	-1466
pson	-1467
▁you	-1468
Shipment	-1469
▁employee	-1470
lue	-1471
▁Ph	-1472
▁st	-1473
":"00	-1474
46","	-1475
65","	-1476
Online	-1477
merican	-1478
▁cashier	-1479
Vancouver	-1480
TRK	-1481
uez	-1482
▁Pa	-1483
▁ve	-1484
Dine	-1485
actory	-1486
PKG	-1487
llin	-1488
ores	-1489
ottle	-1490
▁Thom	-1491
riguez	-1492
":"0.00	-1493
-03	-1494
-05	-1495
2.0	-1496
ath	-1497
oph	-1498
▁Bro	-1499
68","	-1500
▁mode	-1501
▁Payment	-1502
▁summary	-1503
No	-1504
-60	-1505
6.8	-1506
ock	-1507
pple	-1508
▁Queen	-1509
▁sales	-1510
oog	-1511
ten	-1512
▁Be	-1513
ames	-1514
pany	-1515
resh	-1516
wift	-1517
96","	-1518
elang	-1519
▁Mart	-1520
,3	-1521
-08	-1522
ome	-1523
yal	-1524
▁03	-1525
▁rm	-1526
":"0	-1527
>4</	-1528
▁reg	-1529
":"30	-1530
16","	-1531
Curbside	-1532
Scheduled	-1533
rn	-1534
8.0	-1535
▁29	-1536
oung	-1537
▁Mor	-1538
▁Tax	-1539
36","	-1540
north	-1541
▁regi	-1542
Alberta	-1543
Calgary	-1544
▁change	-1545
Dispatch	-1546
oi	-1547
2.7	-1548
▁33	-1549
▁PO	-1550
ffee	-1551
lear	-1552
oint	-1553
62","	-1554
ampoi	-1555
anket	-1556
oogle	-1557
Change	-1558
▁items	-1559
itchell	-1560
ie	-1561
ago	-1562
isa	-1563
SHIP	-1564
ique	-1565
▁Bag	-1566
":"34	-1567
38","	-1568
icago	-1569
ardson	-1570
lanket	-1571
Bengaluru	-1572
Karnataka	-1573
▁Collection	-1574
1.0	-1575
2.8	-1576
ala	-1577
ald	-1578
ile	-1579
reated	-1580
▁Shent	-1581
▁.	-1582
elf	-1583
oth	-1584
▁"1	-1585
gist	-1586
98","	-1587
atson	-1588
sterc	-1589
▁thank	-1590
elangor	-1591
gistics	-1592
outique	-1593
ichardson	-1594
23.	-1595
anv	-1596
▁Res	-1597
12","	-1598
61","	-1599
":"2017	-1600
llinois	-1601
▁number	-1602
▁Shenton	-1603
▁Tendered	-1604
fe	-1605
ma	-1606
0.0	-1607
7.8	-1608
bin	-1609
▁Gr	-1610
▁NO	-1611
hite	-1612
lins	-1613
mith	-1614
race	-1615
rime	-1616
18","	-1617
58","	-1618
99","	-1619
North	-1620
tenay	-1621
▁Order	-1622
▁Collins	-1623
▁Leinster	-1624
ec	-1625
-91	-1626
ler	-1627
yes	-1628
48","	-1629
94","	-1630
ember	-1631
▁Dublin	-1632
▁processing	-1633
6.0	-1634
irt	-1635
▁35	-1636
▁Bin	-1637
▁Out	-1638
":"33	-1639
20","	-1640
holes	-1641
binson	-1642
kitchen	-1643
▁Courtenay	-1644
OrderProblem	-1645
5.0	-1646
ors	-1647
vans	-1648
berts	-1649
onald	-1650
Seattle	-1651
▁service	-1652
-04	-1653
arg	-1654
arm	-1655
eer	-1656
hor	-1657
▁08	-1658
elly	-1659
organ	-1660
▁Bottle	-1661
▁George	-1662
▁Ticket	-1663
▁Station	-1664
Washington	-1665
SD	-1666
4.0	-1667
ATE	-1668
acy	-1669
air	-1670
mas	-1671
ora	-1672
ebit	-1673
▁REG	-1674
▁pay	-1675
":"0.	-1676
":"69	-1677
ailey	-1678
isions	-1679
ational	-1680
holesale	-1681
▁ordered	-1682
IL	-1683
-95	-1684
1.8	-1685
aur	-1686
lle	-1687
▁09	-1688
gers	-1689
22","	-1690
43","	-1691
elson	-1692
Ontario	-1693
Toronto	-1694
network	-1695
embership	-1696
ernational	-1697
Ex	-1698
ope	-1699
ult	-1700
▁40	-1701
▁Ca	-1702
▁tr	-1703
▁Mar	-1704
54","	-1705
armacy	-1706
ohnson	-1707
▁TOTAL	-1708
▁Total	-1709
▁PAYMENT	-1710
5_	-1711
-01	-1712
_5_	-1713
▁by	-1714
star	-1715
▁qty	-1716
":"68	-1717
39","	-1718
52","	-1719
:00","	-1720
▁Credit	-1721
-68	-1722
5.8	-1723
8.8	-1724
lia	-1725
avis	-1726
omin	-1727
ones	-1728
":"31	-1729
":"53	-1730
66","	-1731
95","	-1732
okware	-1733
▁Stand	-1734
partners	-1735
istributors	-1736
ky	-1737
biz	-1738
ener	-1739
":"60	-1740
19","	-1741
23","	-1742
41","	-1743
91","	-1744
▁Char	-1745
▁Walk	-1746
▁item	-1747
▁ORDER	-1748
▁Partners	-1749
▁shipping	-1750
▁Washington	-1751
,4	-1752
-99	-1753
6.7	-1754
9.0	-1755
mit	-1756
▁61	-1757
▁tel	-1758
":"39	-1759
":"61	-1760
board	-1761
▁Park	-1762
▁Grand	-1763
0010000	-1764
▁Membership	-1765
-07	-1766
-63	-1767
3.8	-1768
4.8	-1769
rez	-1770
urn	-1771
▁2.	-1772
dern	-1773
29","	-1774
57","	-1775
Texas	-1776
▁Jack	-1777
Austin	-1778
ioneer	-1779
▁Kitchen	-1780
ke	-1781
-00	-1782
-61	-1783
amb	-1784
▁37	-1785
▁La	-1786
Blue	-1787
itor	-1788
labs	-1789
▁INV	-1790
2"},"	-1791
27","	-1792
staur	-1793
▁Case	-1794
▁DATE	-1795
onitor	-1796
staurant	-1797
-64	-1798
-69	-1799
Pal	-1800
ruz	-1801
▁3.	-1802
▁36	-1803
":"03	-1804
":"35	-1805
":"99	-1806
14","	-1807
37","	-1808
69","	-1809
itter	-1810
▁Bank	-1811
▁Raff	-1812
illiams	-1813
stercard	-1814
-06	-1815
Tra	-1816
len	-1817
▁+1	-1818
▁bhd	-1819
":"38	-1820
":"65	-1821
21","	-1822
31","	-1823
ummit	-1824
▁Shop	-1825
AC	-1826
ND	-1827
uc	-1828
oks	-1829
pot	-1830
▁sdn	-1831
athan	-1832
ilson	-1833
usted	-1834
fitter	-1835
Starter	-1836
fitters	-1837
▁Dispatch	-1838
CH	-1839
ET	-1840
ons	-1841
▁34	-1842
▁65	-1843
leet	-1844
ncoo	-1845
34","	-1846
51","	-1847
67","	-1848
Table	-1849
amily	-1850
wards	-1851
ierrez	-1852
▁Shelf	-1853
eyboard	-1854
ncoolen	-1855
-02	-1856
▁Bo	-1857
▁me	-1858
eans	-1859
fill	-1860
47","	-1861
arcia	-1862
baker	-1863
colle	-1864
merce	-1865
▁Main	-1866
▁Mouse	-1867
▁Flores	-1868
odriguez	-1869
▁Transit	-1870
collective	-1871
se	-1872
-97	-1873
ota	-1874
▁Ma	-1875
ampb	-1876
irch	-1877
izon	-1878
":"1.	-1879
":"64	-1880
▁type	-1881
illips	-1882
▁Cable	-1883
express	-1884
utierrez	-1885
11.	-1886
amos	-1887
udio	-1888
▁Pro	-1889
":"40	-1890
":"63	-1891
13","	-1892
74","	-1893
arden	-1894
▁Tool	-1895
lassic	-1896
tender	-1897
ampbell	-1898
28"},{"@	-1899
▁Blanket	-1900
8-	-1901
pl	-1902
arb	-1903
ndo	-1904
phy	-1905
▁4.	-1906
▁te	-1907
uyen	-1908
west	-1909
ewart	-1910
ndoor	-1911
▁Labs	-1912
▁Meal	-1913
▁Raffles	-1914
▁payable	-1915
▁10010000	-1916
Ar	-1917
no	-1918
-28	-1919
10.	-1920
7.0	-1921
UNT	-1922
lor	-1923
uty	-1924
▁us	-1925
cent	-1926
just	-1927
▁TXN	-1928
▁per	-1929
15","	-1930
45","	-1931
chard	-1932
▁Cork	-1933
derson	-1934
grocer	-1935
▁Munster	-1936
▁discount	-1937
";	-1938
>6	-1939
29.	-1940
USB	-1941
>5</	-1942
even	-1943
42","	-1944
Smart	-1945
orres	-1946
urner	-1947
urphy	-1948
▁Parn	-1949
00"},{"@	-1950
▁Bencoolen	-1951
LC	-1952
ez	-1953
-23	-1954
ael	-1955
ater	-1956
▁18:	-1957
arbor	-1958
▁Bagg	-1959
▁Pass	-1960
ichael	-1961
▁London	-1962
▁Storage	-1963
ll	-1964
xf	-1965
-20	-1966
-94	-1967
-98	-1968
20,	-1969
27.	-1970
Sof	-1971
ual	-1972
▁(3	-1973
▁fa	-1974
ango	-1975
▁Cec	-1976
":"37	-1977
:00</	-1978
Johor	-1979
aylor	-1980
iller	-1981
xford	-1982
vertex	-1983
▁Smith	-1984
ervation	-1985
▁Parnell	-1986
▁products	-1987
26.	-1988
3.0	-1989
cam	-1990
rew	-1991
▁7.	-1992
9999	-1993
Char	-1994
ison	-1995
▁sub	-1996
55","	-1997
Round	-1998
▁city	-1999
▁Carter	-2000
26"},{"@	-2001
6%	-2002
NR	-2003
28.	-2004
old	-2005
▁38	-2006
▁48	-2007
▁64	-2008
arry	-2009
clus	-2010
pack	-2011
arris	-2012
angoon	-2013
supply	-2014
▁Cecil	-2015
▁Domin	-2016
ireless	-2017
iscover	-2018
systems	-2019
▁Orchard	-2020
▁Dominion	-2021
▁Keyboard	-2022
▁Serangoon	-2023
▁Reservation	-2024
,5	-2025
>$	-2026
-18	-2027
orp	-2028
▁(4	-2029
▁31	-2030
▁39	-2031
▁Lo	-2032
▁ag	-2033
OUNT	-2034
▁+64	-2035
":"41	-2036
▁2017	-2037
▁purch	-2038
Chicago	-2039
▁Oxford	-2040
▁Watson	-2041
▁method	-2042
▁Monitor	-2043
Restaurant	-2044
AX	-2045
-24	-2046
21.	-2047
27,	-2048
ODE	-2049
aco	-2050
esk	-2051
ind	-2052
ansa	-2053
ewis	-2054
▁Bhd	-2055
▁RCP	-2056
35","	-2057
anvas	-2058
ilter	-2059
▁Cash	-2060
▁Cruz	-2061
adison	-2062
▁Scott	-2063
▁Young	-2064
clusive	-2065
▁Flight	-2066
▁Pickup	-2067
Illinois	-2068
hardware	-2069
ansaction	-2070
▁Shipping	-2071
Mo	-2072
Pa	-2073
UE	-2074
ua	-2075
▁~	-2076
22.	-2077
3.7	-2078
ays	-2079
ret	-2080
uma	-2081
▁53	-2082
▁8.	-2083
▁Al	-2084
▁SO	-2085
Jack	-2086
ahru	-2087
amin	-2088
book	-2089
esar	-2090
▁SSD	-2091
▁Sdn	-2092
":"91	-2093
cebook	-2094
outlet	-2095
▁River	-2096
▁again	-2097
Classic	-2098
21"},{"@	-2099
SS	-2100
ka	-2101
tiz	-2102
▁#:	-2103
▁5.	-2104
▁6,	-2105
asan	-2106
pact	-2107
▁Cox	-2108
▁Gra	-2109
▁Par	-2110
50","	-2111
63","	-2112
93","	-2113
aming	-2114
awasan	-2115
energy	-2116
indust	-2117
retail	-2118
▁Filter	-2119
▁Market	-2120
▁Charger	-2121
▁Systems	-2122
▁Extender	-2123
▁Available	-2124
▁Logistics	-2125
1-	-2126
BT	-2127
Fi	-2128
-77	-2129
12,	-2130
7.7	-2131
alb	-2132
dia	-2133
▁41	-2134
▁An	-2135
▁Cl	-2136
":"59	-2137
49","	-2138
59","	-2139
90","	-2140
oseph	-2141
▁Cent	-2142
Family	-2143
enneth	-2144
factory	-2145
▁Howard	-2146
▁Victoria	-2147
industrian	-2148
ih	-2149
26,	-2150
30,	-2151
ila	-2152
▁6.	-2153
▁at	-2154
ance	-2155
▁Hub	-2156
60","	-2157
97","	-2158
ebcam	-2159
Travel	-2160
▁Light	-2161
▁round	-2162
ackpack	-2163
digital	-2164
▁Grocer	-2165
▁Nelson	-2166
▁Rodriguez	-2167
▁Queensland	-2168
$3	-2169
-17	-2170
-87	-2171
▁4,	-2172
omez	-2173
▁12:	-2174
53","	-2175
Apple	-2176
adway	-2177
ophia	-2178
▁Talb	-2179
▁Parade	-2180
▁Delivery	-2181
>8	-2182
-27	-2183
0.8	-2184
200	-2185
5.7	-2186
LED	-2187
via	-2188
▁OF	-2189
▁Sy	-2190
▁pe	-2191
argo	-2192
mond	-2193
ness	-2194
▁are	-2195
":"36	-2196
":"55	-2197
":"58	-2198
inter	-2199
▁Lamp	-2200
▁Brown	-2201
▁Lewis	-2202
ellness	-2203
▁Supply	-2204
mobility	-2205
▁facebook	-2206
▁Collective	-2207
▁Manchester	-2208
YP	-2209
au	-2210
-13	-2211
/06	-2212
1.7	-2213
arge	-2214
enry	-2215
gent	-2216
17","	-2217
river	-2218
▁Hall	-2219
▁Ward	-2220
▁Wood	-2221
Indoor	-2222
▁Chair	-2223
▁Evans	-2224
":1}},"	-2225
▁Talbot	-2226
23"},{"@	-2227
Employee	-2228
services	-2229
▁tracking	-2230
An	-2231
▁*	-2232
21,	-2233
28,	-2234
91,	-2235
ann	-2236
eph	-2237
▁Ac	-2238
▁al	-2239
hrow	-2240
▁11.	-2241
":"44	-2242
":"81	-2243
igail	-2244
▁Hill	-2245
▁Hose	-2246
▁Jaya	-2247
▁come	-2248
bakery	-2249
peaker	-2250
▁Kelly	-2251
Shipped	-2252
Shipper	-2253
ortable	-2254
▁Morris	-2255
▁Wright	-2256
American	-2257
▁Johnson	-2258
▁Broadway	-2259
▁Hardware	-2260
▁Mobility	-2261
▁Thompson	-2262
▁1001000000	-2263
▁Maharashtra	-2264
2-	-2265
63.	-2266
78,	-2267
Min	-2268
ced	-2269
inc	-2270
nse	-2271
ulb	-2272
uro	-2273
▁7/	-2274
▁91	-2275
▁De	-2276
▁Dr	-2277
inal	-2278
▁+44	-2279
▁Due	-2280
▁amt	-2281
":"3.	-2282
":"47	-2283
":"54	-2284
":"95	-2285
green	-2286
treet	-2287
urope	-2288
Office	-2289
▁Combo	-2290
▁Mumbai	-2291
▁Torres	-2292
▁postal	-2293
▁region	-2294
24"},{"@	-2295
25"},{"@	-2296
29"},{"@	-2297
▁Bennett	-2298
▁Edwards	-2299
▁country	-2300
▁shipped	-2301
▁Edinburgh	-2302
▁Richardson	-2303
ON	-2304
Un	-2305
▁©	-2306
$15	-2307
-14	-2308
24,	-2309
25,	-2310
34,	-2311
9.8	-2312
98,	-2313
Oli	-2314
ech	-2315
ong	-2316
osh	-2317
▁57	-2318
atth	-2319
orts	-2320
thom	-2321
▁The	-2322
":"57	-2323
:00",	-2324
annah	-2325
ephen	-2326
monds	-2327
▁Cons	-2328
▁Dock	-2329
▁Head	-2330
▁jaya	-2331
-28","	-2332
Canvas	-2333
atthew	-2334
bigail	-2335
▁Watch	-2336
▁johor	-2337
Company	-2338
station	-2339
trading	-2340
▁orders	-2341
14"},{"@	-2342
68"},{"@	-2343
Wireless	-2344
▁Stewart	-2345
▁American	-2346
44,	-2347
atr	-2348
▁43	-2349
▁55	-2350
▁Pe	-2351
▁Qu	-2352
▁be	-2353
6561	-2354
Visa	-2355
ures	-2356
▁20.	-2357
▁Lee	-2358
▁ref	-2359
":"74	-2360
":"75	-2361
elope	-2362
goods	-2363
melia	-2364
ndrew	-2365
ption	-2366
-05","	-2367
corner	-2368
icense	-2369
ulting	-2370
▁Green	-2371
▁James	-2372
▁Ramos	-2373
▁Bailey	-2374
▁Travel	-2375
27"},{"@	-2376
46"},{"@	-2377
▁Symonds	-2378
▁created	-2379
":"0.00"}],"	-2380
$4	-2381
-21	-2382
lot	-2383
ric	-2384
▁50	-2385
▁58	-2386
▁BY	-2387
▁Ne	-2388
Park	-2389
akka	-2390
arne	-2391
ntal	-2392
park	-2393
rban	-2394
▁TAX	-2395
":"46	-2396
":"48	-2397
":"78	-2398
":"85	-2399
Prime	-2400
clear	-2401
guyen	-2402
media	-2403
nergy	-2404
oshua	-2405
point	-2406
▁Bulb	-2407
2"}],"	-2408
anchez	-2409
anding	-2410
ihakka	-2411
▁Drill	-2412
Storage	-2413
eliable	-2414
ordless	-2415
▁Google	-2416
▁Tampoi	-2417
▁Speaker	-2418
▁Trading	-2419
▁support	-2420
▁Anderson	-2421
▁Services	-2422
distributors	-2423
El	-2424
UM	-2425
ca	-2426
-45	-2427
584	-2428
8.7	-2429
nth	-2430
oak	-2431
▁"5	-2432
▁60	-2433
▁79	-2434
▁or	-2435
Lily	-2436
king	-2437
rive	-2438
▁12.	-2439
":"43	-2440
3"},"	-2441
▁2026	-2442
-07","	-2443
656195	-2444
Tablet	-2445
▁House	-2446
▁Ortiz	-2447
▁Reyes	-2448
▁Sales	-2449
▁Garcia	-2450
▁Retail	-2451
▁Walker	-2452
04"},{"@	-2453
18"},{"@	-2454
Wellness	-2455
boutique	-2456
▁Digital	-2457
▁Roberts	-2458
000656195	-2459
wholesale	-2460
▁Brisbane	-2461
▁Shipment	-2462
AS	-2463
CT	-2464
-85	-2465
4.7	-2466
9.7	-2467
Air	-2468
ave	-2469
edy	-2470
ela	-2471
nch	-2472
▁44	-2473
▁46	-2474
alad	-2475
exan	-2476
ical	-2477
othy	-2478
rist	-2479
▁+91	-2480
▁13:	-2481
▁17:	-2482
▁DUE	-2483
":"45	-2484
ental	-2485
iness	-2486
olden	-2487
▁MODE	-2488
▁SHIP	-2489
-12","	-2490
Google	-2491
▁Clark	-2492
▁Plant	-2493
Compact	-2494
exander	-2495
usiness	-2496
▁Energy	-2497
▁Martin	-2498
▁Thomas	-2499
01"},{"@	-2500
78"},{"@	-2501
98"},{"@	-2502
Selangor	-2503
▁Robinson	-2504
provisions	-2505
▁Vancouver	-2506
.:	-2507
za	-2508
▁%	-2509
$13	-2510
-15	-2511
-88	-2512
18:	-2513
35,	-2514
69,	-2515
ING	-2516
hru	-2517
pur	-2518
uba	-2519
Thom	-2520
ayla	-2521
edia	-2522
sley	-2523
▁WEB	-2524
":"87	-2525
33","	-2526
Swift	-2527
ssion	-2528
▁Cuba	-2529
▁Gift	-2530
▁Patr	-2531
▁Quay	-2532
▁Trip	-2533
":"11.	-2534
":"13.	-2535
-02","	-2536
-20","	-2537
▁Drive	-2538
▁Jones	-2539
▁Nehru	-2540
▁goods	-2541
eterson	-2542
▁Brooks	-2543
▁Mosley	-2544
▁Wilson	-2545
▁tampoi	-2546
20"},{"@	-2547
▁Patrick	-2548
▁Phillips	-2549
$8	-2550
$14	-2551
-44	-2552
11,	-2553
Men	-2554
ial	-2555
loe	-2556
mor	-2557
ola	-2558
ung	-2559
▁01	-2560
▁05	-2561
▁45	-2562
▁67	-2563
Menu	-2564
blue	-2565
iley	-2566
▁14.	-2567
▁@6%	-2568
▁Air	-2569
▁Ent	-2570
":"2.	-2571
":"4.	-2572
":"7.	-2573
":"8.	-2574
":"97	-2575
,2026	-2576
eauty	-2577
▁Lamb	-2578
▁vege	-2579
-03","	-2580
-24","	-2581
▁Davis	-2582
▁Gomez	-2583
▁Media	-2584
▁Murphy	-2585
▁Option	-2586
▁Outlet	-2587
12"},{"@	-2588
Cookware	-2589
MenuItem	-2590
Portable	-2591
▁Factory	-2592
▁Problem	-2593
▁Mitchell	-2594
▁register	-2595
▁rounding	-2596
▁selangor	-2597
international	-2598
6-	-2599
9-	-2600
Cl	-2601
Wi	-2602
to	-2603
-48	-2604
/02	-2605
05,	-2606
74,	-2607
ALE	-2608
Con	-2609
YPE	-2610
aid	-2611
clu	-2612
ens	-2613
oma	-2614
pen	-2615
uel	-2616
yan	-2617
▁59	-2618
▁77	-2619
▁AM	-2620
ders	-2621
▁+61	-2622
▁07:	-2623
▁16.	-2624
▁veg	-2625
":"5.	-2626
dings	-2627
▁2024	-2628
▁CUST	-2629
▁Prov	-2630
▁TYPE	-2631
-17","	-2632
-22","	-2633
Garden	-2634
Winter	-2635
errace	-2636
imothy	-2637
▁Apple	-2638
▁Perez	-2639
▁offer	-2640
▁Morgan	-2641
▁PayPal	-2642
▁Rental	-2643
65"},{"@	-2644
Business	-2645
AL	-2646
DD	-2647
EM	-2648
ba	-2649
▁u	-2650
-26	-2651
62.	-2652
63,	-2653
65,	-2654
arr	-2655
hub	-2656
oud	-2657
set	-2658
tro	-2659
▁68	-2660
▁se	-2661
olas	-2662
▁08:	-2663
▁26.	-2664
▁Ful	-2665
▁ple	-2666
":"6.	-2667
":"77	-2668
Debit	-2669
Mason	-2670
Urban	-2671
alays	-2672
amila	-2673
ertex	-2674
itern	-2675
urger	-2676
▁sold	-2677
-01","	-2678
Coffee	-2679
Olivia	-2680
illiam	-2681
▁Adams	-2682
▁Debit	-2683
▁Moore	-2684
Trusted	-2685
alaysia	-2686
bennett	-2687
enelope	-2688
oldings	-2689
onathan	-2690
ristoph	-2691
▁tender	-2692
35"},{"@	-2693
Cordless	-2694
northstar	-2695
▁Campbell	-2696
▁Distribut	-2697
IS	-2698
-19	-2699
-25	-2700
-54	-2701
/01	-2702
13,	-2703
60,	-2704
ICE	-2705
ape	-2706
elm	-2707
enj	-2708
▁74	-2709
▁9.	-2710
▁18.	-2711
▁bar	-2712
":"84	-2713
0"},"	-2714
11","	-2715
▁7/4,	-2716
▁Mall	-2717
Andrew	-2718
Steven	-2719
oundary	-2720
▁Miller	-2721
▁Sydney	-2722
▁Taylor	-2723
55"},{"@	-2724
57"},{"@	-2725
62"},{"@	-2726
84"},{"@	-2727
Reliable	-2728
pharmacy	-2729
▁Alberta	-2730
▁Terrace	-2731
▁Scotland	-2732
Mastercard	-2733
▁Melbourne	-2734
kitchenware	-2735
7-	-2736
>7	-2737
by	-2738
yn	-2739
$10	-2740
-47	-2741
-49	-2742
-75	-2743
-78	-2744
/03	-2745
Ava	-2746
BER	-2747
ony	-2748
▁47	-2749
▁54	-2750
▁69	-2751
▁75	-2752
▁87	-2753
▁95	-2754
▁sh	-2755
:00"	-2756
="+1	-2757
>6</	-2758
ista	-2759
lett	-2760
main	-2761
nova	-2762
ocks	-2763
oise	-2764
▁Sel	-2765
":"93	-2766
10","	-2767
Throw	-2768
echan	-2769
oking	-2770
▁2025	-2771
▁Reed	-2772
▁Roma	-2773
▁bill	-2774
elaide	-2775
▁Point	-2776
▁Royal	-2777
icholas	-2778
▁Coffee	-2779
▁Cooper	-2780
▁Nguyen	-2781
▁Parker	-2782
▁Regent	-2783
▁please	-2784
05"},{"@	-2785
15"},{"@	-2786
64"},{"@	-2787
▁Calgary	-2788
▁Lambton	-2789
▁Morales	-2790
Organizer	-2791
echanical	-2792
ristopher	-2793
▁Adelaide	-2794
▁Boutique	-2795
▁Checkout	-2796
▁Bengaluru	-2797
000656195584	-2798
RO	-2799
UT	-2800
-22	-2801
-57	-2802
38,	-2803
90,	-2804
ERV	-2805
ign	-2806
▁"8	-2807
▁5,	-2808
▁SU	-2809
Tool	-2810
ella	-2811
imal	-2812
▁11:	-2813
▁12,	-2814
▁15:	-2815
▁30.	-2816
▁Inc	-2817
▁Int	-2818
▁NUM	-2819
▁Pon	-2820
▁set	-2821
":"73	-2822
Fresh	-2823
amuel	-2824
birch	-2825
crown	-2826
ilver	-2827
sonby	-2828
▁Visa	-2829
0"}],"	-2830
200","	-2831
Joseph	-2832
Robert	-2833
randon	-2834
studio	-2835
travel	-2836
▁Kings	-2837
Abigail	-2838
▁Shorts	-2839
08"},{"@	-2840
54"},{"@	-2841
58"},{"@	-2842
94"},{"@	-2843
▁Boundary	-2844
▁Ponsonby	-2845
▁Solutions	-2846
$)	-2847
2"	-2848
Al	-2849
Gr	-2850
MA	-2851
($)	-2852
-31	-2853
/12	-2854
0.7	-2855
61,	-2856
iaz	-2857
▁Pr	-2858
Home	-2859
aman	-2860
izza	-2861
▁14:	-2862
▁27.	-2863
▁Add	-2864
▁PKG	-2865
":"07	-2866
/2018	-2867
Larry	-2868
erved	-2869
lotte	-2870
oodie	-2871
▁Tray	-2872
Amelia	-2873
orizon	-2874
cluding	-2875
▁Access	-2876
▁Bakery	-2877
▁NUMBER	-2878
▁Rivera	-2879
▁Rogers	-2880
38"},{"@	-2881
Malaysia	-2882
fillment	-2883
▁British	-2884
▁Sanchez	-2885
▁Toronto	-2886
▁Discover	-2887
▁Karnataka	-2888
▁Provisions	-2889
▁Distribution	-2890
▁International	-2891
5-	-2892
az	-2893
ev	-2894
ux	-2895
-35	-2896
-93	-2897
/05	-2898
170	-2899
23,	-2900
29,	-2901
37,	-2902
39,	-2903
AME	-2904
car	-2905
gst	-2906
oes	-2907
rod	-2908
sky	-2909
wan	-2910
▁"3	-2911
▁78	-2912
▁we	-2913
acob	-2914
avid	-2915
fast	-2916
iden	-2917
nell	-2918
▁103	-2919
▁Kar	-2920
▁Tea	-2921
▁for	-2922
▁not	-2923
":"83	-2924
1"},"	-2925
30","	-2926
angah	-2927
anola	-2928
stern	-2929
umpur	-2930
velyn	-2931
wanst	-2932
▁+353	-2933
▁NAME	-2934
":"20.	-2935
-06","	-2936
-10","	-2937
-21","	-2938
▁$0.00	-2939
▁Salad	-2940
ansport	-2941
enjamin	-2942
pioneer	-2943
▁Harris	-2944
▁Swanst	-2945
07"},{"@	-2946
09"},{"@	-2947
79"},{"@	-2948
91"},{"@	-2949
92"},{"@	-2950
96"},{"@	-2951
99"},{"@	-2952
▁Karangah	-2953
▁Pharmacy	-2954
▁Wholesale	-2955
SH	-2956
XT	-2957
-16	-2958
03,	-2959
12.	-2960
47,	-2961
50,	-2962
67,	-2963
ETH	-2964
Pri	-2965
acu	-2966
cox	-2967
sab	-2968
wis	-2969
▁49	-2970
▁88	-2971
▁Up	-2972
▁su	-2973
▁un	-2974
Gift	-2975
ator	-2976
cafe	-2977
ille	-2978
inch	-2979
vent	-2980
▁16:	-2981
▁20:	-2982
▁31.	-2983
▁Oli	-2984
":"50	-2985
":"66	-2986
9"},"	-2987
Cloud	-2988
Emily	-2989
Fleet	-2990
akers	-2991
count	-2992
depot	-2993
fresh	-2994
grade	-2995
ority	-2996
▁Canc	-2997
▁Kens	-2998
▁METH	-2999
▁Mail	-3000
▁SERV	-3001
▁time	-3002
":"25.	-3003
-09","	-3004
-14","	-3005
-23","	-3006
-25","	-3007
Sophia	-3008
nthony	-3009
phones	-3010
▁"2024	-3011
▁Goods	-3012
▁Shirt	-3013
▁Shoes	-3014
Matthew	-3015
Michael	-3016
Timothy	-3017
carlett	-3018
neakers	-3019
11"},{"@	-3020
16"},{"@	-3021
33"},{"@	-3022
44"},{"@	-3023
67"},{"@	-3024
77"},{"@	-3025
97"},{"@	-3026
commerce	-3027
justable	-3028
▁Upgrade	-3029
▁Cookware	-3030
▁Peterson	-3031
▁Williams	-3032
":"2024-03	-3033
":"2026-03	-3034
▁Headphones	-3035
>9	-3036
CS	-3037
IT	-3038
OT	-3039
ww	-3040
-34	-3041
/11	-3042
248	-3043
84,	-3044
99,	-3045
ane	-3046
lee	-3047
low	-3048
oey	-3049
uxe	-3050
▁85	-3051
▁90	-3052
▁ad	-3053
▁li	-3054
DDRE	-3055
Noah	-3056
dder	-3057
eway	-3058
fore	-3059
laba	-3060
▁$0.	-3061
▁$1.	-3062
▁13.	-3063
▁Ins	-3064
▁fol	-3065
":"49	-3066
6"},"	-3067
acuum	-3068
eluxe	-3069
swift	-3070
tooth	-3071
▁Port	-3072
-16","	-3073
-26","	-3074
="2025	-3075
Summit	-3076
elling	-3077
harbor	-3078
▁ADDRE	-3079
▁White	-3080
)"},{"@	-3081
Express	-3082
▁Baggot	-3083
▁Jacket	-3084
▁Pedder	-3085
▁Permas	-3086
17"},{"@	-3087
22"},{"@	-3088
52"},{"@	-3089
61"},{"@	-3090
69"},{"@	-3091
▁License	-3092
▁billing	-3093
▁Swanston	-3094
▁purchase	-3095
":"2026-10	-3096
outfitters	-3097
▁Cancelling	-3098
▁Kensington	-3099
▁Karangahape	-3100
$5	-3101
,+1	-3102
-38	-3103
-74	-3104
/07	-3105
021	-3106
07,	-3107
12:	-3108
15,	-3109
58,	-3110
9</	-3111
Bar	-3112
Pay	-3113
cad	-3114
oap	-3115
▁97	-3116
▁Se	-3117
▁TE	-3118
▁To	-3119
ased	-3120
bile	-3121
fton	-3122
tota	-3123
▁100	-3124
▁Daw	-3125
▁Kor	-3126
":"9.	-3127
":"94	-3128
7"},"	-3129
Brian	-3130
Scott	-3131
South	-3132
lewis	-3133
narne	-3134
▁Cafe	-3135
▁Desk	-3136
▁Diaz	-3137
▁Gray	-3138
▁Mile	-3139
▁Tier	-3140
▁rice	-3141
-04","	-3142
-13","	-3143
Beauty	-3144
Thomas	-3145
office	-3146
person	-3147
▁Cargo	-3148
▁Depot	-3149
▁Fleet	-3150
sabella	-3151
▁Corner	-3152
▁Dawson	-3153
34"},{"@	-3154
39"},{"@	-3155
95"},{"@	-3156
Penelope	-3157
▁Booking	-3158
▁Company	-3159
▁Grafton	-3160
▁Jackson	-3161
Alexander	-3162
▁Commerce	-3163
▁Tracking	-3164
":"2024-06	-3165
":"2024-11	-3166
":"2026-07	-3167
":"0.00"},{"@	-3168
):	-3169
,6	-3170
AN	-3171
LL	-3172
Ph	-3173
ZT	-3174
ix	-3175
-29	-3176
/04	-3177
09,	-3178
15:	-3179
57,	-3180
AID	-3181
Mia	-3182
ces	-3183
ica	-3184
▁83	-3185
▁TR	-3186
▁tt	-3187
Emma	-3188
Wall	-3189
aleb	-3190
corp	-3191
kett	-3192
luma	-3193
open	-3194
ower	-3195
peak	-3196
▁+65	-3197
▁000	-3198
▁09:	-3199
▁10.	-3200
▁17.	-3201
▁24.	-3202
▁25.	-3203
▁POS	-3204
▁ret	-3205
Henry	-3206
amang	-3207
maple	-3208
metro	-3209
▁Caus	-3210
▁RECE	-3211
":"10.	-3212
":"24.	-3213
-08","	-3214
Hannah	-3215
Joshua	-3216
Modern	-3217
Ronald	-3218
etable	-3219
▁Texas	-3220
Connell	-3221
Kenneth	-3222
Madison	-3223
tlement	-3224
▁Austin	-3225
▁Colaba	-3226
▁Ground	-3227
03"},{"@	-3228
48"},{"@	-3229
56"},{"@	-3230
74"},{"@	-3231
87"},{"@	-3232
Backpack	-3233
mitchell	-3234
▁ADDRESS	-3235
▁Address	-3236
▁Ontario	-3237
logistics	-3238
▁Causeway	-3239
▁Koramang	-3240
▁Portland	-3241
":"2018-04	-3242
":"2025-03	-3243
":"2026-06	-3244
▁Selection	-3245
▁inclusive	-3246
▁Mastercard	-3247
▁Outfitters	-3248
▁Fulfillment	-3249
$7	-3250
,$	-3251
3"	-3252
LD	-3253
LT	-3254
ik	-3255
-37	-3256
-84	-3257
/10	-3258
77,	-3259
88,	-3260
95,	-3261
97,	-3262
aly	-3263
ees	-3264
▁(8	-3265
▁02	-3266
▁XP	-3267
Eric	-3268
Nora	-3269
Ryan	-3270
Soft	-3271
aint	-3272
ever	-3273
lean	-3274
ling	-3275
▁"+1	-3276
▁15.	-3277
▁22.	-3278
▁MEM	-3279
":"04	-3280
5"},"	-3281
Grace	-3282
Riley	-3283
Sofia	-3284
andar	-3285
lient	-3286
outer	-3287
prime	-3288
shirt	-3289
stone	-3290
unity	-3291
works	-3292
▁Work	-3293
":"26.	-3294
-19","	-3295
PayPal	-3296
center	-3297
charge	-3298
leaning	-3299
veloper	-3300
▁Centre	-3301
▁Method	-3302
30"},{"@	-3303
60"},{"@	-3304
thompson	-3305
▁Seattle	-3306
▁Register	-3307
Mechanical	-3308
▁Gutierrez	-3309
▁Transport	-3310
▁Kitchenware	-3311
▁Koramangala	-3312
fl	-3313
qu	-3314
$11	-3315
-33	-3316
-58	-3317
-73	-3318
15.	-3319
33,	-3320
8.4	-3321
94,	-3322
icy	-3323
▁06	-3324
▁6%	-3325
▁73	-3326
▁Of	-3327
▁~~	-3328
Aria	-3329
Oper	-3330
ucas	-3331
uyer	-3332
▁Fre	-3333
▁fax	-3334
":"56	-3335
":"71	-3336
":"88	-3337
first	-3338
south	-3339
▁Plun	-3340
▁Soap	-3341
":"12.	-3342
":"14.	-3343
Camila	-3344
Jacket	-3345
Justin	-3346
Vacuum	-3347
Webcam	-3348
rigade	-3349
William	-3350
central	-3351
▁2018-0	-3352
▁METHOD	-3353
▁Refill	-3354
▁return	-3355
19"},{"@	-3356
32"},{"@	-3357
45"},{"@	-3358
75"},{"@	-3359
Priority	-3360
▁Chicago	-3361
warehouse	-3362
▁Plunkett	-3363
CK	-3364
La	-3365
NV	-3366
YT	-3367
my	-3368
$17	-3369
-43	-3370
-55	-3371
00,	-3372
01,	-3373
16:	-3374
66.	-3375
69.	-3376
ILL	-3377
bar	-3378
unn	-3379
▁(5	-3380
▁22	-3381
▁84	-3382
▁94	-3383
▁98	-3384
▁cs	-3385
▁ex	-3386
32</	-3387
6738	-3388
Cont	-3389
Leah	-3390
Paul	-3391
bill	-3392
east	-3393
reak	-3394
▁$2.	-3395
▁10:	-3396
▁21.	-3397
▁com	-3398
▁the	-3399
Arrow	-3400
David	-3401
aniel	-3402
illed	-3403
inces	-3404
▁"+44	-3405
▁Home	-3406
▁Kent	-3407
▁Stay	-3408
▁Ware	-3409
":"18.	-3410
-15","	-3411
Contin	-3412
Direct	-3413
George	-3414
lasses	-3415
summit	-3416
▁Leith	-3417
▁bahru	-3418
Anthony	-3419
▁AMOUNT	-3420
▁Turner	-3421
▁pickup	-3422
10"},{"@	-3423
13"},{"@	-3424
85"},{"@	-3425
justment	-3426
reakfast	-3427
▁Brigade	-3428
▁Princes	-3429
Charlotte	-3430
▁Cleaning	-3431
▁OConnell	-3432
":"2025-02	-3433
":"2025-04	-3434
":"2025-06	-3435
chargeable	-3436
▁Warehouse	-3437
Continental	-3438
▁Distributors	-3439
,0	-3440
AB	-3441
CG	-3442
LF	-3443
cs	-3444
▁z	-3445
-83	-3446
14,	-3447
1</	-3448
54,	-3449
603	-3450
Jet	-3451
aro	-3452
llc	-3453
rau	-3454
▁"$	-3455
▁63	-3456
▁81	-3457
▁99	-3458
▁By	-3459
▁El	-3460
▁ee	-3461
arol	-3462
eagh	-3463
oney	-3464
true	-3465
wang	-3466
▁For	-3467
▁Ltd	-3468
▁net	-3469
":"80	-3470
":"98	-3471
Aiden	-3472
Layla	-3473
alker	-3474
arper	-3475
royal	-3476
white	-3477
worth	-3478
▁Flin	-3479
▁meat	-3480
-18","	-3481
6"}],"	-3482
Global	-3483
Samuel	-3484
anchor	-3485
carter	-3486
▁Bahru	-3487
▁Email	-3488
▁Granv	-3489
▁Karol	-3490
Minimal	-3491
lereagh	-3492
warding	-3493
88"},{"@	-3494
wangrice	-3495
▁Freight	-3496
▁Kawasan	-3497
rodriguez	-3498
":"2025-01	-3499
":"2025-07	-3500
":"2025-09	-3501
":"2026-02	-3502
▁Granville	-3503
Christopher	-3504
▁Forwarding	-3505
▁Perindustrian	-3506
0-	-3507
FF	-3508
ga	-3509
iv	-3510
-53	-3511
-59	-3512
/08	-3513
04,	-3514
10,	-3515
264	-3516
64,	-3517
640	-3518
68,	-3519
;00	-3520
ask	-3521
ina	-3522
owl	-3523
▁Ge	-3524
▁la	-3525
▁pm	-3526
0},"	-3527
20.0	-3528
64</	-3529
CHAS	-3530
Mont	-3531
agaz	-3532
cons	-3533
isit	-3534
picy	-3535
ptop	-3536
ront	-3537
uded	-3538
▁$7.	-3539
▁105	-3540
▁19:	-3541
▁28.	-3542
▁29.	-3543
▁Cap	-3544
▁TRK	-3545
▁spe	-3546
8"},"	-3547
Extra	-3548
Jacob	-3549
Noise	-3550
River	-3551
Water	-3552
ample	-3553
askan	-3554
brown	-3555
illis	-3556
▁Cook	-3557
":"17.	-3558
-11","	-3559
67388-	-3560
BTOTAL	-3561
Donald	-3562
Gaming	-3563
URCHAS	-3564
modern	-3565
rogers	-3566
▁BUYER	-3567
▁Entry	-3568
▁Group	-3569
▁Works	-3570
▁staff	-3571
agazine	-3572
horizon	-3573
▁Oliver	-3574
▁Studio	-3575
▁Willis	-3576
▁follow	-3577
37"},{"@	-3578
66"},{"@	-3579
Benjamin	-3580
Isabella	-3581
▁Alaskan	-3582
▁Baggage	-3583
▁Courier	-3584
Bluetooth	-3585
":"2024-01	-3586
":"2024-09	-3587
":"2024-10	-3588
":"2025-08	-3589
richardson	-3590
▁Organizer	-3591
▁available	-3592
barwangrice	-3593
▁returnable	-3594
▁perindustrian	-3595
$9	-3596
6"	-3597
HO	-3598
JT	-3599
$12	-3600
$19	-3601
-41	-3602
07:	-3603
08,	-3604
08:	-3605
100	-3606
17:	-3607
IPT	-3608
One	-3609
Tea	-3610
hly	-3611
▁"9	-3612
▁04	-3613
▁51	-3614
▁70	-3615
▁93	-3616
ALES	-3617
Dual	-3618
STER	-3619
agle	-3620
eder	-3621
etro	-3622
upon	-3623
▁$8.	-3624
▁120	-3625
▁23.	-3626
▁tea	-3627
":"05	-3628
Chloe	-3629
Green	-3630
James	-3631
ORDER	-3632
reyes	-3633
young	-3634
▁Bagh	-3635
▁Cast	-3636
▁Lane	-3637
▁paid	-3638
":"12,	-3639
":"19.	-3640
":"22.	-3641
":"30.	-3642
Evelyn	-3643
Vertex	-3644
cooper	-3645
ederal	-3646
▁table	-3647
":"140.	-3648
Airport	-3649
Monthly	-3650
▁21"},"	-3651
▁34"},"	-3652
▁40"},"	-3653
▁Parcel	-3654
47"},{"@	-3655
63"},{"@	-3656
Jonathan	-3657
▁Payable	-3658
▁RECEIPT	-3659
▁Flinders	-3660
▁Illinois	-3661
▁SUBTOTAL	-3662
":"2024-05	-3663
":"2025-05	-3664
":"2026-01	-3665
consulting	-3666
▁Castlereagh	-3667
▁transaction	-3668
/2	-3669
1"	-3670
CV	-3671
Fl	-3672
OM	-3673
WE	-3674
ep	-3675
po	-3676
sa	-3677
vy	-3678
$16	-3679
/18	-3680
027	-3681
19,	-3682
6</	-3683
>15	-3684
IDR	-3685
elt	-3686
itt	-3687
▁"4	-3688
▁Wh	-3689
▁ku	-3690
28</	-3691
46</	-3692
56</	-3693
Desk	-3694
Mark	-3695
avez	-3696
date	-3697
elax	-3698
illy	-3699
tics	-3700
uice	-3701
▁LLC	-3702
▁lot	-3703
▁out	-3704
":"08	-3705
":"51	-3706
)"}]}	-3707
Eagle	-3708
iccad	-3709
rooks	-3710
▁Carr	-3711
▁Coat	-3712
▁Corp	-3713
▁Pitt	-3714
▁REGI	-3715
":"21.	-3716
":"27.	-3717
":"31.	-3718
":"33.	-3719
-27","	-3720
-6","@	-3721
7"}],"	-3722
ackage	-3723
unning	-3724
urance	-3725
▁6"},"	-3726
▁Cesar	-3727
▁north	-3728
Brandon	-3729
Charles	-3730
trusted	-3731
▁12"},"	-3732
▁Chavez	-3733
93"},{"@	-3734
Nicholas	-3735
Standing	-3736
robinson	-3737
▁Carrier	-3738
Breakfast	-3739
Northstar	-3740
":"2024-04	-3741
":"2024-08	-3742
":"2025-11	-3743
Adjustable	-3744
▁Insurance	-3745
3-	-3746
5"	-3747
AV	-3748
QT	-3749
▁)	-3750
▁,	-3751
$25	-3752
020	-3753
17,	-3754
2",	-3755
22,	-3756
225	-3757
237	-3758
350	-3759
="1	-3760
ORE	-3761
Rap	-3762
end	-3763
eri	-3764
erm	-3765
ery	-3766
▁Id	-3767
▁an	-3768
▁fg	-3769
▁le	-3770
6.00	-3771
Fast	-3772
NDER	-3773
Seat	-3774
Zoey	-3775
amar	-3776
andw	-3777
irst	-3778
▁124	-3779
▁Mac	-3780
▁doc	-3781
":"09	-3782
05","	-3783
4"},"	-3784
Jeans	-3785
Rapid	-3786
Unity	-3787
ambie	-3788
ating	-3789
icken	-3790
rnent	-3791
undas	-3792
▁"+61	-3793
▁Bour	-3794
▁Last	-3795
▁Seat	-3796
▁Wang	-3797
▁wang	-3798
":"28.	-3799
":"42.	-3800
0.0","	-3801
Deluxe	-3802
▁3"},"	-3803
▁Pizza	-3804
▁Trail	-3805
PAYMENT	-3806
Parking	-3807
alytics	-3808
reaming	-3809
roberts	-3810
▁Cambie	-3811
▁Dundas	-3812
▁Europe	-3813
▁Webcam	-3814
▁europe	-3815
▁served	-3816
36"},{"@	-3817
49"},{"@	-3818
williams	-3819
▁Madison	-3820
excluding	-3821
":"2024-02	-3822
":"2024-12	-3823
":"2026-08	-3824
":"2026-11	-3825
0.00"},{"@	-3826
AR	-3827
CF	-3828
Ca	-3829
IA	-3830
ZZ	-3831
▁;	-3832
-0.	-3833
/09	-3834
004	-3835
1",	-3836
11:	-3837
19:	-3838
228	-3839
268	-3840
atu	-3841
ggi	-3842
gia	-3843
kil	-3844
lev	-3845
lim	-3846
▁80	-3847
▁SV	-3848
▁TO	-3849
▁gr	-3850
,+44	-3851
,+65	-3852
Ella	-3853
Sung	-3854
West	-3855
dale	-3856
eavy	-3857
evin	-3858
jack	-3859
tern	-3860
▁107	-3861
▁19.	-3862
▁Bar	-3863
▁Mix	-3864
▁PAY	-3865
▁off	-3866
":"79	-3867
":"90	-3868
Caleb	-3869
Power	-3870
grand	-3871
ivers	-3872
nchor	-3873
ortiz	-3874
▁Host	-3875
▁Lons	-3876
▁Pine	-3877
▁Rice	-3878
▁like	-3879
▁nett	-3880
":"15.	-3881
Daniel	-3882
Edward	-3883
Laptop	-3884
Nathan	-3885
ainten	-3886
bright	-3887
elaxed	-3888
golden	-3889
howard	-3890
liable	-3891
rivera	-3892
watson	-3893
▁Piccad	-3894
-5"},{"@	-3895
-6"},{"@	-3896
90"},{"@	-3897
99999999	-3898
Discover	-3899
Unihakka	-3900
ventures	-3901
▁Hosting	-3902
▁transit	-3903
inclusive	-3904
▁Lonsdale	-3905
▁REGISTER	-3906
▁unihakka	-3907
":"2025-12	-3908
":"2026-12	-3909
Sunglasses	-3910
aintenance	-3911
▁vegetable	-3912
":"81200","	-3913
Rechargeable	-3914
▁international	-3915
0"	-3916
AP	-3917
Ac	-3918
DT	-3919
IG	-3920
YB	-3921
ln	-3922
uz	-3923
——	-3924
▁_	-3925
▁“	-3926
-40	-3927
-80	-3928
09:	-3929
108	-3930
119	-3931
13:	-3932
208	-3933
221	-3934
243	-3935
271	-3936
299	-3937
4",	-3938
974	-3939
ACK	-3940
Oak	-3941
ama	-3942
ara	-3943
eff	-3944
plc	-3945
rey	-3946
▁"7	-3947
▁DE	-3948
▁On	-3949
▁Pi	-3950
▁ow	-3951
43</	-3952
John	-3953
edar	-3954
leod	-3955
lies	-3956
▁108	-3957
▁125	-3958
▁128	-3959
▁167	-3960
▁32.	-3961
▁33.	-3962
▁45.	-3963
▁CLI	-3964
▁bas	-3965
":"86	-3966
40","	-3967
="+64	-3968
Clear	-3969
Phone	-3970
cedar	-3971
exarn	-3972
jones	-3973
scott	-3974
▁146.	-3975
▁2018	-3976
▁Duty	-3977
▁PAID	-3978
▁Ring	-3979
":"45.	-3980
":"46.	-3981
":"82.	-3982
Harper	-3983
effrey	-3984
flores	-3985
morgan	-3986
permas	-3987
torres	-3988
turner	-3989
▁Jeans	-3990
▁Setup	-3991
▁final	-3992
Relaxed	-3993
Stephen	-3994
andwich	-3995
upplies	-3996
▁26"},"	-3997
▁Center	-3998
▁mobile	-3999
Rounding	-4000
Scarlett	-4001
ustorner	-4002
▁Macleod	-4003
▁Stephen	-4004
▁express	-4005
Analytics	-4006
Operating	-4007
":"2026-09	-4008
BB	-4009
CU	-4010
CW	-4011
DS	-4012
De	-4013
Ho	-4014
LJ	-4015
OP	-4016
ta	-4017
$20	-4018
-39	-4019
-89	-4020
007	-4021
030	-4022
101	-4023
10:	-4024
20:	-4025
32"	-4026
45,	-4027
Elm	-4028
anp	-4029
cip	-4030
fax	-4031
ght	-4032
isc	-4033
ltd	-4034
nge	-4035
pad	-4036
▁Un	-4037
▁ap	-4038
1804	-4039
34</	-4040
6860	-4041
Ever	-4042
Gary	-4043
MAIL	-4044
Mini	-4045
cipi	-4046
hall	-4047
stin	-4048
▁104	-4049
▁114	-4050
▁185	-4051
▁41.	-4052
▁42.	-4053
▁44.	-4054
▁Kim	-4055
▁PLC	-4056
▁Pur	-4057
▁USR	-4058
▁mar	-4059
":"96	-4060
="+91	-4061
Stone	-4062
erver	-4063
evans	-4064
examp	-4065
purch	-4066
▁Janp	-4067
▁Vent	-4068
":"41.	-4069
Hoodie	-4070
Speedy	-4071
arding	-4072
ential	-4073
idency	-4074
martin	-4075
morris	-4076
usable	-4077
▁"+353	-4078
▁Front	-4079
▁Grass	-4080
▁Juice	-4081
▁TRACK	-4082
Running	-4083
cipient	-4084
morales	-4085
▁25"},"	-4086
▁Burger	-4087
▁Church	-4088
▁speedy	-4089
":"1"},"	-4090
-7"},{"@	-4091
00000000	-4092
exarnple	-4093
holdings	-4094
reliable	-4095
▁Janpath	-4096
Developer	-4097
▁(867388-	-4098
▁Boarding	-4099
▁Purifier	-4100
▁Takeaway	-4101
▁Ventures	-4102
":"1"},{"@	-4103
":"2018-03	-4104
":"2026-05	-4105
▁Residency	-4106
▁purchased	-4107
▁Consulting	-4108
▁Piccadilly	-4109
▁#000656195584	-4110
8"	-4111
EN	-4112
LB	-4113
LY	-4114
OB	-4115
TI	-4116
gr	-4117
$23	-4118
,81	-4119
-71	-4120
-90	-4121
078	-4122
18,	-4123
204	-4124
217	-4125
245	-4126
26"	-4127
28"	-4128
297	-4129
7.4	-4130
Lot	-4131
Res	-4132
Sky	-4133
Wal	-4134
off	-4135
ron	-4136
▁ON	-4137
▁as	-4138
▁pl	-4139
27</	-4140
74</	-4141
Iced	-4142
Main	-4143
Mile	-4144
Nova	-4145
OMER	-4146
cruz	-4147
mple	-4148
reed	-4149
ries	-4150
▁"15	-4151
▁38.	-4152
▁60.	-4153
▁92.	-4154
▁Bou	-4155
▁GST	-4156
▁Lod	-4157
▁Str	-4158
▁via	-4159
":"89	-4160
08","	-4161
Lucas	-4162
Socks	-4163
davis	-4164
unter	-4165
▁Pike	-4166
▁Whit	-4167
":"32.	-4168
":"64.	-4169
Bundle	-4170
Caesar	-4171
levard	-4172
terson	-4173
▁Honey	-4174
▁Lamar	-4175
":"152.	-4176
Pioneer	-4177
▁Remote	-4178
▁TENDER	-4179
▁before	-4180
standing	-4181
▁SERVICE	-4182
Streaming	-4183
gutierrez	-4184
▁LastMile	-4185
▁TRACKING	-4186
▁services	-4187
":"2"},{"@	-4188
":"2025-10	-4189
":"2026-04	-4190
▁Boulevard	-4191
▁Grassmarket	-4192
,9	-4193
7"	-4194
GE	-4195
LM	-4196
Qu	-4197
,"8	-4198
-30	-4199
-50	-4200
/28	-4201
107	-4202
14:	-4203
220	-4204
35-	-4205
55,	-4206
585	-4207
70,	-4208
79,	-4209
8.5	-4210
918	-4211
>10	-4212
CXT	-4213
ENT	-4214
alu	-4215
shi	-4216
▁0%	-4217
▁71	-4218
,+61	-4219
,+64	-4220
1805	-4221
25</	-4222
38</	-4223
62</	-4224
86</	-4225
Belt	-4226
adge	-4227
gate	-4228
lake	-4229
ltra	-4230
nual	-4231
slet	-4232
uala	-4233
▁115	-4234
▁40.	-4235
▁52.	-4236
▁64.	-4237
▁Sof	-4238
▁www	-4239
,+353	-4240
Cargo	-4241
Kevin	-4242
Quick	-4243
ackup	-4244
anner	-4245
james	-4246
vista	-4247
▁@6%:	-4248
▁Geor	-4249
▁Line	-4250
":"000	-4251
":"70.	-4252
":"86.	-4253
":"93.	-4254
,81200	-4255
8.4","	-4256
import	-4257
itamin	-4258
silver	-4259
wright	-4260
xample	-4261
▁$8.20	-4262
▁9"},"	-4263
▁grand	-4264
-876860	-4265
entials	-4266
johnson	-4267
pection	-4268
sletter	-4269
▁Bourke	-4270
▁Lumpur	-4271
▁Marine	-4272
▁Router	-4273
▁destin	-4274
42"},{"@	-4275
43"},{"@	-4276
50"},{"@	-4277
eansgate	-4278
peterson	-4279
phillips	-4280
▁Created	-4281
▁Granola	-4282
▁Premium	-4283
▁Support	-4284
faxNumber	-4285
▁Backpack	-4286
":"2018-05	-4287
":"2024-07	-4288
▁delivered	-4289
▁destination	-4290
**	-4291
4"	-4292
DE	-4293
DO	-4294
GA	-4295
LS	-4296
OO	-4297
PP	-4298
PT	-4299
WR	-4300
XZ	-4301
ZJ	-4302
ZR	-4303
ZY	-4304
we	-4305
xx	-4306
":7	-4307
-76	-4308
003	-4309
153	-4310
3",	-4311
3.5	-4312
328	-4313
40,	-4314
85,	-4315
87,	-4316
9",	-4317
914	-4318
>14	-4319
CIT	-4320
CTT	-4321
nau	-4322
orn	-4323
▁"0	-4324
▁(6	-4325
▁Em	-4326
▁ca	-4327
▁er	-4328
▁ho	-4329
16</	-4330
23</	-4331
41</	-4332
54",	-4333
68</	-4334
ABLE	-4335
ATED	-4336
atur	-4337
rder	-4338
read	-4339
side	-4340
wood	-4341
▁46.	-4342
▁56.	-4343
▁96.	-4344
▁Lot	-4345
▁Oil	-4346
▁pos	-4347
▁pre	-4348
":"76	-4349
="+61	-4350
Crown	-4351
Heavy	-4352
Kuala	-4353
Maple	-4354
adams	-4355
urban	-4356
▁130.	-4357
▁CASH	-4358
▁card	-4359
▁incl	-4360
▁mail	-4361
▁tota	-4362
":"35.	-4363
":"37.	-4364
":"51.	-4365
":7},"	-4366
000","	-4367
9"}],"	-4368
REATED	-4369
naught	-4370
walker	-4371
wilson	-4372
▁Lodhi	-4373
▁Mason	-4374
▁North	-4375
▁Smart	-4376
▁Taman	-4377
▁kuala	-4378
▁taman	-4379
Blanket	-4380
Organic	-4381
jackson	-4382
▁19"},"	-4383
31"},{"@	-4384
51"},{"@	-4385
Magazine	-4386
Reusable	-4387
inePrice	-4388
▁Consult	-4389
▁Georgia	-4390
▁PAYABLE	-4391
▁Session	-4392
▁Univers	-4393
▁Discount	-4394
▁Quantity	-4395
▁Sneakers	-4396
▁Riverside	-4397
Maintenance	-4398
▁salesperson	-4399
>0	-4400
CL	-4401
EF	-4402
GR	-4403
HM	-4404
KE	-4405
KH	-4406
LW	-4407
NB	-4408
OY	-4409
QJ	-4410
TO	-4411
We	-4412
cn	-4413
py	-4414
vd	-4415
▁’	-4416
$18	-4417
,"4	-4418
,"7	-4419
,15	-4420
-46	-4421
-51	-4422
-56	-4423
-82	-4424
008	-4425
058	-4426
13.	-4427
137	-4428
140	-4429
148	-4430
173	-4431
244	-4432
254	-4433
258	-4434
280	-4435
29"	-4436
295	-4437
3.6	-4438
343	-4439
44"	-4440
6",	-4441
60-	-4442
614	-4443
617	-4444
618	-4445
647	-4446
AND	-4447
CGT	-4448
CST	-4449
CYT	-4450
USA	-4451
eak	-4452
ref	-4453
▁"6	-4454
▁76	-4455
▁96	-4456
▁Wi	-4457
▁bi	-4458
▁cr	-4459
▁na	-4460
-554	-4461
0001	-4462
15</	-4463
37</	-4464
58</	-4465
88</	-4466
8},"	-4467
Care	-4468
Open	-4469
anet	-4470
brau	-4471
come	-4472
hill	-4473
lerk	-4474
nack	-4475
olph	-4476
otel	-4477
▁"19	-4478
▁"21	-4479
▁139	-4480
▁35.	-4481
▁37.	-4482
▁438	-4483
▁58.	-4484
▁65.	-4485
▁81.	-4486
":"22	-4487
":"70	-4488
20},"	-4489
="+44	-4490
Birch	-4491
Email	-4492
Ultra	-4493
erica	-4494
onade	-4495
ouble	-4496
ounge	-4497
rench	-4498
▁156.	-4499
▁Incl	-4500
▁Lake	-4501
▁Rand	-4502
▁Spad	-4503
▁bowl	-4504
▁cons	-4505
▁sale	-4506
":"103	-4507
":"23.	-4508
":"29.	-4509
":"38.	-4510
":"55.	-4511
="+353	-4512
Harbor	-4513
Resort	-4514
Ticket	-4515
elcome	-4516
ermany	-4517
harris	-4518
merica	-4519
nguyen	-4520
thomas	-4521
▁1"},"	-4522
▁Fresh	-4523
▁Phone	-4524
▁Water	-4525
▁veggi	-4526
":"153.	-4527
":"156.	-4528
":"166.	-4529
":"217.	-4530
20"}],"	-4531
invoice	-4532
verling	-4533
▁27"},"	-4534
▁33"},"	-4535
▁36"},"	-4536
-8"},{"@	-4537
aexample	-4538
campbell	-4539
▁America	-4540
▁ORDERED	-4541
▁america	-4542
▁kawasan	-4543
ssentials	-4544
▁Randolph	-4545
▁Deansgate	-4546
▁Whitworth	-4547
▁description	-4548
":"000656195584	-4549
4-	-4550
9"	-4551
BF	-4552
GH	-4553
GU	-4554
IB	-4555
IF	-4556
JD	-4557
LP	-4558
MM	-4559
MO	-4560
Me	-4561
OU	-4562
SB	-4563
VO	-4564
ZL	-4565
▁§	-4566
12"	-4567
178	-4568
180	-4569
226	-4570
24"	-4571
27-	-4572
347	-4573
388	-4574
648	-4575
667	-4576
687	-4577
94"	-4578
958	-4579
>13	-4580
>18	-4581
>19	-4582
CNT	-4583
CZT	-4584
Kit	-4585
ats	-4586
cet	-4587
net	-4588
ods	-4589
oup	-4590
▁89	-4591
▁9,	-4592
▁ae	-4593
▁ot	-4594
▁sa	-4595
0.62	-4596
04</	-4597
06</	-4598
12</	-4599
13</	-4600
14</	-4601
2.44	-4602
48</	-4603
87</	-4604
Room	-4605
Slim	-4606
atta	-4607
uest	-4608
▁"10	-4609
▁$3.	-4610
▁121	-4611
▁123	-4612
▁148	-4613
▁191	-4614
▁276	-4615
▁48.	-4616
▁72.	-4617
▁74.	-4618
▁77.	-4619
▁CON	-4620
▁ent	-4621
▁way	-4622
":"32	-4623
/2017	-4624
03","	-4625
80","	-4626
="+65	-4627
Cedar	-4628
Dress	-4629
Shelf	-4630
ablet	-4631
kelly	-4632
sales	-4633
▁"+91	-4634
▁148.	-4635
▁Dine	-4636
":"100	-4637
":"104	-4638
":"36.	-4639
":"43.	-4640
":"48.	-4641
":"52.	-4642
":"54.	-4643
":"56.	-4644
":"59.	-4645
":"83.	-4646
":"92.	-4647
":"98.	-4648
Custom	-4649
amount	-4650
bailey	-4651
eneral	-4652
ernail	-4653
ghatta	-4654
▁2"},"	-4655
▁Badge	-4656
▁Beans	-4657
▁Clear	-4658
▁Socks	-4659
▁south	-4660
":"100.	-4661
":"116.	-4662
":"154.	-4663
":"2016	-4664
":20},"	-4665
Jeffrey	-4666
▁10"},"	-4667
▁17"},"	-4668
▁18"},"	-4669
▁Banner	-4670
▁Tablet	-4671
▁basket	-4672
▁lumpur	-4673
▁refund	-4674
Sneakers	-4675
▁Kenneth	-4676
▁Spadina	-4677
▁veggies	-4678
▁Curbside	-4679
▁Holdings	-4680
▁shipment	-4681
":"0.00","	-4682
":"2018-02	-4683
▁Connaught	-4684
▁Bannerghatta	-4685
▁Consultation	-4686
$6	-4687
,8	-4688
BD	-4689
CM	-4690
IU	-4691
JR	-4692
LG	-4693
LH	-4694
OS	-4695
QW	-4696
SY	-4697
WO	-4698
ZE	-4699
rl	-4700
rs	-4701
so	-4702
ug	-4703
▁\	-4704
$28	-4705
$31	-4706
,13	-4707
-66	-4708
-79	-4709
-96	-4710
/17	-4711
047	-4712
054	-4713
06"	-4714
104	-4715
144	-4716
147	-4717
177	-4718
22"	-4719
224	-4720
257	-4721
355	-4722
37"	-4723
38.	-4724
6.5	-4725
62@	-4726
64"	-4727
657	-4728
661	-4729
90@	-4730
988	-4731
="0	-4732
>17	-4733
>22	-4734
>23	-4735
CBT	-4736
CET	-4737
CHT	-4738
CPT	-4739
Car	-4740
erp	-4741
ied	-4742
uad	-4743
uan	-4744
▁+3	-4745
▁7,	-4746
▁Am	-4747
▁Ar	-4748
▁MG	-4749
▁el	-4750
▁ra	-4751
▁sl	-4752
07",	-4753
21</	-4754
22</	-4755
29</	-4756
3.92	-4757
35</	-4758
36</	-4759
39</	-4760
96</	-4761
98</	-4762
East	-4763
HONE	-4764
Luma	-4765
OICE	-4766
asta	-4767
avol	-4768
code	-4769
eese	-4770
gray	-4771
hian	-4772
impl	-4773
pair	-4774
rito	-4775
▁"28	-4776
▁10,	-4777
▁110	-4778
▁117	-4779
▁122	-4780
▁134	-4781
▁144	-4782
▁25,	-4783
▁34,	-4784
▁43.	-4785
▁63.	-4786
▁774	-4787
▁Aur	-4788
▁Lin	-4789
▁Mer	-4790
▁Off	-4791
▁Wab	-4792
▁ful	-4793
▁pan	-4794
▁ttt	-4795
First	-4796
Grand	-4797
Metro	-4798
TOTAL	-4799
Train	-4800
alupe	-4801
clark	-4802
eason	-4803
icial	-4804
ified	-4805
ining	-4806
omino	-4807
smith	-4808
▁107.	-4809
▁147.	-4810
▁153.	-4811
▁165.	-4812
▁Alam	-4813
▁Nora	-4814
▁shop	-4815
":"114	-4816
":"121	-4817
":"27-	-4818
":"58.	-4819
":"75.	-4820
1"}],"	-4821
atural	-4822
avolio	-4823
nelson	-4824
weight	-4825
▁5"},"	-4826
▁EMAIL	-4827
▁Visit	-4828
▁sushi	-4829
":"109.	-4830
":"122.	-4831
":"128.	-4832
":"133.	-4833
":"146.	-4834
perator	-4835
stewart	-4836
▁20"},"	-4837
▁32"},"	-4838
▁37"},"	-4839
▁Aurora	-4840
▁Hoodie	-4841
▁Wabash	-4842
▁offers	-4843
▁united	-4844
":"2"},"	-4845
-9"},{"@	-4846
41"},{"@	-4847
uadalupe	-4848
▁Linking	-4849
▁Lothian	-4850
▁chicken	-4851
▁package	-4852
sterclass	-4853
▁accepted	-4854
Newsletter	-4855
▁Scheduled	-4856
▁University	-4857
▁settlement	-4858
AF	-4859
AM	-4860
BN	-4861
FL	-4862
FN	-4863
LK	-4864
NW	-4865
Na	-4866
SR	-4867
TE	-4868
TH	-4869
UX	-4870
XA	-4871
XK	-4872
XW	-4873
YW	-4874
sy	-4875
,11	-4876
,16	-4877
-70	-4878
08"	-4879
13"	-4880
14"	-4881
141	-4882
14@	-4883
17.	-4884
187	-4885
207	-4886
216	-4887
229	-4888
233	-4889
357	-4890
358	-4891
36"	-4892
39@	-4893
4</	-4894
54.	-4895
55"	-4896
56"	-4897
608	-4898
623	-4899
65"	-4900
653	-4901
670	-4902
747	-4903
787	-4904
87@	-4905
9.3	-4906
91-	-4907
94.	-4908
947	-4909
978	-4910
98"	-4911
998	-4912
>12	-4913
CDT	-4914
CKT	-4915
CUT	-4916
CVT	-4917
Set	-4918
ali	-4919
ata	-4920
ava	-4921
ino	-4922
zer	-4923
▁66	-4924
▁bl	-4925
▁bo	-4926
▁ma	-4927
-091	-4928
-513	-4929
05</	-4930
18</	-4931
24</	-4932
52",	-4933
78</	-4934
Expo	-4935
True	-4936
arte	-4937
asir	-4938
ason	-4939
ried	-4940
▁"11	-4941
▁"13	-4942
▁109	-4943
▁147	-4944
▁154	-4945
▁194	-4946
▁20,	-4947
▁417	-4948
▁67.	-4949
▁75.	-4950
▁82.	-4951
▁87.	-4952
▁955	-4953
▁DIS	-4954
▁Min	-4955
▁gro	-4956
▁sur	-4957
johor	-4958
▁"+64	-4959
▁127.	-4960
▁128.	-4961
▁199.	-4962
▁241.	-4963
▁Paul	-4964
▁Rain	-4965
▁user	-4966
":"105	-4967
":"120	-4968
":"63.	-4969
":"68.	-4970
":"69.	-4971
":8},"	-4972
5"}],"	-4973
Anchor	-4974
Annual	-4975
Backup	-4976
Wallet	-4977
brooks	-4978
cessed	-4979
exampl	-4980
garcia	-4981
murphy	-4982
▁$7.10	-4983
▁Crown	-4984
":"105.	-4985
":"119.	-4986
":"120.	-4987
":"139.	-4988
":"144.	-4989
":"151.	-4990
":"198.	-4991
0.00","	-4992
Granola	-4993
Horizon	-4994
Monitor	-4995
Support	-4996
Western	-4997
▁29"},"	-4998
▁Family	-4999
▁Vertex	-5000
▁bandar	-5001
▁permas	-5002
/11/2025	-5003
/12/2026	-5004
53"},{"@	-5005
59"},{"@	-5006
80"},{"@	-5007
▁Horizon	-5008
▁Ordered	-5009
▁PURCHAS	-5010
▁Rainier	-5011
Gutierrez	-5012
Rodriguez	-5013
implified	-5014
northwest	-5015
▁CUSTOMER	-5016
▁official	-5017
":"3"},{"@	-5018
▁Adjustment	-5019
5@	-5020
IV	-5021
JG	-5022
KB	-5023
LA	-5024
LV	-5025
PF	-5026
PL	-5027
QL	-5028
QN	-5029
QZ	-5030
SW	-5031
UK	-5032
XM	-5033
ZM	-5034
ZV	-5035
hs	-5036
▁—	-5037
$21	-5038
$27	-5039
$29	-5040
$34	-5041
,"9	-5042
,17	-5043
,18	-5044
/13	-5045
01.	-5046
02"	-5047
158	-5048
21@	-5049
227	-5050
247	-5051
25"	-5052
277	-5053
287	-5054
288	-5055
298	-5056
48,	-5057
583	-5058
64-	-5059
64@	-5060
74"	-5061
75,	-5062
80,	-5063
917	-5064
945	-5065
96"	-5066
970	-5067
>44	-5068
ANS	-5069
CAT	-5070
COT	-5071
CRT	-5072
CWT	-5073
ana	-5074
ers	-5075
hot	-5076
oni	-5077
rap	-5078
ree	-5079
vey	-5080
▁+6	-5081
▁Sv	-5082
▁cl	-5083
▁oo	-5084
▁sp	-5085
▁ta	-5086
-918	-5087
03",	-5088
12",	-5089
19</	-5090
2160	-5091
22",	-5092
59</	-5093
6.68	-5094
71</	-5095
76</	-5096
8.28	-5097
84</	-5098
Lamp	-5099
Peak	-5100
apan	-5101
aret	-5102
aser	-5103
bson	-5104
cook	-5105
eggi	-5106
hsan	-5107
iaga	-5108
rank	-5109
ssen	-5110
▁$5.	-5111
▁111	-5112
▁113	-5113
▁137	-5114
▁163	-5115
▁169	-5116
▁21,	-5117
▁36.	-5118
▁39.	-5119
▁47.	-5120
▁61.	-5121
▁68.	-5122
▁84.	-5123
▁98.	-5124
▁Jar	-5125
▁VIA	-5126
▁Via	-5127
▁air	-5128
▁ind	-5129
▁may	-5130
-2018	-5131
ANSAC	-5132
Davis	-5133
Hotel	-5134
Purch	-5135
White	-5136
aling	-5137
eeseb	-5138
urnet	-5139
uttle	-5140
▁102.	-5141
▁138.	-5142
▁139.	-5143
▁172.	-5144
▁2.80	-5145
▁223.	-5146
▁Bars	-5147
▁Blue	-5148
▁Eric	-5149
▁Ever	-5150
▁Paid	-5151
▁SALE	-5152
▁alam	-5153
▁away	-5154
▁cart	-5155
▁food	-5156
▁rece	-5157
":"101	-5158
":"106	-5159
":"137	-5160
":"16.	-5161
":"39.	-5162
":"47.	-5163
":"60.	-5164
":"72.	-5165
":"89.	-5166
3"}],"	-5167
Howard	-5168
Lounge	-5169
Rogers	-5170
alance	-5171
miller	-5172
urrito	-5173
▁10.00	-5174
▁4"},"	-5175
▁Fries	-5176
▁Grace	-5177
▁Henry	-5178
▁charg	-5179
":"112.	-5180
":"115.	-5181
":"121.	-5182
":"130.	-5183
":"136.	-5184
":"175.	-5185
":"223.	-5186
":"253.	-5187
Bennett	-5188
Federal	-5189
created	-5190
emonade	-5191
▁11"},"	-5192
▁14"},"	-5193
▁28"},"	-5194
▁Garden	-5195
▁Robson	-5196
▁coupon	-5197
▁import	-5198
":"3"},"	-5199
/06/2024	-5200
Robinson	-5201
▁Headset	-5202
▁western	-5203
-42"},{"@	-5204
000"},{"@	-5205
▁Included	-5206
▁Sandwich	-5207
▁operator	-5208
":"4"},{"@	-5209
Essentials	-5210
eeseburger	-5211
▁Guadalupe	-5212
Salesperson	-5213
▁adjustment	-5214
▁outstanding	-5215
2)	-5216
8@	-5217
AG	-5218
BV	-5219
DY	-5220
EQ	-5221
IC	-5222
IO	-5223
JJ	-5224
KJ	-5225
OW	-5226
PB	-5227
RR	-5228
RW	-5229
UB	-5230
WF	-5231
WN	-5232
ZW	-5233
aO	-5234
be	-5235
bu	-5236
lt	-5237
rt	-5238
sc	-5239
$22	-5240
$24	-5241
$38	-5242
05"	-5243
154	-5244
190	-5245
2-2	-5246
2-5	-5247
209	-5248
21"	-5249
211	-5250
22-	-5251
250	-5252
251	-5253
261	-5254
36@	-5255
3</	-5256
42"	-5257
445	-5258
470	-5259
58"	-5260
604	-5261
626	-5262
645	-5263
649	-5264
678	-5265
68-	-5266
689	-5267
694	-5268
748	-5269
80@	-5270
89"	-5271
>16	-5272
>25	-5273
>27	-5274
>33	-5275
ACC	-5276
CCT	-5277
CJT	-5278
Ins	-5279
Lee	-5280
Per	-5281
VIP	-5282
ani	-5283
kim	-5284
myr	-5285
ura	-5286
▁56	-5287
▁86	-5288
▁At	-5289
▁US	-5290
▁es	-5291
▁rn	-5292
▁wa	-5293
":"(	-5294
-460	-5295
-704	-5296
-798	-5297
-894	-5298
04",	-5299
08</	-5300
09</	-5301
123.	-5302
129.	-5303
26</	-5304
52</	-5305
54</	-5306
58",	-5307
67</	-5308
85</	-5309
Dish	-5310
Lake	-5311
Pass	-5312
Reed	-5313
arul	-5314
eras	-5315
etup	-5316
izab	-5317
unch	-5318
▁"18	-5319
▁"24	-5320
▁001	-5321
▁10/	-5322
▁11,	-5323
▁150	-5324
▁26,	-5325
▁300	-5326
▁33,	-5327
▁500	-5328
▁51.	-5329
▁53.	-5330
▁69.	-5331
▁70.	-5332
▁Box	-5333
▁Des	-5334
▁Tel	-5335
▁adj	-5336
▁all	-5337
▁apr	-5338
▁tra	-5339
01","	-5340
Itern	-5341
Mouse	-5342
Pasta	-5343
atang	-5344
gress	-5345
ramos	-5346
▁"+65	-5347
▁1.00	-5348
▁100.	-5349
▁106.	-5350
▁119.	-5351
▁120.	-5352
▁121.	-5353
▁136.	-5354
▁142.	-5355
▁145.	-5356
▁159.	-5357
▁162.	-5358
▁True	-5359
▁exch	-5360
▁hand	-5361
▁past	-5362
▁this	-5363
":"113	-5364
":"116	-5365
":"129	-5366
":"40.	-5367
":"438	-5368
":"44.	-5369
":"67.	-5370
":"73.	-5371
":"77.	-5372
":"79.	-5373
":"84.	-5374
":"99.	-5375
-6"},"	-5376
4.2025	-5377
6.5","	-5378
French	-5379
Morgan	-5380
Turner	-5381
parker	-5382
taylor	-5383
▁$1.10	-5384
▁1851-	-5385
▁7"},"	-5386
▁Bloor	-5387
▁Layla	-5388
▁PHONE	-5389
▁State	-5390
▁floor	-5391
":"117.	-5392
":"127.	-5393
":"132.	-5394
":"148.	-5395
":"149.	-5396
":"172.	-5397
":"187.	-5398
":10},"	-5399
6.56","	-5400
ANSACTI	-5401
General	-5402
License	-5403
Natural	-5404
PURCHAS	-5405
edwards	-5406
ignment	-5407
izabeth	-5408
▁16"},"	-5409
▁24"},"	-5410
▁30"},"	-5411
▁38"},"	-5412
▁Burnet	-5413
▁Hannah	-5414
▁Online	-5415
▁client	-5416
▁market	-5417
▁tebrau	-5418
-0"},{"@	-5419
/01/2025	-5420
/06/2026	-5421
/11/2024	-5422
40"},{"@	-5423
Mitchell	-5424
Software	-5425
▁Burrito	-5426
▁CREATED	-5427
▁Cashier	-5428
▁Michael	-5429
▁counter	-5430
▁federal	-5431
▁waybill	-5432
-19"},{"@	-5433
-77"},{"@	-5434
custorner	-5435
▁Congress	-5436
▁Subtotal	-5437
▁merchant	-5438
▁supplies	-5439
":"2018-01	-5440
":"2018-06	-5441
▁Elizabeth	-5442
▁simplified	-5443
▁Transaction	-5444
$2	-5445
1@	-5446
BK	-5447
GF	-5448
GQ	-5449
IQ	-5450
JF	-5451
JI	-5452
JU	-5453
JV	-5454
LO	-5455
MS	-5456
TG	-5457
TR	-5458
UQ	-5459
VB	-5460
XD	-5461
XV	-5462
ZB	-5463
ZG	-5464
ZP	-5465
ZQ	-5466
ZX	-5467
\"	-5468
kn	-5469
pr	-5470
sd	-5471
wa	-5472
wb	-5473
ér	-5474
$30	-5475
$35	-5476
$41	-5477
,14	-5478
-32	-5479
015	-5480
039	-5481
077	-5482
086	-5483
09"	-5484
1":	-5485
105	-5486
138	-5487
14.	-5488
15"	-5489
16"	-5490
203	-5491
20@	-5492
23"	-5493
232	-5494
234	-5495
235	-5496
33"	-5497
340	-5498
36.	-5499
384	-5500
385	-5501
448	-5502
46"	-5503
467	-5504
48"	-5505
5",	-5506
563	-5507
573	-5508
57@	-5509
695	-5510
697	-5511
69@	-5512
770	-5513
83@	-5514
887	-5515
989	-5516
98@	-5517
>11	-5518
>28	-5519
CCC	-5520
CFT	-5521
Cre	-5522
Hat	-5523
Hub	-5524
Mor	-5525
ULF	-5526
WCC	-5527
erk	-5528
gal	-5529
ild	-5530
ita	-5531
oco	-5532
uch	-5533
uci	-5534
utt	-5535
▁it	-5536
▁kn	-5537
▁lo	-5538
-294	-5539
-626	-5540
-777	-5541
-844	-5542
07</	-5543
18",	-5544
266.	-5545
3.47	-5546
4.64	-5547
44",	-5548
44</	-5549
45</	-5550
65</	-5551
66</	-5552
91",	-5553
City	-5554
Head	-5555
anyu	-5556
atte	-5557
each	-5558
eria	-5559
eter	-5560
ichi	-5561
inar	-5562
ines	-5563
lend	-5564
mile	-5565
paid	-5566
rise	-5567
▁"26	-5568
▁101	-5569
▁116	-5570
▁136	-5571
▁22,	-5572
▁27,	-5573
▁278	-5574
▁36,	-5575
▁40,	-5576
▁59.	-5577
▁80.	-5578
▁83.	-5579
▁86.	-5580
▁88.	-5581
▁900	-5582
▁Sky	-5583
▁Tee	-5584
▁ant	-5585
▁que	-5586
▁tor	-5587
▁zrl	-5588
":"01	-5589
-6057	-5590
00416	-5591
Light	-5592
Reyes	-5593
Royal	-5594
STORE	-5595
eggie	-5596
ngkil	-5597
rales	-5598
ronic	-5599
▁109.	-5600
▁116.	-5601
▁124.	-5602
▁140.	-5603
▁141.	-5604
▁144.	-5605
▁174.	-5606
▁186.	-5607
▁198.	-5608
▁2016	-5609
▁3.00	-5610
▁Bill	-5611
▁Cont	-5612
▁DISC	-5613
▁Wrap	-5614
▁aeon	-5615
▁copy	-5616
▁disc	-5617
":"001	-5618
":"108	-5619
":"109	-5620
":"110	-5621
":"117	-5622
":"61.	-5623
":"65.	-5624
":"85.	-5625
25"},"	-5626
3.2026	-5627
6.6","	-5628
65"},"	-5629
698","	-5630
8.5","	-5631
91"},"	-5632
Torres	-5633
engkil	-5634
iagaan	-5635
peroni	-5636
▁$2.70	-5637
▁20.00	-5638
▁8"},"	-5639
▁Blend	-5640
▁Chloe	-5641
▁Larry	-5642
▁Michi	-5643
▁Riley	-5644
▁Snack	-5645
▁Throw	-5646
▁clerk	-5647
▁owing	-5648
▁spicy	-5649
▁visit	-5650
":"102.	-5651
":"104.	-5652
":"125.	-5653
":"137.	-5654
":"147.	-5655
":"162.	-5656
":"165.	-5657
":"168.	-5658
":"181.	-5659
":"182.	-5660
":"226.	-5661
":"240.	-5662
":"252.	-5663
":"294.	-5664
":"297.	-5665
":"302.	-5666
-6"}],"	-5667
00"}],"	-5668
6.85","	-5669
8.09","	-5670
9.08","	-5671
Account	-5672
Creator	-5673
Headset	-5674
Roberts	-5675
account	-5676
easonal	-5677
erprise	-5678
michael	-5679
▁22"},"	-5680
▁Bandar	-5681
▁Before	-5682
▁Joseph	-5683
▁SERVED	-5684
▁Steven	-5685
▁Strcet	-5686
▁cheese	-5687
▁domino	-5688
▁server	-5689
▁survey	-5690
/02/2026	-5691
/06/2025	-5692
/07/2024	-5693
Williams	-5694
anderson	-5695
etergent	-5696
▁2018-04	-5697
▁Compact	-5698
▁Details	-5699
▁Pioneer	-5700
▁dengkil	-5701
▁station	-5702
ANSACTION	-5703
▁Michigan	-5704
▁Wireless	-5705
":"2.00","	-5706
":"3.00","	-5707
":"6"},{"@	-5708
settlement	-5709
▁Excluding	-5710
Lightweight	-5711
999999999999	-5712
#:	-5713
7@	-5714
BQ	-5715
CI	-5716
CX	-5717
DQ	-5718
EU	-5719
EW	-5720
FH	-5721
FR	-5722
FY	-5723
GK	-5724
GW	-5725
HD	-5726
HE	-5727
HQ	-5728
IR	-5729
JP	-5730
KR	-5731
KS	-5732
LN	-5733
LQ	-5734
MD	-5735
MG	-5736
NN	-5737
OV	-5738
PA	-5739
QA	-5740
QF	-5741
SI	-5742
Se	-5743
VY	-5744
WJ	-5745
WK	-5746
XO	-5747
XQ	-5748
XY	-5749
ZH	-5750
ef	-5751
ls	-5752
▁q	-5753
,23	-5754
-36	-5755
00-	-5756
01-	-5757
038	-5758
064	-5759
088	-5760
1.3	-5761
109	-5762
11"	-5763
130	-5764
134	-5765
136	-5766
160	-5767
17"	-5768
172	-5769
18.	-5770
218	-5771
219	-5772
223	-5773
26@	-5774
30-	-5775
32@	-5776
33@	-5777
34"	-5778
386	-5779
39.	-5780
433	-5781
43@	-5782
47@	-5783
52"	-5784
587	-5785
610	-5786
611	-5787
613	-5788
62"	-5789
639	-5790
68"	-5791
681	-5792
685	-5793
698	-5794
82"	-5795
840	-5796
907	-5797
935	-5798
955	-5799
957	-5800
="8	-5801
CLT	-5802
Cox	-5803
HCC	-5804
IER	-5805
INE	-5806
Pep	-5807
TER	-5808
The	-5809
con	-5810
eaf	-5811
els	-5812
ian	-5813
ise	-5814
ksy	-5815
uca	-5816
▁"2	-5817
▁AT	-5818
▁SH	-5819
▁du	-5820
▁et	-5821
▁gu	-5822
▁kl	-5823
$27.	-5824
,+91	-5825
-074	-5826
-228	-5827
-248	-5828
-264	-5829
-561	-5830
-565	-5831
-828	-5832
0217	-5833
08",	-5834
109-	-5835
15",	-5836
2035	-5837
21",	-5838
28",	-5839
33",	-5840
4.57	-5841
4.93	-5842
42</	-5843
5.85	-5844
5067	-5845
89</	-5846
9.56	-5847
9.76	-5848
95</	-5849
ACED	-5850
BILL	-5851
Gray	-5852
inos	-5853
obal	-5854
oume	-5855
vice	-5856
▁-0.	-5857
▁106	-5858
▁130	-5859
▁135	-5860
▁14,	-5861
▁18,	-5862
▁233	-5863
▁29,	-5864
▁50.	-5865
▁62.	-5866
▁66.	-5867
▁678	-5868
▁714	-5869
▁744	-5870
▁76.	-5871
▁778	-5872
▁837	-5873
▁85.	-5874
▁89.	-5875
▁94.	-5876
▁Ava	-5877
▁Hud	-5878
▁Kam	-5879
▁NET	-5880
▁Net	-5881
▁Oak	-5882
▁PRE	-5883
▁ber	-5884
▁fil	-5885
▁glo	-5886
▁sau	-5887
72","	-5888
81","	-5889
Cable	-5890
Chair	-5891
Colle	-5892
Jason	-5893
Kelly	-5894
SALES	-5895
emban	-5896
epong	-5897
pring	-5898
▁0000	-5899
▁112.	-5900
▁117.	-5901
▁123.	-5902
▁149.	-5903
▁182.	-5904
▁24.0	-5905
▁28.0	-5906
▁3.80	-5907
▁Aria	-5908
▁Desa	-5909
▁FULF	-5910
▁John	-5911
▁Lily	-5912
▁Mark	-5913
▁Melb	-5914
▁Peak	-5915
▁desa	-5916
▁marg	-5917
▁your	-5918
":"154	-5919
":"34.	-5920
":"433	-5921
":"49.	-5922
":"74.	-5923
":"87.	-5924
":"94.	-5925
":"95.	-5926
153","	-5927
17"},"	-5928
613","	-5929
69"},"	-5930
7.2026	-5931
90"},"	-5932
Golden	-5933
Meetup	-5934
Tender	-5935
eafood	-5936
eminar	-5937
▁16.80	-5938
▁43800	-5939
▁Maple	-5940
▁SALES	-5941
▁buyer	-5942
▁store	-5943
▁white	-5944
":"111.	-5945
":"134.	-5946
":"135.	-5947
":"141.	-5948
":"142.	-5949
":"143.	-5950
":"145.	-5951
":"155.	-5952
":"237.	-5953
":"238.	-5954
":"241.	-5955
":"400.	-5956
":"401.	-5957
":"974,	-5958
-7"}],"	-5959
1.03","	-5960
2.02","	-5961
2.86","	-5962
4.86","	-5963
5.05","	-5964
5.84","	-5965
7.83","	-5966
Dengkil	-5967
Shuttle	-5968
dominos	-5969
kawasan	-5970
welcome	-5971
▁15"},"	-5972
▁23"},"	-5973
▁Amelia	-5974
▁Camila	-5975
▁Donald	-5976
▁Hudson	-5977
▁Indoor	-5978
▁Joshua	-5979
▁Served	-5980
/01/2024	-5981
/03/2025	-5982
02"},{"@	-5983
Lemonade	-5984
Seasonal	-5985
Thompson	-5986
embangan	-5987
▁Abigail	-5988
▁Account	-5989
▁CASHIER	-5990
▁Contact	-5991
▁charged	-5992
-44"},{"@	-5993
-80"},{"@	-5994
Pepperoni	-5995
▁DISCOUNT	-5996
▁Kamataka	-5997
▁Melboume	-5998
▁Nicholas	-5999
":"2017-09	-6000
":"2017-12	-6001
Collection	-6002
Inspection	-6003
▁Detergent	-6004
▁processed	-6005
":"43800","	-6006
Masterclass	-6007
transaction	-6008
Cheeseburger	-6009
▁consignment	-6010
!!	-6011
9@	-6012
;:	-6013
CJ	-6014
CN	-6015
CR	-6016
EE	-6017
EP	-6018
GG	-6019
HT	-6020
HX	-6021
HZ	-6022
II	-6023
KP	-6024
KX	-6025
LR	-6026
NG	-6027
NK	-6028
SF	-6029
SP	-6030
UG	-6031
UO	-6032
VI	-6033
VW	-6034
WV	-6035
YC	-6036
YI	-6037
YX	-6038
ZO	-6039
ki	-6040
nu	-6041
én	-6042
▁!	-6043
▁>	-6044
,10	-6045
,24	-6046
,34	-6047
/14	-6048
/21	-6049
/22	-6050
/26	-6051
04"	-6052
071	-6053
090	-6054
103	-6055
122	-6056
125	-6057
128	-6058
12@	-6059
157	-6060
179	-6061
19@	-6062
230	-6063
24@	-6064
253	-6065
278	-6066
293	-6067
3.3	-6068
302	-6069
309	-6070
31.	-6071
310	-6072
32.	-6073
362	-6074
408	-6075
41"	-6076
444	-6077
44@	-6078
477	-6079
489	-6080
49@	-6081
5.6	-6082
53@	-6083
56@	-6084
633	-6085
637	-6086
655	-6087
666	-6088
69-	-6089
7.3	-6090
71@	-6091
76@	-6092
781	-6093
84"	-6094
9.9	-6095
908	-6096
97-	-6097
984	-6098
999	-6099
>21	-6100
>97	-6101
CHA	-6102
Des	-6103
ETT	-6104
SSD	-6105
XNE	-6106
awa	-6107
bly	-6108
chi	-6109
del	-6110
esi	-6111
fil	-6112
han	-6113
ico	-6114
los	-6115
pay	-6116
yar	-6117
▁1/	-6118
▁8,	-6119
▁SS	-6120
▁ar	-6121
▁fl	-6122
▁ne	-6123
▁oe	-6124
▁pa	-6125
▁rh	-6126
▁so	-6127
▁ss	-6128
▁sw	-6129
$82.	-6130
-045	-6131
-103	-6132
-145	-6133
-234	-6134
-305	-6135
-437	-6136
-499	-6137
-563	-6138
-924	-6139
-969	-6140
05",	-6141
06",	-6142
085-	-6143
09",	-6144
152.	-6145
19",	-6146
297.	-6147
3.07	-6148
31",	-6149
321.	-6150
36",	-6151
4.24	-6152
5.44	-6153
5.64	-6154
56",	-6155
61</	-6156
65",	-6157
75</	-6158
81</	-6159
83</	-6160
9.25	-6161
94",	-6162
94</	-6163
99</	-6164
;00"	-6165
LWNE	-6166
PAID	-6167
Sale	-6168
alla	-6169
apak	-6170
atsu	-6171
chen	-6172
edai	-6173
ikat	-6174
iter	-6175
ival	-6176
ived	-6177
ssem	-6178
tein	-6179
tore	-6180
yday	-6181
▁"23	-6182
▁$6.	-6183
▁$9.	-6184
▁127	-6185
▁138	-6186
▁16,	-6187
▁165	-6188
▁189	-6189
▁19,	-6190
▁198	-6191
▁200	-6192
▁211	-6193
▁215	-6194
▁240	-6195
▁254	-6196
▁30,	-6197
▁320	-6198
▁37,	-6199
▁57.	-6200
▁760	-6201
▁95.	-6202
▁99.	-6203
▁997	-6204
▁Ind	-6205
▁Jln	-6206
▁Lex	-6207
▁MER	-6208
▁PRO	-6209
▁USB	-6210
▁inv	-6211
▁mil	-6212
▁our	-6213
▁pax	-6214
▁rmo	-6215
▁tem	-6216
▁wal	-6217
":"72	-6218
-3271	-6219
-4021	-6220
."},"	-6221
05583	-6222
07815	-6223
09","	-6224
85","	-6225
Brown	-6226
ETTLE	-6227
Evans	-6228
Guest	-6229
asted	-6230
buyer	-6231
erbal	-6232
llins	-6233
loyal	-6234
owder	-6235
udang	-6236
▁1,00	-6237
▁101.	-6238
▁105.	-6239
▁125.	-6240
▁131.	-6241
▁133.	-6242
▁135.	-6243
▁166.	-6244
▁168.	-6245
▁170.	-6246
▁185.	-6247
▁190.	-6248
▁217.	-6249
▁238.	-6250
▁244.	-6251
▁290,	-6252
▁3.90	-6253
▁309.	-6254
▁312.	-6255
▁6.00	-6256
▁8.90	-6257
▁BILL	-6258
▁Bowl	-6259
▁Noah	-6260
▁Nova	-6261
▁note	-6262
▁send	-6263
▁take	-6264
▁teri	-6265
":"-0.	-6266
":"124	-6267
":"125	-6268
":"139	-6269
":"147	-6270
":"163	-6271
":"173	-6272
":"2.7	-6273
":"57.	-6274
":"67,	-6275
":"76.	-6276
":"81.	-6277
-7","@	-6278
01"},"	-6279
075067	-6280
202","	-6281
24"},"	-6282
27"},"	-6283
36"},"	-6284
64"},"	-6285
645","	-6286
Access	-6287
Bailey	-6288
Bright	-6289
CUMENT	-6290
Carter	-6291
Dental	-6292
Design	-6293
Orange	-6294
Repair	-6295
Router	-6296
Silver	-6297
Veggie	-6298
ancake	-6299
anting	-6300
ayside	-6301
iginal	-6302
irtual	-6303
▁$1.60	-6304
▁Birch	-6305
▁Metro	-6306
▁Purch	-6307
▁Staff	-6308
▁bread	-6309
▁combo	-6310
▁frank	-6311
▁pizza	-6312
":"110.	-6313
":"124.	-6314
":"138.	-6315
":"159.	-6316
":"161.	-6317
":"174.	-6318
":"186.	-6319
":"197.	-6320
":"206.	-6321
":"208.	-6322
":"222.	-6323
":"243.	-6324
":"247.	-6325
":"259.	-6326
":"278.	-6327
":"281.	-6328
":"282.	-6329
":"303.	-6330
":"309.	-6331
":"312.	-6332
."},{"@	-6333
1.07","	-6334
1.84","	-6335
10.2026	-6336
2.44","	-6337
2.71","	-6338
2.78","	-6339
2.87","	-6340
21"}],"	-6341
3.02","	-6342
3.92","	-6343
4.08","	-6344
4.12","	-6345
5.22","	-6346
5.75","	-6347
6.06","	-6348
6.07","	-6349
6.88","	-6350
7.85","	-6351
8.08","	-6352
8.84","	-6353
Barcode	-6354
Package	-6355
Vitamin	-6356
allahan	-6357
company	-6358
estival	-6359
ssembly	-6360
yarikat	-6361
▁35"},"	-6362
▁39"},"	-6363
▁Bright	-6364
▁Canvas	-6365
▁Change	-6366
▁Harbor	-6367
▁garden	-6368
▁within	-6369
-4021027	-6370
/01/2026	-6371
/02/2024	-6372
/03/2018	-6373
/05/2024	-6374
07506739	-6375
76"},{"@	-6376
Keyboard	-6377
abilling	-6378
odsworth	-6379
purchase	-6380
▁Classic	-6381
▁Minimal	-6382
▁context	-6383
▁problem	-6384
-21"},{"@	-6385
-26"},{"@	-6386
-31"},{"@	-6387
-41"},{"@	-6388
-54"},{"@	-6389
-66"},{"@	-6390
-67"},{"@	-6391
-87686092	-6392
05583085-	-6393
ETTLEMENT	-6394
Northwest	-6395
acheckout	-6396
▁Jonathan	-6397
▁Merchant	-6398
▁Supplies	-6399
":"8"},{"@	-6400
0781500416	-6401
Richardson	-6402
▁Custorner	-6403
▁Lexington	-6404
▁Reference	-6405
▁recipient	-6406
":"10010000	-6407
▁Adjustable	-6408
":"03-876860	-6409
▁03-87686092	-6410
▁TRANSACTION	-6411
9:	-6412
AU	-6413
BO	-6414
BS	-6415
BW	-6416
DI	-6417
EV	-6418
FC	-6419
FZ	-6420
GJ	-6421
GS	-6422
HR	-6423
Ie	-6424
JA	-6425
JW	-6426
KM	-6427
KT	-6428
MP	-6429
MU	-6430
NH	-6431
NL	-6432
NS	-6433
OG	-6434
PD	-6435
QH	-6436
TJ	-6437
TK	-6438
UZ	-6439
VR	-6440
VZ	-6441
WL	-6442
WY	-6443
XR	-6444
YG	-6445
aB	-6446
ml	-6447
ms	-6448
rk	-6449
▁£	-6450
$44	-6451
,"5	-6452
,21	-6453
,53	-6454
/25	-6455
/27	-6456
0-4	-6457
04-	-6458
080	-6459
096	-6460
106	-6461
12-	-6462
133	-6463
139	-6464
15-	-6465
175	-6466
17@	-6467
185	-6468
186	-6469
202	-6470
214	-6471
22@	-6472
25-	-6473
265	-6474
27"	-6475
294	-6476
31"	-6477
333	-6478
349	-6479
351	-6480
394	-6481
440	-6482
447	-6483
47"	-6484
471	-6485
49"	-6486
54@	-6487
551	-6488
6-3	-6489
615	-6490
634	-6491
638	-6492
650	-6493
674	-6494
682	-6495
688	-6496
68@	-6497
691	-6498
693	-6499
70@	-6500
79@	-6501
81"	-6502
81@	-6503
82@	-6504
83"	-6505
84@	-6506
86"	-6507
86@	-6508
88"	-6509
882	-6510
90.	-6511
91"	-6512
94@	-6513
994	-6514
>24	-6515
>29	-6516
>35	-6517
>38	-6518
>48	-6519
CMT	-6520
ION	-6521
LCC	-6522
NWB	-6523
OFF	-6524
OME	-6525
WIN	-6526
XCC	-6527
doc	-6528
ene	-6529
ges	-6530
igl	-6531
ona	-6532
reg	-6533
sel	-6534
tab	-6535
veg	-6536
▁$5	-6537
▁(7	-6538
▁Ow	-6539
▁WE	-6540
▁au	-6541
▁di	-6542
▁ed	-6543
▁en	-6544
▁fo	-6545
▁rr	-6546
▁vo	-6547
▁——	-6548
-024	-6549
-107	-6550
-138	-6551
-154	-6552
-177	-6553
-194	-6554
-213	-6555
-525	-6556
-595	-6557
-625	-6558
-725	-6559
-807	-6560
-848	-6561
-864	-6562
-885	-6563
-900	-6564
-901	-6565
-944	-6566
0.04	-6567
0.53	-6568
11",	-6569
140.	-6570
1750	-6571
17</	-6572
23",	-6573
24",	-6574
262.	-6575
3.12	-6576
32",	-6577
3300	-6578
4.92	-6579
4.97	-6580
401.	-6581
41",	-6582
43",	-6583
51</	-6584
57",	-6585
6.92	-6586
71",	-6587
8.08	-6588
89",	-6589
92</	-6590
98",	-6591
Bill	-6592
Cruz	-6593
LDNE	-6594
LHNE	-6595
Mail	-6596
RDER	-6597
Soup	-6598
TACT	-6599
TAFF	-6600
Tota	-6601
cher	-6602
diaz	-6603
take	-6604
vers	-6605
▁"02	-6606
▁"12	-6607
▁"16	-6608
▁"25	-6609
▁"34	-6610
▁$4.	-6611
▁(00	-6612
▁129	-6613
▁13,	-6614
▁155	-6615
▁157	-6616
▁161	-6617
▁166	-6618
▁17,	-6619
▁197	-6620
▁299	-6621
▁32,	-6622
▁326	-6623
▁34.	-6624
▁358	-6625
▁504	-6626
▁521	-6627
▁55.	-6628
▁554	-6629
▁628	-6630
▁73.	-6631
▁78.	-6632
▁805	-6633
▁895	-6634
▁948	-6635
▁987	-6636
▁ACC	-6637
▁Amt	-6638
▁Elm	-6639
▁Mia	-6640
▁Pre	-6641
▁Pri	-6642
▁Sub	-6643
▁TEL	-6644
▁Teb	-6645
▁art	-6646
▁don	-6647
▁get	-6648
▁kee	-6649
▁mer	-6650
▁pol	-6651
▁tar	-6652
":"82	-6653
02160	-6654
06","	-6655
78","	-6656
Baker	-6657
Janet	-6658
Latte	-6659
Ortiz	-6660
Sport	-6661
Vista	-6662
atter	-6663
ature	-6664
gomez	-6665
ifici	-6666
inois	-6667
ksyen	-6668
lette	-6669
moore	-6670
nthly	-6671
perez	-6672
rance	-6673
▁1.80	-6674
▁12.0	-6675
▁152.	-6676
▁178.	-6677
▁196.	-6678
▁200.	-6679
▁203.	-6680
▁243.	-6681
▁302.	-6682
▁416.	-6683
▁Emma	-6684
▁Gary	-6685
▁Leah	-6686
▁Ryan	-6687
▁Soft	-6688
▁Time	-6689
▁West	-6690
▁besi	-6691
▁case	-6692
▁side	-6693
▁tori	-6694
▁west	-6695
":"107	-6696
":"118	-6697
":"119	-6698
":"128	-6699
":"134	-6700
":"144	-6701
":"176	-6702
":"191	-6703
":"461	-6704
":"475	-6705
":"50.	-6706
":"504	-6707
":"511	-6708
":"53.	-6709
":"71.	-6710
":"78.	-6711
":"80.	-6712
":"88.	-6713
":"96.	-6714
":"97.	-6715
03"},"	-6716
09"},"	-6717
12"},"	-6718
170","	-6719
21"},"	-6720
29"},"	-6721
298","	-6722
3.2024	-6723
5.2026	-6724
60"},"	-6725
602","	-6726
61"},"	-6727
7.2025	-6728
703","	-6729
99"},"	-6730
Bottle	-6731
Flight	-6732
Garcia	-6733
Nelson	-6734
Server	-6735
WINTER	-6736
iglich	-6737
▁$0.50	-6738
▁Sofia	-6739
▁Vista	-6740
▁essen	-6741
▁green	-6742
▁janet	-6743
▁katsu	-6744
▁reggi	-6745
▁value	-6746
":"113.	-6747
":"131.	-6748
":"167.	-6749
":"190.	-6750
":"191.	-6751
":"195.	-6752
":"199.	-6753
":"285.	-6754
":"307.	-6755
":"316.	-6756
":"345.	-6757
":"427,	-6758
":"701,	-6759
":"827,	-6760
":"961,	-6761
":"988,	-6762
0.06","	-6763
1.62","	-6764
1.82","	-6765
13"}],"	-6766
2.23","	-6767
2.73","	-6768
26"}],"	-6769
3.64","	-6770
4.84","	-6771
5.02","	-6772
5.44","	-6773
6.72","	-6774
6.86","	-6775
60"}],"	-6776
69"}],"	-6777
7.75","	-6778
7.88","	-6779
78"}],"	-6780
8.28","	-6781
8.82","	-6782
9.86","	-6783
Created	-6784
Germany	-6785
Grilled	-6786
Roasted	-6787
ordered	-6788
▁13"},"	-6789
▁Anchor	-6790
▁Custom	-6791
▁Modern	-6792
▁Robert	-6793
▁Sophia	-6794
▁Tebrau	-6795
▁charge	-6796
/03/2024	-6797
/04/2024	-6798
/05/2025	-6799
/08/2026	-6800
/09/2024	-6801
/12/2024	-6802
Assembly	-6803
Festival	-6804
Peterson	-6805
ignature	-6806
▁Brandon	-6807
▁CONTACT	-6808
▁balance	-6809
▁germany	-6810
":"9"}],"	-6811
-05"},{"@	-6812
-09"},{"@	-6813
-50"},{"@	-6814
-55"},{"@	-6815
-59"},{"@	-6816
-84"},{"@	-6817
-88"},{"@	-6818
-96"},{"@	-6819
vegetable	-6820
▁Magazine	-6821
▁Scarlett	-6822
▁dispatch	-6823
▁included	-6824
":"0.50","	-6825
":"2017-08	-6826
":"2017-11	-6827
▁100100000	-6828
▁Leverling	-6829
▁leverling	-6830
Transaction	-6831
▁Inspection	-6832
":"50.00"},{"@	-6833
▁100100000035-	-6834
,7	-6835
:0	-6836
>2	-6837
BH	-6838
BJ	-6839
BY	-6840
Bo	-6841
CQ	-6842
DG	-6843
DJ	-6844
DU	-6845
EC	-6846
FQ	-6847
GP	-6848
KL	-6849
KY	-6850
MF	-6851
NI	-6852
NU	-6853
OF	-6854
OI	-6855
OX	-6856
Oe	-6857
PJ	-6858
PY	-6859
Pl	-6860
QB	-6861
QM	-6862
QU	-6863
RM	-6864
RZ	-6865
SJ	-6866
TS	-6867
TU	-6868
TZ	-6869
UI	-6870
VA	-6871
VC	-6872
VH	-6873
VK	-6874
WS	-6875
WW	-6876
XF	-6877
YE	-6878
YH	-6879
ZI	-6880
ZS	-6881
ZU	-6882
br	-6883
cm	-6884
cq	-6885
go	-6886
hI	-6887
kc	-6888
pa	-6889
pm	-6890
tc	-6891
uk	-6892
▁‘	-6893
$33	-6894
$36	-6895
$37	-6896
$39	-6897
$47	-6898
,"3	-6899
,12	-6900
,20	-6901
,31	-6902
-81	-6903
/15	-6904
/16	-6905
034	-6906
06-	-6907
07"	-6908
074	-6909
1-1	-6910
111	-6911
118	-6912
13/	-6913
150	-6914
155	-6915
16-	-6916
18)	-6917
184	-6918
19"	-6919
2.9	-6920
205	-6921
213	-6922
238	-6923
24-	-6924
256	-6925
25@	-6926
266	-6927
274	-6928
284	-6929
28@	-6930
290	-6931
30.	-6932
345	-6933
354	-6934
356	-6935
35@	-6936
36-	-6937
38"	-6938
39"	-6939
40.	-6940
40@	-6941
41.	-6942
43"	-6943
44-	-6944
50@	-6945
51"	-6946
55)	-6947
58.	-6948
602	-6949
631	-6950
642	-6951
643	-6952
659	-6953
65@	-6954
66"	-6955
665	-6956
67"	-6957
68.	-6958
680	-6959
69"	-6960
7.5	-6961
74@	-6962
78"	-6963
783	-6964
785	-6965
846	-6966
92.	-6967
93.	-6968
93@	-6969
943	-6970
97"	-6971
971	-6972
977	-6973
98.	-6974
985	-6975
99"	-6976
996	-6977
997	-6978
>69	-6979
Bra	-6980
CQT	-6981
FCC	-6982
ILS	-6983
MCC	-6984
Oil	-6985
PCC	-6986
PWB	-6987
SCC	-6988
TCC	-6989
Tee	-6990
VCC	-6991
VER	-6992
VWB	-6993
ami	-6994
ass	-6995
bia	-6996
exB	-6997
exa	-6998
exi	-6999
ict	-7000
iti	-7001
its	-7002
ize	-7003
ker	-7004
kné	-7005
lre	-7006
mel	-7007
pcs	-7008
rab	-7009
rus	-7010
ucc	-7011
urd	-7012
uys	-7013
▁32	-7014
▁Is	-7015
▁OW	-7016
▁br	-7017
▁da	-7018
▁dr	-7019
▁my	-7020
$45.	-7021
,","	-7022
-128	-7023
-223	-7024
-274	-7025
-328	-7026
-333	-7027
-388	-7028
-413	-7029
-426	-7030
-487	-7031
-624	-7032
-664	-7033
-727	-7034
-765	-7035
-774	-7036
-805	-7037
-815	-7038
-834	-7039
-897	-7040
-913	-7041
-935	-7042
1.68	-7043
153.	-7044
17",	-7045
2.73	-7046
2000	-7047
226.	-7048
2474	-7049
25.0	-7050
26",	-7051
3.36	-7052
3.46	-7053
31</	-7054
35",	-7055
4.04	-7056
4.67	-7057
47",	-7058
48",	-7059
49</	-7060
5.09	-7061
5.24	-7062
5.25	-7063
5.84	-7064
55",	-7065
6.14	-7066
6.56	-7067
6.77	-7068
6.85	-7069
62",	-7070
63</	-7071
66",	-7072
7.14	-7073
7.28	-7074
7.85	-7075
7.96	-7076
7500	-7077
770.	-7078
8.16	-7079
8.85	-7080
9.24	-7081
9.65	-7082
93",	-7083
9778	-7084
="02	-7085
="07	-7086
ALUE	-7087
DATE	-7088
Hand	-7089
Hill	-7090
IENT	-7091
LQNE	-7092
LTNE	-7093
LXNE	-7094
PING	-7095
Paid	-7096
Tray	-7097
alak	-7098
anas	-7099
back	-7100
cash	-7101
cert	-7102
ican	-7103
iscu	-7104
late	-7105
mers	-7106
mode	-7107
onbu	-7108
pang	-7109
rgan	-7110
rint	-7111
rush	-7112
taco	-7113
tand	-7114
tton	-7115
urst	-7116
user	-7117
vanc	-7118
▁"05	-7119
▁"14	-7120
▁"20	-7121
▁017	-7122
▁046	-7123
▁087	-7124
▁091	-7125
▁095	-7126
▁11;	-7127
▁131	-7128
▁140	-7129
▁15,	-7130
▁168	-7131
▁179	-7132
▁17;	-7133
▁187	-7134
▁188	-7135
▁190	-7136
▁216	-7137
▁257	-7138
▁262	-7139
▁265	-7140
▁28,	-7141
▁285	-7142
▁39,	-7143
▁530	-7144
▁579	-7145
▁603	-7146
▁700	-7147
▁703	-7148
▁705	-7149
▁719	-7150
▁808	-7151
▁855	-7152
▁91.	-7153
▁942	-7154
▁978	-7155
▁BEF	-7156
▁Doc	-7157
▁One	-7158
▁REF	-7159
▁Reg	-7160
▁Row	-7161
▁Tow	-7162
▁WAY	-7163
▁app	-7164
▁cab	-7165
▁day	-7166
▁del	-7167
▁lvd	-7168
▁otm	-7169
▁pet	-7170
▁tue	-7171
▁val	-7172
03060	-7173
07:00	-7174
13:00	-7175
84","	-7176
86","	-7177
87","	-7178
Adams	-7179
CHANT	-7180
House	-7181
Jones	-7182
Large	-7183
Nancy	-7184
Olive	-7185
Spicy	-7186
Young	-7187
andan	-7188
ashop	-7189
atime	-7190
emmel	-7191
ering	-7192
inger	-7193
night	-7194
stall	-7195
terns	-7196
utter	-7197
▁09.0	-7198
▁134.	-7199
▁143.	-7200
▁15.0	-7201
▁151.	-7202
▁184.	-7203
▁192.	-7204
▁194.	-7205
▁2.00	-7206
▁236.	-7207
▁237.	-7208
▁248.	-7209
▁259.	-7210
▁268.	-7211
▁269.	-7212
▁281.	-7213
▁282.	-7214
▁353.	-7215
▁378.	-7216
▁4.80	-7217
▁7.20	-7218
▁Baru	-7219
▁CODE	-7220
▁City	-7221
▁Item	-7222
▁Open	-7223
▁Sale	-7224
▁Stre	-7225
▁excl	-7226
▁open	-7227
▁park	-7228
▁save	-7229
▁taco	-7230
":"115	-7231
":"136	-7232
":"170	-7233
":"178	-7234
":"183	-7235
":"190	-7236
":"207	-7237
":"278	-7238
":"3.8	-7239
":"551	-7240
":"62.	-7241
":"66.	-7242
":"817	-7243
":"954	-7244
069","	-7245
1.6","	-7246
104","	-7247
2.2025	-7248
213","	-7249
23"},"	-7250
261248	-7251
264","	-7252
3.2025	-7253
31"},"	-7254
370","	-7255
4"}],"	-7256
4.8","	-7257
44"},"	-7258
5.8","	-7259
6.2024	-7260
604","	-7261
646","	-7262
682","	-7263
789","	-7264
804","	-7265
9.7","	-7266
Dining	-7267
Miller	-7268
Rivera	-7269
Shorts	-7270
Walker	-7271
appucc	-7272
attery	-7273
avault	-7274
client	-7275
exible	-7276
immers	-7277
iterns	-7278
knédel	-7279
sophia	-7280
uchong	-7281
vanced	-7282
▁$1.30	-7283
▁$2.00	-7284
▁$5.50	-7285
▁18.80	-7286
▁36.00	-7287
▁Aiden	-7288
▁Count	-7289
▁Event	-7290
▁Indah	-7291
▁Noise	-7292
▁Round	-7293
▁STAFF	-7294
▁VALUE	-7295
▁anton	-7296
▁glove	-7297
▁indah	-7298
▁nancy	-7299
▁paint	-7300
▁promo	-7301
▁sanyu	-7302
▁slice	-7303
▁smile	-7304
":"101.	-7305
":"106.	-7306
":"108.	-7307
":"123.	-7308
":"126.	-7309
":"157.	-7310
":"163.	-7311
":"170.	-7312
":"177.	-7313
":"18.8	-7314
":"185.	-7315
":"192.	-7316
":"194.	-7317
":"196.	-7318
":"200.	-7319
":"209.	-7320
":"210.	-7321
":"220.	-7322
":"233.	-7323
":"239.	-7324
":"242.	-7325
":"245,	-7326
":"246.	-7327
":"251.	-7328
":"262,	-7329
":"266.	-7330
":"271.	-7331
":"286.	-7332
":"315.	-7333
":"317.	-7334
":"341,	-7335
":"447,	-7336
":"625,	-7337
":"803,	-7338
":"869,	-7339
":30},"	-7340
0.82","	-7341
01"}],"	-7342
09"}],"	-7343
1.08","	-7344
1.72","	-7345
1.87","	-7346
12"}],"	-7347
2.06","	-7348
2.74","	-7349
2.88","	-7350
2.89","	-7351
20.0","	-7352
3.21","	-7353
3.73","	-7354
33"}],"	-7355
4.04","	-7356
5.87","	-7357
54"}],"	-7358
6.05","	-7359
6.77","	-7360
6.78","	-7361
6.80","	-7362
61"}],"	-7363
64"}],"	-7364
8.71","	-7365
8.88","	-7366
9.02","	-7367
Edwards	-7368
INVOICE	-7369
Johnson	-7370
Seminar	-7371
aclette	-7372
alakong	-7373
collins	-7374
exBmple	-7375
filment	-7376
iscuits	-7377
mission	-7378
ocolate	-7379
ssional	-7380
▁31"},"	-7381
▁Andrew	-7382
▁Justin	-7383
▁Mobile	-7384
▁Towels	-7385
▁Winter	-7386
▁barley	-7387
▁grocer	-7388
▁subang	-7389
/02/2025	-7390
/04/2026	-7391
/07/2025	-7392
/08/2024	-7393
/08/2025	-7394
/09/2025	-7395
/10/2024	-7396
/28/2024	-7397
70"},{"@	-7398
Operator	-7399
Sandwich	-7400
ectronic	-7401
payrnent	-7402
▁2017-01	-7403
▁2017-09	-7404
▁2024-11	-7405
▁Davolio	-7406
▁INVOICE	-7407
▁Matthew	-7408
▁Tablets	-7409
▁Vitamin	-7410
▁bennett	-7411
▁chinois	-7412
▁davolio	-7413
▁horizon	-7414
▁markets	-7415
-18"},{"@	-7416
-22"},{"@	-7417
-33"},{"@	-7418
-35"},{"@	-7419
-38"},{"@	-7420
-43"},{"@	-7421
-52"},{"@	-7422
-79"},{"@	-7423
-89"},{"@	-7424
-91"},{"@	-7425
-92"},{"@	-7426
-93"},{"@	-7427
030602035	-7428
appuccino	-7429
▁MERCHANT	-7430
▁Payrnent	-7431
▁Penelope	-7432
▁Portable	-7433
▁SHIPPING	-7434
▁original	-7435
▁received	-7436
":"1.00","	-7437
":"2017-01	-7438
":"2017-02	-7439
":"2017-03	-7440
":"2017-10	-7441
":"7.10","	-7442
":"8.20","	-7443
stallation	-7444
▁Alexander	-7445
▁Developer	-7446
▁Northstar	-7447
emmelknédel	-7448
▁Mechanical	-7449
▁restaurant	-7450
▁stationery	-7451
":"10.00"},{"@	-7452
%:	-7453
/1	-7454
1)	-7455
3@	-7456
:;	-7457
AZ	-7458
BC	-7459
BP	-7460
BU	-7461
DA	-7462
DX	-7463
FB	-7464
FG	-7465
FM	-7466
FO	-7467
FP	-7468
FV	-7469
GM	-7470
GT	-7471
GY	-7472
HS	-7473
IE	-7474
IX	-7475
Ir	-7476
It	-7477
KC	-7478
KV	-7479
MN	-7480
MW	-7481
NF	-7482
NQ	-7483
NX	-7484
OA	-7485
OE	-7486
OH	-7487
OZ	-7488
PK	-7489
QC	-7490
RB	-7491
RF	-7492
SC	-7493
SN	-7494
TC	-7495
TL	-7496
TQ	-7497
UF	-7498
UJ	-7499
VM	-7500
VP	-7501
VX	-7502
WC	-7503
WG	-7504
WX	-7505
XB	-7506
XI	-7507
YS	-7508
ZC	-7509
ae	-7510
ib	-7511
na	-7512
oz	-7513
ti	-7514
vl	-7515
vr	-7516
▁¥	-7517
$43	-7518
$45	-7519
$67	-7520
$74	-7521
,"6	-7522
,01	-7523
-52	-7524
-72	-7525
/24	-7526
005	-7527
012	-7528
031	-7529
042	-7530
045	-7531
06)	-7532
0</	-7533
1.2	-7534
1.4	-7535
10-	-7536
110	-7537
115	-7538
116	-7539
124	-7540
131	-7541
15@	-7542
16.	-7543
171	-7544
18"	-7545
181	-7546
188	-7547
193	-7548
2.2	-7549
2.4	-7550
215	-7551
22:	-7552
231	-7553
23@	-7554
260	-7555
267	-7556
269	-7557
289	-7558
29-	-7559
307	-7560
30@	-7561
313	-7562
341	-7563
348	-7564
34:	-7565
34@	-7566
377	-7567
387	-7568
38@	-7569
39)	-7570
392	-7571
393	-7572
430	-7573
443	-7574
47.	-7575
51@	-7576
52@	-7577
545	-7578
555	-7579
57"	-7580
59.	-7581
59@	-7582
601	-7583
606	-7584
61"	-7585
63"	-7586
630	-7587
64.	-7588
673	-7589
686	-7590
690	-7591
72@	-7592
77.	-7593
833	-7594
841	-7595
901	-7596
91.	-7597
915	-7598
919	-7599
92@	-7600
937	-7601
944	-7602
95@	-7603
96@	-7604
973	-7605
="2	-7606
>20	-7607
>26	-7608
>31	-7609
>43	-7610
CIP	-7611
ECC	-7612
KWB	-7613
Kim	-7614
LWB	-7615
OPY	-7616
PER	-7617
PON	-7618
PRO	-7619
Par	-7620
QCC	-7621
STA	-7622
Vip	-7623
YWB	-7624
anj	-7625
ars	-7626
erb	-7627
ert	-7628
irn	-7629
ken	-7630
mio	-7631
mix	-7632
ned	-7633
nee	-7634
olk	-7635
otm	-7636
ott	-7637
own	-7638
tte	-7639
ush	-7640
vnd	-7641
vol	-7642
▁**	-7643
▁+9	-7644
▁1:	-7645
▁72	-7646
▁82	-7647
▁92	-7648
▁Bl	-7649
▁CL	-7650
▁CO	-7651
▁DO	-7652
▁GO	-7653
▁PL	-7654
▁Th	-7655
▁fe	-7656
▁ie	-7657
▁lk	-7658
▁ll	-7659
▁rd	-7660
▁sc	-7661
▁ut	-7662
▁va	-7663
$13.	-7664
$29.	-7665
$42.	-7666
,"35	-7667
,"68	-7668
,24.	-7669
-051	-7670
-061	-7671
-117	-7672
-125	-7673
-197	-7674
-215	-7675
-225	-7676
-239	-7677
-303	-7678
-326	-7679
-338	-7680
-344	-7681
-354	-7682
-368	-7683
-377	-7684
-408	-7685
-417	-7686
-428	-7687
-472	-7688
-534	-7689
-557	-7690
-568	-7691
-620	-7692
-667	-7693
-708	-7694
-720	-7695
-785	-7696
-788	-7697
-794	-7698
-813	-7699
-818	-7700
-845	-7701
-874	-7702
-903	-7703
0.25	-7704
0.75	-7705
00-8	-7706
1.25	-7707
1.36	-7708
1.49	-7709
1.69	-7710
1.96	-7711
11</	-7712
1559	-7713
170-	-7714
1760	-7715
2.22	-7716
2.23	-7717
2.24	-7718
2.55	-7719
2.86	-7720
2.93	-7721
2675	-7722
27",	-7723
3.56	-7724
3.64	-7725
3.69	-7726
3.76	-7727
303.	-7728
328.	-7729
329.	-7730
33</	-7731
355.	-7732
3577	-7733
37",	-7734
39",	-7735
4.08	-7736
4.35	-7737
4.62	-7738
4.76	-7739
4.82	-7740
45",	-7741
46",	-7742
49",	-7743
5.05	-7744
5.32	-7745
5.39	-7746
5.47	-7747
53",	-7748
531.	-7749
6.22	-7750
6.48	-7751
6.98	-7752
61",	-7753
616,	-7754
7.32	-7755
7.44	-7756
7.46	-7757
7.56	-7758
7.99	-7759
79",	-7760
79</	-7761
8.48	-7762
8.84	-7763
81",	-7764
83",	-7765
9.04	-7766
9.26	-7767
9.42	-7768
9.68	-7769
="04	-7770
="10	-7771
ALAN	-7772
ATOR	-7773
CESS	-7774
Hall	-7775
INAL	-7776
King	-7777
LINE	-7778
LSNE	-7779
Marg	-7780
Mart	-7781
Shah	-7782
arnp	-7783
char	-7784
cock	-7785
ifth	-7786
inci	-7787
meat	-7788
noah	-7789
sday	-7790
sold	-7791
stor	-7792
ummi	-7793
xxxx	-7794
▁"01	-7795
▁"07	-7796
▁"27	-7797
▁"37	-7798
▁"67	-7799
▁(11	-7800
▁012	-7801
▁030	-7802
▁048	-7803
▁061	-7804
▁063	-7805
▁065	-7806
▁09;	-7807
▁102	-7808
▁119	-7809
▁133	-7810
▁184	-7811
▁192	-7812
▁219	-7813
▁23,	-7814
▁23/	-7815
▁236	-7816
▁24,	-7817
▁242	-7818
▁246	-7819
▁253	-7820
▁256	-7821
▁277	-7822
▁283	-7823
▁318	-7824
▁325	-7825
▁400	-7826
▁423	-7827
▁443	-7828
▁49.	-7829
▁545	-7830
▁584	-7831
▁600	-7832
▁667	-7833
▁668	-7834
▁683	-7835
▁69,	-7836
▁691	-7837
▁7/4	-7838
▁721	-7839
▁927	-7840
▁954	-7841
▁967	-7842
▁97.	-7843
▁AMT	-7844
▁COU	-7845
▁LED	-7846
▁OUT	-7847
▁Pea	-7848
▁Pen	-7849
▁SUB	-7850
▁con	-7851
▁gal	-7852
▁kas	-7853
▁let	-7854
▁ser	-7855
▁sof	-7856
▁sro	-7857
▁usa	-7858
▁wan	-7859
":"3,	-7860
$153.	-7861
-3362	-7862
05827	-7863
89","	-7864
LCOME	-7865
Legal	-7866
Perez	-7867
STAND	-7868
Shamp	-7869
Smith	-7870
Spark	-7871
acock	-7872
appar	-7873
econd	-7874
final	-7875
ignee	-7876
ivery	-7877
mason	-7878
tates	-7879
▁$10.	-7880
▁1.20	-7881
▁113.	-7882
▁114.	-7883
▁141,	-7884
▁209.	-7885
▁216.	-7886
▁218.	-7887
▁220.	-7888
▁221.	-7889
▁230.	-7890
▁231.	-7891
▁234.	-7892
▁250.	-7893
▁263.	-7894
▁270.	-7895
▁272.	-7896
▁276.	-7897
▁303.	-7898
▁320.	-7899
▁331.	-7900
▁400.	-7901
▁5.00	-7902
▁8.00	-7903
▁CONS	-7904
▁COPY	-7905
▁DETA	-7906
▁Ella	-7907
▁Iced	-7908
▁Zoey	-7909
▁baru	-7910
▁call	-7911
▁camp	-7912
▁desc	-7913
▁dine	-7914
▁ever	-7915
▁gute	-7916
▁less	-7917
▁plus	-7918
▁soup	-7919
▁till	-7920
":"012	-7921
":"017	-7922
":"146	-7923
":"150	-7924
":"179	-7925
":"187	-7926
":"195	-7927
":"2.8	-7928
":"210	-7929
":"276	-7930
":"30,	-7931
":"318	-7932
":"358	-7933
":"403	-7934
":"498	-7935
":"603	-7936
":"707	-7937
":"744	-7938
":"87,	-7939
":"895	-7940
":"923	-7941
":"988	-7942
033","	-7943
043","	-7944
057","	-7945
081","	-7946
144","	-7947
190","	-7948
2.3","	-7949
20"},"	-7950
222","	-7951
299","	-7952
303","	-7953
34"},"	-7954
389","	-7955
392","	-7956
399","	-7957
4.0","	-7958
47"},"	-7959
48"},"	-7960
5.6","	-7961
6.2025	-7962
616","	-7963
618","	-7964
635","	-7965
642","	-7966
67"},"	-7967
672","	-7968
68"},"	-7969
739","	-7970
783","	-7971
8.2026	-7972
890","	-7973
9.2024	-7974
9.9","	-7975
911","	-7976
947","	-7977
979","	-7978
ALANCE	-7979
Amount	-7980
Brooks	-7981
CESSED	-7982
Cotton	-7983
Martin	-7984
Parker	-7985
Wilson	-7986
oucher	-7987
spring	-7988
urnent	-7989
▁10000	-7990
▁1393.	-7991
▁50.00	-7992
▁Darul	-7993
▁Ehsan	-7994
▁Fifth	-7995
▁First	-7996
▁Isles	-7997
▁Lucas	-7998
▁OWING	-7999
▁Owing	-8000
▁Power	-8001
▁Spicy	-8002
▁Stack	-8003
▁Stone	-8004
▁Swift	-8005
▁black	-8006
▁check	-8007
▁devol	-8008
▁ehsan	-8009
▁fries	-8010
▁house	-8011
▁isles	-8012
▁lager	-8013
▁metro	-8014
▁pasir	-8015
▁royal	-8016
▁sauce	-8017
▁setia	-8018
▁super	-8019
▁swift	-8020
▁trans	-8021
":"107.	-8022
":"118.	-8023
":"158.	-8024
":"164.	-8025
":"180.	-8026
":"232.	-8027
":"234.	-8028
":"242,	-8029
":"250.	-8030
":"255.	-8031
":"258,	-8032
":"258.	-8033
":"263.	-8034
":"279.	-8035
":"287.	-8036
":"298.	-8037
":"302,	-8038
":"321.	-8039
":"330,	-8040
":"331.	-8041
":"339,	-8042
":"340,	-8043
":"353,	-8044
":"355.	-8045
":"370.	-8046
":"396,	-8047
":"411.	-8048
":"505,	-8049
":"551,	-8050
":"651,	-8051
":"685,	-8052
":"742,	-8053
":"811,	-8054
":"920,	-8055
":"932,	-8056
":"945,	-8057
":40},"	-8058
0.08","	-8059
0.18","	-8060
0.48","	-8061
0.77","	-8062
02"}],"	-8063
04"}],"	-8064
07"}],"	-8065
1.05","	-8066
1.06","	-8067
1.67","	-8068
1.83","	-8069
10.2025	-8070
2.05","	-8071
2.07","	-8072
2.09","	-8073
2.84","	-8074
3.81","	-8075
3.88","	-8076
34"}],"	-8077
4.24","	-8078
4.57","	-8079
"	-8080
e	-8081
t	-8082
r	-8083
i	-8084
a	-8085
:	-8086
,	-8087
▁	-8088
n	-8089
o	-8090
d	-8091
p	-8092
l	-8093
s	-8094
u	-8095
c	-8096
y	-8097
m	-8098
@	-8099
-	-8100
{	-8101
}	-8102
f	-8103
1	-8104
2	-8105
P	-8106
.	-8107
v	-8108
h	-8109
0	-8110
S	-8111
C	-8112
g	-8113
3	-8114
4	-8115
/	-8116
5	-8117
6	-8118
D	-8119
#	-8120
8	-8121
R	-8122
7	-8123
9	-8124
A	-8125
O	-8126
V	-8127
>	-8128
T	-8129
b	-8130
<	-8131
x	-8132
N	-8133
Q	-8134
U	-8135
k	-8136
I	-8137
E	-8138
M	-8139
B	-8140
G	-8141
L	-8142
_	-8143
[	-8144
]	-8145
w	-8146
=	-8147
Z	-8148
W	-8149
z	-8150
K	-8151
Y	-8152
F	-8153
H	-8154
q	-8155
$	-8156
+	-8157
J	-8158
)	-8159
X	-8160
(	-8161
j	-8162
;	-8163
|	-8164
&	-8165
%	-8166
!	-8167
'	-8168
*	-8169
~	-8170
é	-8171
—	-8172
©	-8173
\	-8174
’	-8175
“	-8176
§	-8177
¥	-8178
¢	-8179
£	-8180
°	-8181
‘	-8182
?	-8183
«	-8184
®	-8185
»	-8186
”	-8187
€	-8188
