<unk>	0
<s>	0
</s>	0
\"	-0
\":	-1
\":\"	-2
,\"	-3
\",\"	-4
er	-5
ty	-6
al	-7
\"@	-8
{\"@	-9
pe	-10
\"}	-11
ti	-12
ue	-13
type	-14
an	-15
ic	-16
alue	-17
id	-18
pr	-19
it	-20
\":\"#	-21
me	-22
ice	-23
re	-24
\":{\"@	-25
00	-26
fer	-27
na	-28
,{\"@	-29
Pr	-30
on	-31
name	-32
em	-33
price	-34
ffer	-35
▁s	-36
od	-37
per	-38
un	-39
value	-40
Value	-41
st	-42
ati	-43
or	-44
uan	-45
uanti	-46
\",\"@	-47
el	-48
\"},\"	-49
Quanti	-50
uc	-51
item	-52
uct	-53
oduct	-54
▁1	-55
hi	-56
▁t	-57
ex	-58
oper	-59
Proper	-60
Property	-61
dd	-62
ss	-63
▁c	-64
ext	-65
unit	-66
\"},{\"@	-67
der	-68
hip	-69
PropertyValue	-70
ot	-71
mer	-72
Offer	-73
ress	-74
ddress	-75
Text	-76
unitText	-77
en	-78
product	-79
ed	-80
ch	-81
ation	-82
-1	-83
},{\"@	-84
in	-85
et	-86
otal	-87
offer	-88
20	-89
▁d	-90
ur	-91
ve	-92
order	-93
eli	-94
at	-95
▁ship	-96
gi	-97
ay	-98
if	-99
le	-100
ar	-101
Spe	-102
ific	-103
Quantity	-104
cific	-105
tati	-106
tative	-107
tativeValue	-108
Specific	-109
Specification	-110
-2	-111
address	-112
\"}},{\"@	-113
0.	-114
as	-115
MY	-116
MYR	-117
\":[	-118
\":[{\"@	-119
cy	-120
ust	-121
ren	-122
Cur	-123
rency	-124
Currency	-125
priceCurrency	-126
▁total	-127
ant	-128
ce	-129
nt	-130
ble	-131
\"}]	-132
\":\"1	-133
ment	-134
omer	-135
ustomer	-136
\":1	-137
il	-138
▁2	-139
ayment	-140
▁g	-141
201	-142
-0	-143
\":1,\"	-144
chant	-145
merchant	-146
oun	-147
▁b	-148
ate	-149
ver	-150
0\",\"	-151
eligi	-152
Offered	-153
eligible	-154
itemOffered	-155
eligibleQuantity	-156
Price	-157
▁a	-158
ost	-159
▁p	-160
um	-161
tt	-162
Address	-163
ler	-164
ostal	-165
ail	-166
ps	-167
00\",\"	-168
ount	-169
//	-170
://	-171
htt	-172
https	-173
sel	-174
seller	-175
pl	-176
org	-177
▁(	-178
▁r	-179
Product	-180
ema	-181
sch	-182
schema	-183
very	-184
▁det	-185
elivery	-186
▁detail	-187
▁details	-188
ang	-189
▁3	-190
Or	-191
-1\",\"@	-192
ing	-193
ode	-194
ER	-195
ee	-196
▁4	-197
ac	-198
ber	-199
Re	-200
▁price	-201
99	-202
▁n	-203
-3	-204
umber	-205
oc	-206
ier	-207
Number	-208
Payment	-209
ra	-210
Un	-211
▁name	-212
000	-213
enti	-214
▁I	-215
ax	-216
fier	-217
identi	-218
identifier	-219
Unit	-220
▁w	-221
ence	-222
ference	-223
6.	-224
ph	-225
▁5	-226
us	-227
total	-228
\":\"2	-229
-2\",\"@	-230
ity	-231
▁re	-232
UnitPrice	-233
reference	-234
US	-235
\"}}	-236
ry	-237
▁f	-238
▁id	-239
\":\"201	-240
▁product	-241
▁|	-242
▁q	-243
Date	-244
tion	-245
ash	-246
0000	-247
USD	-248
Regi	-249
▁order	-250
oy	-251
es	-252
pt	-253
customer	-254
ountry	-255
▁m	-256
om	-257
\"}]},{\"@	-258
▁customer	-259
oyee	-260
hipper	-261
ployee	-262
tional	-263
delivery	-264
▁shipper	-265
▁0	-266
▁gst	-267
3.	-268
12	-269
▁l	-270
Code	-271
1.	-272
60	-273
is	-274
▁"	-275
add	-276
▁in	-277
▁:	-278
con	-279
Due	-280
Order	-281
St	-282
▁j	-283
gra	-284
addi	-285
▁unit	-286
additional	-287
}"	-288
cont	-289
▁"{\"@	-290
context	-291
graph	-292
PaymentDue	-293
totalPaymentDue	-294
-4	-295
.0	-296
▁date	-297
OR	-298
▁0.	-299
\"}],\"	-300
▁ID	-301
TA	-302
▁S	-303
▁k	-304
ERR	-305
Loc	-306
ani	-307
ERROR	-308
▁T	-309
▁ch	-310
\":\"[	-311
payment	-312
ol	-313
acce	-314
pted	-315
reet	-316
▁tax	-317
Local	-318
uantity	-319
accepted	-320
▁quantity	-321
acceptedOffer	-322
Postal	-323
PostalAddress	-324
\":\"4	-325
street	-326
orderDate	-327
streetAddress	-328
am	-329
▁7	-330
Locality	-331
addressLocality	-332
▁6	-333
7-0	-334
.5	-335
ia	-336
and	-337
▁201	-338
alan	-339
\":\"0.	-340
10	-341
IN	-342
NC	-343
▁o	-344
UNC	-345
▁em	-346
ERTA	-347
ERTAIN	-348
postal	-349
UNCERTAIN	-350
postalCode	-351
orderNumber	-352
▁h	-353
Country	-354
addressCountry	-355
▁P	-356
Org	-357
aniz	-358
Organiz	-359
Organization	-360
90	-361
80	-362
tem	-363
ped	-364
Region	-365
shipper	-366
Delivery	-367
▁employee	-368
addressRegion	-369
th	-370
▁B	-371
ange	-372
ou	-373
▁10	-374
\"}]}"	-375
\":\"3	-376
8-0	-377
-1\"},\"	-378
17	-379
8.	-380
30	-381
Item	-382
ess	-383
▁Number	-384
Com	-385
▁no	-386
5\",\"	-387
-3\",\"@	-388
-1\"},{\"@	-389
Cash	-390
GS	-391
ak	-392
GST	-393
cl	-394
.00	-395
\":\"5	-396
ri	-397
ub	-398
▁E	-399
001	-400
▁rm	-401
▁$	-402
▁J	-403
▁i	-404
▁am	-405
40	-406
▁9	-407
▁A	-408
▁sr	-409
▁0.00	-410
vo	-411
▁12	-412
ping	-413
11	-414
voice	-415
\"}},\"	-416
\"}}},{\"@	-417
23	-418
Ch	-419
▁-	-420
ays	-421
ete	-422
str	-423
▁N	-424
plete	-425
hd	-426
ov	-427
▁e	-428
Stat	-429
Status	-430
-2\"},\"	-431
Complete	-432
paymentStatus	-433
PaymentComplete	-434
\":\"0.00\",\"	-435
35	-436
dn	-437
22	-438
9.	-439
9999	-440
55	-441
ad	-442
ame	-443
arc	-444
▁cash	-445
13	-446
ge	-447
ard	-448
▁st	-449
ding	-450
6\",\"	-451
\":\"2018-0	-452
67	-453
ah	-454
▁#	-455
▁C	-456
▁y	-457
50	-458
87	-459
lo	-460
▁th	-461
▁shipping	-462
18	-463
▁&	-464
enu	-465
▁co	-466
▁code	-467
Registr	-468
\":\"10	-469
\":\"2017-0	-470
Registration	-471
5.	-472
one	-473
able	-474
▁Registration	-475
85	-476
Menu	-477
hier	-478
-4\",\"@	-479
MenuItem	-480
▁invoice	-481
34	-482
prov	-483
2.	-484
alays	-485
ashier	-486
alaysia	-487
oh	-488
▁20	-489
▁Name	-490
▁city	-491
\":\"8	-492
16	-493
7.	-494
ut	-495
▁8	-496
Met	-497
any	-498
ore	-499
▁se	-500
arcel	-501
▁Jalan	-502
▁jalan	-503
▁products	-504
-5	-505
ka	-506
ul	-507
▁K	-508
ain	-509
hod	-510
▁al	-511
ider	-512
Method	-513
▁amount	-514
paymentMethod	-515
14	-516
Em	-517
▁M	-518
▁v	-519
ank	-520
edy	-521
mar	-522
Ship	-523
gion	-524
elang	-525
ender	-526
▁Date	-527
Parcel	-528
Shipped	-529
Shipper	-530
▁postal	-531
▁region	-532
Customer	-533
Employee	-534
Malaysia	-535
provider	-536
▁address	-537
▁country	-538
▁shipped	-539
orderDelivery	-540
ParcelDelivery	-541
deliveryAddress	-542
/0	-543
av	-544
os	-545
ele	-546
ern	-547
isc	-548
15	-549
rm	-550
Store	-551
press	-552
8\",\"	-553
elangor	-554
-6	-555
ig	-556
0.0	-557
ope	-558
ales	-559
eleph	-560
Change	-561
25	-562
▁@	-563
aur	-564
clu	-565
▁sh	-566
urope	-567
▁2017-0	-568
-2\"}],\"	-569
-2\"},{\"@	-570
32	-571
39	-572
4.	-573
bo	-574
aya	-575
ica	-576
ohor	-577
3\",\"	-578
teleph	-579
\":\"3.	-580
▁change	-581
telephone	-582
19	-583
▁D	-584
.50	-585
endered	-586
ubtotal	-587
45	-588
88	-589
la	-590
ok	-591
po	-592
▁1.	-593
▁reg	-594
-3\"},\"	-595
75	-596
▁*	-597
▁In	-598
Total	-599
2\",\"	-600
4\",\"	-601
\":\"0	-602
65	-603
ap	-604
Tax	-605
\":2	-606
▁thank	-607
:00\",\"	-608
▁Tendered	-609
1-	-610
37	-611
are	-612
cei	-613
mas	-614
ood	-615
▁ex	-616
▁pe	-617
▁ve	-618
▁bhd	-619
▁sdn	-620
▁tel	-621
▁you	-622
7-1	-623
ase	-624
▁15	-625
▁18	-626
▁Ex	-627
mary	-628
▁item	-629
9\",\"	-630
\":\"1.	-631
iscount	-632
70	-633
DR	-634
ow	-635
▁.	-636
▁=	-637
▁L	-638
IDR	-639
]}"	-640
les	-641
ong	-642
▁of	-643
▁su	-644
▁ti	-645
▁per	-646
staur	-647
▁Code	-648
merica	-649
staurant	-650
46	-651
95	-652
br	-653
im	-654
sh	-655
com	-656
▁me	-657
orth	-658
outh	-659
▁Bhd	-660
▁sum	-661
0.0\",\"	-662
26	-663
48	-664
96	-665
ie	-666
io	-667
▁u	-668
ast	-669
poi	-670
/201	-671
▁Sdn	-672
▁qty	-673
ampoi	-674
ceipt	-675
\":\"2.	-676
00000000	-677
▁summary	-678
21	-679
3-	-680
aw	-681
ik	-682
ru	-683
6-1	-684
ies	-685
ine	-686
ran	-687
usin	-688
20\",\"	-689
▁2018-0	-690
\":\"000	-691
▁cashier	-692
-1\"}],\"	-693
te	-694
▁R	-695
ace	-696
ter	-697
▁11	-698
▁19	-699
▁ca	-700
▁de	-701
▁gr	-702
,000	-703
0.00	-704
acka	-705
Busin	-706
1\",\"	-707
\":\"6	-708
ackage	-709
\":2,\"	-710
Business	-711
-3\"},{\"@	-712
Restaurant	-713
27	-714
6%	-715
:0	-716
de	-717
op	-718
▁/	-719
▁G	-720
4.0	-721
Ser	-722
▁13	-723
▁6.	-724
▁000	-725
▁sales	-726
ir	-727
▁~	-728
007	-729
est	-730
ind	-731
▁3.	-732
▁30	-733
▁ag	-734
▁ar	-735
asan	-736
rian	-737
▁spe	-738
\":\"9	-739
indust	-740
-4\"},\"	-741
99999999	-742
Subtotal	-743
industrian	-744
/4	-745
33	-746
dj	-747
ea	-748
qu	-749
1-1	-750
2-0	-751
ake	-752
ite	-753
▁sa	-754
▁us	-755
book	-756
ound	-757
▁Per	-758
▁and	-759
▁bar	-760
▁sub	-761
▁wit	-762
000000	-763
awasan	-764
▁again	-765
acebook	-766
cluding	-767
ounding	-768
-1\"}},{\"@	-769
24	-770
47	-771
84	-772
86	-773
ck	-774
of	-775
all	-776
arg	-777
hin	-778
▁00	-779
▁17	-780
eder	-781
▁amt	-782
Speedy	-783
ederal	-784
estern	-785
\"}}]}"	-786
▁speedy	-787
-5\",\"@	-788
▁Express	-789
▁express	-790
▁selangor	-791
\":\"1\"}},{\"@	-792
36	-793
ne	-794
ts	-795
▁+	-796
▁F	-797
▁H	-798
▁©	-799
1-2	-800
110	-801
ide	-802
ive	-803
our	-804
ven	-805
▁4.	-806
▁55	-807
▁an	-808
pany	-809
▁incl	-810
Cashier	-811
▁europe	-812
Selangor	-813
\":\"21.	-814
28	-815
ai	-816
ix	-817
ww	-818
▁W	-819
388	-820
aco	-821
gst	-822
let	-823
ppl	-824
son	-825
ump	-826
ung	-827
▁16	-828
▁6%	-829
▁Su	-830
▁er	-831
▁is	-832
▁le	-833
▁ro	-834
▁wh	-835
ling	-836
tish	-837
▁185	-838
▁are	-839
00000	-840
Johor	-841
andar	-842
▁1001	-843
▁Jaya	-844
▁come	-845
80\",\"	-846
90\",\"	-847
▁Europe	-848
▁discount	-849
ag	-850
ly	-851
mp	-852
ng	-853
ro	-854
sd	-855
se	-856
▁%	-857
180	-858
2-2	-859
4-1	-860
ala	-861
app	-862
low	-863
way	-864
▁21	-865
▁on	-866
▁or	-867
ahru	-868
clud	-869
land	-870
oods	-871
▁not	-872
usive	-873
▁jaya	-874
\":\"7	-875
▁1851-	-876
.0\",\"	-877
10\",\"	-878
60\",\"	-879
\":\"6.	-880
\":\"2017-1	-881
29	-882
56	-883
:5	-884
ff	-885
▁x	-886
ack	-887
ark	-888
ava	-889
ich	-890
ock	-891
rew	-892
utt	-893
▁01	-894
▁03	-895
▁2.	-896
▁be	-897
▁ta	-898
anet	-899
uala	-900
▁21.	-901
▁GST	-902
▁for	-903
▁ple	-904
▁ref	-905
▁ser	-906
20,\"	-907
djust	-908
▁with	-909
cluded	-910
pplies	-911
ritish	-912
.5\",\"	-913
99\",\"	-914
Company	-915
\":\"4.	-916
verling	-917
-6\",\"@	-918
\":20,\"	-919
▁payment	-920
djustment	-921
▁facebook	-922
-2\"}},{\"@	-923
41	-924
42	-925
9-	-926
ab	-927
ih	-928
170	-929
2-1	-930
:00	-931
ari	-932
bar	-933
get	-934
ork	-935
ton	-936
use	-937
ype	-938
▁22	-939
▁40	-940
▁bl	-941
▁sl	-942
▁te	-943
uest	-944
vice	-945
▁26.	-946
▁con	-947
umpur	-948
▁Type	-949
.\",\"	-950
30\",\"	-951
95\",\"	-952
Receipt	-953
\":\"7.	-954
▁please	-955
.50\",\"	-956
\":\"11.	-957
\":\"13.	-958
▁America	-959
▁america	-960
-4\"}],\"	-961
):	-962
2-	-963
69	-964
77	-965
bé	-966
ip	-967
▁z	-968
3-0	-969
3-1	-970
423	-971
619	-972
ara	-973
bér	-974
eck	-975
ent	-976
erk	-977
ggi	-978
ley	-979
old	-980
▁(8	-981
▁07	-982
▁23	-983
▁26	-984
▁50	-985
▁6,	-986
▁60	-987
▁7.	-988
▁pm	-989
▁to	-990
▁~~	-991
20.0	-992
388-	-993
5584	-994
akka	-995
ancy	-996
angr	-997
aret	-998
avol	-999
ocer	-1000
▁7/4	-1001
/2018	-1002
00012	-1003
65619	-1004
Table	-1005
acock	-1006
anton	-1007
arden	-1008
lette	-1009
uller	-1010
▁sold	-1011
67388-	-1012
avolio	-1013
ihakka	-1014
▁goods	-1015
▁johor	-1016
\":\"12	-1017
argaret	-1018
▁Tampoi	-1019
▁tampoi	-1020
000\",\"	-1021
4.0\",\"	-1022
national	-1023
-3\"}],\"	-1024
656195584	-1025
▁subtotal	-1026
76	-1027
83	-1028
An	-1029
FA	-1030
bu	-1031
iz	-1032
——	-1033
▁;	-1034
▁[	-1035
5-0	-1036
6.0	-1037
9-2	-1038
:17	-1039
Lot	-1040
TAL	-1041
ene	-1042
erm	-1043
ina	-1044
▁0%	-1045
▁14	-1046
▁25	-1047
▁45	-1048
▁5.	-1049
▁90	-1050
▁ho	-1051
▁sp	-1052
6.00	-1053
aman	-1054
ardw	-1055
barw	-1056
chen	-1057
▁001	-1058
▁14.	-1059
▁@6%	-1060
▁lot	-1061
FATAL	-1062
South	-1063
▁vege	-1064
)\",\"	-1065
United	-1066
person	-1067
▁south	-1068
▁table	-1069
25\",\"	-1070
\":\"5.	-1071
\":\"9.	-1072
angrice	-1073
ardware	-1074
▁united	-1075
▁Invoice	-1076
▁Package	-1077
▁package	-1078
0.00\",\"	-1079
▁rounding	-1080
4\"}]},{\"@	-1081
barwangrice	-1082
\":\"2\"}},{\"@	-1083
-7	-1084
-8	-1085
.:	-1086
49	-1087
61	-1088
97	-1089
No	-1090
ke	-1091
kn	-1092
1-0	-1093
ana	-1094
att	-1095
atu	-1096
del	-1097
hil	-1098
ial	-1099
ico	-1100
ise	-1101
its	-1102
nig	-1103
oin	-1104
ond	-1105
que	-1106
uch	-1107
▁Al	-1108
▁ee	-1109
▁pl	-1110
▁un	-1111
▁wa	-1112
Barc	-1113
ater	-1114
ator	-1115
bang	-1116
eese	-1117
inal	-1118
orts	-1119
quer	-1120
read	-1121
vers	-1122
▁tra	-1123
arket	-1124
▁rice	-1125
ayside	-1126
ermany	-1127
▁north	-1128
40\",\"	-1129
Barcode	-1130
\":\"20	-1131
5.0\",\"	-1132
8.0\",\"	-1133
Discount	-1134
\":\"26.	-1135
▁Kawasan	-1136
▁receipt	-1137
\":\"1001	-1138
999999999999	-1139
▁Perindustrian	-1140
▁perindustrian	-1141
02	-1142
2)	-1143
co	-1144
ht	-1145
▁)	-1146
/06	-1147
6-0	-1148
812	-1149
9-0	-1150
USA	-1151
ata	-1152
ell	-1153
gal	-1154
inc	-1155
ish	-1156
ota	-1157
rip	-1158
tic	-1159
und	-1160
ute	-1161
▁24	-1162
▁33	-1163
▁en	-1164
▁mo	-1165
1.00	-1166
8.20	-1167
anas	-1168
incl	-1169
nter	-1170
▁$2.	-1171
▁13.	-1172
▁net	-1173
▁ret	-1174
aling	-1175
ifici	-1176
ining	-1177
▁Ship	-1178
▁case	-1179
▁chin	-1180
\":\"(	-1181
▁reggi	-1182
▁white	-1183
50\",\"	-1184
Federal	-1185
Service	-1186
Western	-1187
\":\"00	-1188
▁2017-1	-1189
▁refund	-1190
-5\"},\"	-1191
\":\"001	-1192
\":\"19.	-1193
▁federal	-1194
▁kawasan	-1195
▁western	-1196
▁Included	-1197
▁Quantity	-1198
▁Shipping	-1199
-4\"},{\"@	-1200
▁Excluding	-1201
\":\"2016-1	-1202
\":\"3\"}},{\"@	-1203
$)	-1204
.2	-1205
/2	-1206
38	-1207
43	-1208
57	-1209
78	-1210
92	-1211
af	-1212
ep	-1213
so	-1214
ud	-1215
uh	-1216
▁O	-1217
▁{	-1218
($)	-1219
/05	-1220
100	-1221
18:	-1222
213	-1223
4-2	-1224
8.0	-1225
ama	-1226
art	-1227
ese	-1228
ick	-1229
ilo	-1230
ime	-1231
kné	-1232
laa	-1233
mel	-1234
nti	-1235
owl	-1236
own	-1237
rab	-1238
ult	-1239
▁59	-1240
▁Is	-1241
▁Le	-1242
▁No	-1243
▁Se	-1244
▁br	-1245
▁cs	-1246
▁fr	-1247
▁pr	-1248
▁tt	-1249
2.00	-1250
2035	-1251
3060	-1252
5,\"	-1253
ahan	-1254
alak	-1255
ated	-1256
aura	-1257
bert	-1258
dava	-1259
mart	-1260
mers	-1261
plif	-1262
taco	-1263
unch	-1264
urst	-1265
}]}"	-1266
▁100	-1267
▁11.	-1268
▁12:	-1269
▁500	-1270
▁car	-1271
▁coc	-1272
▁due	-1273
▁fax	-1274
▁fol	-1275
▁que	-1276
▁war	-1277
/2017	-1278
30,\"	-1279
Guest	-1280
North	-1281
emmel	-1282
ondon	-1283
ouble	-1284
▁4.80	-1285
▁7/4,	-1286
▁Enti	-1287
▁Mode	-1288
▁bowl	-1289
▁card	-1290
▁shop	-1291
▁taco	-1292
▁time	-1293
bangan	-1294
brales	-1295
iginal	-1296
immers	-1297
knédel	-1298
▁20.00	-1299
▁anton	-1300
▁bahru	-1301
▁retur	-1302
▁round	-1303
▁slice	-1304
▁veget	-1305
23\",\"	-1306
85\",\"	-1307
\":\"03	-1308
aclette	-1309
alakong	-1310
allahan	-1311
davault	-1312
▁2016-1	-1313
▁Permas	-1314
▁bandar	-1315
▁barley	-1316
▁cheese	-1317
▁follow	-1318
▁garden	-1319
▁grocer	-1320
30602035	-1321
Rounding	-1322
\":30,\"	-1323
\":\"22.	-1324
\"}]}]}"	-1325
embangan	-1326
)\"},{\"@	-1327
▁supplies	-1328
▁inclusive	-1329
emmelknédel	-1330
000000000000	-1331
\":\"2.00\",\"	-1332
\":\"2\"},{\"@	-1333
\":\"3\"},{\"@	-1334
64	-1335
66	-1336
CS	-1337
Le	-1338
aj	-1339
az	-1340
ga	-1341
og	-1342
▁’	-1343
12:	-1344
3.7	-1345
405	-1346
603	-1347
750	-1348
8-1	-1349
817	-1350
Per	-1351
ada	-1352
ali	-1353
aly	-1354
bur	-1355
eng	-1356
hot	-1357
ied	-1358
ino	-1359
ion	-1360
ita	-1361
mix	-1362
ods	-1363
ols	-1364
reg	-1365
ted	-1366
ulu	-1367
ved	-1368
▁1,	-1369
▁27	-1370
▁3,	-1371
▁35	-1372
▁at	-1373
▁fl	-1374
▁ma	-1375
▁ne	-1376
▁sc	-1377
0210	-1378
4,\"	-1379
arty	-1380
eras	-1381
japp	-1382
▁10.	-1383
▁18.	-1384
▁18:	-1385
▁che	-1386
▁glo	-1387
▁gum	-1388
▁imp	-1389
▁rmo	-1390
▁sil	-1391
▁the	-1392
▁wal	-1393
40,\"	-1394
Janet	-1395
Kuala	-1396
Legal	-1397
astic	-1398
nable	-1399
▁3.00	-1400
▁gute	-1401
▁seas	-1402
007.50	-1403
Server	-1404
jappar	-1405
▁Bahru	-1406
▁Isles	-1407
▁black	-1408
▁inter	-1409
▁isles	-1410
▁janet	-1411
▁kuala	-1412
British	-1413
\":\"14	-1414
\":\"15	-1415
plified	-1416
▁Entity	-1417
▁Lumpur	-1418
▁market	-1419
▁permas	-1420
-6\"},\"	-1421
6.0\",\"	-1422
\":40,\"	-1423
▁british	-1424
1200\",\"	-1425
excluding	-1426
▁cabrales	-1427
-5\"},{\"@	-1428
▁Leverling	-1429
▁caseifici	-1430
▁leverling	-1431
▁vegetable	-1432
2\"}]},{\"@	-1433
▁1001000000	-1434
▁Adjustment	-1435
▁adjustment	-1436
▁returnable	-1437
▁salesperson	-1438
▁semmelknédel	-1439
-9	-1440
/1	-1441
44	-1442
51	-1443
68	-1444
72	-1445
91	-1446
As	-1447
da	-1448
ft	-1449
gc	-1450
ku	-1451
mi	-1452
sy	-1453
ug	-1454
wl	-1455
za	-1456
▁§	-1457
/02	-1458
/17	-1459
/18	-1460
19:	-1461
285	-1462
3.5	-1463
416	-1464
718	-1465
800	-1466
805	-1467
90,	-1468
968	-1469
And	-1470
Bar	-1471
ael	-1472
als	-1473
amp	-1474
avi	-1475
eat	-1476
eau	-1477
edb	-1478
fax	-1479
ike	-1480
nde	-1481
nut	-1482
ofu	-1483
ois	-1484
ora	-1485
osa	-1486
ose	-1487
tia	-1488
yar	-1489
zue	-1490
▁#:	-1491
▁$5	-1492
▁02	-1493
▁34	-1494
▁87	-1495
▁Ch	-1496
▁Pe	-1497
▁Re	-1498
▁ae	-1499
▁bi	-1500
▁di	-1501
▁hi	-1502
▁li	-1503
▁we	-1504
,812	-1505
-201	-1506
0,\"	-1507
1,\"	-1508
2160	-1509
2170	-1510
3-05	-1511
3.00	-1512
3920	-1513
6,\"	-1514
6067	-1515
Oper	-1516
ager	-1517
aker	-1518
apak	-1519
asir	-1520
brod	-1521
gaan	-1522
iale	-1523
ican	-1524
ikat	-1525
ilia	-1526
inee	-1527
iscu	-1528
lich	-1529
line	-1530
loor	-1531
nake	-1532
ocol	-1533
odsw	-1534
ollo	-1535
onbu	-1536
rada	-1537
reno	-1538
sday	-1539
tian	-1540
xico	-1541
yama	-1542
▁$6.	-1543
▁(11	-1544
▁104	-1545
▁110	-1546
▁12,	-1547
▁15.	-1548
▁19.	-1549
▁Tax	-1550
▁art	-1551
▁bil	-1552
▁buc	-1553
▁del	-1554
▁des	-1555
▁dip	-1556
▁ess	-1557
▁get	-1558
▁pan	-1559
▁pay	-1560
▁pet	-1561
▁sal	-1562
▁set	-1563
▁tea	-1564
▁thi	-1565
▁tue	-1566
1109-	-1567
75067	-1568
Nancy	-1569
adeau	-1570
anyon	-1571
arion	-1572
astos	-1573
atime	-1574
board	-1575
erkku	-1576
ggies	-1577
mibér	-1578
rance	-1579
ungry	-1580
utter	-1581
zuela	-1582
▁#000	-1583
▁0.50	-1584
▁1.20	-1585
▁2018	-1586
▁290,	-1587
▁5.00	-1588
▁Alam	-1589
▁Rice	-1590
▁Wang	-1591
▁cour	-1592
▁like	-1593
▁long	-1594
▁nett	-1595
▁past	-1596
▁take	-1597
▁wang	-1598
,81200	-1599
-40210	-1600
60671-	-1601
7\",\"	-1602
Andrew	-1603
change	-1604
iagaan	-1605
ichael	-1606
permas	-1607
queria	-1608
uchong	-1609
▁$8.20	-1610
▁10.00	-1611
▁Count	-1612
▁Inter	-1613
▁bread	-1614
▁nancy	-1615
12\",\"	-1616
22\",\"	-1617
70\",\"	-1618
\":\"19	-1619
\":\"45	-1620
\":\"90	-1621
inciale	-1622
iscuits	-1623
lesnake	-1624
niglich	-1625
ocolate	-1626
yarikat	-1627
▁Bandar	-1628
▁Fuller	-1629
▁andrew	-1630
▁dining	-1631
▁double	-1632
▁fuller	-1633
▁lumpur	-1634
▁server	-1635
-4021027	-1636
.00\",\"	-1637
Margaret	-1638
Operator	-1639
Unihakka	-1640
\":10,\"	-1641
\":\"110	-1642
\":\"12,	-1643
\":\"31.	-1644
appadeau	-1645
enezuela	-1646
odsworth	-1647
▁Davolio	-1648
▁Peacock	-1649
▁chinois	-1650
▁davolio	-1651
▁peacock	-1652
▁tuesday	-1653
20.0\",\"	-1654
6.00\",\"	-1655
750673920	-1656
implified	-1657
inclusive	-1658
mibérchen	-1659
▁(867388-	-1660
▁1,007.50	-1661
▁Supplies	-1662
▁margaret	-1663
▁original	-1664
▁reggiani	-1665
▁unihakka	-1666
1\"}]},{\"@	-1667
\":\"867388-	-1668
▁courdavault	-1669
2000000000000	-1670
\":\"0.50\",\"	-1671
\":\"1\"},{\"@	-1672
\":\"2018-04-1	-1673
\":\"2018-05-0	-1674
\":\"3.00\",\"	-1675
▁#000656195584	-1676
▁International	-1677
▁international	-1678
\":\"1001000000	-1679
\":\"81200\",\"	-1680
0%	-1681
3,	-1682
31	-1683
Ar	-1684
CA	-1685
UK	-1686
Ve	-1687
au	-1688
bl	-1689
do	-1690
ki	-1691
nb	-1692
ob	-1693
sc	-1694
▁_	-1695
▁“	-1696
-0.	-1697
-07	-1698
-18	-1699
0.4	-1700
040	-1701
204	-1702
488	-1703
5-2	-1704
900	-1705
:01	-1706
:13	-1707
aff	-1708
aid	-1709
ald	-1710
arl	-1711
aru	-1712
ary	-1713
bit	-1714
chi	-1715
ery	-1716
ize	-1717
ksy	-1718
los	-1719
ote	-1720
tax	-1721
url	-1722
vel	-1723
vil	-1724
▁04	-1725
▁31	-1726
▁43	-1727
▁69	-1728
▁72	-1729
▁77	-1730
▁8.	-1731
▁80	-1732
▁Gr	-1733
▁Ro	-1734
▁as	-1735
▁bo	-1736
▁cl	-1737
▁cr	-1738
▁dr	-1739
▁eh	-1740
▁et	-1741
▁ge	-1742
▁he	-1743
▁it	-1744
▁kl	-1745
▁na	-1746
▁oo	-1747
▁ph	-1748
▁sw	-1749
▁tg	-1750
▁uk	-1751
▁——	-1752
2-26	-1753
2100	-1754
3-18	-1755
3-78	-1756
3200	-1757
3300	-1758
7.00	-1759
9-23	-1760
asic	-1761
esia	-1762
ffee	-1763
ight	-1764
mail	-1765
odos	-1766
rans	-1767
same	-1768
ster	-1769
▁$0.	-1770
▁105	-1771
▁23.	-1772
▁31.	-1773
▁955	-1774
▁adj	-1775
▁all	-1776
▁ave	-1777
▁com	-1778
▁day	-1779
▁die	-1780
▁doc	-1781
▁hol	-1782
▁inv	-1783
▁kuh	-1784
▁mix	-1785
▁out	-1786
▁rue	-1787
▁sho	-1788
▁usa	-1789
▁val	-1790
▁wan	-1791
▁www	-1792
Check	-1793
Reggi	-1794
\":35	-1795
icken	-1796
johor	-1797
ksyen	-1798
lowed	-1799
otton	-1800
ubang	-1801
▁2.00	-1802
▁2.50	-1803
▁Item	-1804
▁Time	-1805
▁alam	-1806
▁away	-1807
▁crab	-1808
▁dine	-1809
▁meat	-1810
▁mode	-1811
▁side	-1812
▁tofu	-1813
Permas	-1814
sameAs	-1815
▁$0.00	-1816
▁$2.99	-1817
▁$6.60	-1818
▁55423	-1819
▁86.00	-1820
▁alice	-1821
▁basic	-1822
▁essen	-1823
▁frank	-1824
▁house	-1825
▁water	-1826
0000000	-1827
35\",\"	-1828
75\",\"	-1829
83\",\"	-1830
87\",\"	-1831
Germany	-1832
\":6,\"	-1833
\":\"16	-1834
\":\"17	-1835
\":\"34	-1836
\":\"60	-1837
\":\"8.	-1838
abastos	-1839
ription	-1840
▁102.00	-1841
▁coffee	-1842
▁within	-1843
Southern	-1844
\":21,\"	-1845
\":\"14.	-1846
\":\"18.	-1847
\":\"28.	-1848
\":\"955	-1849
facebook	-1850
hilarion	-1851
▁allowed	-1852
▁bayside	-1853
▁germany	-1854
▁imports	-1855
-6\"}],\"	-1856
000\"},\"	-1857
2.00\",\"	-1858
3200\",\"	-1859
3300\",\"	-1860
appadeaux	-1861
faxNumber	-1862
▁exchange	-1863
▁hardware	-1864
▁southern	-1865
▁100100000	-1866
▁2017-01-2	-1867
▁Reference	-1868
00030602035	-1869
9\"}]},{\"@	-1870
▁Restaurant	-1871
\":\"2.99\",\"	-1872
\":\"2017-01-2	-1873
\":\"2017-09-0	-1874
\":\"2018-01-1	-1875
\":\"11.90\",\"	-1876
\":\"13.00\",\"	-1877
\":\"21.20\",\"	-1878
/5	-1879
01	-1880
1,	-1881
4,	-1882
71	-1883
79	-1884
98	-1885
PB	-1886
PO	-1887
Se	-1888
Sh	-1889
\\	-1890
ae	-1891
ca	-1892
fe	-1893
gn	-1894
kc	-1895
kg	-1896
kk	-1897
ky	-1898
my	-1899
pb	-1900
pm	-1901
rl	-1902
rs	-1903
tr	-1904
vd	-1905
zo	-1906
▁!	-1907
▁,	-1908
▁U	-1909
)22	-1910
-06	-1911
-10	-1912
-37	-1913
.2,	-1914
/01	-1915
/15	-1916
004	-1917
101	-1918
114	-1919
144	-1920
15)	-1921
2.0	-1922
233	-1923
237	-1924
258	-1925
28.	-1926
304	-1927
317	-1928
34:	-1929
386	-1930
422	-1931
5-1	-1932
560	-1933
6-2	-1934
6.8	-1935
627	-1936
640	-1937
65.	-1938
675	-1939
7.4	-1940
730	-1941
739	-1942
8-2	-1943
8-3	-1944
829	-1945
9-1	-1946
924	-1947
:05	-1948
:12	-1949
:16	-1950
:35	-1951
adh	-1952
ags	-1953
ahk	-1954
amb	-1955
atw	-1956
aye	-1957
doz	-1958
eak	-1959
ede	-1960
era	-1961
ges	-1962
ias	-1963
ict	-1964
icy	-1965
idz	-1966
ims	-1967
ink	-1968
iti	-1969
kor	-1970
met	-1971
nau	-1972
ned	-1973
ngg	-1974
nst	-1975
ola	-1976
olk	-1977
omo	-1978
onz	-1979
oub	-1980
ova	-1981
ral	-1982
raz	-1983
ree	-1984
rot	-1985
san	-1986
tsb	-1987
uar	-1988
uel	-1989
unn	-1990
ura	-1991
uts	-1992
ves	-1993
via	-1994
www	-1995
▁06	-1996
▁38	-1997
▁5,	-1998
▁53	-1999
▁67	-2000
▁70	-2001
▁79	-2002
▁9,	-2003
▁95	-2004
▁97	-2005
▁Am	-2006
▁Bl	-2007
▁Kg	-2008
▁Sh	-2009
▁ac	-2010
▁ap	-2011
▁au	-2012
▁ce	-2013
▁eo	-2014
▁es	-2015
▁ie	-2016
▁ke	-2017
▁kg	-2018
▁lo	-2019
▁mr	-2020
▁oe	-2021
▁op	-2022
▁rh	-2023
▁ss	-2024
▁sv	-2025
▁tw	-2026
▁wr	-2027
-001	-2028
00.0	-2029
1.32	-2030
1399	-2031
2,\"	-2032
3,\"	-2033
3-90	-2034
3467	-2035
4730	-2036
562)	-2037
7500	-2038
8.16	-2039
8.85	-2040
9-26	-2041
:34:	-2042
Bran	-2043
Dine	-2044
Seri	-2045
Shah	-2046
alur	-2047
amem	-2048
andk	-2049
aran	-2050
arte	-2051
arul	-2052
ashe	-2053
asqu	-2054
atch	-2055
ates	-2056
attc	-2057
back	-2058
burg	-2059
each	-2060
ensd	-2061
gart	-2062
gede	-2063
hite	-2064
itre	-2065
kcah	-2066
klaa	-2067
koin	-2068
nton	-2069
obal	-2070
oene	-2071
oint	-2072
olex	-2073
onna	-2074
onut	-2075
oran	-2076
orch	-2077
orik	-2078
ouse	-2079
ranc	-2080
raut	-2081
rera	-2082
rict	-2083
ried	-2084
rimp	-2085
rist	-2086
sara	-2087
ssle	-2088
take	-2089
ting	-2090
ubel	-2091
ucre	-2092
udbr	-2093
uerk	-2094
ungo	-2095
vern	-2096
▁$1.	-2097
▁$3.	-2098
▁$9.	-2099
▁106	-2100
▁124	-2101
▁17.	-2102
▁300	-2103
▁4.5	-2104
▁530	-2105
▁@0%	-2106
▁Ave	-2107
▁Due	-2108
▁KPB	-2109
▁ang	-2110
▁caj	-2111
▁cre	-2112
▁fil	-2113
▁hrs	-2114
▁kee	-2115
▁kpb	-2116
▁lan	-2117
▁mem	-2118
▁nor	-2119
▁owl	-2120
▁pat	-2121
▁pie	-2122
▁pur	-2123
▁san	-2124
▁son	-2125
▁sro	-2126
▁sur	-2127
▁teh	-2128
▁tky	-2129
11-37	-2130
2-001	-2131
25,\"	-2132
28545	-2133
65.34	-2134
97405	-2135
Laura	-2136
Party	-2137
Round	-2138
Sales	-2139
aliee	-2140
anden	-2141
andsd	-2142
argar	-2143
arlic	-2144
bratw	-2145
denau	-2146
deros	-2147
dozen	-2148
email	-2149
epong	-2150
iguel	-2151
ilton	-2152
inger	-2153
itost	-2154
ivers	-2155
mengg	-2156
night	-2157
occhi	-2158
ohnst	-2159
oning	-2160
orted	-2161
oston	-2162
prise	-2163
razil	-2164
unway	-2165
utton	-2166
venue	-2167
éxico	-2168
▁#8-3	-2169
▁1.80	-2170
▁1.90	-2171
▁18.0	-2172
▁19.0	-2173
▁21.0	-2174
▁2120	-2175
▁3.90	-2176
▁6.80	-2177
▁@6%:	-2178
▁Baru	-2179
▁Size	-2180
▁aeon	-2181
▁baru	-2182
▁beer	-2183
▁bill	-2184
▁cent	-2185
▁cook	-2186
▁desc	-2187
▁dosa	-2188
▁meal	-2189
▁note	-2190
▁oper	-2191
▁pavi	-2192
▁pork	-2193
▁rain	-2194
▁sany	-2195
▁save	-2196
▁seri	-2197
▁shah	-2198
▁sild	-2199
▁tota	-2200
▁user	-2201
▁your	-2202
381399	-2203
504730	-2204
718)22	-2205
9-2367	-2206
Branch	-2207
London	-2208
action	-2209
ahkota	-2210
alsost	-2211
andina	-2212
astica	-2213
buquer	-2214
ceived	-2215
essica	-2216
idzuan	-2217
ierrot	-2218
inland	-2219
koinen	-2220
onzola	-2221
reland	-2222
rictly	-2223
storan	-2224
uarana	-2225
▁$2.70	-2226
▁$5.50	-2227
▁03/05	-2228
▁21.20	-2229
▁26.90	-2230
▁36.00	-2231
▁43300	-2232
▁47500	-2233
▁Taman	-2234
▁Total	-2235
▁check	-2236
▁enter	-2237
▁glove	-2238
▁guest	-2239
▁kashe	-2240
▁laura	-2241
▁lunch	-2242
▁nonna	-2243
▁pollo	-2244
▁queso	-2245
▁seven	-2246
▁spicy	-2247
▁taman	-2248
0001265	-2249
11\",\"	-2250
14\",\"	-2251
3-90213	-2252
3\"},\"	-2253
76\",\"	-2254
98\",\"	-2255
\":3,\"	-2256
\":5,\"	-2257
\":\"11	-2258
\":\"33	-2259
\":\"35	-2260
\":\"40	-2261
\":\"50	-2262
\":\"59	-2263
adhurst	-2264
akeries	-2265
denauer	-2266
ensdeli	-2267
iringer	-2268
orchata	-2269
orikatu	-2270
ubelstr	-2271
unnbrod	-2272
uttgart	-2273
▁(11900	-2274
▁Amount	-2275
▁Grocer	-2276
▁canyon	-2277
▁cheras	-2278
▁cotton	-2279
▁herkku	-2280
▁hungry	-2281
▁london	-2282
▁moreno	-2283
▁mutton	-2284
▁rogede	-2285
▁sauerk	-2286
-7\",\"@	-2287
-8\",\"@	-2288
/06/2018	-2289
\":12,\"	-2290
\":15,\"	-2291
\":25,\"	-2292
\":35,\"	-2293
\":\"03-	-2294
\":\"100	-2295
\":\"15.	-2296
\":\"27.	-2297
\":\"475	-2298
amembert	-2299
asquatch	-2300
ataderos	-2301
menggung	-2302
ohnstown	-2303
ostbratw	-2304
oublette	-2305
ristobal	-2306
éniglich	-2307
▁antonio	-2308
▁chicken	-2309
▁coconut	-2310
▁grocers	-2311
▁grocery	-2312
▁markets	-2313
▁paviova	-2314
▁payable	-2315
▁station	-2316
▁trading	-2317
▁trainee	-2318
▁veggies	-2319
▁wartian	-2320
▁wimmers	-2321
0.0\"},\"	-2322
000000416	-2323
1\"},{\"@	-2324
3.00\",\"	-2325
381399040	-2326
50.0\",\"	-2327
80.0\",\"	-2328
\":\"5800	-2329
andenburg	-2330
andinavia	-2331
antastica	-2332
buquerque	-2333
orgonzola	-2334
udbrandsd	-2335
▁Balakong	-2336
▁Callahan	-2337
▁Hardware	-2338
▁balakong	-2339
▁callahan	-2340
▁gardenia	-2341
▁hilarion	-2342
▁included	-2343
▁malaysia	-2344
▁operator	-2345
▁petaling	-2346
▁raclette	-2347
▁strictly	-2348
▁taqueria	-2349
9740528545	-2350
attlesnake	-2351
ransaction	-2352
▁2018-04-2	-2353
▁2018-05-0	-2354
▁Kembangan	-2355
▁kembangan	-2356
00000000001	-2357
3\"}]},{\"@	-2358
Salesperson	-2359
\":\"2016-0	-2360
▁refundable	-2361
▁restaurant	-2362
▁sauerkraut	-2363
▁simplified	-2364
718)229-2367	-2365
denaueraliee	-2366
ostbratwurst	-2367
▁10010000000	-2368
▁description	-2369
▁gummibérchen	-2370
\":\"1.00\",\"	-2371
\":\"1.80\",\"	-2372
\":\"19.0\",\"	-2373
\":\"2017-02-0	-2374
\":\"2017-08-1	-2375
\":\"2017-11-1	-2376
\":\"2018-02-0	-2377
\":\"2018-04-2	-2378
\":\"21.0\",\"	-2379
\":\"3.10\",\"	-2380
\":\"3.90\",\"	-2381
\":\"4.80\",\"	-2382
\":\"4\"},{\"@	-2383
\":\"5.00\",\"	-2384
\":\"10.00\",\"	-2385
\":\"20.00\",\"	-2386
\":\"2017-03-05	-2387
\":\"43300\",\"	-2388
\":\"47500\",\"	-2389
\":\"50.00\",\"	-2390
udbrandsdalsost	-2391
#0	-2392
08	-2393
2:	-2394
58	-2395
59	-2396
63	-2397
74	-2398
94	-2399
:3	-2400
Br	-2401
Gr	-2402
It	-2403
KL	-2404
Mr	-2405
RE	-2406
Te	-2407
ba	-2408
be	-2409
di	-2410
ef	-2411
ej	-2412
ew	-2413
fr	-2414
gh	-2415
gr	-2416
kr	-2417
ln	-2418
ma	-2419
mo	-2420
nd	-2421
oq	-2422
rc	-2423
ys	-2424
▁>	-2425
▁V	-2426
▁X	-2427
▁]	-2428
▁‘	-2429
-0,	-2430
-20	-2431
-30	-2432
.04	-2433
/12	-2434
103	-2435
11.	-2436
120	-2437
149	-2438
17:	-2439
190	-2440
200	-2441
202	-2442
225	-2443
228	-2444
299	-2445
3-2	-2446
302	-2447
328	-2448
36.	-2449
387	-2450
400	-2451
452	-2452
590	-2453
6%)	-2454
67.	-2455
787	-2456
804	-2457
85-	-2458
:20	-2459
Art	-2460
Pet	-2461
Que	-2462
San	-2463
War	-2464
ane	-2465
anh	-2466
ass	-2467
ave	-2468
azd	-2469
ban	-2470
cho	-2471
cof	-2472
elj	-2473
ens	-2474
erd	-2475
fee	-2476
gen	-2477
gge	-2478
ins	-2479
lam	-2480
lat	-2481
lin	-2482
ole	-2483
oth	-2484
rau	-2485
red	-2486
sol	-2487
uat	-2488
uca	-2489
uey	-2490
unt	-2491
ush	-2492
val	-2493
▁**	-2494
▁-1	-2495
▁08	-2496
▁1/	-2497
▁28	-2498
▁42	-2499
▁68	-2500
▁9.	-2501
▁99	-2502
▁:8	-2503
▁Dr	-2504
▁Em	-2505
▁Mo	-2506
▁Pr	-2507
▁Rd	-2508
▁SS	-2509
▁St	-2510
▁Ta	-2511
▁bh	-2512
▁by	-2513
▁da	-2514
▁du	-2515
▁ga	-2516
▁kn	-2517
▁la	-2518
▁mi	-2519
▁my	-2520
▁ny	-2521
▁od	-2522
▁pi	-2523
▁rd	-2524
▁rr	-2525
▁sm	-2526
▁sy	-2527
▁tx	-2528
▁ud	-2529
▁uy	-2530
+603	-2531
-659	-2532
/144	-2533
1-13	-2534
1000	-2535
1226	-2536
1360	-2537
14.0	-2538
3319	-2539
36.0	-2540
4.50	-2541
4776	-2542
6.25	-2543
7.25	-2544
75.0	-2545
8,\"	-2546
9.28	-2547
:03-	-2548
:52:	-2549
Anne	-2550
Prin	-2551
\\\"	-2552
],\"	-2553
abel	-2554
aill	-2555
aint	-2556
alty	-2557
arde	-2558
arma	-2559
asie	-2560
care	-2561
choc	-2562
chon	-2563
eria	-2564
etes	-2565
icia	-2566
ison	-2567
king	-2568
onde	-2569
oqot	-2570
quor	-2571
rent	-2572
ssar	-2573
▁-0.	-2574
▁012	-2575
▁1/2	-2576
▁10/	-2577
▁11,	-2578
▁115	-2579
▁120	-2580
▁13,	-2581
▁15%	-2582
▁187	-2583
▁2.5	-2584
▁216	-2585
▁22.	-2586
▁439	-2587
▁9.2	-2588
▁900	-2589
▁Air	-2590
▁Gin	-2591
▁Kee	-2592
▁Pen	-2593
▁Rue	-2594
▁Set	-2595
▁Tra	-2596
▁air	-2597
▁cas	-2598
▁cat	-2599
▁chi	-2600
▁cst	-2601
▁dat	-2602
▁den	-2603
▁err	-2604
▁gal	-2605
▁gin	-2606
▁jun	-2607
▁let	-2608
▁man	-2609
▁may	-2610
▁mer	-2611
▁off	-2612
▁oty	-2613
▁pen	-2614
▁pos	-2615
▁pot	-2616
▁rec	-2617
▁ror	-2618
▁sis	-2619
▁sof	-2620
▁stn	-2621
▁tip	-2622
▁vai	-2623
▁ver	-2624
▁vis	-2625
-0740	-2626
-2018	-2627
1485-	-2628
3200,	-2629
42.00	-2630
50,\"	-2631
55423	-2632
60,\"	-2633
:17:5	-2634
Italy	-2635
afood	-2636
ajazd	-2637
aluri	-2638
andem	-2639
anhap	-2640
chara	-2641
cools	-2642
dings	-2643
enter	-2644
lover	-2645
olski	-2646
onomo	-2647
party	-2648
queso	-2649
reggc	-2650
skcah	-2651
solid	-2652
south	-2653
udang	-2654
umbér	-2655
ville	-2656
▁1.00	-2657
▁10.0	-2658
▁100.	-2659
▁14.0	-2660
▁2050	-2661
▁55.0	-2662
▁7.30	-2663
▁8627	-2664
▁9829	-2665
▁Card	-2666
▁Note	-2667
▁Pern	-2668
▁Prov	-2669
▁Seas	-2670
▁anne	-2671
▁chai	-2672
▁chop	-2673
▁enti	-2674
▁filo	-2675
▁food	-2676
▁gour	-2677
▁gste	-2678
▁less	-2679
▁paid	-2680
▁pern	-2681
▁plug	-2682
▁prov	-2683
▁sale	-2684
▁sell	-2685
▁stop	-2686
▁this	-2687
▁tine	-2688
▁trip	-2689
▁type	-2690
▁vaff	-2691
3-7832	-2692
Dining	-2693
France	-2694
Garden	-2695
Guests	-2696
Reggio	-2697
Strada	-2698
armacy	-2699
ateses	-2700
coffee	-2701
dernde	-2702
envers	-2703
itchen	-2704
ounter	-2705
oyalty	-2706
thoqot	-2707
valier	-2708
▁$9.90	-2709
▁11.90	-2710
▁23.80	-2711
▁31.23	-2712
▁420.0	-2713
▁42100	-2714
▁Enter	-2715
▁Floor	-2716
▁House	-2717
▁Items	-2718
▁Label	-2719
▁Panas	-2720
▁Sheng	-2721
▁White	-2722
▁chang	-2723
▁cream	-2724
▁debit	-2725
▁drink	-2726
▁floor	-2727
▁gastr	-2728
▁godos	-2729
▁grand	-2730
▁italy	-2731
▁items	-2732
▁konbu	-2733
▁lager	-2734
▁paint	-2735
▁panas	-2736
▁pasir	-2737
▁phone	-2738
▁purch	-2739
▁reggc	-2740
▁setia	-2741
▁sheng	-2742
▁super	-2743
▁toast	-2744
▁udang	-2745
-001488	-2746
15\",\"	-2747
2043319	-2748
37\",\"	-2749
46\",\"	-2750
49\",\"	-2751
4\"},\"	-2752
66\",\"	-2753
79\",\"	-2754
8\"},\"	-2755
Michael	-2756
Printed	-2757
Station	-2758
Teatime	-2759
\":4,\"	-2760
\":\"07	-2761
\":\"18	-2762
\":\"21	-2763
\":\"27	-2764
\":\"70	-2765
\":\"80	-2766
\":\"87	-2767
wimmers	-2768
▁12/144	-2769
▁14.000	-2770
▁30,000	-2771
▁34,000	-2772
▁439.00	-2773
▁53200,	-2774
▁Emilia	-2775
▁Market	-2776
▁Suyama	-2777
▁angkor	-2778
▁butter	-2779
▁emilia	-2780
▁france	-2781
▁guests	-2782
▁gumbér	-2783
▁reggio	-2784
▁rossle	-2785
▁shrimp	-2786
▁strada	-2787
▁subang	-2788
▁suyama	-2789
▁tavern	-2790
▁telino	-2791
▁tender	-2792
▁walnut	-2793
/02/2018	-2794
0.4\",\"	-2795
1\"}}]}"	-2796
2.0\",\"	-2797
90\"},\"	-2798
Petaling	-2799
Syarikat	-2800
\":50,\"	-2801
\":60,\"	-2802
\":\"10.	-2803
\":\"104	-2804
\":\"16.	-2805
\":\"187	-2806
\":\"23.	-2807
\":\"45.	-2808
aillarde	-2809
amansara	-2810
andemnde	-2811
anjappar	-2812
argarita	-2813
chonetes	-2814
icateses	-2815
▁(81109-	-2816
▁Puchong	-2817
▁Setapak	-2818
▁Trading	-2819
▁alcools	-2820
▁artesia	-2821
▁chinese	-2822
▁michael	-2823
▁puchong	-2824
▁seafood	-2825
▁seksyen	-2826
▁setapak	-2827
▁teatime	-2828
▁walmart	-2829
-40210276	-2830
0000\",\"	-2831
14.0\",\"	-2832
2100\",\"	-2833
2\"},{\"@	-2834
4.0\"},\"	-2835
8\"},{\"@	-2836
Venezuela	-2837
\":\"1042	-2838
enversand	-2839
solidated	-2840
▁124\",\"	-2841
▁:860671-	-2842
▁Biscuits	-2843
▁anjappar	-2844
▁biscuits	-2845
▁holdings	-2846
▁shopping	-2847
▁syarikat	-2848
20.0\"},\"	-2849
▁2017-02-0	-2850
▁2017-07-0	-2851
▁2017-08-1	-2852
▁2017-09-0	-2853
▁2018-04-1	-2854
▁Chocolate	-2855
▁Dodsworth	-2856
▁Including	-2857
▁chevalier	-2858
▁chocolate	-2859
▁dodsworth	-2860
▁kéniglich	-2861
▁maubelstr	-2862
▁venezuela	-2863
▁wandernde	-2864
-3\"}},{\"@	-2865
7\"}]},{\"@	-2866
:17:00\",\"	-2867
\":\"81109-	-2868
▁2018-05-01	-2869
▁Perniagaan	-2870
▁Whiteboard	-2871
▁gastronomo	-2872
▁perniagaan	-2873
▁thiiringer	-2874
▁whiteboard	-2875
\":\"2017-10	-2876
\":\"2018-04	-2877
\":\"860671-	-2878
▁03-40210276	-2879
▁Provinciale	-2880
▁adjustments	-2881
▁lanchonetes	-2882
▁provinciale	-2883
000306020352)	-2884
7999999999999	-2885
:00\"}]},{\"@	-2886
LocalBusiness	-2887
\":\"03-55423	-2888
\":\"9.2\",\"	-2889
▁000750673920	-2890
-40210276\",\"	-2891
\":\"0.20\",\"	-2892
\":\"0.40\",\"	-2893
\":\"1.60\",\"	-2894
\":\"100100000	-2895
\":\"18.0\",\"	-2896
\":\"2.50\",\"	-2897
\":\"2017-07-0	-2898
\":\"2018-06-0	-2899
\":\"2018-06-1	-2900
\":\"3.30\",\"	-2901
\":\"3.70\",\"	-2902
\":\"55.0\",\"	-2903
▁adenaueraliee	-2904
▁rostbratwurst	-2905
\":\"11.10\",\"	-2906
\":\"22.00\",\"	-2907
\":\"27.00\",\"	-2908
\":\"31.23\",\"	-2909
\":\"34000\",\"	-2910
\":\"36.00\",\"	-2911
\":\"45\"},{\"@	-2912
\":\"53200\",\"	-2913
\":\"86.00\",\"	-2914
\":\"102.00\",\"	-2915
#:	-2916
'1	-2917
**	-2918
.&	-2919
/9	-2920
1@	-2921
3:	-2922
5)	-2923
5,	-2924
52	-2925
7-	-2926
8,	-2927
:4	-2928
AE	-2929
Al	-2930
Ap	-2931
De	-2932
EN	-2933
LT	-2934
Li	-2935
Mi	-2936
NB	-2937
NY	-2938
ON	-2939
OX	-2940
Ro	-2941
Sc	-2942
Sp	-2943
Sw	-2944
Th	-2945
bd	-2946
bs	-2947
cm	-2948
cp	-2949
ds	-2950
fc	-2951
gd	-2952
hm	-2953
hw	-2954
ii	-2955
jt	-2956
kl	-2957
ll	-2958
lt	-2959
mk	-2960
ml	-2961
ni	-2962
no	-2963
ns	-2964
pc	-2965
py	-2966
rh	-2967
rx	-2968
sr	-2969
sx	-2970
sz	-2971
tg	-2972
tk	-2973
ua	-2974
uf	-2975
uj	-2976
uo	-2977
up	-2978
uy	-2979
wh	-2980
wy	-2981
yu	-2982
zx	-2983
▁<	-2984
▁\	-2985
▁¢	-2986
▁£	-2987
▁¥	-2988
▁«	-2989
▁»	-2990
▁—	-2991
▁”	-2992
+60	-2993
-13	-2994
-16	-2995
-34	-2996
-75	-2997
.02	-2998
.3,	-2999
té	-3000
-05	-3001
.75	-3002
/03	-3003
/08	-3004
/09	-3005
/10	-3006
/48	-3007
/9,	-3008
0.7	-3009
009	-3010
00:	-3011
016	-3012
1.0	-3013
1.2	-3014
1.5	-3015
108	-3016
111	-3017
112	-3018
113	-3019
116	-3020
118	-3021
12-	-3022
124	-3023
126	-3024
130	-3025
131	-3026
160	-3027
165	-3028
179	-3029
188	-3030
206	-3031
227	-3032
240	-3033
266	-3034
30-	-3035
300	-3036
305	-3037
306	-3038
36-	-3039
394	-3040
4.5	-3041
40-	-3042
401	-3043
406	-3044
412	-3045
495	-3046
5.8	-3047
500	-3048
520	-3049
536	-3050
55.	-3051
563	-3052
6-7	-3053
6.4	-3054
6.5	-3055
6.9	-3056
60-	-3057
600	-3058
604	-3059
617	-3060
73.	-3061
746	-3062
748	-3063
89-	-3064
9.9	-3065
901	-3066
905	-3067
914	-3068
980	-3069
993	-3070
:06	-3071
:14	-3072
@6%	-3073
Ben	-3074
Car	-3075
Doc	-3076
Hol	-3077
Mex	-3078
Val	-3079
Wal	-3080
ado	-3081
age	-3082
aka	-3083
anc	-3084
anr	-3085
aps	-3086
asu	-3087
ath	-3088
avy	-3089
azi	-3090
cam	-3091
dah	-3092
day	-3093
eal	-3094
ean	-3095
eds	-3096
eef	-3097
ees	-3098
elo	-3099
-6,	-3100
/13	-3101
/22	-3102
13/	-3103
139	-3104
155	-3105
22-	-3106
23#	-3107
335	-3108
359	-3109
522	-3110
534	-3111
613	-3112
685	-3113
701	-3114
723	-3115
870	-3116
9.3	-3117
922	-3118
928	-3119
ead	-3120
emo	-3121
end	-3122
enn	-3123
erb	-3124
ers	-3125
eta	-3126
fru	-3127
fur	-3128
gie	-3129
hus	-3130
ifa	-3131
ife	-3132
ild	-3133
ile	-3134
inq	-3135
int	-3136
ipi	-3137
iro	-3138
itc	-3139
ith	-3140
ito	-3141
itz	-3142
iza	-3143
lgn	-3144
lom	-3145
lot	-3146
lyw	-3147
mid	-3148
nad	-3149
nes	-3150
net	-3151
nit	-3152
nom	-3153
not	-3154
nov	-3155
oct	-3156
oda	-3157
oke	-3158
okt	-3159
oli	-3160
oms	-3161
ona	-3162
onl	-3163
ons	-3164
ord	-3165
ors	-3166
ort	-3167
oss	-3168
ots	-3169
owa	-3170
pad	-3171
pan	-3172
ple	-3173
poh	-3174
qui	-3175
rap	-3176
rck	-3177
rio	-3178
ruz	-3179
ssy	-3180
tih	-3181
tip	-3182
tra	-3183
tré	-3184
uay	-3185
uce	-3186
uci	-3187
ula	-3188
ums	-3189
una	-3190
vey	-3191
war	-3192
woc	-3193
yel	-3194
yes	-3195
yra	-3196
zza	-3197
éic	-3198
ére	-3199
,96	-3200
-86	-3201
25-	-3202
26-	-3203
319	-3204
376	-3205
945	-3206
:07	-3207
:48	-3208
afe	-3209
awa	-3210
dea	-3211
fly	-3212
jim	-3213
rup	-3214
▁#1	-3215
▁(1	-3216
▁(2	-3217
▁(4	-3218
▁*#	-3219
▁*§	-3220
▁05	-3221
▁09	-3222
▁1:	-3223
▁2,	-3224
▁36	-3225
▁4/	-3226
▁41	-3227
▁44	-3228
▁54	-3229
▁58	-3230
▁65	-3231
▁7,	-3232
▁84	-3233
▁@%	-3234
▁@6	-3235
▁By	-3236
▁Co	-3237
▁Eh	-3238
▁PJ	-3239
▁Sy	-3240
▁Te	-3241
▁Ve	-3242
▁aa	-3243
▁av	-3244
▁ay	-3245
▁bf	-3246
▁bm	-3247
▁ed	-3248
▁fc	-3249
▁fd	-3250
▁gh	-3251
▁gi	-3252
▁gn	-3253
▁go	-3254
▁hy	-3255
▁io	-3256
▁ix	-3257
▁kk	-3258
▁lk	-3259
▁ll	-3260
▁ln	-3261
▁lr	-3262
▁ls	-3263
▁lt	-3264
▁ly	-3265
▁md	-3266
▁nt	-3267
▁og	-3268
▁ot	-3269
▁ox	-3270
▁pf	-3271
▁pj	-3272
▁ri	-3273
▁rl	-3274
▁sn	-3275
▁so	-3276
▁tl	-3277
▁tm	-3278
▁ts	-3279
▁ur	-3280
▁vy	-3281
▁wm	-3282
#095	-3283
-015	-3284
-271	-3285
-387	-3286
-388	-3287
-422	-3288
-626	-3289
/15,	-3290
/288	-3291
/48,	-3292
/537	-3293
0.30	-3294
0.75	-3295
0002	-3296
0014	-3297
1-06	-3298
1-08	-3299
&33	-3300
/4,	-3301
08)	-3302
362	-3303
47-	-3304
:28	-3305
:51	-3306
:57	-3307
eaf	-3308
roz	-3309
wwd	-3310
(08)	-3311
0.56	-3312
1-24	-3313
1-30	-3314
1.25	-3315
1.50	-3316
10-0	-3317
1012	-3318
1045	-3319
1101	-3320
1180	-3321
1200	-3322
1201	-3323
1217	-3324
123.	-3325
1445	-3326
1796	-3327
1805	-3328
1818	-3329
1824	-3330
1855	-3331
1890	-3332
2-09	-3333
2-19	-3334
2.21	-3335
2.25	-3336
2018	-3337
2026	-3338
2032	-3339
21:0	-3340
2243	-3341
2415	-3342
267.	-3343
29.5	-3344
3.11	-3345
3.25	-3346
3.49	-3347
3.79	-3348
3000	-3349
31.2	-3350
3440	-3351
3564	-3352
3577	-3353
37.5	-3354
3712	-3355
3720	-3356
3939	-3357
4-18	-3358
4028	-3359
4029	-3360
4090	-3361
4117	-3362
4190	-3363
4620	-3364
4623	-3365
4688	-3366
48.5	-3367
5-26	-3368
5020	-3369
5046	-3370
6.23	-3371
6.69	-3372
6.80	-3373
6.82	-3374
6060	-3375
6087	-3376
64.0	-3377
6517	-3378
7,\"	-3379
7.85	-3380
7/01	-3381
7301	-3382
760.	-3383
7700	-3384
7718	-3385
7968	-3386
8-26	-3387
8.00	-3388
8.10	-3389
80.0	-3390
8048	-3391
805)	-3392
8075	-3393
8692	-3394
8745	-3395
9.20	-3396
90.0	-3397
9695	-3398
9699	-3399
-8,	-3400
697	-3401
abb	-3402
izo	-3403
———	-3404
▁zj	-3405
170-	-3406
2-14	-3407
2-20	-3408
2.76	-3409
225-	-3410
5120	-3411
6130	-3412
6199	-3413
7061	-3414
9923	-3415
:53:	-3416
AEON	-3417
Cent	-3418
Cork	-3419
Filo	-3420
Oulu	-3421
Pork	-3422
Take	-3423
abur	-3424
ages	-3425
agne	-3426
aila	-3427
alac	-3428
amer	-3429
anan	-3430
ance	-3431
anda	-3432
anik	-3433
anil	-3434
anti	-3435
appy	-3436
arah	-3437
arge	-3438
arie	-3439
asas	-3440
asil	-3441
asis	-3442
asti	-3443
asto	-3444
aupt	-3445
ball	-3446
blue	-3447
bove	-3448
brid	-3449
buca	-3450
chai	-3451
chil	-3452
cial	-3453
cket	-3454
code	-3455
dana	-3456
eept	-3457
eley	-3458
emys	-3459
eppo	-3460
etti	-3461
even	-3462
excl	-3463
gour	-3464
hift	-3465
http	-3466
iced	-3467
icra	-3468
ille	-3469
inas	-3470
inet	-3471
inti	-3472
isco	-3473
jito	-3474
lagd	-3475
lang	-3476
lass	-3477
lava	-3478
life	-3479
mark	-3480
mond	-3481
nage	-3482
ochi	-3483
odia	-3484
ogne	-3485
only	-3486
ornb	-3487
orra	-3488
oulo	-3489
ourg	-3490
ours	-3491
ouyu	-3492
owth	-3493
pang	-3494
ples	-3495
pply	-3496
rain	-3497
reen	-3498
resh	-3499
/1,	-3500
-918	-3501
495-	-3502
6103	-3503
6627	-3504
7057	-3505
8285	-3506
8492	-3507
ajun	-3508
ampa	-3509
gift	-3510
izza	-3511
lime	-3512
okki	-3513
olza	-3514
road	-3515
sace	-3516
scot	-3517
sing	-3518
sted	-3519
suey	-3520
tain	-3521
tery	-3522
tige	-3523
ulti	-3524
umbo	-3525
umon	-3526
urry	-3527
usat	-3528
user	-3529
usun	-3530
utra	-3531
velt	-3532
ward	-3533
ways	-3534
wned	-3535
work	-3536
▁#23	-3537
▁#35	-3538
▁(12	-3539
▁+60	-3540
▁01%	-3541
▁02-	-3542
▁03-	-3543
▁060	-3544
▁1/4	-3545
▁109	-3546
▁116	-3547
▁127	-3548
▁150	-3549
▁16,	-3550
▁17:	-3551
▁18%	-3552
▁18'	-3553
▁19,	-3554
▁20.	-3555
▁204	-3556
▁218	-3557
▁23/	-3558
▁27.	-3559
▁29.	-3560
▁3.9	-3561
▁317	-3562
▁35.	-3563
▁4.8	-3564
▁400	-3565
▁413	-3566
▁420	-3567
▁45.	-3568
▁5.5	-3569
▁50.	-3570
▁534	-3571
▁6%)	-3572
▁6.0	-3573
▁60.	-3574
▁65.	-3575
▁657	-3576
▁7.0	-3577
▁742	-3578
▁795	-3579
▁8.0	-3580
▁817	-3581
▁934	-3582
▁Ale	-3583
▁All	-3584
▁Car	-3585
▁Dat	-3586
▁Del	-3587
▁Gum	-3588
▁Mex	-3589
▁Mix	-3590
▁Off	-3591
▁Owl	-3592
▁Pel	-3593
▁Tim	-3594
▁Wan	-3595
▁add	-3596
▁ale	-3597
▁apr	-3598
▁ard	-3599
.1,	-3600
POS	-3601
myr	-3602
-06,	-3603
/54,	-3604
2204	-3605
258-	-3606
5317	-3607
6-25	-3608
bias	-3609
fety	-3610
lias	-3611
▁69,	-3612
▁arr	-3613
▁ary	-3614
▁ash	-3615
▁ban	-3616
▁ben	-3617
▁ber	-3618
▁bet	-3619
▁bib	-3620
▁bot	-3621
▁box	-3622
▁bun	-3623
▁cho	-3624
▁chs	-3625
▁cla	-3626
▁dig	-3627
▁don	-3628
▁eee	-3629
▁eet	-3630
▁ena	-3631
▁enw	-3632
▁ete	-3633
▁exc	-3634
▁faj	-3635
▁fot	-3636
▁frd	-3637
▁fri	-3638
▁fuj	-3639
▁gri	-3640
▁hes	-3641
▁hor	-3642
▁hot	-3643
▁its	-3644
▁ker	-3645
▁kut	-3646
▁mak	-3647
▁mex	-3648
▁mid	-3649
▁nun	-3650
▁one	-3651
▁ope	-3652
▁our	-3653
▁pak	-3654
▁pis	-3655
▁pro	-3656
▁rel	-3657
▁res	-3658
▁sak	-3659
▁saz	-3660
▁sbl	-3661
▁sea	-3662
▁see	-3663
▁sfc	-3664
▁sin	-3665
▁svc	-3666
▁tap	-3667
▁tar	-3668
▁tat	-3669
▁ter	-3670
▁tia	-3671
▁tim	-3672
▁tit	-3673
▁top	-3674
▁ttt	-3675
▁twi	-3676
▁wai	-3677
▁way	-3678
▁wii	-3679
▁yel	-3680
▁zrl	-3681
▁£00	-3682
-0108	-3683
-2017	-3684
-3427	-3685
-5412	-3686
/04-1	-3687
/2016	-3688
00007	-3689
00090	-3690
00233	-3691
007-1	-3692
00960	-3693
01695	-3694
1-180	-3695
11-18	-3696
12000	-3697
1222-	-3698
12423	-3699
frd	-3700
299-	-3701
Chef	-3702
bear	-3703
orba	-3704
▁Jln	-3705
11.90	-3706
12448	-3707
12:05	-3708
12:11	-3709
12:41	-3710
12:45	-3711
16-75	-3712
18.50	-3713
18:35	-3714
19:14	-3715
20258	-3716
28.75	-3717
3-060	-3718
30435	-3719
32114	-3720
32820	-3721
34266	-3722
3467-	-3723
35007	-3724
38736	-3725
38813	-3726
393.5	-3727
39386	-3728
39452	-3729
40027	-3730
40126	-3731
40416	-3732
42,\"	-3733
50.00	-3734
50560	-3735
55590	-3736
55924	-3737
60640	-3738
64064	-3739
6752-	-3740
7-090	-3741
70560	-3742
773.7	-3743
80617	-3744
8447-	-3745
876-7	-3746
89-67	-3747
94585	-3748
99968	-3749
:20:0	-3750
:35:5	-3751
Anton	-3752
Chang	-3753
Items	-3754
Konbu	-3755
Night	-3756
Spain	-3757
Tarte	-3758
adora	-3759
agslo	-3760
ailor	-3761
alges	-3762
amast	-3763
ambla	-3764
anada	-3765
ancil	-3766
andle	-3767
angat	-3768
antes	-3769
anuts	-3770
apore	-3771
apsal	-3772
arian	-3773
arina	-3774
arker	-3775
arter	-3776
artre	-3777
ashid	-3778
attle	-3779
aving	-3780
aysid	-3781
berry	-3782
bread	-3783
colex	-3784
cookt	-3785
count	-3786
cpies	-3787
ealth	-3788
elana	-3789
ernet	-3790
ffolk	-3791
fruit	-3792
gmail	-3793
grain	-3794
hilaa	-3795
hilly	-3796
hungo	-3797
icano	-3798
icket	-3799
81@	-3800
zjt	-3801
1608	-3802
2408	-3803
Docu	-3804
aluf	-3805
brau	-3806
hmad	-3807
hwai	-3808
▁oct	-3809
+603)	-3810
1-15)	-3811
1.116	-3812
10-13	-3813
11334	-3814
15545	-3815
156.5	-3816
37112	-3817
4812-	-3818
53470	-3819
68587	-3820
87069	-3821
9.946	-3822
ejaka	-3823
icole	-3824
inach	-3825
incon	-3826
iseed	-3827
ishah	-3828
itzer	-3829
kalan	-3830
karan	-3831
knish	-3832
koene	-3833
labur	-3834
lamar	-3835
liner	-3836
litre	-3837
lomac	-3838
lunch	-3839
mpang	-3840
nitas	-3841
notof	-3842
oints	-3843
oland	-3844
omero	-3845
onald	-3846
oneer	-3847
oseph	-3848
plain	-3849
pread	-3850
premo	-3851
prenu	-3852
rattc	-3853
renzo	-3854
scado	-3855
seves	-3856
szawa	-3857
tigen	-3858
tréal	-3859
tsbhi	-3860
uante	-3861
ubway	-3862
ucher	-3863
ushro	-3864
ustaf	-3865
ustom	-3866
villa	-3867
wandk	-3868
warth	-3869
water	-3870
woods	-3871
zjtog	-3872
▁#422	-3873
▁(101	-3874
▁(139	-3875
▁(6%)	-3876
▁0.20	-3877
▁0.25	-3878
▁0.26	-3879
▁0.75	-3880
▁0032	-3881
▁1.16	-3882
▁1.74	-3883
▁1/2"	-3884
▁10/%	-3885
▁100'	-3886
▁1000	-3887
▁1065	-3888
▁13.0	-3889
▁15/4	-3890
▁1512	-3891
▁18.4	-3892
▁1812	-3893
▁2.20	-3894
▁2.97	-3895
▁205,	-3896
▁2110	-3897
▁22.0	-3898
▁2200	-3899
utih	-3900
-3362	-3901
10:51	-3902
267.4	-3903
acruz	-3904
biasa	-3905
jimup	-3906
orizo	-3907
trowa	-3908
éicke	-3909
▁2312	-3910
▁24.0	-3911
▁26.6	-3912
▁2685	-3913
▁28.0	-3914
▁2817	-3915
▁2928	-3916
▁3.65	-3917
▁3.80	-3918
▁3.99	-3919
▁30.4	-3920
▁3035	-3921
▁34.0	-3922
▁3805	-3923
▁4.04	-3924
▁4.40	-3925
▁4.50	-3926
▁4.54	-3927
▁45.0	-3928
▁49.3	-3929
▁5.10	-3930
▁5.30	-3931
▁5.69	-3932
▁5022	-3933
▁5023	-3934
▁6.00	-3935
▁6.01	-3936
▁6.30	-3937
▁6.95	-3938
▁6724	-3939
▁6929	-3940
▁7.95	-3941
▁700:	-3942
▁7245	-3943
▁9.99	-3944
▁@0%:	-3945
▁Batu	-3946
▁Blvd	-3947
▁Cake	-3948
▁Case	-3949
▁City	-3950
▁Cour	-3951
▁Crab	-3952
▁Emas	-3953
▁King	-3954
▁Meat	-3955
▁Road	-3956
▁Room	-3957
▁batu	-3958
▁bean	-3959
▁beef	-3960
▁blvd	-3961
▁buca	-3962
▁cake	-3963
▁cani	-3964
▁cham	-3965
▁chef	-3966
▁coke	-3967
▁copy	-3968
▁cork	-3969
▁emas	-3970
▁excl	-3971
▁flot	-3972
▁free	-3973
▁grat	-3974
▁heal	-3975
▁hole	-3976
▁home	-3977
▁hood	-3978
▁java	-3979
▁kamp	-3980
▁king	-3981
▁lava	-3982
▁lino	-3983
▁make	-3984
▁mere	-3985
▁naan	-3986
▁nece	-3987
▁none	-3988
▁nuts	-3989
▁oulu	-3990
▁oven	-3991
▁paté	-3992
▁ping	-3993
▁pres	-3994
▁rati	-3995
▁rece	-3996
▁rerd	-3997
▁resh	-3998
▁road	-3999
▁room	-4000
▁seat	-4001
▁shoe	-4002
▁sill	-4003
▁slip	-4004
▁spar	-4005
▁tape	-4006
▁tart	-4007
▁taya	-4008
▁tend	-4009
▁tort	-4010
▁tuna	-4011
▁vins	-4012
▁waan	-4013
▁waik	-4014
▁well	-4015
▁wine	-4016
-00012	-4017
-04-18	-4018
-38868	-4019
/02/22	-4020
/05/18	-4021
/06/17	-4022
000120	-4023
000124	-4024
001000	-4025
007190	-4026
101261	-4027
101302	-4028
12-918	-4029
1490.7	-4030
15)922	-4031
17940-	-4032
2-0013	-4033
201739	-4034
206968	-4035
216036	-4036
217035	-4037
217043	-4038
306675	-4039
335787	-4040
35643-	-4041
35772-	-4042
360000	-4043
362.25	-4044
46207-	-4045
522130	-4046
60871-	-4047
849220	-4048
:16:13	-4049
Bandar	-4050
Boston	-4051
Brazil	-4052
Cheras	-4053
Ground	-4054
Gumbér	-4055
Hungry	-4056
Mexico	-4057
Miguel	-4058
México	-4059
Robert	-4060
Subang	-4061
\":[\"	-4062
\":\"-	-4063
\"],\"	-4064
abbaye	-4065
acific	-4066
alacca	-4067
aldosa	-4068
alling	-4069
alufia	-4070
amanda	-4071
aneiro	-4072
argots	-4073
assion	-4074
astern	-4075
asties	-4076
attery	-4077
atuity	-4078
aurent	-4079
avioli	-4080
breads	-4081
bridge	-4082
center	-4083
cheese	-4084
dition	-4085
eafood	-4086
edback	-4087
edbank	-4088
eepthi	-4089
eesest	-4090
ennedy	-4091
enting	-4092
erbang	-4093
erbier	-4094
furter	-4095
garlic	-4096
gesild	-4097
hieras	-4098
hinese	-4099
hinita	-4100
icraft	-4101
inchen	-4102
ipient	-4103
kassar	-4104
mcpies	-4105
okkien	-4106
ouille	-4107
ourpad	-4108
owther	-4109
proval	-4110
quired	-4111
rancis	-4112
rewery	-4113
ronage	-4114
single	-4115
tainer	-4116
uhaila	-4117
ulking	-4118
ustpan	-4119
warded	-4120
yellow	-4121
yramid	-4122
▁#8-35	-4123
▁$0.46	-4124
▁$1.00	-4125
▁$1.30	-4126
▁$1.60	-4127
▁$2.00	-4128
▁$3.30	-4129
▁$3.70	-4130
▁(#095	-4131
▁(562)	-4132
▁-0.72	-4133
▁10.40	-4134
▁10.49	-4135
▁10.60	-4136
▁11.10	-4137
▁11/01	-4138
▁11/18	-4139
▁11360	-4140
▁114.0	-4141
▁12:05	-4142
▁12:11	-4143
▁12:41	-4144
▁12:45	-4145
▁13.00	-4146
▁13.25	-4147
▁14.90	-4148
▁14.95	-4149
▁14776	-4150
▁15.40	-4151
▁15.50	-4152
▁16:17	-4153
▁17-6,	-4154
▁17.45	-4155
▁18:17	-4156
▁19.34	-4157
▁19/4,	-4158
▁19/9,	-4159
▁192.0	-4160
▁21.60	-4161
▁22.60	-4162
▁23/1,	-4163
▁26.34	-4164
▁26.60	-4165
▁27.00	-4166
▁33.25	-4167
▁400.0	-4168
▁40170	-4169
▁40300	-4170
▁41.32	-4171
▁43.00	-4172
▁43200	-4173
▁46.82	-4174
▁47301	-4175
▁50.00	-4176
▁550.0	-4177
▁55100	-4178
▁57.00	-4179
▁591.5	-4180
▁6023#	-4181
▁63.00	-4182
▁64.50	-4183
▁65.00	-4184
▁69.20	-4185
▁70563	-4186
▁78.10	-4187
▁840.0	-4188
▁87110	-4189
▁90110	-4190
▁96.23	-4191
▁Anton	-4192
▁Beach	-4193
▁Cajun	-4194
▁Darul	-4195
▁Ehsan	-4196
▁Pasir	-4197
▁Sales	-4198
▁Setia	-4199
▁Sucre	-4200
▁Suite	-4201
▁above	-4202
▁annes	-4203
▁antip	-4204
▁asada	-4205
▁balan	-4206
▁beach	-4207
▁cajum	-4208
▁cajun	-4209
▁carne	-4210
▁colex	-4211
▁combo	-4212
▁curry	-4213
▁darul	-4214
▁ehsan	-4215
▁eleph	-4216
▁email	-4217
▁fount	-4218
▁fujis	-4219
▁given	-4220
▁glass	-4221
▁grain	-4222
▁gross	-4223
▁hilaa	-4224
▁hours	-4225
▁hungo	-4226
▁jumbo	-4227
▁klang	-4228
▁klost	-4229
▁knish	-4230
▁koene	-4231
▁level	-4232
▁litre	-4233
▁lkura	-4234
▁maker	-4235
▁meals	-4236
▁mochi	-4237
▁monde	-4238
▁multi	-4239
▁onion	-4240
▁pizza	-4241
▁plain	-4242
▁point	-4243
▁rated	-4244
▁rattc	-4245
▁salad	-4246
▁sanyo	-4247
▁sanyu	-4248
▁seeds	-4249
▁seves	-4250
▁shell	-4251
▁shown	-4252
▁sofie	-4253
▁spain	-4254
▁steak	-4255
▁store	-4256
▁sucre	-4257
▁sugge	-4258
▁suite	-4259
▁suiza	-4260
▁svrck	-4261
▁tarte	-4262
▁trade	-4263
▁valid	-4264
▁wandk	-4265
▁warth	-4266
▁wheat	-4267
▁whole	-4268
▁—————	-4269
)\"}]}"	-4270
-000127	-4271
-010855	-4272
-074020	-4273
-626924	-4274
0000003	-4275
0000010	-4276
0001180	-4277
0002000	-4278
007299-	-4279
118258-	-4280
1217233	-4281
1226488	-4282
1485-00	-4283
1796613	-4284
1804090	-4285
1804190	-4286
1805020	-4287
1805120	-4288
1806060	-4289
1806130	-4290
1824317	-4291
2032-18	-4292
2170319	-4293
2389-67	-4294
26\",\"	-4295
28\",\"	-4296
29\",\"	-4297
34\",\"	-4298
4-11-30	-4299
44\",\"	-4300
45\",\"	-4301
5002243	-4302
56\",\"	-4303
966752-	-4304
9695914	-4305
96\",\"	-4306
Antonio	-4307
Artline	-4308
Bayside	-4309
Carrera	-4310
Central	-4311
Finland	-4312
Guarana	-4313
Ireland	-4314
Jessica	-4315
Ridzuan	-4316
Univers	-4317
Walmart	-4318
Wartian	-4319
\":7,\"	-4320
\":\"22	-4321
\":\"26	-4322
\":\"43	-4323
\":\"46	-4324
\":\"53	-4325
\":\"79	-4326
\":\"84	-4327
agnetic	-4328
algesic	-4329
amaster	-4330
ambodia	-4331
ampinas	-4332
aporean	-4333
aterson	-4334
auptstr	-4335
cashier	-4336
chilada	-4337
cooktng	-4338
elangol	-4339
emysost	-4340
erkeley	-4341
ettinad	-4342
gnocchi	-4343
hotmail	-4344
lington	-4345
onlight	-4346
ontréal	-4347
orlamar	-4348
orraine	-4349
osevelt	-4350
oulouse	-4351
roadway	-4352
trainee	-4353
uchanan	-4354
▁(1-15)	-4355
▁07:52:	-4356
▁10,000	-4357
▁109.28	-4358
▁11/15,	-4359
▁12,000	-4360
▁123.79	-4361
▁13:34:	-4362
▁142.00	-4363
▁15/48,	-4364
▁2016-0	-4365
▁211-37	-4366
▁22,000	-4367
▁24/288	-4368
▁33,000	-4369
▁338.16	-4370
▁465.34	-4371
▁543-05	-4372
▁Avenue	-4373
▁Canyon	-4374
▁Carlos	-4375
▁Herkku	-4376
▁Kepong	-4377
▁Maluri	-4378
▁Marker	-4379
▁Milton	-4380
▁Moreno	-4381
▁Suklaa	-4382
▁Sunway	-4383
▁almond	-4384
▁always	-4385
▁ampang	-4386
▁autter	-4387
▁avenue	-4388
▁baysid	-4389
▁boston	-4390
▁brazil	-4391
▁canton	-4392
▁carlos	-4393
▁cashew	-4394
▁cement	-4395
▁centre	-4396
▁claims	-4397
▁clover	-4398
▁coated	-4399
▁cocina	-4400
▁donnut	-4401
▁entier	-4402
▁fajita	-4403
▁garlic	-4404
▁griine	-4405
▁gubang	-4406
▁island	-4407
▁kepong	-4408
▁kering	-4409
▁liquor	-4410
▁longan	-4411
▁maison	-4412
▁mexico	-4413
▁miguel	-4414
▁milton	-4415
▁mushro	-4416
▁méxico	-4417
▁pakora	-4418
▁pastor	-4419
▁person	-4420
▁philly	-4421
▁rambla	-4422
▁robert	-4423
▁safety	-4424
▁sakura	-4425
▁shorba	-4426
▁shouyu	-4427
▁street	-4428
▁suklaa	-4429
▁sunway	-4430
▁surang	-4431
▁survey	-4432
▁thlias	-4433
▁ticket	-4434
▁tipica	-4435
▁totaly	-4436
▁vailey	-4437
▁wolski	-4438
▁zajazd	-4439
-7\"},\"	-4440
-8\"},\"	-4441
-9\",\"@	-4442
.04\",\"	-4443
.0\"},\"	-4444
/05/2018	-4445
/06/04-1	-4446
/08/2017	-4447
/09/2017	-4448
/12/2017	-4449
00000536	-4450
00001855	-4451
00012165	-4452
00012659	-4453
00038813	-4454
004\",\"	-4455
110\",\"	-4456
12017061	-4457
14459699	-4458
16-75746	-4459
170\",\"	-4460
18840126	-4461
2043319-	-4462
213\",\"	-4463
228\",\"	-4464
23\"},\"	-4465
3.5\",\"	-4466
300\",\"	-4467
376\",\"	-4468
4.5\",\"	-4469
406\",\"	-4470
6.4\",\"	-4471
79681818	-4472
9.3\",\"	-4473
Document	-4474
Gardenia	-4475
Location	-4476
Raclette	-4477
Reggiani	-4478
Restoran	-4479
Torikatu	-4480
\":14,\"	-4481
\":18,\"	-4482
\":24,\"	-4483
\":42,\"	-4484
\":\"-0.	-4485
\":\"101	-4486
\":\"106	-4487
\":\"17.	-4488
\":\"3.9	-4489
\":\"33.	-4490
\":\"37.	-4491
\":\"51.	-4492
\":\"52.	-4493
\":\"551	-4494
\":\"69.	-4495
\":\"817	-4496
agsloget	-4497
ailoring	-4498
allender	-4499
american	-4500
arcelona	-4501
artreuse	-4502
asuarina	-4503
bensdeli	-4504
bluebear	-4505
eljernet	-4506
horchata	-4507
inquante	-4508
ornbread	-4509
ourgogne	-4510
prenuers	-4511
raclette	-4512
ranberry	-4513
rancisco	-4514
tunnbrod	-4515
▁(11900)	-4516
▁(139386	-4517
▁012-659	-4518
▁03-7832	-4519
▁1051.00	-4520
▁1851-8,	-4521
▁2017-10	-4522
▁38\",\"	-4523
▁597-090	-4524
▁773-060	-4525
▁90\",\"	-4526
▁991-180	-4527
▁Bayside	-4528
▁Grocers	-4529
▁Grocery	-4530
▁Mahkota	-4531
▁Markets	-4532
▁Pelabur	-4533
▁Pierrot	-4534
▁Seksyen	-4535
▁artline	-4536
▁bananas	-4537
▁carrera	-4538
▁central	-4539
▁chapsal	-4540
▁chianti	-4541
▁chorizo	-4542
▁cookies	-4543
▁counter	-4544
▁delicia	-4545
▁denlime	-4546
▁finland	-4547
▁galeria	-4548
▁geitost	-4549
▁gnocchi	-4550
▁gourmet	-4551
▁guarana	-4552
▁ireland	-4553
▁jessica	-4554
▁kampung	-4555
▁kechara	-4556
▁kitchen	-4557
▁lianhap	-4558
▁loyalty	-4559
▁mahkota	-4560
▁malacca	-4561
▁manager	-4562
▁outback	-4563
▁peanuts	-4564
▁pelabur	-4565
▁pescado	-4566
▁pierrot	-4567
▁ridzuan	-4568
▁sealing	-4569
▁service	-4570
▁spinach	-4571
▁starter	-4572
▁supremo	-4573
▁taxable	-4574
▁taxcode	-4575
▁thvoice	-4576
▁tripple	-4577
▁twister	-4578
▁univers	-4579
▁waiting	-4580
-10\",\"@	-4581
-42210-13	-4582
-54127718	-4583
-5\"}],\"	-4584
00.0\",\"	-4585
000120718	-4586
009601000	-4587
1-06\",\"	-4588
110\"},\"	-4589
120001045	-4590
155453440	-4591
2-19\",\"	-4592
220499968	-4593
241512448	-4594
3-7887069	-4595
3.79\",\"	-4596
335787520	-4597
371123712	-4598
394528745	-4599
504664064	-4600
531760640	-4601
534702408	-4602
559248048	-4603
6.25\",\"	-4604
610332820	-4605
619970560	-4606
7.45\",\"	-4607
7/0112423	-4608
7301\",\"	-4609
828540416	-4610
869250560	-4611
9.00\",\"	-4612
90.0\",\"	-4613
9923\",\"	-4614
Camembert	-4615
Mataderos	-4616
Sasquatch	-4617
Stuttgart	-4618
Valkoinen	-4619
\":\"0032	-4620
\":\"1065	-4621
\":\"2817	-4622
\":\"591.	-4623
\":\"7056	-4624
\":\"8.20	-4625
allington	-4626
andicraft	-4627
ealthcare	-4628
eesesteak	-4629
ensbridge	-4630
ificadora	-4631
itzerland	-4632
omerville	-4633
éickebrod	-4634
▁#42210-0	-4635
▁03/05/17	-4636
▁15/05/18	-4637
▁19/06/17	-4638
▁21485-00	-4639
▁55423213	-4640
▁55423228	-4641
▁900\",\"	-4642
▁Bakeries	-4643
▁Taqueria	-4644
▁Wadhurst	-4645
▁bakeries	-4646
▁canister	-4647
▁carnitas	-4648
▁elephant	-4649
▁fountain	-4650
▁gratuity	-4651
▁horchata	-4652
▁imported	-4653
▁kniglich	-4654
▁purchase	-4655
▁received	-4656
▁restoran	-4657
▁tendered	-4658
▁torikatu	-4659
▁tunnbrod	-4660
▁veracruz	-4661
▁wadhurst	-4662
▁wellmart	-4663
-6\"},{\"@	-4664
-7\"},{\"@	-4665
/1\"},{\"@	-4666
0000001000	-4667
11\"},{\"@	-4668
18.509.946	-4669
2017394688	-4670
2069684028	-4671
3-90213004	-4672
46\"},{\"@	-4673
5047301890	-4674
5047302026	-4675
5221303467	-4676
5559040027	-4677
6.00000000	-4678
6001217233	-4679
603-626924	-4680
65.34\",\"	-4681
9458538736	-4682
Simplified	-4683
\":\"(562)	-4684
\":\"41.32	-4685
anjapparla	-4686
ardwaretsb	-4687
edbensdeli	-4688
ingaporean	-4689
pappadeaux	-4690
▁000000416	-4691
▁2017-09-1	-4692
▁2017-11-1	-4693
▁2018-03-1	-4694
▁23/1\",\"	-4695
▁2312\",\"	-4696
▁Caseifici	-4697
▁Cristobal	-4698
▁Johnstown	-4699
▁Margarita	-4700
▁Seasoning	-4701
▁Soublette	-4702
▁analgesic	-4703
▁andouille	-4704
▁antipasto	-4705
▁butterfly	-4706
▁camembert	-4707
▁cantonese	-4708
▁catalufia	-4709
▁cochinita	-4710
▁condition	-4711
▁container	-4712
▁cristobal	-4713
▁damansara	-4714
▁johnstown	-4715
▁mataderos	-4716
▁mushrooms	-4717
▁paillarde	-4718
▁patronage	-4719
▁recipient	-4720
▁sasquatch	-4721
▁seamaster	-4722
▁seasoning	-4723
▁soublette	-4724
▁stuttgart	-4725
▁suggested	-4726
▁valkoinen	-4727
▁wandemnde	-4728
-4\"}},{\"@	-4729
00000000401	-4730
11334101261	-4731
15)922-3427	-4732
18040902160	-4733
18050202160	-4734
36000000012	-4735
80617101302	-4736
:00\"},{\"@	-4737
:12:00\",\"	-4738
Albuquerque	-4739
Brandenburg	-4740
Rattlesnake	-4741
Scandinavia	-4742
Transaction	-4743
\":\"139386	-4744
\":\"2007-1	-4745
\":\"211-37	-4746
assionfruit	-4747
delicateses	-4748
▁#8-35\",\"	-4749
▁000-074020	-4750
▁04/06/2018	-4751
▁11/01/2018	-4752
▁15/48\",\"	-4753
▁2017-08-19	-4754
▁2018-01-13	-4755
▁Enterprise	-4756
▁Fantastica	-4757
▁Temenggung	-4758
▁enterprise	-4759
▁fantastica	-4760
▁gorgonzola	-4761
▁longbreads	-4762
▁multigrain	-4763
▁pappadeaux	-4764
▁stationery	-4765
▁temenggung	-4766
▁validation	-4767
000070000010	-4768
974052854569	-4769
974052854583	-4770
▁Courdavault	-4771
▁albuquerque	-4772
▁brandenburg	-4773
▁cheesesteak	-4774
▁flotemysost	-4775
▁frankfurter	-4776
▁klosterbier	-4777
▁ratilesnake	-4778
▁rattlesnake	-4779
▁scandinavia	-4780
▁transaction	-4781
/06/04-101695	-4782
00012659\",\"	-4783
10:51:00\",\"	-4784
12:05:00\",\"	-4785
12:11:00\",\"	-4786
1804190217035	-4787
1805120217043	-4788
1806060216036	-4789
18:35:00\",\"	-4790
19:14:00\",\"	-4791
8000000000000	-4792
9999999999999	-4793
\":\"2.5\",\"	-4794
\":\"4.5\",\"	-4795
\":\"4.8\",\"	-4796
\":\"6.0\",\"	-4797
\":\"7.0\",\"	-4798
\":\"8.0\",\"	-4799
▁000381399040	-4800
▁603-90213004	-4801
▁Gummibérchen	-4802
▁consolidated	-4803
00960100030435	-4804
18061302170319	-4805
18840126306675	-4806
20000000000002	-4807
20000000000005	-4808
3-18\"}]},{\"@	-4809
7.400000000001	-4810
79999999999995	-4811
9-26\"}]},{\"@	-4812
\":\"0.10\",\"	-4813
\":\"0.46\",\"	-4814
\":\"0.56\",\"	-4815
\":\"000000416	-4816
\":\"1.20\",\"	-4817
\":\"1.30\",\"	-4818
\":\"1.50\",\"	-4819
\":\"1.90\",\"	-4820
\":\"10.0\",\"	-4821
\":\"13.0\",\"	-4822
\":\"14.0\",\"	-4823
\":\"18.4\",\"	-4824
\":\"2.20\",\"	-4825
\":\"2.70\",\"	-4826
\":\"2.79\",\"	-4827
\":\"2016-12-0	-4828
\":\"2017-02-1	-4829
\":\"2017-06-1	-4830
\":\"2017-09-1	-4831
\":\"2017-11-2	-4832
\":\"2017-12-2	-4833
\":\"2018-02-2	-4834
\":\"2018-03-1	-4835
\":\"2018-04-0	-4836
\":\"2018-05-1	-4837
\":\"22.0\",\"	-4838
\":\"24.0\",\"	-4839
\":\"26.6\",\"	-4840
\":\"3.99\",\"	-4841
\":\"30.4\",\"	-4842
\":\"34.0\",\"	-4843
\":\"4.40\",\"	-4844
\":\"49.3\",\"	-4845
\":\"5.30\",\"	-4846
\":\"5.50\",\"	-4847
\":\"5022\",\"	-4848
\":\"6.30\",\"	-4849
\":\"6.50\",\"	-4850
\":\"6.80\",\"	-4851
\":\"6.95\",\"	-4852
\":\"603-90213	-4853
\":\"7.25\",\"	-4854
\":\"7.30\",\"	-4855
\":\"8.85\",\"	-4856
\":\"9.90\",\"	-4857
\":\"9.99\",\"	-4858
▁(718)229-2367	-4859
▁1001000000086	-4860
▁100100000030-	-4861
▁100100000060-	-4862
▁100100000170-	-4863
000000100068587	-4864
6.0000000000000	-4865
\":\"10.60\",\"	-4866
\":\"114.0\",\"	-4867
\":\"13.25\",\"	-4868
\":\"14.95\",\"	-4869
\":\"14\"},{\"@	-4870
\":\"15.40\",\"	-4871
\":\"17.45\",\"	-4872
\":\"2014-11-30	-4873
\":\"2017-11-18	-4874
\":\"2017-12-26	-4875
\":\"2018-01-11	-4876
\":\"2018-04-19	-4877
\":\"22.60\",\"	-4878
\":\"26.60\",\"	-4879
\":\"30000\",\"	-4880
\":\"33.25\",\"	-4881
\":\"40170\",\"	-4882
\":\"40300\",\"	-4883
\":\"420.0\",\"	-4884
\":\"42100\",\"	-4885
\":\"43.00\",\"	-4886
\":\"43200\",\"	-4887
\":\"47301\",\"	-4888
\":\"5023\"},\"	-4889
\":\"550.0\",\"	-4890
\":\"55100\",\"	-4891
\":\"63.00\",\"	-4892
\":\"69.20\",\"	-4893
\":\"8.20\"},\"	-4894
\":\"840.0\",\"	-4895
skcahardwaretsb	-4896
▁1000306020352)	-4897
▁frankenversand	-4898
267.400000000001	-4899
37.5999999999999	-4900
8.20000000000005	-4901
\":\"00030602035	-4902
\":\"123.79\",\"	-4903
\":\"465.34\",\"	-4904
▁(11900)\"},{\"@	-4905
%%	-4906
'2	-4907
(1	-4908
))	-4909
),	-4910
)”	-4911
++	-4912
-%	-4913
-£	-4914
..	-4915
.6	-4916
/.	-4917
0-	-4918
0°	-4919
1]	-4920
3)	-4921
4¢	-4922
5%	-4923
5;	-4924
6-	-4925
7¢	-4926
8-	-4927
:9	-4928
>6	-4929
AR	-4930
Ab	-4931
Ac	-4932
Av	-4933
Bl	-4934
Bo	-4935
CF	-4936
Ca	-4937
Co	-4938
DV	-4939
Du	-4940
EL	-4941
FL	-4942
Fr	-4943
GL	-4944
Ge	-4945
He	-4946
IO	-4947
IP	-4948
IU	-4949
In	-4950
Is	-4951
KS	-4952
Ke	-4953
LW	-4954
La	-4955
Lo	-4956
MA	-4957
MR	-4958
MS	-4959
Ma	-4960
Mc	-4961
Me	-4962
Mo	-4963
My	-4964
NJ	-4965
OP	-4966
OT	-4967
PD	-4968
PJ	-4969
Ph	-4970
Pl	-4971
RL	-4972
RZ	-4973
SA	-4974
SP	-4975
SW	-4976
Sm	-4977
TT	-4978
TX	-4979
Tw	-4980
UG	-4981
Ul	-4982
Ur	-4983
Vo	-4984
WX	-4985
ZM	-4986
bi	-4987
bm	-4988
by	-4989
eb	-4990
ec	-4991
ei	-4992
fi	-4993
fl	-4994
fo	-4995
gl	-4996
gt	-4997
he	-4998
ib	-4999
iv	-5000
iw	-5001
je	-5002
kd	-5003
kf	-5004
kh	-5005
kx	-5006
lb	-5007
lg	-5008
lu	-5009
lw	-5010
nc	-5011
nm	-5012
nu	-5013
oz	-5014
pd	-5015
pj	-5016
qf	-5017
rd	-5018
rt	-5019
rz	-5020
tl	-5021
tn	-5022
vc	-5023
vt	-5024
xs	-5025
xx	-5026
ze	-5027
zm	-5028
zu	-5029
°°	-5030
ém	-5031
▁'	-5032
▁Q	-5033
▁Y	-5034
▁Z	-5035
▁}	-5036
,37	-5037
-01	-5038
-08	-5039
-35	-5040
-87	-5041
.0.	-5042
/04	-5043
00-	-5044
003	-5045
005	-5046
1):	-5047
1-4	-5048
1/2	-5049
135	-5050
158	-5051
17)	-5052
2.4	-5053
208	-5054
214	-5055
23°	-5056
26'	-5057
3.0	-5058
37.	-5059
432	-5060
46:	-5061
476	-5062
61-	-5063
67,	-5064
9.2	-5065
Ara	-5066
Ash	-5067
Ave	-5068
Bem	-5069
Ber	-5070
Del	-5071
Den	-5072
Eat	-5073
Esc	-5074
Lan	-5075
Man	-5076
Mel	-5077
Mem	-5078
New	-5079
OTC	-5080
Ope	-5081
Out	-5082
PMS	-5083
Pis	-5084
Sof	-5085
Thi	-5086
\\-	-5087
ach	-5088
ade	-5089
ami	-5090
ans	-5091
aol	-5092
ats	-5093
atz	-5094
até	-5095
bos	-5096
bst	-5097
cka	-5098
coh	-5099
/26	-5100
134	-5101
24-	-5102
303	-5103
397	-5104
:19	-5105
Fil	-5106
Net	-5107
RIU	-5108
Sin	-5109
ayo	-5110
die	-5111
dit	-5112
dul	-5113
ear	-5114
ece	-5115
eer	-5116
eet	-5117
eld	-5118
els	-5119
emp	-5120
erc	-5121
ere	-5122
ero	-5123
exc	-5124
fet	-5125
fic	-5126
hog	-5127
hun	-5128
ics	-5129
ief	-5130
ift	-5131
ima	-5132
ini	-5133
ioi	-5134
isa	-5135
iva	-5136
kid	-5137
laf	-5138
lry	-5139
lwc	-5140
may	-5141
mem	-5142
nal	-5143
ndg	-5144
oll	-5145
omp	-5146
opi	-5147
osd	-5148
pee	-5149
ppo	-5150
pro	-5151
pun	-5152
qty	-5153
rat	-5154
raw	-5155
res	-5156
rim	-5157
sat	-5158
spe	-5159
ssa	-5160
sum	-5161
tir	-5162
tte	-5163
uck	-5164
ues	-5165
unp	-5166
uty	-5167
wal	-5168
wer	-5169
wes	-5170
wit	-5171
xan	-5172
▁$9	-5173
▁(@	-5174
▁*4	-5175
▁*=	-5176
▁0°	-5177
▁1%	-5178
▁1'	-5179
▁1)	-5180
▁2)	-5181
▁2=	-5182
▁3"	-5183
▁37	-5184
▁46	-5185
▁4¢	-5186
▁57	-5187
▁75	-5188
▁81	-5189
▁89	-5190
▁8:	-5191
▁92	-5192
▁:5	-5193
▁@4	-5194
▁As	-5195
▁Bk	-5196
▁Br	-5197
▁CR	-5198
▁Ca	-5199
0.3	-5200
13,	-5201
315	-5202
Hil	-5203
bol	-5204
kxt	-5205
oas	-5206
teh	-5207
▁-2	-5208
▁2%	-5209
▁85	-5210
▁98	-5211
▁Cl	-5212
▁GF	-5213
▁Ln	-5214
▁Ma	-5215
▁Ph	-5216
▁Pi	-5217
▁Sa	-5218
▁__	-5219
▁af	-5220
▁ah	-5221
▁ao	-5222
▁ba	-5223
▁bb	-5224
▁bk	-5225
▁bs	-5226
▁bu	-5227
▁bv	-5228
▁bx	-5229
▁cd	-5230
▁cf	-5231
▁ci	-5232
▁cy	-5233
▁dj	-5234
▁ea	-5235
▁el	-5236
▁ep	-5237
▁fg	-5238
▁fi	-5239
▁gf	-5240
▁gl	-5241
▁gy	-5242
▁hf	-5243
▁hh	-5244
▁ic	-5245
▁jr	-5246
▁ky	-5247
▁lg	-5248
▁nh	-5249
▁ns	-5250
▁oh	-5251
▁po	-5252
▁rs	-5253
▁rt	-5254
▁ru	-5255
▁sb	-5256
▁sd	-5257
▁si	-5258
▁sx	-5259
▁tc	-5260
▁tr	-5261
▁uh	-5262
▁ul	-5263
▁vv	-5264
▁wd	-5265
▁wl	-5266
▁wo	-5267
▁yd	-5268
▁©.	-5269
▁°°	-5270
-012	-5271
/200	-5272
0.49	-5273
00-1	-5274
0034	-5275
0201	-5276
1-01	-5277
1-23	-5278
1.83	-5279
12-4	-5280
2-13	-5281
2.34	-5282
20/0	-5283
200,	-5284
21-0	-5285
23.5	-5286
2448	-5287
2737	-5288
28.5	-5289
3-03	-5290
3-20	-5291
3.75	-5292
3.85	-5293
36.9	-5294
3700	-5295
3885	-5296
4-06	-5297
4-86	-5298
4500	-5299
346	-5300
355	-5301
796	-5302
Pax	-5303
bak	-5304
eek	-5305
oye	-5306
uds	-5307
umb	-5308
▁(0	-5309
▁4:	-5310
▁Or	-5311
▁nd	-5312
▁ng	-5313
▁nl	-5314
▁pd	-5315
▁pn	-5316
▁ra	-5317
▁rn	-5318
▁rp	-5319
▁wp	-5320
▁wx	-5321
1532	-5322
2-23	-5323
48.0	-5324
5-13	-5325
5-25	-5326
5.94	-5327
6-23	-5328
6.50	-5329
6011	-5330
6534	-5331
7.95	-5332
7201	-5333
8-27	-5334
8/10	-5335
8124	-5336
85.0	-5337
9,\"	-5338
9-22	-5339
9.48	-5340
9000	-5341
:000	-5342
:01:	-5343
:48:	-5344
Beck	-5345
Choc	-5346
Liam	-5347
Lice	-5348
Long	-5349
Paid	-5350
Pate	-5351
Ping	-5352
Tany	-5353
Vaff	-5354
Vege	-5355
Visa	-5356
adej	-5357
aeon	-5358
aled	-5359
amic	-5360
apps	-5361
arer	-5362
ased	-5363
atce	-5364
bser	-5365
dian	-5366
elor	-5367
emet	-5368
enen	-5369
erti	-5370
etel	-5371
etro	-5372
hiit	-5373
icen	-5374
icum	-5375
iglo	-5376
inod	-5377
isue	-5378
ital	-5379
joye	-5380
kkik	-5381
lump	-5382
meal	-5383
meat	-5384
oass	-5385
ober	-5386
oing	-5387
oner	-5388
oney	-5389
onop	-5390
orru	-5391
over	-5392
phne	-5393
plug	-5394
rice	-5395
save	-5396
soda	-5397
ssen	-5398
tice	-5399
.40	-5400
012	-5401
1.1	-5402
12.	-5403
15/	-5404
579	-5405
8.4	-5406
Bir	-5407
ELD	-5408
riu	-5409
▁&)	-5410
▁0}	-5411
▁56	-5412
▁5=	-5413
▁=.	-5414
▁CS	-5415
▁Kn	-5416
▁Sc	-5417
▁ft	-5418
▁mc	-5419
▁qy	-5420
12.0	-5421
2572	-5422
3.30	-5423
3.96	-5424
475.	-5425
IELD	-5426
dwwd	-5427
edom	-5428
frap	-5429
seta	-5430
sine	-5431
tips	-5432
uced	-5433
unan	-5434
vins	-5435
wati	-5436
▁#65	-5437
▁(19	-5438
▁(23	-5439
▁(80	-5440
▁.85	-5441
▁/1.	-5442
▁0.0	-5443
▁00%	-5444
▁01-	-5445
▁056	-5446
▁1-3	-5447
▁1.8	-5448
▁101	-5449
▁103	-5450
▁117	-5451
▁135	-5452
▁159	-5453
▁16.	-5454
▁209	-5455
▁28.	-5456
▁339	-5457
▁34.	-5458
▁346	-5459
▁348	-5460
▁349	-5461
▁370	-5462
▁378	-5463
▁4.0	-5464
▁5.6	-5465
▁511	-5466
▁55.	-5467
▁648	-5468
▁67.	-5469
▁692	-5470
▁7.6	-5471
▁711	-5472
▁780	-5473
▁784	-5474
▁834	-5475
▁9.0	-5476
▁986	-5477
▁Ang	-5478
▁Bar	-5479
▁Bot	-5480
▁Fil	-5481
▁Gun	-5482
▁Hwy	-5483
▁Int	-5484
▁One	-5485
▁Que	-5486
▁Sis	-5487
▁Six	-5488
▁Sum	-5489
▁Via	-5490
▁aan	-5491
▁act	-5492
▁aen	-5493
▁aer	-5494
▁aik	-5495
▁aln	-5496
▁ant	-5497
▁ate	-5498
▁aty	-5499
232	-5500
ams	-5501
ogg	-5502
rol	-5503
sis	-5504
▁"+	-5505
▁8@	-5506
▁:)	-5507
▁:.	-5508
▁:0	-5509
▁Sp	-5510
▁To	-5511
▁ji	-5512
▁ol	-5513
▁vo	-5514
1.12	-5515
251-	-5516
aeen	-5517
disc	-5518
filo	-5519
gram	-5520
▁0%5	-5521
▁0.2	-5522
▁0.5	-5523
▁160	-5524
▁24/	-5525
▁25.	-5526
▁51.	-5527
▁560	-5528
▁64.	-5529
▁Pie	-5530
▁Tel	-5531
▁ani	-5532
▁aol	-5533
▁apy	-5534
▁azo	-5535
▁bak	-5536
▁bem	-5537
▁bho	-5538
▁big	-5539
▁bin	-5540
▁bst	-5541
▁cay	-5542
▁cee	-5543
▁ces	-5544
▁chk	-5545
▁cic	-5546
▁cuc	-5547
▁dai	-5548
▁din	-5549
▁eas	-5550
▁ere	-5551
▁ext	-5552
▁fay	-5553
▁flr	-5554
▁gat	-5555
▁gau	-5556
▁gun	-5557
▁har	-5558
▁hee	-5559
▁ian	-5560
▁idr	-5561
▁ine	-5562
▁ing	-5563
▁inp	-5564
▁int	-5565
▁irl	-5566
▁iss	-5567
▁iti	-5568
▁jay	-5569
▁jin	-5570
▁kas	-5571
▁kid	-5572
▁kop	-5573
▁led	-5574
▁lid	-5575
▁loc	-5576
▁lrn	-5577
▁met	-5578
▁min	-5579
▁mom	-5580
▁mow	-5581
▁nol	-5582
▁ory	-5583
▁oss	-5584
▁otc	-5585
▁pax	-5586
▁pin	-5587
▁pio	-5588
▁pjs	-5589
▁pod	-5590
▁ree	-5591
▁req	-5592
▁rhi	-5593
▁rid	-5594
▁rol	-5595
▁ron	-5596
▁rua	-5597
▁sac	-5598
▁say	-5599
%90	-5600
.26	-5601
.52	-5602
710	-5603
869	-5604
:10	-5605
:31	-5606
Che	-5607
amt	-5608
out	-5609
thu	-5610
énb	-5611
▁6"	-5612
▁6'	-5613
▁7"	-5614
▁71	-5615
▁7:	-5616
▁hd	-5617
▁ia	-5618
▁oi	-5619
▁ok	-5620
▁oq	-5621
amps	-5622
cake	-5623
▁20%	-5624
▁450	-5625
▁Pan	-5626
▁Pay	-5627
▁Pot	-5628
▁Val	-5629
▁han	-5630
▁hid	-5631
▁lam	-5632
▁noo	-5633
▁oal	-5634
▁oph	-5635
▁opt	-5636
▁seg	-5637
▁sif	-5638
▁sik	-5639
▁sor	-5640
▁sou	-5641
▁soy	-5642
▁sre	-5643
▁sss	-5644
▁sth	-5645
▁sun	-5646
▁tae	-5647
▁tem	-5648
▁tio	-5649
▁toy	-5650
▁tss	-5651
▁tun	-5652
▁ums	-5653
▁ust	-5654
▁ves	-5655
▁vig	-5656
▁who	-5657
▁win	-5658
▁yam	-5659
▁yoy	-5660
▁ype	-5661
▁{15	-5662
▁~~,	-5663
-0,39	-5664
-0.20	-5665
-115)	-5666
1036-	-5667
11.00	-5668
15/40	-5669
17.75	-5670
18:26	-5671
18:28	-5672
2010.	-5673
23°0°	-5674
27328	-5675
3000)	-5676
66271	-5677
678.0	-5678
71604	-5679
73.13	-5680
760.8	-5681
80,\"	-5682
956.9	-5683
99999	-5684
:1740	-5685
:48:4	-5686
Becky	-5687
Boise	-5688
Debit	-5689
Obser	-5690
Phnom	-5691
Pismo	-5692
Reims	-5693
Setia	-5694
Shift	-5695
Tampa	-5696
\":36	-5697
\":45	-5698
\":65	-5699
178	-5700
30'	-5701
30)	-5702
511	-5703
REC	-5704
▁$7	-5705
▁&%	-5706
▁91	-5707
▁Ac	-5708
▁Ap	-5709
▁Li	-5710
▁“~	-5711
.00)	-5712
3-24	-5713
▁.00	-5714
▁10%	-5715
▁111	-5716
▁30,	-5717
▁461	-5718
▁9.5	-5719
▁91.	-5720
▁bri	-5721
▁eis	-5722
▁ied	-5723
▁nov	-5724
▁srv	-5725
▁tak	-5726
▁vie	-5727
#0511	-5728
-0,01	-5729
0..00	-5730
30'14	-5731
White	-5732
adeje	-5733
alice	-5734
alurt	-5735
awati	-5736
chang	-5737
consh	-5738
ction	-5739
erran	-5740
frank	-5741
gated	-5742
intaw	-5743
ipica	-5744
islat	-5745
jalan	-5746
kxtkr	-5747
letss	-5748
mmary	-5749
moade	-5750
north	-5751
nount	-5752
obile	-5753
ocina	-5754
orker	-5755
osing	-5756
osogg	-5757
osted	-5758
ovide	-5759
ovndg	-5760
owath	-5761
quede	-5762
ranty	-5763
rules	-5764
sider	-5765
stric	-5766
tiace	-5767
tions	-5768
usiva	-5769
vinet	-5770
wasan	-5771
wolza	-5772
▁(000	-5773
▁-160	-5774
▁0.10	-5775
▁0.11	-5776
▁0.14	-5777
▁0.28	-5778
▁0.30	-5779
▁0.37	-5780
▁0.40	-5781
▁0.46	-5782
▁0.48	-5783
▁0.60	-5784
▁0.63	-5785
▁0010	-5786
▁0035	-5787
▁0120	-5788
▁0305	-5789
▁0804	-5790
▁1.23	-5791
▁1.33	-5792
▁1.42	-5793
▁1.70	-5794
▁1.99	-5795
▁10'1	-5796
▁10'2	-5797
▁1007	-5798
▁1011	-5799
.67	-5800
/3,	-5801
13)	-5802
21/	-5803
226	-5804
22{	-5805
35-	-5806
670	-5807
677	-5808
835	-5809
MLW	-5810
REG	-5811
nca	-5812
▁#0	-5813
▁Cr	-5814
▁yh	-5815
▁yo	-5816
▁yt	-5817
▁yu	-5818
4.04	-5819
55.0	-5820
6%):	-5821
65.0	-5822
MLWC	-5823
asae	-5824
erte	-5825
kari	-5826
pose	-5827
▁022	-5828
▁Hid	-5829
▁Net	-5830
▁PJU	-5831
▁ahd	-5832
▁akd	-5833
▁cad	-5834
▁cea	-5835
▁new	-5836
▁sts	-5837
▁trh	-5838
▁“++	-5839
2.835	-5840
21/38	-5841
2222{	-5842
878.0	-5843
▁1013	-5844
▁1037	-5845
▁1046	-5846
▁106.	-5847
▁1066	-5848
▁11.2	-5849
▁12.0	-5850
▁12.5	-5851
▁1232	-5852
▁14.4	-5853
▁1452	-5854
▁1534	-5855
▁1664	-5856
▁1665	-5857
▁184¢	-5858
▁19.2	-5859
▁19.5	-5860
▁2.12	-5861
▁2.13	-5862
▁20.0	-5863
▁2003	-5864
▁2014	-5865
▁21.5	-5866
▁2131	-5867
▁22-0	-5868
▁2226	-5869
▁2300	-5870
▁2623	-5871
▁268.	-5872
▁3.10	-5873
▁3.20	-5874
▁3.29	-5875
▁3012	-5876
▁31.2	-5877
▁4.00	-5878
▁4.20	-5879
▁4.35	-5880
▁41.0	-5881
▁436.	-5882
▁44.0	-5883
▁45.6	-5884
▁4500	-5885
▁46.0	-5886
▁4980	-5887
▁5/26	-5888
▁50.0	-5889
▁5008	-5890
▁5300	-5891
▁5570	-5892
▁6.39	-5893
▁6.50	-5894
▁6.69	-5895
▁6.88	-5896
▁60.0	-5897
▁655.	-5898
▁7.25	-5899
145	-5900
450	-5901
934	-5902
:50	-5903
▁&]	-5904
▁ut	-5905
▁yy	-5906
-115	-5907
1087	-5908
2.03	-5909
4.15	-5910
Blue	-5911
Food	-5912
Lino	-5913
Sany	-5914
Twig	-5915
boxs	-5916
▁"50	-5917
▁(50	-5918
▁134	-5919
▁247	-5920
▁47.	-5921
▁67,	-5922
▁777	-5923
▁814	-5924
▁86%	-5925
▁Mee	-5926
▁Met	-5927
▁coo	-5928
▁doh	-5929
▁esc	-5930
▁jos	-5931
▁pav	-5932
▁ska	-5933
▁sos	-5934
▁tos	-5935
17019	-5936
Sanyu	-5937
arroz	-5938
▁0.87	-5939
▁1336	-5940
▁15.0	-5941
▁1878	-5942
▁3180	-5943
▁7.74	-5944
▁7.80	-5945
▁7843	-5946
▁8,96	-5947
▁8.00	-5948
▁8.85	-5949
▁8022	-5950
▁9.50	-5951
▁9004	-5952
▁9010	-5953
▁Bear	-5954
▁Idea	-5955
▁Kali	-5956
▁Mall	-5957
▁Mayo	-5958
▁Nand	-5959
▁Paid	-5960
▁Park	-5961
▁Plat	-5962
▁Polk	-5963
▁Pres	-5964
▁Tail	-5965
▁[001	-5966
▁alaf	-5967
▁alah	-5968
▁ards	-5969
▁aron	-5970
▁bang	-5971
▁bear	-5972
▁bhar	-5973
▁bust	-5974
▁caps	-5975
▁ches	-5976
▁club	-5977
▁cone	-5978
▁cope	-5979
▁daru	-5980
▁dato	-5981
▁days	-5982
▁dics	-5983
▁disc	-5984
▁engl	-5985
▁faol	-5986
▁foun	-5987
▁gent	-5988
▁ghee	-5989
▁goad	-5990
▁goth	-5991
▁hate	-5992
▁have	-5993
▁high	-5994
▁hulu	-5995
▁inuo	-5996
▁ipoh	-5997
▁ipun	-5998
▁isis	-5999
425	-6000
crm	-6001
2-03	-6002
2.75	-6003
2025	-6004
30.0	-6005
4517	-6006
5075	-6007
mela	-6008
oked	-6009
▁#1-	-6010
▁515	-6011
▁Dig	-6012
▁crm	-6013
▁fla	-6014
▁lrg	-6015
▁pju	-6016
▁uit	-6017
11:13	-6018
:1000	-6019
▁1.50	-6020
▁1.60	-6021
▁3.38	-6022
▁3.50	-6023
▁378(	-6024
▁40.0	-6025
▁Cafe	-6026
▁Cope	-6027
▁Dato	-6028
▁Peng	-6029
▁bith	-6030
▁jash	-6031
▁kari	-6032
▁kxan	-6033
▁lear	-6034
▁live	-6035
▁llpo	-6036
▁lomp	-6037
▁ltem	-6038
▁mall	-6039
▁mayo	-6040
▁moth	-6041
▁nade	-6042
▁nang	-6043
▁next	-6044
▁nise	-6045
▁nori	-6046
▁oash	-6047
▁obit	-6048
▁ogkg	-6049
▁opin	-6050
▁pala	-6051
▁pate	-6052
▁plue	-6053
▁posd	-6054
▁qity	-6055
▁quay	-6056
▁rare	-6057
▁rate	-6058
▁rede	-6059
▁robo	-6060
▁rrat	-6061
▁sess	-6062
▁seti	-6063
▁shar	-6064
▁siti	-6065
▁soda	-6066
▁ster	-6067
▁tany	-6068
▁thee	-6069
▁thys	-6070
▁till	-6071
▁tips	-6072
▁toll	-6073
▁took	-6074
▁twig	-6075
▁usin	-6076
▁webs	-6077
▁wise	-6078
▁yell	-6079
/06/18	-6080
/53796	-6081
000158	-6082
021058	-6083
100.00	-6084
153276	-6085
3-2018	-6086
402935	-6087
4876-7	-6088
56/54,	-6089
9-03-0	-6090
95225-	-6091
:20:04	-6092
Ampang	-6093
Brasas	-6094
Device	-6095
Hollyw	-6096
Liquor	-6097
Nantes	-6098
Poland	-6099
269	-6100
Cow	-6101
Die	-6102
Pow	-6103
Rio	-6104
how	-6105
imp	-6106
3.70	-6107
6-17	-6108
Fish	-6109
long	-6110
▁146	-6111
▁148	-6112
▁270	-6113
▁470	-6114
▁Aik	-6115
▁Kuh	-6116
▁Lot	-6117
▁Pio	-6118
▁bio	-6119
▁cab	-6120
▁low	-6121
▁mee	-6122
▁rim	-6123
▁rio	-6124
▁rkk	-6125
▁veo	-6126
▁wey	-6127
/2012	-6128
/2013	-6129
203.5	-6130
Cowes	-6131
Grand	-6132
Power	-6133
aches	-6134
chops	-6135
gourl	-6136
howen	-6137
▁15.5	-6138
▁151.	-6139
▁17.8	-6140
▁186.	-6141
▁190.	-6142
▁3.37	-6143
▁6.23	-6144
▁Ling	-6145
▁dare	-6146
▁ease	-6147
▁good	-6148
▁heot	-6149
▁lama	-6150
▁line	-6151
▁list	-6152
▁pere	-6153
▁tita	-6154
26926-	-6155
6-1783	-6156
Spread	-6157
Subway	-6158
Ticket	-6159
alysis	-6160
andard	-6161
ardens	-6162
ations	-6163
ddisue	-6164
double	-6165
eloral	-6166
europe	-6167
ibeppo	-6168
otalrm	-6169
ottish	-6170
ounded	-6171
rimini	-6172
rossle	-6173
spread	-6174
sumary	-6175
usment	-6176
worker	-6177
▁#0134	-6178
▁$9.00	-6179
▁$9.97	-6180
▁(030)	-6181
▁(1269	-6182
▁(4603	-6183
▁(805)	-6184
▁(813)	-6185
▁-0,01	-6186
▁-0.76	-6187
▁00225	-6188
▁01-06	-6189
▁02145	-6190
▁04/02	-6191
▁04:01	-6192
▁06:35	-6193
▁08:00	-6194
▁1.000	-6195
▁1.387	-6196
▁10/%,	-6197
▁10012	-6198
▁10426	-6199
&27	-6200
,47	-6201
cky	-6202
irn	-6203
▁Gi	-6204
1-14	-6205
2-04	-6206
249.	-6207
Chop	-6208
chop	-6209
ofal	-6210
paté	-6211
▁224	-6212
▁2:0	-6213
▁424	-6214
▁=6%	-6215
▁ara	-6216
▁arx	-6217
▁dec	-6218
Holly	-6219
losed	-6220
ofing	-6221
▁0.84	-6222
▁5.48	-6223
▁Trip	-6224
▁bons	-6225
▁saes	-6226
▁sais	-6227
▁site	-6228
▁subt	-6229
▁visa	-6230
&27111	-6231
,47400	-6232
Closed	-6233
▁10429	-6234
▁10443	-6235
▁10535	-6236
▁10632	-6237
▁10636	-6238
▁10647	-6239
▁10651	-6240
▁10653	-6241
▁10688	-6242
▁10739	-6243
▁10829	-6244
▁10948	-6245
▁11,10	-6246
▁11.12	-6247
▁11000	-6248
▁11057	-6249
▁12.00	-6250
▁126.0	-6251
▁13.52	-6252
▁13/04	-6253
▁13:06	-6254
▁14.06	-6255
▁14.91	-6256
▁144.0	-6257
▁15.90	-6258
▁15.95	-6259
▁15/12	-6260
▁16,00	-6261
▁16.25	-6262
▁16.96	-6263
▁17.00	-6264
▁18.75	-6265
▁18128	-6266
▁182.4	-6267
▁184.0	-6268
▁18:22	-6269
▁18:24	-6270
▁18:26	-6271
▁19.19	-6272
▁190.0	-6273
▁196.0	-6274
▁20.50	-6275
▁20/03	-6276
▁21.10	-6277
▁23.25	-6278
▁240.0	-6279
▁25.22	-6280
▁250.0	-6281
▁26-05	-6282
▁26.50	-6283
▁26.96	-6284
▁27.99	-6285
▁27111	-6286
▁28.20	-6287
▁29.24	-6288
▁3,000	-6289
▁31000	-6290
▁35.10	-6291
▁36.80	-6292
▁360.0	-6293
▁386.4	-6294
▁40.30	-6295
▁41.05	-6296
▁44000	-6297
▁46534	-6298
▁48.85	-6299
Gro	-6300
Imp	-6301
▁%:	-6302
1-21	-6303
10'1	-6304
2-24	-6305
2-25	-6306
2-27	-6307
Chai	-6308
Nors	-6309
Pump	-6310
bury	-6311
doot	-6312
ives	-6313
▁00"	-6314
▁005	-6315
▁171	-6316
▁173	-6317
▁21%	-6318
▁Imp	-6319
▁Way	-6320
▁aww	-6321
▁fls	-6322
▁lng	-6323
▁pag	-6324
▁pse	-6325
▁pts	-6326
▁six	-6327
Gross	-6328
Klang	-6329
nalle	-6330
qfish	-6331
seven	-6332
thday	-6333
▁0026	-6334
▁34.2	-6335
▁4.60	-6336
▁4.87	-6337
▁4.95	-6338
▁9087	-6339
▁96.0	-6340
▁Away	-6341
▁Lama	-6342
▁hide	-6343
▁llet	-6344
▁lump	-6345
▁mlwc	-6346
▁peng	-6347
▁whol	-6348
Licens	-6349
▁10388	-6350
▁13366	-6351
▁160.0	-6352
▁17007	-6353
▁210.0	-6354
▁5.000	-6355
▁50.80	-6356
▁51.00	-6357
▁51100	-6358
▁52.34	-6359
▁52.76	-6360
▁558.0	-6361
▁59201	-6362
▁6.00%	-6363
▁608.0	-6364
▁620.0	-6365
▁680.0	-6366
▁68000	-6367
▁7937.	-6368
▁798.0	-6369
▁7:19:	-6370
▁800.0	-6371
▁810.0	-6372
▁91608	-6373
▁94117	-6374
▁98124	-6375
▁99999	-6376
▁Beppo	-6377
▁Binti	-6378
▁Blaye	-6379
▁Coast	-6380
▁Delhi	-6381
▁Fried	-6382
▁Happy	-6383
▁Intah	-6384
▁Lager	-6385
▁Level	-6386
▁Metro	-6387
▁Point	-6388
▁Price	-6389
▁Pusat	-6390
▁Sauce	-6391
▁Shell	-6392
▁Super	-6393
▁Syrup	-6394
▁Toast	-6395
▁ahmad	-6396
▁aonop	-6397
▁arroz	-6398
▁asifa	-6399
:41	-6400
aae	-6401
sab	-6402
149-	-6403
169-	-6404
2-12	-6405
2-15	-6406
41-5	-6407
9-20	-6408
fack	-6409
krar	-6410
▁#%%	-6411
▁041	-6412
▁09-	-6413
▁2.9	-6414
▁442	-6415
▁Ulu	-6416
▁gog	-6417
▁ich	-6418
▁ord	-6419
▁osx	-6420
13:00	-6421
goods	-6422
ither	-6423
sabol	-6424
tages	-6425
veget	-6426
▁0.41	-6427
▁0300	-6428
▁1029	-6429
▁1041	-6430
▁1170	-6431
▁2.80	-6432
▁23.0	-6433
▁36.4	-6434
▁5305	-6435
▁5748	-6436
▁Club	-6437
▁mary	-6438
▁park	-6439
▁rich	-6440
▁sers	-6441
11036-	-6442
cludes	-6443
▁$0.97	-6444
▁10.07	-6445
▁13:00	-6446
▁22.00	-6447
▁22/10	-6448
▁41200	-6449
▁Dried	-6450
▁Veget	-6451
▁avail	-6452
▁bever	-6453
▁brush	-6454
▁certi	-6455
▁coast	-6456
▁count	-6457
▁dairy	-6458
▁docno	-6459
▁dress	-6460
▁dried	-6461
▁dumon	-6462
▁dusun	-6463
▁ehean	-6464
▁emeal	-6465
▁erver	-6466
▁field	-6467
▁filet	-6468
▁final	-6469
▁fresh	-6470
▁gaeen	-6471
▁galed	-6472
▁gloss	-6473
▁gogds	-6474
▁green	-6475
▁hater	-6476
▁hobos	-6477
▁hound	-6478
▁https	-6479
▁indah	-6480
▁input	-6481
▁islat	-6482
▁kktax	-6483
▁lamai	-6484
▁letss	-6485
▁marie	-6486
▁merep	-6487
▁money	-6488
▁norts	-6489
▁pasie	-6490
▁perth	-6491
▁petro	-6492
▁phnom	-6493
▁print	-6494
▁promo	-6495
▁prove	-6496
▁quede	-6497
▁reall	-6498
▁reyes	-6499
GRE	-6500
buy	-6501
3-17	-6502
5-09	-6503
Hulu	-6504
chix	-6505
heck	-6506
tara	-6507
▁402	-6508
▁7.2	-6509
▁\\-	-6510
▁pms	-6511
▁vip	-6512
3-130	-6513
42230	-6514
6/54,	-6515
GREEN	-6516
entre	-6517
icial	-6518
reggi	-6519
▁1.76	-6520
▁1783	-6521
▁26.2	-6522
▁36.0	-6523
▁6.83	-6524
▁6011	-6525
▁7.75	-6526
▁heck	-6527
▁kara	-6528
▁toor	-6529
▁trio	-6530
15/40,	-6531
98447-	-6532
:57:00	-6533
Gustaf	-6534
Opened	-6535
Rincon	-6536
▁(6%):	-6537
▁10423	-6538
▁21.83	-6539
▁216.0	-6540
▁263.5	-6541
▁520.0	-6542
▁720.0	-6543
▁Utara	-6544
▁block	-6545
▁consh	-6546
▁cuest	-6547
▁rhénb	-6548
▁saies	-6549
▁sarah	-6550
▁sates	-6551
▁slate	-6552
▁swazi	-6553
▁syrup	-6554
▁tampa	-6555
▁taxes	-6556
▁thane	-6557
▁trans	-6558
▁uonly	-6559
▁value	-6560
▁visit	-6561
▁whitc	-6562
.6\",\"	-6563
/3\",\"	-6564
0000015	-6565
012-659	-6566
01\",\"	-6567
02\",\"	-6568
11:13:3	-6569
12:45:4	-6570
13\",\"	-6571
16\",\"	-6572
18:17:5	-6573
198447-	-6574
19\",\"	-6575
2-01-13	-6576
20:35:5	-6577
211036-	-6578
21\",\"	-6579
31\",\"	-6580
32\",\"	-6581
33\",\"	-6582
3426612	-6583
38\",\"	-6584
41\",\"	-6585
42\",\"	-6586
47\",\"	-6587
48\",\"	-6588
52\",\"	-6589
57\",\"	-6590
63\",\"	-6591
65\",\"	-6592
67\",\"	-6593
68\",\"	-6594
69\",\"	-6595
6\"},\"	-6596
72\",\"	-6597
74\",\"	-6598
77\",\"	-6599
The	-6600
▁)|	-6601
1-05	-6602
2549	-6603
4300	-6604
8128	-6605
Term	-6606
hili	-6607
inci	-6608
▁0%)	-6609
▁257	-6610
▁EZM	-6611
▁Raz	-6612
▁bca	-6613
▁plt	-6614
1-012	-6615
11:57	-6616
26.00	-6617
galed	-6618
godos	-6619
norts	-6620
other	-6621
▁2.49	-6622
▁2430	-6623
▁25.0	-6624
▁2547	-6625
▁2587	-6626
▁3322	-6627
▁5.80	-6628
▁5.96	-6629
▁5344	-6630
▁8:91	-6631
▁Gute	-6632
▁bene	-6633
▁buds	-6634
▁moon	-6635
▁nors	-6636
▁sata	-6637
▁vers	-6638
▁10346	-6639
▁10750	-6640
▁13.85	-6641
▁14.20	-6642
▁14.99	-6643
▁140.0	-6644
▁18.02	-6645
▁24.00	-6646
▁27.98	-6647
▁29.99	-6648
▁31.00	-6649
▁44300	-6650
▁45.00	-6651
▁450.0	-6652
▁alcoh	-6653
▁chili	-6654
▁oasis	-6655
▁other	-6656
▁overs	-6657
▁thana	-6658
▁there	-6659
▁under	-6660
41-51/2	-6661
8000.00	-6662
84\",\"	-6663
86\",\"	-6664
89\",\"	-6665
9052549	-6666
97\",\"	-6667
Abastos	-6668
Account	-6669
Artesia	-6670
Battery	-6671
Francis	-6672
Geitost	-6673
Nedbank	-6674
Plastic	-6675
Seafood	-6676
Sevilla	-6677
Wimmers	-6678
\":9,\"	-6679
\":[\"0	-6680
\":\"1/	-6681
\":\"13	-6682
\":\"24	-6683
\":\"28	-6684
\":\"30	-6685
\":\"31	-6686
\":\"36	-6687
\":\"38	-6688
\":\"44	-6689
\":\"52	-6690
\":\"55	-6691
\":\"57	-6692
\":\"66	-6693
\":\"68	-6694
\":\"69	-6695
\":\"75	-6696
\":\"81	-6697
\":\"82	-6698
\":\"86	-6699
64-	-6700
66)	-6701
78-	-6702
817)	-6703
Milo	-6704
Time	-6705
crab	-6706
▁594	-6707
▁666	-6708
▁Out	-6709
▁pre	-6710
▁raz	-6711
▁{12	-6712
/2007	-6713
08:00	-6714
12:46	-6715
163.7	-6716
18:16	-6717
18:22	-6718
18:24	-6719
19:10	-6720
brown	-6721
merep	-6722
punch	-6723
▁$100	-6724
▁+603	-6725
▁1792	-6726
▁2.78	-6727
▁3.92	-6728
▁8200	-6729
▁Quay	-6730
▁Seti	-6731
▁bday	-6732
▁cspo	-6733
▁milo	-6734
▁syed	-6735
43278-	-6736
▁10405	-6737
▁10817	-6738
▁13.95	-6739
▁13:07	-6740
▁16:28	-6741
▁55/15	-6742
▁80805	-6743
▁Given	-6744
▁brick	-6745
▁brown	-6746
▁punch	-6747
▁reese	-6748
▁times	-6749
12:46:3	-6750
13:48:4	-6751
\":\"(2	-6752
\":\"(5	-6753
\":\"92	-6754
\":\"97	-6755
\":\"99	-6756
argarit	-6757
atsapps	-6758
battery	-6759
bayside	-6760
chicken	-6761
company	-6762
edomald	-6763
galeria	-6764
hunting	-6765
igloues	-6766
plifier	-6767
receipt	-6768
station	-6769
▁$52.76	-6770
▁(2366)	-6771
▁01-012	-6772
▁1020.0	-6773
▁1050.0	-6774
▁119.48	-6775
▁1274.0	-6776
▁12:46:	-6777
▁1320.0	-6778
▁148-16	-6779
▁152.00	-6780
▁16,000	-6781
▁162.75	-6782
▁1630.0	-6783
▁17,000	-6784
▁20,000	-6785
▁2120.0	-6786
▁2156.5	-6787
▁2160.0	-6788
▁2678.0	-6789
▁2736.0	-6790
▁3.0000	-6791
▁317.75	-6792
▁332114	-6793
▁37,000	-6794
▁435007	-6795
▁46200,	-6796
▁50,000	-6797
▁5\",\"	-6798
▁655.83	-6799
.72	-6800
Seat	-6801
Tofu	-6802
cora	-6803
ools	-6804
▁#68	-6805
▁051	-6806
▁091	-6807
▁2/1	-6808
▁35%	-6809
▁876	-6810
▁aug	-6811
▁ods	-6812
▁tbl	-6813
▁ulu	-6814
-2019	-6815
.1,\"	-6816
13.00	-6817
44:00	-6818
Pasir	-6819
Perth	-6820
house	-6821
konbu	-6822
▁2700	-6823
▁3.91	-6824
▁7.91	-6825
▁8712	-6826
▁Isni	-6827
▁ahot	-6828
▁cada	-6829
▁kali	-6830
▁liam	-6831
▁maan	-6832
▁neal	-6833
▁sila	-6834
▁tora	-6835
19:19:	-6836
Person	-6837
Served	-6838
émbrau	-6839
▁$3.00	-6840
▁$6.50	-6841
▁(817)	-6842
▁10.55	-6843
▁10428	-6844
▁11028	-6845
▁11044	-6846
▁11066	-6847
▁15.80	-6848
▁15.99	-6849
▁18.68	-6850
▁18.95	-6851
▁18.99	-6852
▁18:16	-6853
▁18:28	-6854
▁18:35	-6855
▁21.98	-6856
▁276.0	-6857
▁344.0	-6858
▁43005	-6859
▁43100	-6860
▁50.50	-6861
▁83720	-6862
▁biles	-6863
▁fries	-6864
▁1104.0	-6865
▁871271	-6866
▁Angelo	-6867
▁Charge	-6868
▁Cheras	-6869
▁Entier	-6870
▁Glomac	-6871
▁Gudang	-6872
▁Handle	-6873
▁Maison	-6874
▁Mojito	-6875
▁Otages	-6876
▁Subang	-6877
▁Tender	-6878
▁Ticket	-6879
▁Timber	-6880
▁Tipica	-6881
▁Valley	-6882
▁agoint	-6883
▁akdunt	-6884
▁amtcrm	-6885
▁apollo	-6886
▁better	-6887
▁brasas	-6888
▁canada	-6889
▁cayent	-6890
▁cheque	-6891
▁cookte	-6892
▁custom	-6893
▁datang	-6894
▁device	-6895
▁diesel	-6896
▁easles	-6897
▁fillet	-6898
▁flanil	-6899
BCA	-6900
0407	-6901
5-21	-6902
Cote	-6903
Mary	-6904
affe	-6905
▁774	-6906
▁nai	-6907
-0.16	-6908
-0.19	-6909
13:01	-6910
ssary	-6911
vaffe	-6912
▁38.4	-6913
▁8.18	-6914
▁8.95	-6915
▁8.96	-6916
▁8056	-6917
▁Syed	-6918
▁asie	-6919
▁cote	-6920
▁garl	-6921
▁isni	-6922
▁itch	-6923
▁nail	-6924
▁size	-6925
▁swar	-6926
▁zero	-6927
butter	-6928
▁$7.00	-6929
▁0.505	-6930
▁11031	-6931
▁11:13	-6932
▁13:01	-6933
▁19.45	-6934
▁3.905	-6935
▁35900	-6936
▁5.00%	-6937
▁5.00-	-6938
▁52100	-6939
▁53300	-6940
▁77-20	-6941
▁Reyes	-6942
▁ancka	-6943
▁boise	-6944
▁bucad	-6945
▁delhi	-6946
▁esses	-6947
▁vinet	-6948
2-12-26	-6949
Veggies	-6950
▁07-387	-6951
▁1764.0	-6952
▁77-207	-6953
▁Ground	-6954
▁ground	-6955
▁gudang	-6956
▁gustaf	-6957
▁handle	-6958
▁hosogg	-6959
▁inlagd	-6960
▁jejaka	-6961
▁jouble	-6962
▁kelana	-6963
▁langat	-6964
▁learns	-6965
▁lompur	-6966
▁maluri	-6967
▁malurt	-6968
▁member	-6969
▁minute	-6970
▁mojito	-6971
▁nadeje	-6972
▁nicole	-6973
▁number	-6974
▁online	-6975
▁pealed	-6976
▁poland	-6977
▁posted	-6978
▁prices	-6979
▁retain	-6980
▁served	-6981
▁sisoas	-6982
▁sports	-6983
▁stamps	-6984
▁subway	-6985
▁sumary	-6986
▁swmary	-6987
▁tastic	-6988
▁taxirn	-6989
▁telfax	-6990
▁terima	-6991
▁triple	-6992
▁valley	-6993
▁worker	-6994
-0014888	-6995
-0108558	-6996
-01\",\"	-6997
-22\",\"	-6998
-9\"},\"	-6999
Azo	-7000
▁UY	-7001
114-	-7002
gula	-7003
▁gpd	-7004
▁kkk	-7005
22:16	-7006
28.15	-7007
28.95	-7008
Arhus	-7009
Godos	-7010
Seven	-7011
▁#004	-7012
▁#237	-7013
▁$12.	-7014
▁0.98	-7015
▁1304	-7016
▁16.8	-7017
▁1:35	-7018
▁2.79	-7019
▁31.0	-7020
▁Bags	-7021
▁abst	-7022
▁bags	-7023
▁cafe	-7024
▁casi	-7025
▁huat	-7026
cotton	-7027
▁$0.37	-7028
▁$0.56	-7029
▁07/15	-7030
▁10586	-7031
▁10:16	-7032
▁14:12	-7033
▁152.0	-7034
▁19.98	-7035
▁714.0	-7036
▁81700	-7037
▁880.0	-7038
▁beppo	-7039
▁holly	-7040
-876-25	-7041
16:17:5	-7042
eljemet	-7043
▁$28.95	-7044
▁(#095)	-7045
▁2760.8	-7046
▁tebrau	-7047
-3886830	-7048
.02\",\"	-7049
.03\",\"	-7050
.26\",\"	-7051
.53\",\"	-7052
.54\",\"	-7053
/40\",\"	-7054
00000006	-7055
00012440	-7056
00020001	-7057
00233394	-7058
00\"},\"	-7059
100\",\"	-7060
11\"},\"	-7061
12-46517	-7062
150\",\"	-7063
200\",\"	-7064
201\",\"	-7065
20\"},\"	-7066
21-02-23	-7067
225\",\"	-7068
2389-673	-7069
299\",\"	-7070
3.0\",\"	-7071
346\",\"	-7072
37001087	-7073
370\",\"	-7074
37\"],\"	-7075
388\",\"	-7076
394\",\"	-7077
405\",\"	-7078
423\",\"	-7079
443\",\"	-7080
450\",\"	-7081
462\",\"	-7082
476\",\"	-7083
488\",\"	-7084
5.1\",\"	-7085
535\",\"	-7086
579\",\"	-7087
58000.00	-7088
586\",\"	-7089
604\",\"	-7090
60\"},\"	-7091
677\",\"	-7092
688\",\"	-7093
710\",\"	-7094
739\",\"	-7095
750\",\"	-7096
787\",\"	-7097
796\",\"	-7098
8.4\",\"	-7099
-206	-7100
0-20	-7101
ghee	-7102
ikkr	-7103
▁8:3	-7104
▁@5%	-7105
▁acs	-7106
▁bnd	-7107
▁esh	-7108
▁jln	-7109
▁tba	-7110
▁wrt	-7111
-0,18	-7112
/-206	-7113
ghler	-7114
▁1.63	-7115
▁3008	-7116
▁5.56	-7117
▁53/1	-7118
▁79.5	-7119
▁8.04	-7120
▁97.5	-7121
▁973.	-7122
▁Siti	-7123
▁ions	-7124
▁keep	-7125
▁polk	-7126
▁tree	-7127
▁wrbe	-7128
13:34:	-7129
15:34:	-7130
2-0011	-7131
8/10/.	-7132
angkor	-7133
ground	-7134
shrimp	-7135
▁17.77	-7136
▁380.0	-7137
▁46150	-7138
▁530.4	-7139
▁Block	-7140
▁blaye	-7141
▁fried	-7142
▁loial	-7143
▁loose	-7144
▁mowed	-7145
▁reims	-7146
▁savea	-7147
▁skcah	-7148
▁urban	-7149
geitost	-7150
▁148.16	-7151
▁1851-4	-7152
▁70,000	-7153
▁Romero	-7154
▁cookie	-7155
▁saving	-7156
▁terfet	-7157
311\",\"	-7158
636\",\"	-7159
80752572	-7160
80\"},\"	-7161
817\",\"	-7162
829\",\"	-7163
869\",\"	-7164
912\",\"	-7165
948\",\"	-7166
96\"},\"	-7167
97\"},\"	-7168
Anjappar	-7169
Berkeley	-7170
Mekassar	-7171
Montréal	-7172
Northern	-7173
Pinghwai	-7174
Received	-7175
Register	-7176
Selangol	-7177
Tendered	-7178
Terminal	-7179
\":16,\"	-7180
\":45,\"	-7181
\":65,\"	-7182
\":[],\"	-7183
\":\"+60	-7184
\":\"-5.	-7185
\":\"013	-7186
\":\"112	-7187
\":\"113	-7188
\":\"115	-7189
\":\"117	-7190
\":\"127	-7191
\":\"135	-7192
\":\"137	-7193
\":\"147	-7194
\":\"155	-7195
\":\"163	-7196
\":\"176	-7197
\":\"19,	-7198
\":\"192	-7199
(6%)	-7200
3-22	-7201
Buca	-7202
Save	-7203
Suey	-7204
zerd	-7205
▁9.6	-7206
▁PLT	-7207
▁nby	-7208
▁rrr	-7209
11.23	-7210
17:19	-7211
17:39	-7212
17:44	-7213
90120	-7214
Missy	-7215
Owned	-7216
Pasie	-7217
Queso	-7218
genen	-7219
green	-7220
lamai	-7221
linod	-7222
▁2.5°	-7223
▁2202	-7224
▁4.08	-7225
▁Huat	-7226
▁Penh	-7227
▁aunt	-7228
▁chix	-7229
▁duty	-7230
▁guat	-7231
▁iced	-7232
▁lagi	-7233
▁ocho	-7234
▁penh	-7235
▁punp	-7236
▁rrom	-7237
▁soft	-7238
19:52:	-7239
422302	-7240
:17:54	-7241
Wolski	-7242
\\\"-1	-7243
gumbér	-7244
gville	-7245
▁07:10	-7246
▁10787	-7247
▁22.45	-7248
▁37.95	-7249
▁636.0	-7250
▁6\\\"	-7251
▁90804	-7252
▁Drink	-7253
▁Monde	-7254
▁gourl	-7255
▁vaffe	-7256
▁vaiid	-7257
▁verte	-7258
▁whiit	-7259
Counter	-7260
Loyalty	-7261
\":8,\"	-7262
bananas	-7263
▁100.26	-7264
▁1075.0	-7265
▁116.25	-7266
▁1203.5	-7267
▁1375.0	-7268
▁146.25	-7269
▁Clover	-7270
▁Tavern	-7271
▁center	-7272
▁lintaw	-7273
▁peking	-7274
-001488)	-7275
.37\",\"	-7276
\":\"209	-7277
\":\"216	-7278
\":\"24.	-7279
\":\"25.	-7280
\":\"29.	-7281
\":\"30.	-7282
\":\"34.	-7283
\":\"349	-7284
\":\"36.	-7285
\":\"431	-7286
\":\"443	-7287
\":\"48.	-7288
\":\"50.	-7289
\":\"511	-7290
\":\"534	-7291
\":\"55.	-7292
\":\"60.	-7293
\":\"65.	-7294
\":\"67,	-7295
\":\"67.	-7296
\":\"742	-7297
\":\"760	-7298
\":\"78.	-7299
Btg	-7300
EDV	-7301
ENW	-7302
Rua	-7303
huo	-7304
5.89	-7305
Seta	-7306
llpo	-7307
▁Abd	-7308
▁PJS	-7309
▁abd	-7310
▁btg	-7311
▁buy	-7312
▁hwy	-7313
13:06	-7314
22710	-7315
905.0	-7316
Asifa	-7317
Swazi	-7318
Thana	-7319
Vegie	-7320
whitc	-7321
▁1394	-7322
▁2406	-7323
▁9.02	-7324
▁94.5	-7325
-05-18	-7326
/03/18	-7327
/13/17	-7328
Apollo	-7329
▁"5.89	-7330
▁01/13	-7331
▁03359	-7332
▁07:14	-7333
▁194.5	-7334
▁19:14	-7335
▁2.450	-7336
▁90701	-7337
▁956.9	-7338
▁Ahmad	-7339
▁Indah	-7340
▁Timur	-7341
▁arhus	-7342
▁heavy	-7343
▁vegie	-7344
▁7905.0	-7345
▁928.75	-7346
▁angelo	-7347
\":\"273	-7348
\":\"790	-7349
\":\"813	-7350
\":\"934	-7351
\":\"96.	-7352
ddisuezu	-7353
feedback	-7354
gtandard	-7355
longlife	-7356
meatball	-7357
melawati	-7358
original	-7359
reggiani	-7360
rhémbrau	-7361
scottish	-7362
sineting	-7363
▁#004-86	-7364
▁#007190	-7365
▁0000003	-7366
▁0220258	-7367
▁0305103	-7368
▁04876-7	-7369
▁1/2\\\"	-7370
▁100,000	-7371
▁11.9072	-7372
▁11490.7	-7373
▁1170190	-7374
▁12\",\"	-7375
▁18:21:0	-7376
▁1\"},\"	-7377
▁23\",\"	-7378
▁2678.08	-7379
▁31\",\"	-7380
▁33\",\"	-7381
▁4021200	-7382
▁43\",\"	-7383
▁45\",\"	-7384
▁5341805	-7385
▁68\",\"	-7386
▁7022710	-7387
▁795225-	-7388
▁7:19:46	-7389
▁814.00)	-7390
▁860871-	-7391
▁862725-	-7392
▁8923°0°	-7393
▁@8/10/.	-7394
▁Botanik	-7395
▁Chinese	-7396
▁Company	-7397
▁Counter	-7398
▁Hokkien	-7399
.,96	-7400
Ezza	-7401
Mére	-7402
Trio	-7403
coke	-7404
lywo	-7405
▁4/3	-7406
▁edv	-7407
▁hyn	-7408
▁nts	-7409
123.2	-7410
16:07	-7411
2.21)	-7412
orsar	-7413
▁Ipoh	-7414
▁Nord	-7415
▁Tuci	-7416
▁ezza	-7417
▁frap	-7418
▁gula	-7419
▁mére	-7420
▁tuci	-7421
-34623	-7422
62725-	-7423
651783	-7424
Cheque	-7425
▁10376	-7426
▁16.80	-7427
▁28.00	-7428
▁34623	-7429
▁37.85	-7430
▁390.0	-7431
▁41101	-7432
▁480.0	-7433
▁490.0	-7434
▁629.5	-7435
▁864.0	-7436
▁936.9	-7437
▁@8.00	-7438
▁Klang	-7439
▁chwit	-7440
▁missy	-7441
▁sauce	-7442
▁smoke	-7443
1805388	-7444
18:21:0	-7445
lywoord	-7446
▁001697	-7447
▁07-271	-7448
▁1123.2	-7449
▁1731.2	-7450
▁1748.5	-7451
▁Digits	-7452
▁bucafe	-7453
▁vorsar	-7454
▁1871.25	-7455
▁4651783	-7456
▁Imports	-7457
▁Janeiro	-7458
▁Kennedy	-7459
▁Kitchen	-7460
▁Laurent	-7461
▁Lianhap	-7462
▁Mamanda	-7463
▁Mexican	-7464
▁Nanding	-7465
▁Network	-7466
▁Nordwwd	-7467
▁Payable	-7468
▁Suffolk	-7469
▁Summary	-7470
▁Taxable	-7471
▁Univers	-7472
▁Veggies	-7473
▁account	-7474
▁actigen	-7475
▁alcohol	-7476
▁arnount	-7477
▁awarded	-7478
▁balance	-7479
▁botanik	-7480
▁cadbury	-7481
▁cashler	-7482
▁company	-7483
▁conpany	-7484
▁dataran	-7485
▁deepthi	-7486
▁denmark	-7487
▁digital	-7488
▁dustpan	-7489
▁frovide	-7490
▁gardens	-7491
▁genting	-7492
▁gerbang	-7493
▁hokkien	-7494
▁janeiro	-7495
▁laurent	-7496
▁lorenzo	-7497
▁mamanda	-7498
▁miguels	-7499
IOI	-7500
Marie	-7501
Sarah	-7502
dumon	-7503
uonly	-7504
▁060!	-7505
▁35.1	-7506
▁4137	-7507
▁enac	-7508
▁open	-7509
12:53:	-7510
:53:10	-7511
Steven	-7512
inlagd	-7513
▁#3546	-7514
▁06051	-7515
▁07057	-7516
▁10912	-7517
▁17:39	-7518
▁20.37	-7519
▁20.79	-7520
▁31750	-7521
▁40020	-7522
▁45.90	-7523
▁5.583	-7524
▁60.83	-7525
▁60.87	-7526
▁65.14	-7527
▁65.28	-7528
▁69923	-7529
▁81760	-7530
▁93449	-7531
▁Dusun	-7532
▁Fresh	-7533
▁Oasis	-7534
▁Putra	-7535
▁asher	-7536
▁binti	-7537
▁chops	-7538
▁happy	-7539
▁horce	-7540
▁owned	-7541
▁pismo	-7542
▁pusat	-7543
▁putra	-7544
▁shift	-7545
▁timur	-7546
▁wolza	-7547
11:20:0	-7548
gourmet	-7549
scotcho	-7550
▁2393.5	-7551
▁63467-	-7552
▁Alsace	-7553
▁Jejaka	-7554
▁Supply	-7555
▁alsace	-7556
▁apples	-7557
▁brasil	-7558
▁chance	-7559
▁charge	-7560
▁digits	-7561
▁kancil	-7562
▁nunber	-7563
▁opened	-7564
▁otages	-7565
▁petrol	-7566
▁steven	-7567
▁supply	-7568
▁timber	-7569
00090406	-7570
73.773.7	-7571
773.7100	-7572
▁1159923	-7573
▁Dataran	-7574
▁Delicia	-7575
▁Perdana	-7576
▁mexican	-7577
▁nanging	-7578
▁nordwwd	-7579
▁opinion	-7580
▁payrent	-7581
▁peaches	-7582
▁perdana	-7583
▁plastic	-7584
▁present	-7585
▁purpose	-7586
▁rotalrm	-7587
▁rounded	-7588
▁seattle	-7589
▁section	-7590
▁session	-7591
▁special	-7592
▁stmmary	-7593
▁version	-7594
▁waycare	-7595
▁§56/54,	-7596
!\"},{\"@	-7597
-10\"},\"	-7598
-8\"}],\"	-7599
eiy	-7600
:35:58	-7601
Canada	-7602
Donald	-7603
Joseph	-7604
Nicole	-7605
Points	-7606
custom	-7607
subway	-7608
▁135.0	-7609
▁76011	-7610
▁Putih	-7611
▁clans	-7612
▁octet	-7613
▁putih	-7614
▁saeiy	-7615
Aniseed	-7616
Deepthi	-7617
Eastern	-7618
Gerbang	-7619
Ravioli	-7620
Seattle	-7621
chinese	-7622
kaldosa	-7623
▁(+603)	-7624
▁Aishah	-7625
▁Ampang	-7626
▁Kancil	-7627
▁Kelana	-7628
▁Langat	-7629
▁Rashid	-7630
▁Saving	-7631
▁aishah	-7632
▁glomac	-7633
▁joseph	-7634
▁nantes	-7635
▁points	-7636
▁rashid	-7637
▁rincon	-7638
▁romero	-7639
16:16:13	-7640
Licensee	-7641
McDonald	-7642
Miinchen	-7643
Warszawa	-7644
▁2362.25	-7645
▁2849220	-7646
▁946207-	-7647
▁Chieras	-7648
▁Gardens	-7649
▁Genting	-7650
▁Pacific	-7651
▁Pasties	-7652
▁Seafood	-7653
▁aniseed	-7654
▁chieras	-7655
▁eastern	-7656
▁kaldosa	-7657
▁kennedy	-7658
▁nedbank	-7659
▁pacific	-7660
▁pasties	-7661
▁pioneer	-7662
▁ravioli	-7663
▁sevilla	-7664
▁suffolk	-7665
+6012-918	-7666
+603-3362	-7667
.50\"},\"	-7668
0.01\",\"	-7669
0.49\",\"	-7670
0.4\"},\"	-7671
000121653	-7672
1-05\",\"	-7673
1.05\",\"	-7674
12\"}}]}"	-7675
179661387	-7676
2.4\"},\"	-7677
2.75\",\"	-7678
200\"},\"	-7679
2145\",\"	-7680
3-03\",\"	-7681
3-17\",\"	-7682
342661226	-7683
36.9\",\"	-7684
3939\",\"	-7685
4.04\",\"	-7686
4117\",\"	-7687
5-13\",\"	-7688
6-25\",\"	-7689
6.06\",\"	-7690
6.82\",\"	-7691
60\"}}]}"	-7692
61\"}}]}"	-7693
64\"}}]}"	-7694
7-15\",\"	-7695
7057\",\"	-7696
8-27\",\"	-7697
8.0\"},\"	-7698
8.8\"},\"	-7699
▁133.96	-7700
▁balanc	-7701
▁cicerc	-7702
18243174	-7703
Approval	-7704
Cambodia	-7705
Campinas	-7706
Hauptstr	-7707
Lorraine	-7708
Magnetic	-7709
Toulouse	-7710
lorraine	-7711
▁Awarded	-7712
▁Brewery	-7713
▁Dustpan	-7714
▁Pyramid	-7715
▁brewery	-7716
▁francis	-7717
▁pyramid	-7718
000118079	-7719
122648835	-7720
182431744	-7721
500224314	-7722
805\"},\"	-7723
8075\",\"	-7724
9-20\",\"	-7725
9-22\",\"	-7726
969591422	-7727
980\"},\"	-7728
Arlington	-7729
Barcelona	-7730
Escargots	-7731
Hollywood	-7732
Kéniglich	-7733
Moonlight	-7734
Spegesild	-7735
Universal	-7736
\":\"#237	-7737
\":\"0035	-7738
\":\"0317	-7739
\":\"100.	-7740
\":\"1007	-7741
\":\"1029	-7742
\":\"1100	-7743
\":\"1228	-7744
\":\"1304	-7745
\":\"151.	-7746
\":\"186.	-7747
\":\"2131	-7748
\":\"436.	-7749
\":\"5305	-7750
\":\"5748	-7751
\":\"6011	-7752
\":\"655.	-7753
\":\"9812	-7754
cornbread	-7755
enchilada	-7756
kxtkrkrar	-7757
vegetable	-7758
▁(126926-	-7759
▁(417940-	-7760
▁(835643-	-7761
▁(966752-	-7762
▁-1402935	-7763
▁00000158	-7764
▁00001855	-7765
▁001-2018	-7766
▁03-05-18	-7767
▁04:01:20	-7768
▁07:52:15	-7769
▁07:52:18	-7770
▁1,100.00	-7771
▁11/18/17	-7772
▁1118258-	-7773
▁11:13:31	-7774
▁12:11:00	-7775
▁12:13:00	-7776
▁12:45:41	-7777
▁12:46:33	-7778
▁12:53:10	-7779
▁13:07:00	-7780
▁13:34:14	-7781
▁13:34:27	-7782
▁16:16:13	-7783
▁18/03/18	-7784
▁18:21:09	-7785
▁19-04-18	-7786
▁23.02.21	-7787
▁23/06/18	-7788
▁30-04-18	-7789
▁34623604	-7790
▁370\",\"	-7791
▁4/3\",\"	-7792
▁442\",\"	-7793
▁543-0544	-7794
▁5515/40,	-7795
▁597-0906	-7796
▁666\",\"	-7797
▁773-0606	-7798
▁97\"}]}"	-7799
(1)	-7800
VIP	-7801
ZRL	-7802
:24-	-7803
CSSA	-7804
SPAR	-7805
Soft	-7806
nuss	-7807
tled	-7808
▁(3)	-7809
▁-35	-7810
▁Art	-7811
▁Kec	-7812
▁The	-7813
▁Yam	-7814
▁[1]	-7815
▁ezm	-7816
▁tnc	-7817
.&.0.	-7818
:9:12	-7819
Filet	-7820
Frank	-7821
Heavy	-7822
Urban	-7823
dulge	-7824
iwath	-7825
khari	-7826
sheer	-7827
▁53.0	-7828
▁7208	-7829
▁info	-7830
Covers	-7831
Island	-7832
Member	-7833
ficate	-7834
flanil	-7835
redemp	-7836
▁05:19	-7837
▁10476	-7838
▁18.7¢	-7839
▁20,37	-7840
▁201.6	-7841
▁6.135	-7842
▁brief	-7843
▁medit	-7844
▁platz	-7845
▁sheet	-7846
Denmark	-7847
Invoice	-7848
Kechara	-7849
Lorenzo	-7850
Outback	-7851
Voucher	-7852
nussels	-7853
▁-35.50	-7854
▁1249.2	-7855
▁Zajazd	-7856
▁copyxx	-7857
▁salami	-7858
Berliner	-7859
Caulking	-7860
Manjimup	-7861
▁Artesia	-7862
▁bukhari	-7863
▁indulge	-7864
Maubelstr	-7865
▁986-1783	-7866
▁991-1801	-7867
▁Broadway	-7868
▁Buchanan	-7869
▁Cabrales	-7870
▁Discount	-7871
▁Location	-7872
▁Mexicano	-7873
▁Paterson	-7874
▁Porlamar	-7875
▁analysis	-7876
▁approval	-7877
▁bangunan	-7878
▁berkeley	-7879
▁berliner	-7880
▁bithangr	-7881
▁broadway	-7882
▁buchanan	-7883
▁cambodia	-7884
▁campinas	-7885
▁caulking	-7886
▁celangor	-7887
▁cequired	-7888
▁chwitgge	-7889
▁complete	-7890
▁consider	-7891
▁copeland	-7892
▁cription	-7893
▁crowther	-7894
▁delivery	-7895
▁entitled	-7896
▁excluded	-7897
▁filtrowa	-7898
▁grossamt	-7899
hogo	-7900
kopi	-7901
posd	-7902
02017	-7903
20/07	-7904
21.83	-7905
35535	-7906
eekly	-7907
power	-7908
proof	-7909
savea	-7910
▁*=**	-7911
▁Alaf	-7912
▁Asie	-7913
▁Duty	-7914
▁cssa	-7915
▁draw	-7916
▁duck	-7917
▁epee	-7918
▁nrat	-7919
▁qlry	-7920
▁stir	-7921
▁©.18	-7922
1.7201	-7923
16:01:	-7924
24483-	-7925
2737-%	-7926
:48:43	-7927
amicin	-7928
clover	-7929
icense	-7930
walnut	-7931
▁-5.94	-7932
▁/0.49	-7933
▁10796	-7934
▁110.3	-7935
▁285.0	-7936
▁523.5	-7937
▁570.0	-7938
▁92.50	-7939
▁@4.00	-7940
▁Petro	-7941
▁after	-7942
▁ahole	-7943
▁corru	-7944
▁cowes	-7945
▁djens	-7946
▁foass	-7947
▁genen	-7948
▁ketel	-7949
▁linod	-7950
▁pnone	-7951
▁rarer	-7952
▁rules	-7953
▁sabol	-7954
▁toner	-7955
3-03-20	-7956
special	-7957
▁1048.0	-7958
▁1228.5	-7959
▁1300-1	-7960
▁20/200	-7961
▁75495-	-7962
▁Brasil	-7963
▁Indian	-7964
▁daphne	-7965
▁eroing	-7966
▁relief	-7967
▁thrice	-7968
▁ttttte	-7969
▁twatce	-7970
▁weekly	-7971
Hilarion	-7972
▁11.9000	-7973
▁1163.75	-7974
▁5535535	-7975
▁92737-%	-7976
▁Pioneer	-7977
▁drawing	-7978
▁license	-7979
▁ngkaran	-7980
▁october	-7981
▁receift	-7982
▁sancora	-7983
▁06/13/17	-7984
▁10/20/07	-7985
▁13:48:43	-7986
▁Original	-7987
▁Pharmacy	-7988
▁hauptstr	-7989
▁incluced	-7990
▁includes	-7991
▁invoicex	-7992
▁ipunding	-7993
▁leceived	-7994
▁lintawnd	-7995
▁longlife	-7996
▁magnetic	-7997
▁manjimup	-7998
▁meatball	-7999
1.15.	-8000
▁28.8	-8001
▁3392	-8002
▁3483	-8003
▁648%	-8004
▁67.1	-8005
▁7808	-8006
▁8348	-8007
▁CSPO	-8008
▁kopf	-8009
Nadeje	-8010
▁03178	-8011
▁10311	-8012
▁10370	-8013
▁10462	-8014
▁10579	-8015
▁10677	-8016
▁10869	-8017
▁112.0	-8018
▁155.0	-8019
▁24/72	-8020
▁28.52	-8021
▁51.90	-8022
▁55.30	-8023
▁665.0	-8024
▁74.04	-8025
▁87.26	-8026
▁Essen	-8027
▁FIELD	-8028
▁Verte	-8029
▁gauze	-8030
▁intah	-8031
▁kasih	-8032
▁ltams	-8033
▁mcard	-8034
▁metro	-8035
▁srvck	-8036
kawasan	-8037
outback	-8038
▁(2010.	-8039
▁1-300-	-8040
▁111590	-8041
▁1174.0	-8042
▁120%90	-8043
▁3490.0	-8044
▁766271	-8045
▁Apples	-8046
▁Cocina	-8047
▁Sports	-8048
▁Telino	-8049
▁ahdunt	-8050
▁cucumb	-8051
▁iobile	-8052
▁roller	-8053
8000..00	-8054
Melawati	-8055
Observed	-8056
\":36,\"	-8057
\":80,\"	-8058
erranean	-8059
ightcake	-8060
▁0.3000)	-8061
▁1607.00	-8062
▁8521/38	-8063
▁9071604	-8064
▁Actigen	-8065
▁grovndg	-8066
▁pleasae	-8067
▁program	-8068
▁restric	-8069
▁voucher	-8070
\":\"1232	-8071
inclusiva	-8072
▁(801222-	-8073
▁106.3000	-8074
▁91.1.15.	-8075
▁Crowther	-8076
▁Filtrowa	-8077
▁Scourpad	-8078
▁Sisowath	-8079
▁choosing	-8080
▁iedonald	-8081
"	-8082
\	-8083
e	-8084
t	-8085
▁	-8086
r	-8087
i	-8088
a	-8089
:	-8090
,	-8091
n	-8092
p	-8093
o	-8094
d	-8095
u	-8096
l	-8097
c	-8098
s	-8099
y	-8100
0	-8101
m	-8102
@	-8103
1	-8104
f	-8105
{	-8106
}	-8107
h	-8108
2	-8109
.	-8110
v	-8111
g	-8112
-	-8113
#	-8114
P	-8115
3	-8116
5	-8117
4	-8118
b	-8119
6	-8120
S	-8121
V	-8122
x	-8123
R	-8124
T	-8125
8	-8126
C	-8127
9	-8128
O	-8129
7	-8130
Q	-8131
/	-8132
D	-8133
M	-8134
k	-8135
A	-8136
]	-8137
[	-8138
N	-8139
U	-8140
w	-8141
I	-8142
Y	-8143
E	-8144
)	-8145
(	-8146
L	-8147
j	-8148
q	-8149
z	-8150
B	-8151
|	-8152
G	-8153
%	-8154
J	-8155
$	-8156
K	-8157
&	-8158
F	-8159
W	-8160
é	-8161
'	-8162
*	-8163
~	-8164
!	-8165
=	-8166
H	-8167
+	-8168
—	-8169
©	-8170
;	-8171
X	-8172
§	-8173
’	-8174
_	-8175
°	-8176
¢	-8177
“	-8178
>	-8179
Z	-8180
¥	-8181
<	-8182
£	-8183
‘	-8184
”	-8185
«	-8186
»	-8187
?	-8188
