<unk>	0
<s>	0
</s>	0
":	-0
":"	-1
,"	-2
","	-3
er	-4
ty	-5
al	-6
"@	-7
{"@	-8
pe	-9
it	-10
re	-11
ic	-12
ue	-13
type	-14
alue	-15
nt	-16
"}	-17
ice	-18
em	-19
me	-20
rice	-21
at	-22
id	-23
on	-24
":{"@	-25
ss	-26
":"#	-27
st	-28
na	-29
dd	-30
,{"@	-31
item	-32
price	-33
ress	-34
name	-35
ddress	-36
or	-37
fer	-38
ro	-39
el	-40
value	-41
ati	-42
Value	-43
"},{"@	-44
--	-45
Pro	-46
in	-47
ant	-48
ffer	-49
uant	-50
nit	-51
Quant	-52
per	-53
der	-54
address	-55
","@	-56
nc	-57
perty	-58
Property	-59
ex	-60
le	-61
ur	-62
ity	-63
▁"	-64
"},"	-65
ation	-66
PropertyValue	-67
</	-68
an	-69
om	-70
if	-71
order	-72
▁S	-73
unit	-74
et	-75
ema	-76
ncy	-77
urre	-78
urrency	-79
ot	-80
gi	-81
ext	-82
Offer	-83
ve	-84
ific	-85
ay	-86
pec	-87
----	-88
ification	-89
priceC	-90
priceCurrency	-91
Spec	-92
Specification	-93
ou	-94
-1	-95
od	-96
ment	-97
ed	-98
eli	-99
ust	-100
ch	-101
><	-102
ing	-103
offer	-104
Price	-105
ht	-106
Text	-107
unitText	-108
ative	-109
Re	-110
ell	-111
Quantity	-112
Quantit	-113
ativeValue	-114
otal	-115
Address	-116
}}	-117
ayment	-118
ps	-119
ar	-120
//	-121
://	-122
htt	-123
https	-124
ost	-125
total	-126
ustom	-127
ustomer	-128
ostal	-129
▁C	-130
ount	-131
▁N	-132
il	-133
eller	-134
-2	-135
ct	-136
seller	-137
am	-138
org	-139
20	-140
ine	-141
▁A	-142
sch	-143
▁1	-144
schema	-145
Or	-146
ode	-147
ce	-148
reet	-149
ip	-150
Unit	-151
customer	-152
ble	-153
ver	-154
um	-155
sh	-156
line	-157
td	-158
Regi	-159
":1	-160
ple	-161
▁T	-162
ku	-163
ber	-164
eliver	-165
},{"@	-166
ac	-167
":[	-168
":[{"@	-169
nce	-170
▁M	-171
oc	-172
--------	-173
and	-174
▁<	-175
ax	-176
▁I	-177
-0	-178
us	-179
▁P	-180
elivery	-181
umber	-182
ph	-183
exam	-184
202	-185
payment	-186
",	-187
-3	-188
ence	-189
Offered	-190
itemOffered	-191
},"	-192
eligi	-193
eligible	-194
eligibleQuantity	-195
ference	-196
ry	-197
reference	-198
":"1	-199
":1}}	-200
UnitPrice	-201
":1}}},{"@	-202
sku	-203
▁St	-204
example	-205
ate	-206
th	-207
email	-208
atus	-209
▁B	-210
ub	-211
ion	-212
ality	-213
Loc	-214
postal	-215
ountry	-216
Region	-217
Code	-218
Postal	-219
PostalAddress	-220
street	-221
streetAddress	-222
Locality	-223
addressLocality	-224
postalCode	-225
addressRegion	-226
Country	-227
addressCountry	-228
▁D	-229
ier	-230
Payment	-231
du	-232
duct	-233
▁2	-234
Order	-235
St	-236
US	-237
GB	-238
erv	-239
IN	-240
ad	-241
ervice	-242
Product	-243
ER	-244
UR	-245
▁R	-246
"}]	-247
-4	-248
GBP	-249
"}],"	-250
-1","@	-251
EUR	-252
co	-253
Status	-254
="	-255
ent	-256
▁=	-257
ster	-258
is	-259
ra	-260
iz	-261
ore	-262
ipt	-263
ZD	-264
GD	-265
orderD	-266
one	-267
▁line	-268
delivery	-269
tr	-270
UD	-271
▁3	-272
AD	-273
gan	-274
USD	-275
></	-276
.0	-277
ia	-278
.2	-279
Organ	-280
Service	-281
tax	-282
.1	-283
Organiz	-284
.4	-285
.8	-286
Organization	-287
▁-	-288
.9	-289
.6	-290
.7	-291
phone	-292
land	-293
.3	-294
":"2	-295
.5	-296
ubtotal	-297
ash	-298
-2","@	-299
▁Number	-300
Due	-301
PaymentDue	-302
ceipt	-303
-5	-304
INR	-305
▁Street	-306
cont	-307
▁Am	-308
nd	-309
ard	-310
":"202	-311
":"3	-312
ele	-313
OR	-314
----------------	-315
▁Amount	-316
com	-317
6","	-318
ship	-319
SGD	-320
8","	-321
NZD	-322
Receipt	-323
▁5	-324
ack	-325
4","	-326
2","	-327
▁order	-328
▁L	-329
AUD	-330
▁G	-331
CAD	-332
▁4	-333
en	-334
pt	-335
eth	-336
ethod	-337
▁Ro	-338
▁ID	-339
tele	-340
▁H	-341
Method	-342
TA	-343
telephone	-344
▁{	-345
65	-346
▁}	-347
ap	-348
ew	-349
61	-350
▁K	-351
00	-352
Tax	-353
te	-354
Cash	-355
▁E	-356
son	-357
▁W	-358
ame	-359
91	-360
64	-361
se	-362
5","	-363
":"4	-364
▁8	-365
ition	-366
3","	-367
7","	-368
ID	-369
cept	-370
ifier	-371
gra	-372
lo	-373
add	-374
▁Mode	-375
▁Ty	-376
9","	-377
▁Name	-378
accept	-379
accepted	-380
▁Road	-381
▁Type	-382
graph	-383
ident	-384
context	-385
itional	-386
identifier	-387
Register	-388
":"5	-389
▁{"@	-390
additional	-391
totalPaymentDue	-392
Number	-393
orderDate	-394
acceptedOffer	-395
-1"},"	-396
orderNumber	-397
Customer	-398
paymentStatus	-399
paymentMethod	-400
ral	-401
url	-402
Cashier	-403
ERR	-404
ERROR	-405
":"[	-406
Subtotal	-407
pro	-408
}]	-409
}]}	-410
"}}]}	-411
taxID	-412
orderStatus	-413
1","	-414
▁7	-415
ck	-416
▁F	-417
▁9	-418
able	-419
▁0	-420
":"7	-421
es	-422
63	-423
":"8	-424
-3","@	-425
67	-426
United	-427
ill	-428
quant	-429
quantity	-430
68	-431
cess	-432
60	-433
44	-434
▁total	-435
ingap	-436
ingapore	-437
▁x	-438
qty	-439
Per	-440
-8	-441
unitPrice	-442
-7	-443
linePrice	-444
35	-445
62	-446
":"+	-447
up	-448
shipper	-449
69	-450
ir	-451
pl	-452
Person	-453
cessing	-454
11	-455
":1},"	-456
":"9	-457
":2	-458
":2},"	-459
ol	-460
count	-461
Tr	-462
-9	-463
-1"},{"@	-464
-2"},"	-465
10	-466
ort	-467
17	-468
▁O	-469
ans	-470
Dis	-471
ork	-472
12	-473
▁</	-474
Processing	-475
ire	-476
acking	-477
red	-478
bal	-479
15	-480
18	-481
13	-482
24	-483
vid	-484
ton	-485
as	-486
ana	-487
28	-488
25	-489
▁},	-490
redit	-491
und	-492
14	-493
ge	-494
ction	-495
vider	-496
27	-497
_1	-498
▁seller	-499
_1_	-500
23	-501
lobal	-502
provider	-503
Delivery	-504
29	-505
Com	-506
▁Z	-507
19	-508
▁s	-509
30	-510
TAL	-511
hip	-512
ak	-513
ri	-514
eal	-515
irect	-516
UN	-517
-4","@	-518
Card	-519
Discount	-520
6"},{"@	-521
Singapore	-522
38	-523
Credit	-524
CreditCard	-525
port	-526
▁IN	-527
ped	-528
plete	-529
▁V	-530
New	-531
ington	-532
Complete	-533
6-0	-534
6,	-535
kup	-536
PaymentComplete	-537
">	-538
37	-539
39	-540
▁(	-541
40	-542
5-0	-543
ickup	-544
47	-545
▁GBP	-546
da	-547
ng	-548
4-0	-549
ail	-550
▁EUR	-551
ralia	-552
ustralia	-553
status	-554
uck	-555
50	-556
58	-557
48	-558
la	-559
57	-560
UNC	-561
ERTA	-562
ERTAIN	-563
UNCERTAIN	-564
bill	-565
arc	-566
In	-567
▁King	-568
▁Y	-569
mar	-570
▁d	-571
▁INR	-572
ne	-573
49	-574
FA	-575
ates	-576
ig	-577
undle	-578
section	-579
2"},{"@	-580
store	-581
▁totals	-582
59	-583
08	-584
▁Co	-585
FATAL	-586
_2	-587
_2_	-588
/202	-589
arcel	-590
out	-591
OrderProcessing	-592
07	-593
-2"},{"@	-594
Ship	-595
dom	-596
"}},{"@	-597
uckland	-598
act	-599
▁+	-600
▁Bundle	-601
09	-602
entral	-603
▁Kingdom	-604
-3"},"	-605
33	-606
Pickup	-607
▁Date	-608
reland	-609
▁Zeal	-610
▁Zealand	-611
4"},{"@	-612
billing	-613
2</	-614
op	-615
2,	-616
un	-617
▁NZD	-618
▁c	-619
▁=>	-620
ellington	-621
anada	-622
ndia	-623
ow	-624
are	-625
▁States	-626
":3	-627
":3},"	-628
77	-629
▁Re	-630
▁Tr	-631
5"},{"@	-632
▁J	-633
orders	-634
1"},{"@	-635
▁CAD	-636
98	-637
PO	-638
▁AUD	-639
▁USD	-640
▁SGD	-641
3"},{"@	-642
Parcel	-643
sup	-644
he	-645
items	-646
orderDelivery	-647
ParcelDelivery	-648
deliveryAddress	-649
78	-650
Tracking	-651
RD	-652
45	-653
1,	-654
99	-655
our	-656
8"},{"@	-657
direct	-658
contact	-659
ven	-660
SK	-661
22	-662
1</	-663
ead	-664
ut	-665
art	-666
lin	-667
SKU	-668
press	-669
34	-670
55	-671
▁In	-672
ME	-673
97	-674
0","	-675
88	-676
PRD	-677
plac	-678
cr	-679
Shipped	-680
3,	-681
9"},{"@	-682
ocu	-683
ocument	-684
hi	-685
ckout	-686
66	-687
05	-688
ank	-689
RE	-690
▁Global	-691
ul	-692
▁20	-693
▁Ex	-694
vo	-695
▁Sub	-696
7"},{"@	-697
placed	-698
ngland	-699
":"2025-0	-700
ody	-701
":"2026-0	-702
table	-703
body	-704
▁/	-705
ab	-706
":"2024-0	-707
4,	-708
tbody	-709
thead	-710
tem	-711
totals	-712
subtotal	-713
orderDocument	-714
cript	-715
ales	-716
cription	-717
▁n	-718
scription	-719
1>	-720
support	-721
▁Pack	-722
venue	-723
▁New	-724
team	-725
▁Not	-726
▁Con	-727
ag	-728
▁payment	-729
-3"},{"@	-730
voice	-731
Auckland	-732
Trans	-733
irm	-734
▁Receipt	-735
ket	-736
32	-737
▁Code	-738
▁Notice	-739
Ireland	-740
▁202	-741
4},"	-742
▁Avenue	-743
":4},"	-744
-5","@	-745
79	-746
▁Service	-747
Central	-748
Ma	-749
age	-750
-4"},"	-751
▁tax	-752
-2"}],"	-753
04	-754
ff	-755
16	-756
_3	-757
▁Q	-758
Australia	-759
▁Express	-760
_3_	-761
Canada	-762
ORD	-763
mary	-764
▁6	-765
ner	-766
India	-767
Wellington	-768
vel	-769
▁Ma	-770
ummary	-771
os	-772
▁United	-773
87	-774
03	-775
▁U	-776
har	-777
▁Set	-778
-1"}],"	-779
work	-780
▁Singapore	-781
global	-782
54	-783
▁Trans	-784
▁Pl	-785
89	-786
tracking	-787
▁delivery	-788
02	-789
::	-790
ea	-791
▁Pay	-792
ang	-793
▁Sh	-794
▁p	-795
43	-796
5,	-797
▁name	-798
26	-799
4</	-800
>2</	-801
53	-802
POS	-803
▁Summary	-804
ont	-805
:00	-806
70	-807
21	-808
ein	-809
>1</	-810
3</	-811
shop	-812
io	-813
REG	-814
IP	-815
CP	-816
-10	-817
etwork	-818
int	-819
ect	-820
im	-821
elivered	-822
outh	-823
ee	-824
CA	-825
LI	-826
90	-827
▁18	-828
▁id	-829
fi	-830
42	-831
einster	-832
vail	-833
ance	-834
ta	-835
ublin	-836
England	-837
▁Australia	-838
vailable	-839
XN	-840
umb	-841
mer	-842
CC	-843
oo	-844
NZ	-845
-12	-846
▁10	-847
.202	-848
▁17	-849
ris	-850
meth	-851
method	-852
ics	-853
52	-854
▁w	-855
80	-856
353	-857
elhi	-858
lem	-859
6</	-860
unster	-861
lass	-862
▁b	-863
▁and	-864
ide	-865
▁Store	-866
UST	-867
Delivered	-868
31	-869
che	-870
eld	-871
ure	-872
41	-873
UY	-874
95	-875
▁&	-876
36	-877
roup	-878
":"+1	-879
ith	-880
▁date	-881
▁Conf	-882
NT	-883
Ad	-884
ict	-885
ial	-886
▁De	-887
Bank	-888
shipped	-889
irmation	-890
▁Confirmation	-891
▁email	-892
▁subtotal	-893
01	-894
EB	-895
nline	-896
▁Pro	-897
ood	-898
eat	-899
-11	-900
UYER	-901
▁Direct	-902
75	-903
":"20	-904
46	-905
▁Invoice	-906
atch	-907
▁re	-908
ens	-909
▁contact	-910
field	-911
▁phone	-912
arn	-913
USR	-914
72	-915
ish	-916
_4	-917
checkout	-918
85	-919
▁no	-920
_4_	-921
73	-922
ight	-923
▁t	-924
Total	-925
▁Col	-926
ouse	-927
▁Card	-928
ject	-929
06	-930
94	-931
▁Ch	-932
ello	-933
ane	-934
83	-935
▁South	-936
9,	-937
▁Network	-938
ham	-939
ik	-940
At	-941
all	-942
ond	-943
51	-944
dat	-945
5},"	-946
93	-947
eng	-948
":5},"	-949
way	-950
▁Subscription	-951
ast	-952
74	-953
blem	-954
▁Plan	-955
56	-956
CUST	-957
HIP	-958
ware	-959
5</	-960
▁Customer	-961
▁placed	-962
ern	-963
ime	-964
ply	-965
ts	-966
vance	-967
of	-968
AT	-969
84	-970
CLI	-971
lines	-972
7,	-973
Online	-974
,1	-975
▁m	-976
ers	-977
92	-978
ec	-979
▁is	-980
anc	-981
8,	-982
ud	-983
gh	-984
▁[	-985
/2024	-986
▁with	-987
Transfer	-988
ai	-989
MEM	-990
BUYER	-991
Advance	-992
-4"},{"@	-993
By	-994
ByBank	-995
InAdvance	-996
ByBankTransfer	-997
▁]	-998
▁/>	-999
▁],	-1000
▁Your	-1001
▁status	-1002
currency	-1003
ob	-1004
Qty	-1005
▁section	-1006
datet	-1007
8</	-1008
▁Pa	-1009
tle	-1010
datetime	-1011
PaymentMethod	-1012
patch	-1013
▁placedAt	-1014
▁York	-1015
="+	-1016
number	-1017
-3"}],"	-1018
heckout	-1019
▁"+	-1020
82	-1021
ary	-1022
-5"}],"	-1023
ictor	-1024
▁class	-1025
-4"}],"	-1026
tems	-1027
ks	-1028
,2	-1029
NE	-1030
/2026	-1031
Dublin	-1032
Leinster	-1033
▁Br	-1034
▁pro	-1035
▁Hello	-1036
▁Central	-1037
ade	-1038
,+	-1039
li	-1040
▁Subject	-1041
▁12	-1042
Que	-1043
0,	-1044
ping	-1045
ift	-1046
▁2,	-1047
led	-1048
ED	-1049
71	-1050
96	-1051
ictoria	-1052
ase	-1053
-5"},"	-1054
0"},{"@	-1055
▁No	-1056
86	-1057
RCP	-1058
orth	-1059
▁Auckland	-1060
RT	-1061
SO	-1062
online	-1063
▁1,	-1064
Ch	-1065
TXN	-1066
/2025	-1067
new	-1068
76	-1069
81	-1070
▁14	-1071
ld	-1072
Cork	-1073
Munster	-1074
▁Seller	-1075
pa	-1076
▁X	-1077
▁Delhi	-1078
AY	-1079
MENT	-1080
▁Items	-1081
ist	-1082
OrderDelivered	-1083
▁15	-1084
ord	-1085
we	-1086
>3</	-1087
▁Wellington	-1088
Al	-1089
ah	-1090
bur	-1091
rn	-1092
PickupA	-1093
▁Canada	-1094
OrderPickupA	-1095
date	-1096
yd	-1097
WB	-1098
ubscription	-1099
RK	-1100
▁Al	-1101
▁13	-1102
CE	-1103
INV	-1104
Item	-1105
▁$	-1106
":"0	-1107
man	-1108
▁Kit	-1109
▁Ship	-1110
▁India	-1111
KG	-1112
amp	-1113
WEB	-1114
les	-1115
ies	-1116
reat	-1117
Cal	-1118
urch	-1119
stern	-1120
din	-1121
▁19	-1122
▁11	-1123
part	-1124
Transit	-1125
ley	-1126
▁RE	-1127
Subscription	-1128
ite	-1129
cot	-1130
▁(2	-1131
▁CA	-1132
ale	-1133
▁ORD	-1134
ney	-1135
icket	-1136
aka	-1137
gr	-1138
▁Ireland	-1139
OrderIn	-1140
OrderInTransit	-1141
ie	-1142
rive	-1143
ote	-1144
ondon	-1145
6},"	-1146
":6},"	-1147
bane	-1148
risbane	-1149
▁(1	-1150
ravel	-1151
ensland	-1152
old	-1153
▁Car	-1154
▁Transfer	-1155
ark	-1156
-6	-1157
ario	-1158
▁Drive	-1159
gary	-1160
au	-1161
nter	-1162
berta	-1163
orn	-1164
Checkout	-1165
ital	-1166
▁Que	-1167
▁ship	-1168
group	-1169
":"2024	-1170
real	-1171
ingham	-1172
uru	-1173
ater	-1174
burgh	-1175
dinburgh	-1176
ember	-1177
▁Ticket	-1178
ydney	-1179
bo	-1180
▁Payment	-1181
service	-1182
ov	-1183
cotland	-1184
product	-1185
ons	-1186
elb	-1187
emote	-1188
6"	-1189
IL	-1190
▁Dis	-1191
▁PO	-1192
aw	-1193
ataka	-1194
▁Columb	-1195
▁f	-1196
ler	-1197
itish	-1198
▁Wales	-1199
ess	-1200
elang	-1201
aluru	-1202
engaluru	-1203
▁England	-1204
9</	-1205
7</	-1206
asht	-1207
estern	-1208
ancou	-1209
ashtra	-1210
ancouver	-1211
harashtra	-1212
▁NZ	-1213
hester	-1214
isa	-1215
ive	-1216
ong	-1217
bs	-1218
ourne	-1219
ntario	-1220
":"2026	-1221
umbai	-1222
▁am	-1223
":"2025	-1224
nchester	-1225
OTAL	-1226
ATE	-1227
Problem	-1228
OrderProblem	-1229
onto	-1230
":"+64	-1231
▁Columbia	-1232
ok	-1233
":"6	-1234
idge	-1235
▁Tax	-1236
":"+44	-1237
row	-1238
":"+65	-1239
ter	-1240
fill	-1241
oronto	-1242
8"	-1243
2"	-1244
mail	-1245
":"+353	-1246
irmingham	-1247
edu	-1248
house	-1249
ach	-1250
▁16	-1251
▁Le	-1252
uk	-1253
LE	-1254
":"+61	-1255
▁#	-1256
▁Package	-1257
4"	-1258
▁Com	-1259
":"+91	-1260
arnataka	-1261
yder	-1262
chant	-1263
ntal	-1264
elbourne	-1265
ath	-1266
▁tracking	-1267
ower	-1268
▁PAY	-1269
invoice	-1270
▁provider	-1271
arter	-1272
iv	-1273
XP	-1274
▁Up	-1275
OD	-1276
ender	-1277
Br	-1278
abad	-1279
yderabad	-1280
MY	-1281
bec	-1282
ontreal	-1283
ick	-1284
▁3,	-1285
,202	-1286
":"61	-1287
elangana	-1288
▁Pass	-1289
ffice	-1290
▁of	-1291
▁due	-1292
>4</	-1293
ina	-1294
ials	-1295
▁DATE	-1296
iver	-1297
ock	-1298
▁Renew	-1299
chedu	-1300
lace	-1301
pple	-1302
="202	-1303
cheduled	-1304
Remote	-1305
ile	-1306
ome	-1307
oh	-1308
":"65	-1309
▁on	-1310
cl	-1311
▁"202	-1312
▁Renewal	-1313
":"67	-1314
SHIP	-1315
_5	-1316
gy	-1317
,3	-1318
af	-1319
ois	-1320
ican	-1321
.04	-1322
cover	-1323
est	-1324
_5_	-1325
ind	-1326
air	-1327
":"68	-1328
▁Group	-1329
.2","	-1330
aker	-1331
ution	-1332
bit	-1333
vent	-1334
▁Fl	-1335
":"63	-1336
▁mode	-1337
ain	-1338
▁Order	-1339
":"10	-1340
▁Mar	-1341
chen	-1342
":"64	-1343
ST	-1344
ashington	-1345
▁Transit	-1346
Shipment	-1347
.8","	-1348
mart	-1349
merchant	-1350
-67	-1351
.6","	-1352
TRK	-1353
▁+1	-1354
str	-1355
upport	-1356
▁g	-1357
ild	-1358
▁Bou	-1359
ners	-1360
PKG	-1361
esk	-1362
MYR	-1363
▁Ang	-1364
reen	-1365
.4","	-1366
ustin	-1367
de	-1368
.08	-1369
":"69	-1370
mo	-1371
▁Bo	-1372
.04","	-1373
reated	-1374
oog	-1375
▁number	-1376
less	-1377
▁Total	-1378
ool	-1379
▁amount	-1380
Dispatch	-1381
mi	-1382
":"60	-1383
▁Place	-1384
▁Credit	-1385
London	-1386
ich	-1387
trans	-1388
no	-1389
▁ordered	-1390
▁Delivery	-1391
▁shipped	-1392
CH	-1393
":"62	-1394
lev	-1395
Brisbane	-1396
Queensland	-1397
▁63	-1398
oogle	-1399
Pal	-1400
ulfill	-1401
-65	-1402
ward	-1403
ey	-1404
Scheduled	-1405
-60	-1406
ange	-1407
▁items	-1408
.12	-1409
market	-1410
.64","	-1411
oor	-1412
av	-1413
yal	-1414
▁61	-1415
▁Th	-1416
5"	-1417
ult	-1418
.72","	-1419
▁Char	-1420
-63	-1421
":"91	-1422
.76","	-1423
.88","	-1424
ulfillment	-1425
-68	-1426
.92","	-1427
▁processing	-1428
▁Line	-1429
.16","	-1430
Alberta	-1431
Calgary	-1432
-64	-1433
Sh	-1434
ors	-1435
exampl	-1436
.3","	-1437
.44","	-1438
sterc	-1439
ashier	-1440
igh	-1441
Scotland	-1442
Edinburgh	-1443
▁REG	-1444
pay	-1445
.56","	-1446
account	-1447
▁a	-1448
-61	-1449
▁07	-1450
room	-1451
▁65	-1452
▁by	-1453
.5","	-1454
.48","	-1455
▁64	-1456
.7","	-1457
orage	-1458
.96","	-1459
-91	-1460
.24","	-1461
levard	-1462
grade	-1463
go	-1464
▁67	-1465
urn	-1466
De	-1467
aming	-1468
Cur	-1469
entials	-1470
▁68	-1471
.12","	-1472
.28","	-1473
1"	-1474
6",	-1475
-17	-1476
.52","	-1477
Victoria	-1478
▁receipt	-1479
▁27	-1480
.32","	-1481
▁PAYMENT	-1482
exas	-1483
.36","	-1484
gister	-1485
stercard	-1486
Sales	-1487
▁Leinster	-1488
▁28	-1489
▁NO	-1490
Sydney	-1491
.08","	-1492
British	-1493
iness	-1494
6"},"	-1495
9"	-1496
Bengaluru	-1497
Karnataka	-1498
Melbourne	-1499
-28	-1500
-69	-1501
ago	-1502
Delhi	-1503
.68","	-1504
9"}],"	-1505
Vancouver	-1506
▁24	-1507
icago	-1508
▁SHIP	-1509
.84","	-1510
▁TOTAL	-1511
-62	-1512
▁Bag	-1513
usiness	-1514
.2026	-1515
oup	-1516
▁(3	-1517
eattle	-1518
llin	-1519
Mumbai	-1520
▁Victoria	-1521
Maharashtra	-1522
ments	-1523
za	-1524
-18	-1525
-27	-1526
▁ORDER	-1527
.2025	-1528
▁Dublin	-1529
-20	-1530
Birmingham	-1531
.02	-1532
▁08	-1533
▁23	-1534
.2024	-1535
7"	-1536
Ontario	-1537
Toronto	-1538
3"	-1539
▁Air	-1540
5"}],"	-1541
Manchester	-1542
":"18	-1543
3-0	-1544
care	-1545
.24	-1546
▁60	-1547
▁69	-1548
.1","	-1549
▁Boulevard	-1550
▁25	-1551
ma	-1552
.9","	-1553
rin	-1554
▁Qu	-1555
,2026-0	-1556
▁Cork	-1557
Western	-1558
▁Munster	-1559
▁62	-1560
etts	-1561
achus	-1562
ssachus	-1563
ssachusetts	-1564
app	-1565
":"17	-1566
1"},"	-1567
.18","	-1568
.98","	-1569
llinois	-1570
lean	-1571
$2	-1572
2"},"	-1573
oods	-1574
▁2026-0	-1575
ory	-1576
off	-1577
orld	-1578
▁Mc	-1579
amil	-1580
ures	-1581
.46","	-1582
.06	-1583
Date	-1584
.72	-1585
UNT	-1586
▁09	-1587
.92	-1588
3"}],"	-1589
.44	-1590
▁Cal	-1591
":"15	-1592
oston	-1593
.22","	-1594
▁Ar	-1595
oth	-1596
,4	-1597
eles	-1598
▁Angeles	-1599
ja	-1600
oint	-1601
nch	-1602
▁Upgrade	-1603
.64	-1604
rib	-1605
.88	-1606
ford	-1607
Hyderabad	-1608
Telangana	-1609
.28	-1610
.26","	-1611
.74","	-1612
RA	-1613
etail	-1614
▁Available	-1615
.48	-1616
9",	-1617
▁"2024-0	-1618
▁91	-1619
.32	-1620
1",	-1621
▁Ess	-1622
▁to	-1623
vis	-1624
.06","	-1625
.86","	-1626
-08	-1627
rand	-1628
▁2024-0	-1629
>$	-1630
ness	-1631
Quebec	-1632
Montreal	-1633
3",	-1634
stem	-1635
":"14	-1636
="2025-0	-1637
ho	-1638
.84	-1639
iforn	-1640
ystem	-1641
ceipts	-1642
ifornia	-1643
ins	-1644
6"}],"	-1645
▁INV	-1646
▁Pri	-1647
ook	-1648
.58","	-1649
▁2025-0	-1650
▁Cour	-1651
.02","	-1652
9"},"	-1653
ly	-1654
gist	-1655
.42","	-1656
.54","	-1657
-14	-1658
.38","	-1659
istrib	-1660
Ex	-1661
▁30	-1662
.94","	-1663
-07	-1664
▁service	-1665
.14","	-1666
.34","	-1667
igital	-1668
OUNT	-1669
.62","	-1670
.78","	-1671
.82","	-1672
.52	-1673
gistics	-1674
.68	-1675
▁Cam	-1676
ND	-1677
▁Res	-1678
.76	-1679
lect	-1680
▁Pickup	-1681
board	-1682
▁Table	-1683
▁TXN	-1684
.66","	-1685
ront	-1686
▁type	-1687
.07	-1688
":"12	-1689
▁pay	-1690
.98	-1691
ign	-1692
▁Rental	-1693
SS	-1694
.05	-1695
era	-1696
ug	-1697
.18	-1698
▁An	-1699
":"13	-1700
bside	-1701
akea	-1702
akeaway	-1703
UE	-1704
.96	-1705
▁Lo	-1706
CT	-1707
▁Bl	-1708
ake	-1709
Perth	-1710
AX	-1711
orm	-1712
yer	-1713
deal	-1714
>1	-1715
ET	-1716
▁purch	-1717
acket	-1718
▁Bu	-1719
sol	-1720
oper	-1721
▁Quay	-1722
";	-1723
nar	-1724
▁Be	-1725
let	-1726
▁SO	-1727
▁38	-1728
ett	-1729
.38	-1730
▁Su	-1731
▁address	-1732
$1	-1733
ger	-1734
.36	-1735
.78	-1736
▁Essentials	-1737
▁North	-1738
.22	-1739
erve	-1740
,5	-1741
":"27	-1742
.74	-1743
ystems	-1744
-24	-1745
iers	-1746
▁Level	-1747
.00	-1748
▁v	-1749
low	-1750
.25","	-1751
ota	-1752
▁Ac	-1753
.94	-1754
ru	-1755
qu	-1756
▁Sc	-1757
▁Fre	-1758
ara	-1759
remi	-1760
5",	-1761
.62	-1762
▁Services	-1763
ON	-1764
▁Stand	-1765
.75","	-1766
▁shippedDate	-1767
.34	-1768
ace	-1769
ret	-1770
.15","	-1771
▁"1	-1772
.16	-1773
>5</	-1774
.05","	-1775
ran	-1776
remium	-1777
.65","	-1778
▁Bridge	-1779
▁Member	-1780
.45","	-1781
med	-1782
.82	-1783
7",	-1784
.01	-1785
deals	-1786
UM	-1787
▁4,	-1788
▁RCP	-1789
.56	-1790
▁Main	-1791
.46	-1792
ings	-1793
▁To	-1794
hone	-1795
offers	-1796
-22	-1797
Port	-1798
.95","	-1799
▁Ad	-1800
iscount	-1801
▁Membership	-1802
itt	-1803
.42	-1804
.03	-1805
own	-1806
.14	-1807
.58	-1808
ech	-1809
Dine	-1810
.85","	-1811
action	-1812
▁00	-1813
elp	-1814
":"19	-1815
▁method	-1816
bor	-1817
▁Per	-1818
1"}],"	-1819
$3	-1820
irt	-1821
3"},"	-1822
La	-1823
1-0	-1824
1-1	-1825
▁Way	-1826
ki	-1827
.54	-1828
con	-1829
ODE	-1830
CK	-1831
▁37	-1832
vest	-1833
fre	-1834
.09	-1835
ll	-1836
.55","	-1837
.99","	-1838
▁+44	-1839
.35","	-1840
▁Prote	-1841
Takeaway	-1842
▁Ter	-1843
▁Dispatch	-1844
▁Problem	-1845
.26	-1846
4-1	-1847
▁WEB	-1848
":"30	-1849
An	-1850
:00",	-1851
arden	-1852
supply	-1853
oft	-1854
ading	-1855
az	-1856
2-0	-1857
▁Case	-1858
utions	-1859
3-1	-1860
▁+64	-1861
":"37	-1862
▁Par	-1863
":"28	-1864
8-0	-1865
9-0	-1866
$11	-1867
aff	-1868
Ro	-1869
eau	-1870
▁Station	-1871
▁35	-1872
Travel	-1873
▁Cl	-1874
▁Sup	-1875
.66	-1876
oes	-1877
Curbside	-1878
▁TAX	-1879
member	-1880
▁Office	-1881
ke	-1882
nance	-1883
.86	-1884
ka	-1885
oto	-1886
Washington	-1887
▁Transport	-1888
2-2	-1889
▁(4	-1890
.21","	-1891
Austin	-1892
▁34	-1893
▁Ste	-1894
.47","	-1895
shipping	-1896
▁High	-1897
res	-1898
Seattle	-1899
ib	-1900
reaming	-1901
.11	-1902
":"38	-1903
▁Clean	-1904
":"25	-1905
Texas	-1906
partners	-1907
1-2	-1908
▁Gift	-1909
ational	-1910
Bl	-1911
▁22	-1912
▁Ed	-1913
▁Bar	-1914
orner	-1915
ireless	-1916
.37","	-1917
change	-1918
▁La	-1919
▁Lin	-1920
aid	-1921
coup	-1922
▁register	-1923
.93","	-1924
itchen	-1925
▁payable	-1926
etails	-1927
▁Bank	-1928
5-1	-1929
tech	-1930
Gift	-1931
Apple	-1932
9-1	-1933
▁Cash	-1934
:00</	-1935
6-2	-1936
4-2	-1937
7-0	-1938
.89","	-1939
91,	-1940
.61","	-1941
help	-1942
▁Fee	-1943
":"24	-1944
▁Cont	-1945
.41","	-1946
3-2	-1947
.09","	-1948
ement	-1949
.19","	-1950
receipts	-1951
ING	-1952
ari	-1953
.17","	-1954
5-2	-1955
▁Tra	-1956
":"58	-1957
Th	-1958
.27","	-1959
.43","	-1960
.59","	-1961
▁40	-1962
.49","	-1963
.11","	-1964
.13","	-1965
pan	-1966
▁On	-1967
▁Gro	-1968
6-1	-1969
Pri	-1970
abin	-1971
7-1	-1972
.69","	-1973
.83","	-1974
▁trans	-1975
RO	-1976
20","	-1977
.73","	-1978
8-1	-1979
onit	-1980
ivers	-1981
udio	-1982
.71","	-1983
▁Storage	-1984
.53","	-1985
onitor	-1986
ron	-1987
2-1	-1988
>5	-1989
.23","	-1990
Los	-1991
▁Seat	-1992
▁Shipment	-1993
California	-1994
-88	-1995
▁Due	-1996
▁DUE	-1997
.57","	-1998
-12-0	-1999
oud	-2000
Visa	-2001
▁Bro	-2002
.03","	-2003
.51","	-2004
$12	-2005
▁OF	-2006
.77","	-2007
$10	-2008
inte	-2009
obile	-2010
.97","	-2011
ations	-2012
>8	-2013
ILL	-2014
bert	-2015
eauty	-2016
":"48	-2017
.31","	-2018
":"57	-2019
elf	-2020
":"29	-2021
.67","	-2022
Chicago	-2023
6-	-2024
Car	-2025
Illinois	-2026
AL	-2027
▁AM	-2028
62,	-2029
7-2	-2030
not	-2031
▁Mo	-2032
▁Se	-2033
▁gst	-2034
sales	-2035
ga	-2036
▁#:	-2037
-30	-2038
":"39	-2039
▁Travel	-2040
Air	-2041
loor	-2042
reply	-2043
▁support	-2044
9-2	-2045
ound	-2046
":"47	-2047
.63","	-2048
▁Cable	-2049
yalty	-2050
.75	-2051
USB	-2052
AS	-2053
.25	-2054
.91","	-2055
Boston	-2056
warehouse	-2057
$13	-2058
.33","	-2059
▁Apple	-2060
▁customer	-2061
69,	-2062
Amer	-2063
Massachusetts	-2064
by	-2065
pace	-2066
Store	-2067
▁Jacket	-2068
American	-2069
▁details	-2070
.85	-2071
race	-2072
▁Apt	-2073
.01","	-2074
.07","	-2075
hou	-2076
ility	-2077
.79","	-2078
afe	-2079
.39","	-2080
Ar	-2081
ise	-2082
.15	-2083
8-2	-2084
.45	-2085
.29","	-2086
.87","	-2087
services	-2088
len	-2089
YP	-2090
61,	-2091
60","	-2092
▁Supply	-2093
Un	-2094
20,	-2095
":"35	-2096
.99	-2097
▁NUM	-2098
▁Str	-2099
rier	-2100
amily	-2101
▁Checkout	-2102
-58	-2103
ert	-2104
arch	-2105
erican	-2106
Pay	-2107
illi	-2108
▁Fan	-2109
":"23	-2110
.37	-2111
▁+91	-2112
▁29	-2113
erts	-2114
network	-2115
▁Access	-2116
▁created	-2117
▁5,	-2118
-10-0	-2119
eater	-2120
.81","	-2121
▁Gu	-2122
pris	-2123
":"00	-2124
.55	-2125
68,	-2126
inal	-2127
▁POS	-2128
":"97	-2129
obility	-2130
▁Pe	-2131
berg	-2132
ICE	-2133
":"78	-2134
▁Visa	-2135
▁h	-2136
.65	-2137
.35	-2138
65,	-2139
-12-2	-2140
form	-2141
▁Bow	-2142
▁Light	-2143
IS	-2144
.47	-2145
":"77	-2146
":"98	-2147
Premium	-2148
▁Shipping	-2149
▁Rack	-2150
▁Starter	-2151
enn	-2152
ston	-2153
ef	-2154
":"40	-2155
-10-2	-2156
Table	-2157
$15	-2158
.95	-2159
35,	-2160
63,	-2161
nolo	-2162
▁:	-2163
ero	-2164
▁6,	-2165
▁Mer	-2166
":"22	-2167
":"34	-2168
":"55	-2169
▁Parcel	-2170
.27	-2171
▁ON	-2172
65","	-2173
North	-2174
narne	-2175
ilding	-2176
60,	-2177
now	-2178
:00"	-2179
▁+353	-2180
ession	-2181
MA	-2182
▁Google	-2183
▁Can	-2184
":"59	-2185
▁Hill	-2186
oftware	-2187
▁PayPal	-2188
67,	-2189
que	-2190
":"45	-2191
▁MODE	-2192
$17	-2193
.83	-2194
orge	-2195
":"11	-2196
":"99	-2197
▁Logistics	-2198
ALE	-2199
":"80	-2200
Portable	-2201
-48	-2202
-87	-2203
.21	-2204
rew	-2205
▁Home	-2206
▁Distrib	-2207
▁Har	-2208
":"50	-2209
Smart	-2210
-78	-2211
BER	-2212
▁21	-2213
▁Of	-2214
ffee	-2215
undry	-2216
.97	-2217
▁Add	-2218
":"33	-2219
.93	-2220
leet	-2221
DD	-2222
▁London	-2223
Discover	-2224
NR	-2225
28,	-2226
-12-1	-2227
▁Ware	-2228
▁RECE	-2229
Google	-2230
▁orders	-2231
-77	-2232
Debit	-2233
.43	-2234
▁+65	-2235
61","	-2236
▁Debit	-2237
▁26	-2238
":"70	-2239
acy	-2240
kin	-2241
▁Ser	-2242
▁Queensland	-2243
yt	-2244
.23	-2245
iew	-2246
-10-1	-2247
91","	-2248
-38	-2249
.49	-2250
":"49	-2251
.19	-2252
44,	-2253
▁Out	-2254
00","	-2255
intenance	-2256
▁American	-2257
▁Building	-2258
▁Discover	-2259
fulfillment	-2260
.87	-2261
rig	-2262
▁Ge	-2263
gies	-2264
asket	-2265
ellness	-2266
-57	-2267
▁100	-2268
":"75	-2269
apital	-2270
ical	-2271
-11-0	-2272
EM	-2273
wood	-2274
":"54	-2275
▁CUST	-2276
▁NUMBER	-2277
.77	-2278
30,	-2279
="+1	-2280
":"79	-2281
ource	-2282
":"88	-2283
solutions	-2284
>6</	-2285
cent	-2286
▁+61	-2287
iance	-2288
▁Cons	-2289
-98	-2290
":"87	-2291
.17	-2292
.33	-2293
.89	-2294
itern	-2295
PayPal	-2296
-37	-2297
27,	-2298
ctor	-2299
treet	-2300
BT	-2301
.13	-2302
ERV	-2303
sing	-2304
▁sales	-2305
>2	-2306
24,	-2307
anag	-2308
▁Man	-2309
▁Suite	-2310
.67	-2311
ose	-2312
":"89	-2313
Mastercard	-2314
4-	-2315
":"32	-2316
mp	-2317
▁"$	-2318
▁Fil	-2319
▁Chair	-2320
ders	-2321
rest	-2322
-47	-2323
.59	-2324
.61	-2325
.73	-2326
.79	-2327
.31	-2328
tra	-2329
rown	-2330
":"84	-2331
▁Unit	-2332
UT	-2333
bu	-2334
tain	-2335
▁Terrace	-2336
ya	-2337
.39	-2338
64,	-2339
▁48	-2340
ener	-2341
▁Cook	-2342
ernational	-2343
SH	-2344
▁XP	-2345
-11-1	-2346
-11-2	-2347
▁By	-2348
":"90	-2349
.63	-2350
cer	-2351
alan	-2352
▁l	-2353
world	-2354
▁Alberta	-2355
.57	-2356
29,	-2357
▁03	-2358
▁TRK	-2359
▁invoice	-2360
als	-2361
izza	-2362
":"44	-2363
ining	-2364
▁Mastercard	-2365
ha	-2366
ased	-2367
▁Calgary	-2368
ko	-2369
promo	-2370
▁Western	-2371
sec	-2372
▁Sal	-2373
▁Freight	-2374
.41	-2375
.81	-2376
AME	-2377
bar	-2378
":"85	-2379
Tra	-2380
car	-2381
▁Lab	-2382
▁Mail	-2383
housing	-2384
$14	-2385
.53	-2386
37,	-2387
▁NAME	-2388
▁Shelf	-2389
be	-2390
.51	-2391
▁Sydney	-2392
5-	-2393
ian	-2394
▁32	-2395
-97	-2396
.71	-2397
IPT	-2398
▁39	-2399
▁47	-2400
▁RECEIPT	-2401
▁88	-2402
▁Park	-2403
.69	-2404
33,	-2405
▁"+1	-2406
▁Edinburgh	-2407
wards	-2408
▁j	-2409
38,	-2410
▁49	-2411
▁Sw	-2412
▁98	-2413
▁House	-2414
":"95	-2415
▁SERV	-2416
▁Manchester	-2417
▁Washington	-2418
,+1	-2419
>7	-2420
-49	-2421
.91	-2422
▁50	-2423
ucking	-2424
ves	-2425
▁33	-2426
ison	-2427
vision	-2428
▁Floor	-2429
▁cashier	-2430
▁Maharashtra	-2431
$4	-2432
▁|	-2433
mond	-2434
▁45	-2435
ustri	-2436
23,	-2437
raf	-2438
erved	-2439
prises	-2440
.29	-2441
58,	-2442
▁in	-2443
.:	-2444
▁12:	-2445
▁16:	-2446
ulting	-2447
▁Vancouver	-2448
▁"2	-2449
▁PKG	-2450
kitchen	-2451
ix	-2452
uc	-2453
pri	-2454
▁Cur	-2455
":"16	-2456
":"73	-2457
▁Thom	-2458
uel	-2459
▁11:	-2460
veloper	-2461
exchange	-2462
Pa	-2463
57,	-2464
▁"8	-2465
ants	-2466
▁18:	-2467
oa	-2468
39,	-2469
":"42	-2470
4"},"	-2471
illed	-2472
suppl	-2473
▁Mumbai	-2474
▁Brisbane	-2475
DDRE	-2476
▁ADDRE	-2477
-90	-2478
98,	-2479
▁58	-2480
▁Work	-2481
13,	-2482
25,	-2483
ban	-2484
han	-2485
pany	-2486
▁17:	-2487
▁product	-2488
ldg	-2489
▁07:	-2490
inter	-2491
47,	-2492
▁77	-2493
-59	-2494
oun	-2495
place	-2496
illiam	-2497
▁Cabin	-2498
-40	-2499
YPE	-2500
▁Che	-2501
11,	-2502
▁59	-2503
ports	-2504
▁Queen	-2505
▁AMOUNT	-2506
45,	-2507
erm	-2508
ines	-2509
▁13:	-2510
▁19:	-2511
enter	-2512
18,	-2513
50,	-2514
5"},"	-2515
▁TYPE	-2516
▁Toronto	-2517
$7	-2518
digital	-2519
19,	-2520
▁BY	-2521
fast	-2522
":"26	-2523
":"43	-2524
▁Care	-2525
yna	-2526
▁Hol	-2527
rnent	-2528
>3	-2529
12,	-2530
▁10:	-2531
▁14:	-2532
▁West	-2533
":"52	-2534
":"74	-2535
lient	-2536
▁Bldg	-2537
▁Part	-2538
br	-2539
-19	-2540
▁80	-2541
vice	-2542
▁20:	-2543
8"},"	-2544
-89	-2545
aur	-2546
▁"5	-2547
west	-2548
▁Ring	-2549
lective	-2550
▁Quebec	-2551
49,	-2552
▁paid	-2553
▁15:	-2554
partment	-2555
▁billing	-2556
1-	-2557
48,	-2558
59,	-2559
fact	-2560
":"94	-2561
ample	-2562
▁Montreal	-2563
-50	-2564
bra	-2565
ika	-2566
lee	-2567
▁Sp	-2568
fund	-2569
ata	-2570
▁79	-2571
10","	-2572
anding	-2573
▁Filter	-2574
▁Cleaner	-2575
col	-2576
cons	-2577
▁Room	-2578
systems	-2579
▁Scotland	-2580
▁shipping	-2581
-70	-2582
▁41	-2583
Desk	-2584
tota	-2585
ytics	-2586
Bo	-2587
34,	-2588
8-	-2589
itch	-2590
ynam	-2591
▁Host	-2592
ETH	-2593
":"93	-2594
50","	-2595
▁Bagg	-2596
▁Sales	-2597
▁Shoes	-2598
alytics	-2599
FF	-2600
-79	-2601
/04	-2602
15,	-2603
▁43	-2604
▁Pet	-2605
akery	-2606
▁r	-2607
▁44	-2608
▁57	-2609
":"21	-2610
holes	-2611
▁bill	-2612
▁price	-2613
uki	-2614
▁31	-2615
▁El	-2616
":"53	-2617
▁METH	-2618
▁purchase	-2619
$5	-2620
2-	-2621
AB	-2622
web	-2623
▁Sch	-2624
":"31	-2625
▁ADDRESS	-2626
ald	-2627
▁Hyderabad	-2628
ior	-2629
▁04	-2630
▁52	-2631
▁09:	-2632
▁Dept	-2633
lement	-2634
▁Bengaluru	-2635
▁Birmingham	-2636
▁Mart	-2637
▁Shirt	-2638
holesale	-2639
▁discount	-2640
/12	-2641
77,	-2642
pos	-2643
pair	-2644
▁PRO	-2645
business	-2646
-80	-2647
14,	-2648
40,	-2649
wear	-2650
▁08:	-2651
▁Kitchen	-2652
-84	-2653
-85	-2654
17,	-2655
▁At	-2656
hite	-2657
▁CLI	-2658
":"92	-2659
-99	-2660
east	-2661
merce	-2662
▁Ontario	-2663
-35	-2664
/01	-2665
10,	-2666
mon	-2667
▁Trail	-2668
▁tender	-2669
▁Support	-2670
Pl	-2671
-39	-2672
-75	-2673
78,	-2674
gin	-2675
elect	-2676
▁cash	-2677
Laundry	-2678
/02	-2679
▁Spe	-2680
":"82	-2681
Family	-2682
to	-2683
-29	-2684
anj	-2685
ery	-2686
shi	-2687
▁87	-2688
▁Or	-2689
anner	-2690
Organizer	-2691
▁Telangana	-2692
gers	-2693
Fi	-2694
00,	-2695
▁75	-2696
▁Sa	-2697
▁Lamp	-2698
3-	-2699
▁Marg	-2700
LF	-2701
▁e	-2702
-34	-2703
ela	-2704
sur	-2705
tern	-2706
":"07	-2707
▁Method	-2708
$8	-2709
>9	-2710
99,	-2711
tyle	-2712
":"08	-2713
atering	-2714
7-	-2715
0"},"	-2716
▁Colle	-2717
▁British	-2718
>4	-2719
7"},"	-2720
ba	-2721
▁st	-2722
ealth	-2723
Tablet	-2724
-93	-2725
▁99	-2726
▁Bur	-2727
tender	-2728
XT	-2729
sen	-2730
":"41	-2731
▁Lane	-2732
ek	-2733
▁55	-2734
▁95	-2735
▁Stay	-2736
▁Printer	-2737
ori	-2738
reak	-2739
":"83	-2740
▁Highway	-2741
-09	-2742
▁TRA	-2743
▁Shop	-2744
-05	-2745
▁co	-2746
reakfast	-2747
▁Monitor	-2748
pot	-2749
▁Bot	-2750
▁Organizer	-2751
-74	-2752
-94	-2753
55,	-2754
set	-2755
▁05	-2756
imit	-2757
read	-2758
▁Med	-2759
ounge	-2760
ervation	-2761
▁Charger	-2762
,6	-2763
/03	-2764
ave	-2765
▁Tow	-2766
▁Karnataka	-2767
LT	-2768
/10	-2769
tion	-2770
":"72	-2771
Sw	-2772
-73	-2773
-95	-2774
/06	-2775
Bath	-2776
▁Flr	-2777
/07	-2778
88,	-2779
▁(5	-2780
▁Rm	-2781
30","	-2782
itect	-2783
NS	-2784
bl	-2785
-45	-2786
":"36	-2787
fresh	-2788
▁Meal	-2789
▁Upper	-2790
25"},{"@	-2791
acu	-2792
ira	-2793
)","	-2794
▁reg	-2795
▁Market	-2796
▁Mobility	-2797
▁Reservation	-2798
▁Distribution	-2799
-54	-2800
ars	-2801
ios	-2802
▁97	-2803
▁Fit	-2804
▁METHOD	-2805
▁Melbourne	-2806
CI	-2807
MAIL	-2808
▁Head	-2809
▁3"},"	-2810
28"},{"@	-2811
▁summary	-2812
/09	-2813
iko	-2814
▁Ju	-2815
":"108	-2816
Starter	-2817
-33	-2818
-44	-2819
URCH	-2820
dapt	-2821
":"109	-2822
▁Perth	-2823
▁Address	-2824
anagement	-2825
top	-2826
▁78	-2827
▁89	-2828
ATED	-2829
acuum	-2830
REATED	-2831
secure	-2832
▁42	-2833
ptop	-2834
cashier	-2835
express	-2836
▁Protector	-2837
97,	-2838
orp	-2839
▁54	-2840
":"66	-2841
▁Partners	-2842
Coff	-2843
urns	-2844
▁Mor	-2845
▁Door	-2846
▁code	-2847
▁Cover	-2848
/11	-2849
ato	-2850
emp	-2851
STER	-2852
▁USR	-2853
▁Towel	-2854
gu	-2855
-00	-2856
/08	-2857
ENT	-2858
cle	-2859
Home	-2860
Coffee	-2861
partner	-2862
arg	-2863
her	-2864
nov	-2865
Me	-2866
-15	-2867
000	-2868
auth	-2869
▁Van	-2870
":"51	-2871
40","	-2872
invest	-2873
▁Coffee	-2874
-25	-2875
atter	-2876
front	-2877
visions	-2878
▁Chicago	-2879
Cl	-2880
▁"3	-2881
▁Bra	-2882
South	-2883
works	-2884
,$	-2885
ohn	-2886
▁70	-2887
▁Ap	-2888
desk	-2889
news	-2890
examp	-2891
organ	-2892
ardware	-2893
24"},{"@	-2894
-43	-2895
den	-2896
icen	-2897
▁MEM	-2898
invoices	-2899
Le	-2900
ual	-2901
▁90	-2902
atform	-2903
9-	-2904
sa	-2905
/05	-2906
▁94	-2907
▁108	-2908
utors	-2909
URCHAS	-2910
aurant	-2911
urchase	-2912
▁Warehousing	-2913
ux	-2914
plus	-2915
engine	-2916
▁Grand	-2917
▁Phone	-2918
29"},{"@	-2919
▁01	-2920
▁TO	-2921
funds	-2922
▁Austin	-2923
▁Cooker	-2924
CO	-2925
SI	-2926
70,	-2927
ass	-2928
macy	-2929
pack	-2930
orward	-2931
▁Adapt	-2932
trading	-2933
▁,	-2934
att	-2935
met	-2936
net	-2937
▁107	-2938
coupon	-2939
icense	-2940
▁6"},"	-2941
ini	-2942
▁53	-2943
▁84	-2944
▁Wi	-2945
,8	-2946
END	-2947
rap	-2948
atio	-2949
rill	-2950
▁Pants	-2951
▁George	-2952
67"},{"@	-2953
OM	-2954
ZT	-2955
hd	-2956
-83	-2957
▁02	-2958
▁92	-2959
▁SU	-2960
ikol	-2961
":"86	-2962
▁Fleet	-2963
exampler	-2964
05,	-2965
▁115	-2966
ORDER	-2967
▁SALE	-2968
▁Mouse	-2969
▁Courier	-2970
BB	-2971
NV	-2972
end	-2973
▁74	-2974
▁Cre	-2975
paynow	-2976
Wireless	-2977
▁shipper	-2978
suppliers	-2979
LA	-2980
án	-2981
":"09	-2982
eb	-2983
-04	-2984
-53	-2985
▁Ne	-2986
":"100	-2987
":"112	-2988
▁Carrier	-2989
El	-2990
Sa	-2991
$18	-2992
100	-2993
▁73	-2994
▁93	-2995
▁Val	-2996
▁Desk	-2997
▁Cargo	-2998
eam	-2999
idd	-3000
ora	-3001
pet	-3002
▁ch	-3003
fitt	-3004
ling	-3005
ilver	-3006
track	-3007
energy	-3008
27"},{"@	-3009
▁Fulfillment	-3010
CW	-3011
ker	-3012
ura	-3013
▁Un	-3014
▁"10	-3015
▁Glo	-3016
▁Tech	-3017
":"111	-3018
20"},{"@	-3019
▁Adapter	-3020
▁Trucking	-3021
Con	-3022
pen	-3023
▁85	-3024
uring	-3025
uttle	-3026
":"117	-3027
fitters	-3028
▁Camera	-3029
.48"},{"@	-3030
CD	-3031
$19	-3032
-03	-3033
-82	-3034
▁DE	-3035
▁117	-3036
":"107	-3037
▁Systems	-3038
su	-3039
umi	-3040
each	-3041
▁2024	-3042
▁Port	-3043
stration	-3044
.32"},{"@	-3045
▁transaction	-3046
ape	-3047
▁sr	-3048
":"81	-3049
▁Cast	-3050
pliance	-3051
▁Payable	-3052
adi	-3053
▁Ent	-3054
▁Bowl	-3055
▁Tray	-3056
":"119	-3057
▁5"},"	-3058
ynamics	-3059
30"},{"@	-3060
.24"},{"@	-3061
▁Box	-3062
▁Sand	-3063
ateway	-3064
▁BUYER	-3065
accounts	-3066
HO	-3067
sp	-3068
▁36	-3069
▁Ra	-3070
▁Link	-3071
▁Front	-3072
▁Kar	-3073
▁REGI	-3074
":"114	-3075
ustries	-3076
.78"},{"@	-3077
▁Massachusetts	-3078
ji	-3079
esar	-3080
members	-3081
returns	-3082
▁License	-3083
200	-3084
eer	-3085
":"76	-3086
▁Parade	-3087
.8"},{"@	-3088
Registration	-3089
rental	-3090
GT	-3091
Phone	-3092
▁Lines	-3093
.6"},{"@	-3094
.62"},{"@	-3095
MT	-3096
-13	-3097
-55	-3098
▁Bul	-3099
":"71	-3100
chand	-3101
xford	-3102
▁Texas	-3103
Storage	-3104
▁Tender	-3105
-02	-3106
raw	-3107
▁at	-3108
ging	-3109
▁118	-3110
":"124	-3111
$25	-3112
90,	-3113
town	-3114
▁Inter	-3115
▁Point	-3116
60"},{"@	-3117
iscounts	-3118
▁Registration	-3119
-23	-3120
dash	-3121
▁112	-3122
▁124	-3123
anket	-3124
▁Parn	-3125
Office	-3126
portal	-3127
▁1"},"	-3128
ispatch	-3129
▁Ground	-3130
62"},{"@	-3131
register	-3132
.46"},{"@	-3133
.66"},{"@	-3134
.86"},{"@	-3135
FT	-3136
QT	-3137
YT	-3138
-42	-3139
mit	-3140
▁111	-3141
▁Int	-3142
64"},{"@	-3143
.28"},{"@	-3144
.76"},{"@	-3145
▁Provider	-3146
JT	-3147
208	-3148
upd	-3149
IDER	-3150
ader	-3151
ndor	-3152
ooks	-3153
esign	-3154
":"115	-3155
▁Broad	-3156
updates	-3157
▁66	-3158
iday	-3159
":"56	-3160
▁REGISTER	-3161
va	-3162
ify	-3163
▁She	-3164
":"96	-3165
▁Hang	-3166
.36"},{"@	-3167
.58"},{"@	-3168
▁Register	-3169
▁purchased	-3170
;00	-3171
api	-3172
sale	-3173
coupons	-3174
.3"},{"@	-3175
payments	-3176
.64"},{"@	-3177
hu	-3178
09,	-3179
79,	-3180
89,	-3181
agar	-3182
bell	-3183
cher	-3184
▁Wal	-3185
▁Dock	-3186
.14"},{"@	-3187
.72"},{"@	-3188
.84"},{"@	-3189
discounts	-3190
SD	-3191
ül	-3192
▁83	-3193
ient	-3194
▁Opt	-3195
oreply	-3196
▁Jalan	-3197
capital	-3198
ifications	-3199
▁via	-3200
vendor	-3201
▁Setup	-3202
Curtain	-3203
rewards	-3204
▁Online	-3205
technolo	-3206
.04"},{"@	-3207
dashboard	-3208
▁Protection	-3209
0-	-3210
ulf	-3211
":"46	-3212
":"128	-3213
="2025	-3214
▁Pizza	-3215
distrib	-3216
91"},{"@	-3217
▁SERVICE	-3218
LD	-3219
do	-3220
ami	-3221
eta	-3222
gro	-3223
ike	-3224
▁Id	-3225
otel	-3226
▁Lam	-3227
alerts	-3228
loyalty	-3229
LL	-3230
VIDER	-3231
ority	-3232
":"127	-3233
ashion	-3234
▁2"},"	-3235
.12"},{"@	-3236
.26"},{"@	-3237
.56"},{"@	-3238
storefront	-3239
CV	-3240
$23	-3241
="1	-3242
▁Hu	-3243
rist	-3244
,2026	-3245
▁Oxford	-3246
▁Parnell	-3247
Mo	-3248
▁51	-3249
ring	-3250
87,	-3251
iss	-3252
osp	-3253
club	-3254
green	-3255
▁pickup	-3256
.06"},{"@	-3257
.18"},{"@	-3258
.38"},{"@	-3259
.98"},{"@	-3260
-72	-3261
Har	-3262
bro	-3263
▁72	-3264
▁128	-3265
▁The	-3266
login	-3267
noreply	-3268
.96"},{"@	-3269
Ab	-3270
sz	-3271
Blue	-3272
hoto	-3273
travel	-3274
.92"},{"@	-3275
notifications	-3276
cip	-3277
.2"},{"@	-3278
.08"},{"@	-3279
>11	-3280
Pet	-3281
aut	-3282
ning	-3283
ocol	-3284
▁"11	-3285
▁109	-3286
▁114	-3287
▁119	-3288
▁129	-3289
▁Mic	-3290
▁Sol	-3291
Dress	-3292
":"118	-3293
":"130	-3294
":"144	-3295
▁offer	-3296
.52"},{"@	-3297
▁Mall	-3298
69"},{"@	-3299
.34"},{"@	-3300
cafe	-3301
ross	-3302
▁144	-3303
▁And	-3304
▁Bulb	-3305
▁Email	-3306
65"},{"@	-3307
.22"},{"@	-3308
.10	-3309
▁46	-3310
ABLE	-3311
wich	-3312
mobile	-3313
▁River	-3314
.9"},{"@	-3315
▁PAYABLE	-3316
.15"},{"@	-3317
.88"},{"@	-3318
▁delivered	-3319
$9	-3320
fl	-3321
VER	-3322
las	-3323
ocks	-3324
rder	-3325
▁Hub	-3326
▁Key	-3327
chard	-3328
▁"2024	-3329
▁served	-3330
.1"},{"@	-3331
ettlement	-3332
▁Ha	-3333
ours	-3334
▁Mat	-3335
▁Pre	-3336
▁2026	-3337
▁Space	-3338
▁k	-3339
>10	-3340
▁"12	-3341
▁113	-3342
urity	-3343
":"135	-3344
notify	-3345
▁Screen	-3346
standing	-3347
▁Hosting	-3348
/2	-3349
EF	-3350
fo	-3351
>15	-3352
ule	-3353
star	-3354
▁Mac	-3355
icken	-3356
othing	-3357
.5"},{"@	-3358
.16"},{"@	-3359
logistics	-3360
▁06	-3361
▁125	-3362
▁130	-3363
hello	-3364
nergy	-3365
":"113	-3366
":"147	-3367
ecurity	-3368
.02"},{"@	-3369
LC	-3370
jan	-3371
▁"4	-3372
▁82	-3373
▁147	-3374
andra	-3375
right	-3376
oundry	-3377
▁Edition	-3378
oi	-3379
,11	-3380
ute	-3381
exarn	-3382
pecial	-3383
▁Lower	-3384
refunds	-3385
▁Seattle	-3386
.94"},{"@	-3387
vip	-3388
▁"7	-3389
▁123	-3390
▁127	-3391
olden	-3392
▁Mur	-3393
▁Pur	-3394
udios	-3395
":"140	-3396
Business	-3397
-92	-3398
ette	-3399
▁167	-3400
usted	-3401
ooking	-3402
▁12"},"	-3403
▁Streaming	-3404
OB	-3405
WE	-3406
▁139	-3407
north	-3408
":"129	-3409
studio	-3410
.7"},{"@	-3411
68"},{"@	-3412
ustorner	-3413
▁transit	-3414
.42"},{"@	-3415
▁available	-3416
marketplace	-3417
08,	-3418
▁Lot	-3419
▁Prin	-3420
Laptop	-3421
chandise	-3422
.45"},{"@	-3423
.55"},{"@	-3424
cel	-3425
acon	-3426
raft	-3427
elson	-3428
oyalty	-3429
company	-3430
▁Tracking	-3431
Be	-3432
$24	-3433
-52	-3434
lia	-3435
▁pre	-3436
▁Bottle	-3437
▁Du	-3438
▁Sm	-3439
Char	-3440
Work	-3441
print	-3442
▁Vent	-3443
▁Elect	-3444
.59"},{"@	-3445
.89"},{"@	-3446
▁76	-3447
▁Eng	-3448
▁Los	-3449
eason	-3450
▁2025	-3451
▁SHIPP	-3452
▁World	-3453
.4"},{"@	-3454
35"},{"@	-3455
ventures	-3456
▁Created	-3457
.68"},{"@	-3458
enterprises	-3459
oy	-3460
loy	-3461
ric	-3462
"}]}	-3463
Mile	-3464
ique	-3465
▁Mad	-3466
▁Tre	-3467
":"120	-3468
strate	-3469
00"},{"@	-3470
63"},{"@	-3471
.44"},{"@	-3472
▁Collection	-3473
,10	-3474
eda	-3475
▁Gr	-3476
arel	-3477
▁120	-3478
▁Old	-3479
23"},{"@	-3480
.43"},{"@	-3481
.74"},{"@	-3482
bot	-3483
ular	-3484
CKING	-3485
loyee	-3486
.23"},{"@	-3487
.82"},{"@	-3488
liv	-3489
ango	-3490
ENDER	-3491
ren	-3492
▁(6	-3493
▁+6	-3494
enger	-3495
▁Mess	-3496
":"148	-3497
ilders	-3498
▁Great	-3499
▁CREATED	-3500
▁Trading	-3501
▁Software	-3502
▁Messenger	-3503
mc	-3504
-32	-3505
07,	-3506
ino	-3507
▁"9	-3508
▁135	-3509
▁148	-3510
▁Rich	-3511
":"137	-3512
▁PROVIDER	-3513
aro	-3514
mot	-3515
▁56	-3516
▁Ab	-3517
▁CASH	-3518
":"110	-3519
":"123	-3520
nction	-3521
fession	-3522
ze	-3523
ION	-3524
Sal	-3525
pub	-3526
ram	-3527
ncoo	-3528
▁tel	-3529
ights	-3530
.54"},{"@	-3531
▁Illinois	-3532
Fl	-3533
>12	-3534
atri	-3535
search	-3536
▁Shent	-3537
ination	-3538
ncoolen	-3539
exarnple	-3540
18:	-3541
AID	-3542
▁137	-3543
ering	-3544
ospit	-3545
▁Maison	-3546
▁offers	-3547
MI	-3548
▁y	-3549
Cam	-3550
IER	-3551
ona	-3552
▁rn	-3553
anda	-3554
▁140	-3555
▁EMAIL	-3556
61"},{"@	-3557
▁Baggage	-3558
▁Digital	-3559
.83"},{"@	-3560
Su	-3561
ky	-3562
,12	-3563
biz	-3564
angi	-3565
asir	-3566
site	-3567
="+64	-3568
Garden	-3569
▁Basket	-3570
10"},{"@	-3571
.01"},{"@	-3572
.21"},{"@	-3573
ospitality	-3574
$20	-3575
PAY	-3576
ann	-3577
cam	-3578
,+65	-3579
media	-3580
tridge	-3581
Sp	-3582
ools	-3583
aster	-3584
grand	-3585
▁"+44	-3586
▁sale	-3587
":"162	-3588
▁Paper	-3589
.19"},{"@	-3590
.25"},{"@	-3591
.77"},{"@	-3592
▁accepted	-3593
▁"15	-3594
="+44	-3595
LIVER	-3596
":"139	-3597
▁Shenton	-3598
ames	-3599
oney	-3600
▁Camp	-3601
▁Stop	-3602
":"150	-3603
▁11"},"	-3604
▁Boston	-3605
▁Session	-3606
.65"},{"@	-3607
▁Keyboard	-3608
afa	-3609
,+64	-3610
lift	-3611
▁Water	-3612
▁Airlift	-3613
.27"},{"@	-3614
ev	-3615
,15	-3616
asz	-3617
":"149	-3618
ces	-3619
▁96	-3620
▁th	-3621
owroom	-3622
▁Adela	-3623
PAYMENT	-3624
.97"},{"@	-3625
$27	-3626
14:	-3627
>13	-3628
sal	-3629
▁se	-3630
asan	-3631
▁104	-3632
="+61	-3633
efore	-3634
▁Rout	-3635
▁mail	-3636
":"105	-3637
":"165	-3638
ictures	-3639
44"},{"@	-3640
▁Forward	-3641
▁Scanner	-3642
opt	-3643
view	-3644
▁CON	-3645
Power	-3646
▁Media	-3647
consulting	-3648
,7	-3649
OS	-3650
▁159	-3651
▁Bas	-3652
▁Ber	-3653
▁Cent	-3654
":"103	-3655
pliances	-3656
▁81	-3657
▁110	-3658
▁Rem	-3659
ackup	-3660
oving	-3661
point	-3662
rying	-3663
▁"+64	-3664
idifier	-3665
aterials	-3666
.51"},{"@	-3667
international	-3668
▁86	-3669
,+44	-3670
,+61	-3671
Wind	-3672
▁138	-3673
▁149	-3674
▁Ind	-3675
▁Reg	-3676
Nikol	-3677
cloud	-3678
":"157	-3679
▁"+353	-3680
▁Block	-3681
▁Plant	-3682
.07"},{"@	-3683
.49"},{"@	-3684
.87"},{"@	-3685
,13	-3686
▁71	-3687
state	-3688
":"125	-3689
":"158	-3690
Gaming	-3691
.09"},{"@	-3692
.37"},{"@	-3693
.39"},{"@	-3694
.41"},{"@	-3695
.85"},{"@	-3696
AR	-3697
BS	-3698
PP	-3699
ano	-3700
.2</	-3701
.8</	-3702
live	-3703
▁178	-3704
▁DIS	-3705
.05"},{"@	-3706
Streaming	-3707
DE	-3708
Ne	-3709
OC	-3710
248	-3711
918	-3712
▁Sy	-3713
kins	-3714
▁Chi	-3715
echan	-3716
":"159	-3717
angoon	-3718
bakery	-3719
▁Flight	-3720
▁Heater	-3721
.95"},{"@	-3722
Se	-3723
vices	-3724
▁Tamp	-3725
.29"},{"@	-3726
.31"},{"@	-3727
▁Business	-3728
ez	-3729
80,	-3730
>14	-3731
ama	-3732
tre	-3733
uter	-3734
▁Tel	-3735
rinks	-3736
ancell	-3737
Monitor	-3738
ignment	-3739
▁Invest	-3740
57"},{"@	-3741
.13"},{"@	-3742
▁Bencoolen	-3743
>17	-3744
Nur	-3745
aki	-3746
fort	-3747
ough	-3748
rank	-3749
▁Side	-3750
▁unit	-3751
▁21"},"	-3752
▁Albert	-3753
▁Nelson	-3754
.35"},{"@	-3755
.73"},{"@	-3756
echanical	-3757
umidifier	-3758
▁Maintenance	-3759
VD	-3760
":7	-3761
ACT	-3762
ala	-3763
etro	-3764
ifts	-3765
labs	-3766
lina	-3767
▁amt	-3768
":"138	-3769
":7},"	-3770
▁Strate	-3771
▁before	-3772
50"},{"@	-3773
▁Orchard	-3774
.99"},{"@	-3775
collective	-3776
IA	-3777
$28	-3778
elm	-3779
rich	-3780
▁150	-3781
.64</	-3782
▁"+65	-3783
":"133	-3784
":"163	-3785
.00","	-3786
▁Serangoon	-3787
kitchenware	-3788
ci	-3789
Ste	-3790
del	-3791
ese	-3792
iles	-3793
leks	-3794
sson	-3795
▁Vis	-3796
Chain	-3797
TOTAL	-3798
river	-3799
▁Last	-3800
":"104	-3801
derson	-3802
retail	-3803
rophone	-3804
.71"},{"@	-3805
.93"},{"@	-3806
▁International	-3807
ić	-3808
▁Ca	-3809
ittle	-3810
outlet	-3811
11"},{"@	-3812
velopers	-3813
.11"},{"@	-3814
placement	-3815
mun	-3816
▁105	-3817
▁164	-3818
round	-3819
▁Alex	-3820
oliday	-3821
ackpack	-3822
cipient	-3823
▁25"},"	-3824
19"},{"@	-3825
.17"},{"@	-3826
.47"},{"@	-3827
.79"},{"@	-3828
▁products	-3829
ni	-3830
og	-3831
":"05	-3832
="+91	-3833
▁"+61	-3834
▁Dame	-3835
":"122	-3836
ioneer	-3837
leaning	-3838
▁36"},"	-3839
.91"},{"@	-3840
HD	-3841
16:	-3842
gal	-3843
irst	-3844
oung	-3845
▁"14	-3846
orpor	-3847
▁Energy	-3848
▁Rivers	-3849
▁Airport	-3850
.03"},{"@	-3851
.33"},{"@	-3852
▁dispatch	-3853
▁SupplyChain	-3854
Ac	-3855
10:	-3856
▁103	-3857
▁165	-3858
▁Lob	-3859
▁Event	-3860
▁Saint	-3861
▁10"},"	-3862
▁Valley	-3863
-8"},{"@	-3864
▁ORDERED	-3865
▁California	-3866
▁Microphone	-3867
Pe	-3868
TV	-3869
cy	-3870
618	-3871
atr	-3872
rov	-3873
.6</	-3874
8},"	-3875
eder	-3876
uyer	-3877
▁158	-3878
ermal	-3879
ories	-3880
stone	-3881
ufact	-3882
▁Slee	-3883
":"102	-3884
":"134	-3885
▁staff	-3886
38"},{"@	-3887
.81"},{"@	-3888
19:	-3889
20:	-3890
GST	-3891
▁163	-3892
▁for	-3893
▁Raff	-3894
":"151	-3895
":"164	-3896
LIVERY	-3897
Vacuum	-3898
▁19"},"	-3899
.57"},{"@	-3900
▁Forwarding	-3901
LP	-3902
$29	-3903
.4</	-3904
OMER	-3905
aser	-3906
char	-3907
▁133	-3908
▁157	-3909
":"178	-3910
itects	-3911
oucher	-3912
▁Product	-3913
ufacturing	-3914
sw	-3915
-31	-3916
13:	-3917
237	-3918
609	-3919
▁"13	-3920
▁Mod	-3921
iving	-3922
▁0.00	-3923
":"179	-3924
▁Enter	-3925
15"},{"@	-3926
.61"},{"@	-3927
▁Adelaide	-3928
▁Technolo	-3929
Ra	-3930
11:	-3931
iro	-3932
arly	-3933
,+353	-3934
▁"+91	-3935
":"145	-3936
Desktop	-3937
▁Tablet	-3938
Bathroom	-3939
▁Shuttle	-3940
.67"},{"@	-3941
▁Cartridge	-3942
▁Transportation	-3943
187	-3944
All	-3945
Gül	-3946
▁As	-3947
cour	-3948
elry	-3949
izon	-3950
rics	-3951
▁sub	-3952
foods	-3953
▁9"},"	-3954
▁Remote	-3955
EN	-3956
,"8	-3957
207	-3958
Ess	-3959
ULF	-3960
akers	-3961
ummit	-3962
urnit	-3963
":"155	-3964
":8},"	-3965
ronics	-3966
▁Watch	-3967
outique	-3968
▁Hangar	-3969
▁Thomas	-3970
-6"},{"@	-3971
17"},{"@	-3972
18"},{"@	-3973
oko	-3974
rez	-3975
ull	-3976
istr	-3977
lerk	-3978
▁Hou	-3979
▁Pot	-3980
▁Tal	-3981
.16</	-3982
="+65	-3983
NSACT	-3984
Beauty	-3985
ewelry	-3986
▁32"},"	-3987
37"},{"@	-3988
47"},{"@	-3989
AN	-3990
09:	-3991
617	-3992
ury	-3993
kend	-3994
uels	-3995
▁Bin	-3996
▁Fra	-3997
▁Mil	-3998
":"03	-3999
▁John	-4000
":"152	-4001
grocer	-4002
▁Brand	-4003
kincare	-4004
.63"},{"@	-4005
▁Cleaning	-4006
▁Maisonette	-4007
12:	-4008
uis	-4009
▁145	-4010
▁Wrap	-4011
="+353	-4012
orizon	-4013
▁Combo	-4014
istrict	-4015
▁Sleeve	-4016
12"},{"@	-4017
urniture	-4018
910	-4019
Res	-4020
ily	-4021
vas	-4022
▁Fer	-4023
▁Wil	-4024
ivity	-4025
velop	-4026
▁Bill	-4027
corner	-4028
▁Kings	-4029
▁34"},"	-4030
39"},{"@	-4031
59"},{"@	-4032
wholesale	-4033
OU	-4034
SB	-4035
/20	-4036
07:	-4037
178	-4038
mad	-4039
.3</	-4040
onald	-4041
":"153	-4042
▁24"},"	-4043
▁27"},"	-4044
▁30"},"	-4045
▁Engine	-4046
238	-4047
608	-4048
gar	-4049
ray	-4050
▁162	-4051
▁Pen	-4052
.48</	-4053
":"167	-4054
▁Module	-4055
▁Moving	-4056
ui	-4057
vy	-4058
240	-4059
CWT	-4060
CXT	-4061
lan	-4062
rey	-4063
data	-4064
▁134	-4065
▁161	-4066
▁Rod	-4067
▁Tim	-4068
linic	-4069
trade	-4070
▁Lake	-4071
":"168	-4072
▁18"},"	-4073
commerce	-4074
Ay	-4075
ida	-4076
nds	-4077
Wall	-4078
ille	-4079
▁122	-4080
▁168	-4081
ensen	-4082
▁Labs	-4083
▁Post	-4084
▁SUBT	-4085
▁14"},"	-4086
▁Grocer	-4087
14"},{"@	-4088
49"},{"@	-4089
.75"},{"@	-4090
velopment	-4091
17:	-4092
180	-4093
lor	-4094
nay	-4095
cles	-4096
▁197	-4097
.28</	-4098
aging	-4099
ences	-4100
stant	-4101
center	-4102
eekend	-4103
Network	-4104
▁40"},"	-4105
48"},{"@	-4106
▁Ordered	-4107
▁TRACKING	-4108
▁quantity	-4109
OO	-4110
698	-4111
LED	-4112
▁102	-4113
▁out	-4114
":"156	-4115
▁4"},"	-4116
▁Havel	-4117
iversal	-4118
ountain	-4119
▁Church	-4120
▁Raffles	-4121
▁LastMile	-4122
LY	-4123
OP	-4124
.7</	-4125
amin	-4126
haul	-4127
paid	-4128
.0","	-4129
inson	-4130
▁Bath	-4131
":"142	-4132
▁Socks	-4133
station	-4134
-14"}],"	-4135
▁Deliver	-4136
▁Anderson	-4137
▁Linehaul	-4138
15:	-4139
2",	-4140
4",	-4141
448	-4142
638	-4143
awa	-4144
ced	-4145
nan	-4146
win	-4147
▁188	-4148
▁Cec	-4149
▁BILL	-4150
armacy	-4151
▁17"},"	-4152
▁Retail	-4153
33"},{"@	-4154
▁Extender	-4155
▁Havelock	-4156
▁Ventures	-4157
Mechanical	-4158
-01	-4159
297	-4160
CDT	-4161
ORE	-4162
inc	-4163
▁Lor	-4164
.32</	-4165
brand	-4166
▁Carr	-4167
":"143	-4168
ources	-4169
▁Board	-4170
▁22"},"	-4171
Priority	-4172
pharmacy	-4173
▁Platform	-4174
209	-4175
>25	-4176
ope	-4177
▁Lee	-4178
.12</	-4179
.56</	-4180
jector	-4181
▁7"},"	-4182
▁Works	-4183
▁Gloves	-4184
▁Refill	-4185
▁shipment	-4186
industries	-4187
Am	-4188
VR	-4189
side	-4190
▁177	-4191
.72</	-4192
cepts	-4193
goods	-4194
▁Paid	-4195
":"177	-4196
-20"}],"	-4197
Wellness	-4198
203	-4199
230	-4200
CYT	-4201
Che	-4202
Ser	-4203
wide	-4204
▁Dom	-4205
▁Gra	-4206
▁Toa	-4207
62","	-4208
tdoor	-4209
▁Pent	-4210
":"121	-4211
▁Cecil	-4212
▁Lobby	-4213
surance	-4214
-5"},{"@	-4215
-7"},{"@	-4216
-9"},{"@	-4217
.53"},{"@	-4218
▁Penthouse	-4219
,0	-4220
Ak	-4221
IB	-4222
nz	-4223
08:	-4224
478	-4225
dev	-4226
Road	-4227
.88</	-4228
▁Rice	-4229
▁Wing	-4230
▁Payoh	-4231
Kitchen	-4232
▁35"},"	-4233
▁37"},"	-4234
▁Lorong	-4235
13"},{"@	-4236
58"},{"@	-4237
▁Parcels	-4238
AP	-4239
zy	-4240
,14	-4241
,17	-4242
-66	-4243
204	-4244
299	-4245
>27	-4246
CUT	-4247
Fre	-4248
Ind	-4249
plex	-4250
pson	-4251
▁Rob	-4252
illow	-4253
ncial	-4254
":"116	-4255
":"131	-4256
":"175	-4257
atrick	-4258
lasses	-4259
▁Green	-4260
▁13"},"	-4261
▁Complex	-4262
▁Gateway	-4263
308	-4264
693	-4265
697	-4266
>19	-4267
CNT	-4268
Gra	-4269
aan	-4270
agh	-4271
mat	-4272
yen	-4273
iner	-4274
peed	-4275
▁Tea	-4276
▁net	-4277
.04</	-4278
.68</	-4279
antry	-4280
tenay	-4281
":"154	-4282
":"215	-4283
▁Tower	-4284
▁Studio	-4285
staurant	-4286
▁problem	-4287
▁Subtotal	-4288
freshments	-4289
▁Riverside	-4290
öm	-4291
258	-4292
355	-4293
CTT	-4294
hub	-4295
,+91	-4296
Draw	-4297
ists	-4298
67","	-4299
oodie	-4300
▁Cord	-4301
":"160	-4302
utdoor	-4303
URCHASE	-4304
investments	-4305
distributors	-4306
AM	-4307
350	-4308
sha	-4309
0000	-4310
cord	-4311
dern	-4312
▁153	-4313
▁199	-4314
.36</	-4315
.92</	-4316
":"197	-4317
▁8"},"	-4318
central	-4319
▁31"},"	-4320
Cleaning	-4321
▁Booking	-4322
▁SUBTOTAL	-4323
examplesupport	-4324
GN	-4325
IO	-4326
MO	-4327
Ve	-4328
288	-4329
Chi	-4330
utr	-4331
val	-4332
▁Ba	-4333
▁Te	-4334
▁"17	-4335
▁12,	-4336
▁160	-4337
▁187	-4338
▁Flat	-4339
":"240	-4340
agency	-4341
rentals	-4342
▁26"},"	-4343
▁Merchant	-4344
▁merchant	-4345
▁Analytics	-4346
>18	-4347
CMT	-4348
CVT	-4349
ied	-4350
lot	-4351
▁179	-4352
▁Ass	-4353
.44</	-4354
":"136	-4355
office	-4356
rewing	-4357
eceipts	-4358
▁38"},"	-4359
▁39"},"	-4360
▁Garden	-4361
-12"}],"	-4362
provisions	-4363
▁Courtenay	-4364
LQ	-4365
ju	-4366
239	-4367
639	-4368
rob	-4369
sel	-4370
▁Hau	-4371
64","	-4372
Extra	-4373
":"161	-4374
":"173	-4375
otwear	-4376
▁Beach	-4377
▁Links	-4378
▁Value	-4379
eliable	-4380
factory	-4381
▁16"},"	-4382
▁23"},"	-4383
▁29"},"	-4384
-11"}],"	-4385
▁Routing	-4386
estination	-4387
LO	-4388
wa	-4389
628	-4390
CET	-4391
eep	-4392
iti	-4393
Fast	-4394
▁Cub	-4395
68","	-4396
andon	-4397
▁Swan	-4398
":"141	-4399
olding	-4400
reator	-4401
▁basket	-4402
utrition	-4403
▁Apartment	-4404
▁Insurance	-4405
Em	-4406
LS	-4407
PC	-4408
Ur	-4409
257	-4410
647	-4411
675	-4412
case	-4413
lage	-4414
ukau	-4415
▁132	-4416
.76</	-4417
▁Will	-4418
":"132	-4419
ennett	-4420
-10"}],"	-4421
election	-4422
▁Cancell	-4423
▁Haulage	-4424
▁Manukau	-4425
management	-4426
pecialists	-4427
▁Wholesale	-4428
▁outstanding	-4429
NG	-4430
1":	-4431
147	-4432
388	-4433
449	-4434
629	-4435
630	-4436
can	-4437
ilit	-4438
more	-4439
▁121	-4440
▁Bed	-4441
.26</	-4442
ström	-4443
andled	-4444
▁Goods	-4445
▁Power	-4446
▁Short	-4447
easonal	-4448
▁33"},"	-4449
40"},{"@	-4450
▁Wellness	-4451
LH	-4452
658	-4453
690	-4454
CCT	-4455
bre	-4456
cur	-4457
pes	-4458
tor	-4459
▁ow	-4460
Cook	-4461
Hand	-4462
onth	-4463
▁Den	-4464
paper	-4465
phics	-4466
utler	-4467
▁Data	-4468
":"146	-4469
":"210	-4470
Winter	-4471
beauty	-4472
cessed	-4473
-17"}],"	-4474
▁Capital	-4475
▁William	-4476
▁Broadway	-4477
▁Deliveries	-4478
VE	-4479
232	-4480
498	-4481
648	-4482
688	-4483
inh	-4484
ink	-4485
▁He	-4486
aced	-4487
ards	-4488
omot	-4489
▁How	-4490
night	-4491
":"101	-4492
▁Print	-4493
inental	-4494
novations	-4495
▁Wireless	-4496
":"2024-03-0	-4497
examplereceipts	-4498
IM	-4499
118	-4500
380	-4501
CAT	-4502
Del	-4503
quip	-4504
ishun	-4505
worth	-4506
▁Cafe	-4507
▁PAID	-4508
":"217	-4509
▁Condo	-4510
▁Smith	-4511
":"2018	-4512
created	-4513
▁15"},"	-4514
▁TENDER	-4515
▁Yishun	-4516
▁Couriers	-4517
▁Sandwich	-4518
▁Collective	-4519
CPT	-4520
Mar	-4521
exa	-4522
▁Li	-4523
OICE	-4524
ator	-4525
fore	-4526
icol	-4527
▁SSD	-4528
▁way	-4529
.58</	-4530
Plant	-4531
ander	-4532
atics	-4533
":"106	-4534
":"187	-4535
":"188	-4536
asters	-4537
▁SALES	-4538
Document	-4539
mobility	-4540
▁Shipments	-4541
CS	-4542
LJ	-4543
LN	-4544
OW	-4545
Qu	-4546
233	-4547
249	-4548
307	-4549
358	-4550
640	-4551
649	-4552
657	-4553
One	-4554
Par	-4555
▁"0	-4556
▁143	-4557
▁154	-4558
▁198	-4559
▁Her	-4560
▁emp	-4561
":"04	-4562
.02</	-4563
63","	-4564
Cabin	-4565
ebcam	-4566
iller	-4567
allery	-4568
health	-4569
visors	-4570
ilities	-4571
-18"}],"	-4572
▁Contact	-4573
.69"},{"@	-4574
Breakfast	-4575
▁Carriers	-4576
LG	-4577
oz	-4578
,"7	-4579
370	-4580
508	-4581
610	-4582
637	-4583
CJT	-4584
.9</	-4585
HONE	-4586
TACT	-4587
ated	-4588
▁Pub	-4589
▁Ris	-4590
.24</	-4591
depot	-4592
▁Baker	-4593
▁Pasir	-4594
▁Stall	-4595
▁owing	-4596
ishings	-4597
▁28"},"	-4598
-27"}],"	-4599
▁Blanket	-4600
sm	-4601
205	-4602
359	-4603
477	-4604
654	-4605
678	-4606
>28	-4607
CFT	-4608
ani	-4609
▁Kil	-4610
.52</	-4611
.96</	-4612
berty	-4613
inema	-4614
istro	-4615
brands	-4616
itness	-4617
▁Beauty	-4618
quipment	-4619
▁Princes	-4620
▁Consulting	-4621
▁Department	-4622
exampledeals	-4623
▁Enterprises	-4624
BI	-4625
VP	-4626
,18	-4627
298	-4628
644	-4629
CGT	-4630
Lau	-4631
apid	-4632
duce	-4633
emar	-4634
ting	-4635
.84</	-4636
rance	-4637
south	-4638
":"172	-4639
garden	-4640
▁Apart	-4641
▁Kilda	-4642
omotive	-4643
▁Holder	-4644
▁Option	-4645
hardware	-4646
networks	-4647
▁Interior	-4648
▁Apartments	-4649
":"2025-03-0	-4650
exampleorders	-4651
ZE	-4652
eu	-4653
128	-4654
137	-4655
242	-4656
685	-4657
irc	-4658
ito	-4659
ots	-4660
rea	-4661
uez	-4662
uff	-4663
mple	-4664
▁170	-4665
▁191	-4666
▁218	-4667
▁248	-4668
Trash	-4669
alcon	-4670
▁20"},"	-4671
-22"}],"	-4672
-28"}],"	-4673
NSACTION	-4674
counting	-4675
dynamics	-4676
software	-4677
▁Section	-4678
▁Breakfast	-4679
,19	-4680
153	-4681
279	-4682
677	-4683
CHT	-4684
CIT	-4685
CZT	-4686
Tom	-4687
rol	-4688
▁Em	-4689
.5</	-4690
Park	-4691
cier	-4692
inch	-4693
.22</	-4694
.98</	-4695
69","	-4696
tools	-4697
▁Fitz	-4698
":"230	-4699
cierge	-4700
imitri	-4701
realty	-4702
uisine	-4703
▁Campus	-4704
▁Tampines	-4705
▁employee	-4706
exampleshipping	-4707
ZM	-4708
-41	-4709
140	-4710
603	-4711
679	-4712
689	-4713
ica	-4714
olt	-4715
▁Pr	-4716
Comp	-4717
nack	-4718
pend	-4719
Cargo	-4720
monds	-4721
▁Arch	-4722
▁cons	-4723
":"170	-4724
":"191	-4725
":"258	-4726
-0"},{"@	-4727
98"},{"@	-4728
examplel	-4729
formatics	-4730
fessionals	-4731
▁Kitchenware	-4732
LB	-4733
ZW	-4734
134	-4735
138	-4736
177	-4737
179	-4738
243	-4739
387	-4740
659	-4741
699	-4742
CST	-4743
osh	-4744
Care	-4745
anna	-4746
vern	-4747
▁211	-4748
▁Aut	-4749
.42</	-4750
erson	-4751
▁FULF	-4752
▁Tanj	-4753
":"244	-4754
acific	-4755
ishing	-4756
clothing	-4757
▁Discount	-4758
examplecheckout	-4759
GP	-4760
ZP	-4761
CKT	-4762
▁155	-4763
▁249	-4764
Cloud	-4765
design	-4766
phones	-4767
▁Pagar	-4768
emarket	-4769
▁Series	-4770
▁Commerce	-4771
▁Management	-4772
RR	-4773
357	-4774
409	-4775
="2	-4776
CRT	-4777
Emp	-4778
cean	-4779
enry	-4780
iona	-4781
ural	-4782
▁"18	-4783
▁141	-4784
▁215	-4785
.06</	-4786
.74</	-4787
58","	-4788
▁View	-4789
bridge	-4790
imited	-4791
onthly	-4792
balance	-4793
▁Cashier	-4794
examplepay	-4795
▁Scheduled	-4796
":"2024-12-0	-4797
exampleloyalty	-4798
LK	-4799
On	-4800
ZK	-4801
dn	-4802
je	-4803
108	-4804
290	-4805
614	-4806
634	-4807
▁Ly	-4808
Dish	-4809
gang	-4810
▁Jur	-4811
adill	-4812
elier	-4813
rowers	-4814
▁Plate	-4815
Thermal	-4816
▁CONTACT	-4817
▁Alexandra	-4818
":"2024-01-1	-4819
LM	-4820
LW	-4821
278	-4822
487	-4823
613	-4824
627	-4825
mega	-4826
ohor	-4827
▁Cap	-4828
.08</	-4829
21","	-4830
Photo	-4831
anced	-4832
▁Bour	-4833
▁Trip	-4834
":"174	-4835
":"225	-4836
Indoor	-4837
unning	-4838
Airport	-4839
▁Jurong	-4840
▁mobile	-4841
catering	-4842
▁Consult	-4843
▁Tanjong	-4844
▁DELIVERY	-4845
examplemail	-4846
▁Headphones	-4847
LV	-4848
TI	-4849
-71	-4850
107	-4851
109	-4852
398	-4853
919	-4854
▁So	-4855
ideo	-4856
irch	-4857
.86</	-4858
event	-4859
▁Hose	-4860
▁fulf	-4861
":"228	-4862
Express	-4863
Trusted	-4864
lishing	-4865
▁Hougang	-4866
technology	-4867
urnishings	-4868
Es	-4869
RI	-4870
SE	-4871
Sl	-4872
ZG	-4873
007	-4874
294	-4875
384	-4876
594	-4877
CQT	-4878
Val	-4879
aba	-4880
iri	-4881
agle	-4882
lins	-4883
▁Kent	-4884
lassic	-4885
urchased	-4886
▁Curtain	-4887
":"2026-05-0	-4888
130	-4889
133	-4890
198	-4891
226	-4892
250	-4893
352	-4894
612	-4895
650	-4896
687	-4897
CBT	-4898
eme	-4899
▁Je	-4900
path	-4901
▁142	-4902
▁Wel	-4903
.46</	-4904
▁Kall	-4905
▁Rear	-4906
▁Sher	-4907
":"249	-4908
▁Clark	-4909
▁Drill	-4910
▁Royal	-4911
-24"}],"	-4912
transaction	-4913
Ed	-4914
II	-4915
MH	-4916
-21	-4917
245	-4918
295	-4919
399	-4920
COT	-4921
ali	-4922
kari	-4923
▁"27	-4924
▁Dou	-4925
▁Ins	-4926
COUNT	-4927
Metro	-4928
awson	-4929
tours	-4930
▁Food	-4931
▁Lamb	-4932
▁Mach	-4933
":"198	-4934
▁White	-4935
▁Shorts	-4936
ocolates	-4937
outfitters	-4938
▁Solutions	-4939
Maintenance	-4940
":"2026-07-1	-4941
examplemarket	-4942
Gu	-4943
Ju	-4944
234	-4945
684	-4946
ski	-4947
ball	-4948
cott	-4949
just	-4950
▁Kio	-4951
tooth	-4952
":"126	-4953
":"194	-4954
":"218	-4955
ackson	-4956
amount	-4957
asures	-4958
ential	-4959
▁Depot	-4960
▁Drying	-4961
▁Kallang	-4962
Developer	-4963
exampleshop	-4964
▁Cancelling	-4965
":"2025-08-1	-4966
":"2026-03-0	-4967
IC	-4968
127	-4969
193	-4970
197	-4971
302	-4972
394	-4973
440	-4974
Bed	-4975
nee	-4976
▁Kh	-4977
Door	-4978
SALE	-4979
hman	-4980
nail	-4981
ught	-4982
▁101	-4983
▁Jac	-4984
.14</	-4985
.82</	-4986
power	-4987
quare	-4988
ukasz	-4989
":"169	-4990
":"171	-4991
":"184	-4992
":"259	-4993
sports	-4994
Chicken	-4995
▁Control	-4996
marketing	-4997
,9	-4998
OI	-4999
TO	-5000
ZH	-5001
ZY	-5002
gg	-5003
158	-5004
372	-5005
470	-5006
670	-5007
And	-5008
Mat	-5009
aya	-5010
hdi	-5011
ayer	-5012
imum	-5013
onso	-5014
ouss	-5015
pets	-5016
pool	-5017
vate	-5018
▁Top	-5019
.18</	-5020
.62</	-5021
inion	-5022
shoes	-5023
":"238	-5024
Weekend	-5025
▁Talbot	-5026
▁Charging	-5027
▁Provisions	-5028
Wi	-5029
149	-5030
247	-5031
287	-5032
289	-5033
447	-5034
588	-5035
615	-5036
Nat	-5037
PAT	-5038
arr	-5039
ivi	-5040
lad	-5041
osa	-5042
vet	-5043
Cord	-5044
home	-5045
iman	-5046
zone	-5047
▁225	-5048
▁240	-5049
▁Ham	-5050
▁McK	-5051
▁Pon	-5052
joint	-5053
ocity	-5054
▁Fina	-5055
":"227	-5056
▁Basah	-5057
▁Outlet	-5058
Training	-5059
▁Selection	-5060
-16	-5061
333	-5062
584	-5063
619	-5064
633	-5065
cor	-5066
▁Lu	-5067
="10	-5068
Chin	-5069
ista	-5070
PATCH	-5071
ernet	-5072
pizza	-5073
▁Bras	-5074
▁Ever	-5075
astern	-5076
attery	-5077
william	-5078
▁Dominion	-5079
▁Hardware	-5080
122	-5081
148	-5082
255	-5083
280	-5084
309	-5085
CLT	-5086
asm	-5087
tis	-5088
▁us	-5089
suki	-5090
▁Mos	-5091
▁Wat	-5092
.34</	-5093
13","	-5094
ailey	-5095
udson	-5096
▁Oper	-5097
▁Wood	-5098
":"209	-5099
ranklin	-5100
ventory	-5101
inePrice	-5102
▁Collins	-5103
▁Entrance	-5104
":"2024-01-0	-5105
":"2025-04-1	-5106
":"2025-04-2	-5107
EL	-5108
ás	-5109
343	-5110
674	-5111
680	-5112
914	-5113
arl	-5114
lov	-5115
▁Ph	-5116
▁Ru	-5117
Meal	-5118
Trip	-5119
ukit	-5120
▁106	-5121
▁151	-5122
▁244	-5123
▁Nar	-5124
11","	-5125
66","	-5126
gency	-5127
gress	-5128
salon	-5129
▁Buck	-5130
":"204	-5131
":"235	-5132
vender	-5133
xample	-5134
▁Black	-5135
▁Inner	-5136
▁Square	-5137
merchandise	-5138
":"2025-12-0	-5139
EQ	-5140
Is	-5141
Kh	-5142
LR	-5143
No	-5144
rd	-5145
-06	-5146
695	-5147
INE	-5148
lab	-5149
▁238	-5150
brook	-5151
itage	-5152
":"237	-5153
fashion	-5154
foundry	-5155
freight	-5156
custorner	-5157
":"2024-12-1	-5158
As	-5159
ZJ	-5160
-56	-5161
.2"	-5162
303	-5163
570	-5164
655	-5165
iff	-5166
.1</	-5167
BILL	-5168
Side	-5169
bard	-5170
.78</	-5171
space	-5172
▁Fact	-5173
":"166	-5174
":"224	-5175
":"250	-5176
▁Besar	-5177
▁Entry	-5178
ordered	-5179
▁Cheese	-5180
▁waybill	-5181
▁Purifier	-5182
engineering	-5183
":"2024-03-1	-5184
":"2025-05-1	-5185
":"2025-07-0	-5186
":"2026-03-1	-5187
ZX	-5188
ih	-5189
124	-5190
194	-5191
304	-5192
397	-5193
607	-5194
632	-5195
ael	-5196
key	-5197
rad	-5198
nell	-5199
phen	-5200
▁259	-5201
▁Bal	-5202
▁Rom	-5203
.25</	-5204
ecure	-5205
elena	-5206
":"182	-5207
":"252	-5208
Creator	-5209
09"},{"@	-5210
ications	-5211
▁CUSTOMER	-5212
Replacement	-5213
ZR	-5214
ZV	-5215
iy	-5216
008	-5217
170	-5218
199	-5219
277	-5220
604	-5221
Vel	-5222
ita	-5223
ola	-5224
tab	-5225
fect	-5226
imal	-5227
▁Mon	-5228
.38</	-5229
18","	-5230
▁Town	-5231
":"185	-5232
▁Timah	-5233
":"2017	-5234
finance	-5235
▁Bakery	-5236
▁Corner	-5237
Charging	-5238
▁Charles	-5239
▁Factory	-5240
▁Lavender	-5241
investment	-5242
":"2024-05-1	-5243
":"2026-10-1	-5244
BQ	-5245
HJ	-5246
-86	-5247
117	-5248
129	-5249
152	-5250
408	-5251
489	-5252
605	-5253
635	-5254
672	-5255
OFF	-5256
ado	-5257
jun	-5258
gate	-5259
▁Bay	-5260
▁Cor	-5261
":"239	-5262
":"247	-5263
ewards	-5264
▁Castle	-5265
▁Centre	-5266
77"},{"@	-5267
pictures	-5268
":"2025-06-0	-5269
":"2025-10-2	-5270
":"2026-03-2	-5271
":"2026-04-1	-5272
examplestore	-5273
▁destination	-5274
PT	-5275
,"5	-5276
.80	-5277
145	-5278
625	-5279
913	-5280
ott	-5281
▁MA	-5282
▁Sl	-5283
arya	-5284
lund	-5285
▁184	-5286
▁250	-5287
▁Cle	-5288
▁Dav	-5289
.54</	-5290
.66</	-5291
":"176	-5292
charge	-5293
covery	-5294
studios	-5295
▁Lounge	-5296
08"},{"@	-5297
Cordless	-5298
Reliable	-5299
▁Security	-5300
orporation	-5301
":"2024-09-1	-5302
":"2026-01-1	-5303
":"2026-07-2	-5304
":"2026-08-0	-5305
▁fulfillment	-5306
LU	-5307
bh	-5308
rm	-5309
292	-5310
379	-5311
577	-5312
580	-5313
642	-5314
ias	-5315
mas	-5316
▁+3	-5317
▁ve	-5318
apel	-5319
play	-5320
▁Via	-5321
iform	-5322
orium	-5323
▁tota	-5324
":"219	-5325
coffee	-5326
eather	-5327
ierrez	-5328
repair	-5329
▁Cross	-5330
▁Smart	-5331
▁buyer	-5332
Graphics	-5333
urchaser	-5334
restaurant	-5335
":"2024-10-0	-5336
":"2026-02-0	-5337
":"2026-08-2	-5338
":"2026-09-0	-5339
QJ	-5340
ZN	-5341
ZU	-5342
py	-5343
005	-5344
285	-5345
623	-5346
TRA	-5347
ova	-5348
DATE	-5349
avid	-5350
ones	-5351
.94</	-5352
buyer	-5353
gifts	-5354
▁Tank	-5355
▁cart	-5356
":"195	-5357
":"213	-5358
":"253	-5359
andard	-5360
eneral	-5361
▁Center	-5362
▁Changi	-5363
99"},{"@	-5364
purchase	-5365
▁settlement	-5366
":"2025-06-2	-5367
▁Accessories	-5368
examplerewards	-5369
Ba	-5370
cn	-5371
114	-5372
175	-5373
404	-5374
597	-5375
645	-5376
653	-5377
917	-5378
phy	-5379
ump	-5380
▁Ut	-5381
19","	-5382
":"190	-5383
":"233	-5384
":"241	-5385
client	-5386
borough	-5387
97"},{"@	-5388
pression	-5389
utierrez	-5390
▁Dynamics	-5391
accounting	-5392
chargeable	-5393
":"2024-12-2	-5394
exampleservice	-5395
BD	-5396
OY	-5397
RM	-5398
Sc	-5399
ej	-5400
▁@	-5401
305	-5402
378	-5403
Cont	-5404
book	-5405
ifes	-5406
iors	-5407
▁175	-5408
▁Tur	-5409
.15</	-5410
ertex	-5411
▁Hard	-5412
":"180	-5413
":"211	-5414
":"223	-5415
":"248	-5416
":"254	-5417
":"317	-5418
▁Bukit	-5419
▁Harris	-5420
▁Repair	-5421
ifestyle	-5422
itecture	-5423
products	-5424
transport	-5425
▁Marketing	-5426
":"2024-04-0	-5427
":"2024-05-0	-5428
":"2025-08-0	-5429
▁Distributors	-5430
IG	-5431
KE	-5432
YK	-5433
lc	-5434
221	-5435
222	-5436
252	-5437
284	-5438
392	-5439
507	-5440
579	-5441
590	-5442
915	-5443
Mus	-5444
jko	-5445
▁7,	-5446
ahin	-5447
amal	-5448
hold	-5449
▁136	-5450
▁152	-5451
▁McC	-5452
Swift	-5453
craft	-5454
▁Tool	-5455
":"181	-5456
":"226	-5457
▁PHONE	-5458
apparel	-5459
▁Speaker	-5460
appliances	-5461
munications	-5462
":"2024-01-2	-5463
":"2025-12-1	-5464
":"2026-04-0	-5465
examplebilling	-5466
TH	-5467
,27	-5468
-76	-5469
190	-5470
283	-5471
683	-5472
="0	-5473
CHA	-5474
STA	-5475
TLE	-5476
▁Ho	-5477
gage	-5478
hill	-5479
kett	-5480
▁131	-5481
▁189	-5482
▁App	-5483
▁Row	-5484
Party	-5485
ainer	-5486
▁East	-5487
▁Gran	-5488
":"183	-5489
":"201	-5490
":"231	-5491
erboard	-5492
▁Brands	-5493
platform	-5494
▁CASHIER	-5495
▁Workshop	-5496
":"2025-01-0	-5497
":"2025-02-2	-5498
":"2025-04-0	-5499
":"2025-09-1	-5500
exampledelivery	-5501
BO	-5502
GE	-5503
ao	-5504
,"9	-5505
139	-5506
157	-5507
405	-5508
Can	-5509
Tea	-5510
▁Me	-5511
Ever	-5512
blue	-5513
sman	-5514
▁146	-5515
▁166	-5516
▁172	-5517
▁Maj	-5518
Itern	-5519
aylor	-5520
▁item	-5521
":"208	-5522
":"243	-5523
▁jalan	-5524
▁Morris	-5525
builders	-5526
▁Premium	-5527
":"2025-07-1	-5528
examplepromo	-5529
FI	-5530
HM	-5531
NB	-5532
WJ	-5533
ZF	-5534
-46	-5535
142	-5536
407	-5537
622	-5538
624	-5539
673	-5540
ams	-5541
run	-5542
una	-5543
inen	-5544
ulia	-5545
▁"23	-5546
▁Hay	-5547
Black	-5548
amoto	-5549
berts	-5550
insur	-5551
sonby	-5552
ville	-5553
water	-5554
▁Ayer	-5555
▁Circ	-5556
":"193	-5557
":"216	-5558
":"291	-5559
":"309	-5560
Backup	-5561
ubject	-5562
▁Press	-5563
-6"}],"	-5564
/12/2024	-5565
▁Patrick	-5566
▁Portable	-5567
otherboard	-5568
▁Outfitters	-5569
":"2024-06-0	-5570
":"2024-08-1	-5571
":"2026-01-2	-5572
":"2026-09-1	-5573
Ap	-5574
Ca	-5575
Co	-5576
GR	-5577
NW	-5578
QP	-5579
TR	-5580
hI	-5581
119	-5582
377	-5583
383	-5584
393	-5585
395	-5586
488	-5587
490	-5588
497	-5589
643	-5590
682	-5591
770	-5592
Int	-5593
Sch	-5594
cet	-5595
sea	-5596
wal	-5597
.48"	-5598
adia	-5599
ilip	-5600
▁217	-5601
▁223	-5602
▁279	-5603
▁Dal	-5604
▁MER	-5605
▁Tar	-5606
.05</	-5607
.35</	-5608
.99</	-5609
ETTLE	-5610
style	-5611
▁Bund	-5612
▁Phar	-5613
":"199	-5614
":"203	-5615
":"220	-5616
":"229	-5617
▁James	-5618
▁Telok	-5619
▁final	-5620
▁grand	-5621
▁Bourke	-5622
▁MERCHA	-5623
07"},{"@	-5624
▁Symonds	-5625
ETTLEMENT	-5626
engineers	-5627
insurance	-5628
":"2024-02-2	-5629
":"2024-11-2	-5630
":"2026-12-2	-5631
exampleoffers	-5632
Gr	-5633
VA	-5634
163	-5635
fri	-5636
him	-5637
▁Fo	-5638
Mate	-5639
wine	-5640
▁116	-5641
▁210	-5642
▁235	-5643
▁Arm	-5644
15","	-5645
Quick	-5646
guyen	-5647
▁Kens	-5648
▁Lind	-5649
living	-5650
▁Foods	-5651
▁Visit	-5652
▁Reader	-5653
▁Sports	-5654
▁Vacuum	-5655
junction	-5656
analytics	-5657
▁Backpack	-5658
▁Circular	-5659
":"2025-06-1	-5660
":"2025-10-1	-5661
UP	-5662
195	-5663
373	-5664
374	-5665
375	-5666
385	-5667
442	-5668
589	-5669
62@	-5670
umn	-5671
="12	-5672
nual	-5673
ores	-5674
▁233	-5675
▁298	-5676
▁Rug	-5677
▁you	-5678
Inter	-5679
ettle	-5680
liver	-5681
outer	-5682
▁Merr	-5683
▁Term	-5684
":"196	-5685
Canvas	-5686
Direct	-5687
▁Mount	-5688
leksand	-5689
reserve	-5690
▁Headset	-5691
▁Thomson	-5692
▁Kensington	-5693
":"2026-07-0	-5694
▁Consultation	-5695
ZQ	-5696
▁i	-5697
143	-5698
206	-5699
293	-5700
443	-5701
585	-5702
587	-5703
anis	-5704
oise	-5705
sper	-5706
▁156	-5707
▁Ame	-5708
▁Del	-5709
▁Pic	-5710
Rapid	-5711
bsite	-5712
inton	-5713
":"234	-5714
":"255	-5715
":"279	-5716
":"297	-5717
ardson	-5718
▁Baggot	-5719
▁Carter	-5720
▁Living	-5721
boutique	-5722
▁Ponsonby	-5723
▁Warehouse	-5724
":"2024-02-1	-5725
":"2024-03-2	-5726
":"2024-04-1	-5727
":"2024-09-2	-5728
":"2025-02-1	-5729
":"2025-11-1	-5730
technologies	-5731
manufacturing	-5732
UG	-5733
ZB	-5734
ZL	-5735
oe	-5736
36@	-5737
403	-5738
509	-5739
602	-5740
72@	-5741
Rob	-5742
Sun	-5743
aye	-5744
ikh	-5745
▁Ve	-5746
Mini	-5747
anja	-5748
dale	-5749
dess	-5750
merc	-5751
tens	-5752
▁"25	-5753
▁11,	-5754
▁190	-5755
▁230	-5756
▁25,	-5757
▁Far	-5758
▁Mix	-5759
.65</	-5760
photo	-5761
remed	-5762
ronic	-5763
▁Gard	-5764
":"189	-5765
":"207	-5766
":"256	-5767
Window	-5768
stable	-5769
▁handled	-5770
streaming	-5771
▁Terminal	-5772
":"2024-08-0	-5773
":"2025-09-0	-5774
":"2026-02-2	-5775
":"2026-05-2	-5776
":"2026-10-0	-5777
examplewarehouse	-5778
TE	-5779
ZA	-5780
ZS	-5781
188	-5782
598	-5783
912	-5784
="5	-5785
Bar	-5786
lav	-5787
lus	-5788
Book	-5789
West	-5790
ixon	-5791
uent	-5792
▁10,	-5793
▁247	-5794
▁288	-5795
▁36,	-5796
▁pos	-5797
.13</	-5798
World	-5799
▁Corn	-5800
▁Plug	-5801
▁Plun	-5802
":"212	-5803
Launch	-5804
Resort	-5805
▁Staff	-5806
Digital	-5807
Running	-5808
itchell	-5809
/01/2024	-5810
/04/2026	-5811
aexample	-5812
wireless	-5813
▁Pharmacy	-5814
▁Plunkett	-5815
▁Controller	-5816
":"2024-07-2	-5817
":"2025-01-1	-5818
":"2025-05-0	-5819
▁Transaction	-5820
GA	-5821
JK	-5822
XG	-5823
/18	-5824
445	-5825
578	-5826
652	-5827
692	-5828
Bas	-5829
Luc	-5830
dou	-5831
iji	-5832
emon	-5833
park	-5834
▁183	-5835
▁209	-5836
▁224	-5837
▁297	-5838
▁Bel	-5839
▁Mop	-5840
▁Tam	-5841
Green	-5842
Prime	-5843
ified	-5844
▁MAIL	-5845
":"206	-5846
":"236	-5847
Ground	-5848
Server	-5849
cessor	-5850
▁Brown	-5851
▁Patio	-5852
▁SERVED	-5853
▁client	-5854
/08/2026	-5855
remedies	-5856
":"2025-01-2	-5857
":"2026-10-2	-5858
HP	-5859
QW	-5860
UI	-5861
UK	-5862
Up	-5863
,"4	-5864
.20	-5865
.8"	-5866
110	-5867
185	-5868
nic	-5869
Stud	-5870
arek	-5871
mire	-5872
omas	-5873
▁254	-5874
14","	-5875
Urban	-5876
iddle	-5877
iktor	-5878
oupon	-5879
":"232	-5880
":"268	-5881
":"299	-5882
Webcam	-5883
tension	-5884
▁Switch	-5885
/02/2026	-5886
▁Comfort	-5887
▁Voucher	-5888
▁DISCOUNT	-5889
▁SHIPPING	-5890
essentials	-5891
":"2024-10-2	-5892
2@	-5893
NF	-5894
103	-5895
112	-5896
115	-5897
173	-5898
273	-5899
382	-5900
389	-5901
Ant	-5902
CED	-5903
Den	-5904
nez	-5905
olf	-5906
rid	-5907
ruz	-5908
uxe	-5909
Sand	-5910
TAFF	-5911
▁229	-5912
▁258	-5913
.45</	-5914
.69</	-5915
Grand	-5916
LACED	-5917
light	-5918
▁Fast	-5919
▁Tele	-5920
":"242	-5921
":"288	-5922
cycles	-5923
optics	-5924
▁Dawson	-5925
▁Family	-5926
/06/2024	-5927
/09/2024	-5928
78"},{"@	-5929
Seasonal	-5930
desserts	-5931
▁services	-5932
humidifier	-5933
":"2024-11-1	-5934
":"2026-04-2	-5935
":"2026-08-1	-5936
VW	-5937
XB	-5938
XD	-5939
.6"	-5940
009	-5941
125	-5942
274	-5943
332	-5944
354	-5945
505	-5946
Fer	-5947
ils	-5948
sun	-5949
▁8,	-5950
▁AT	-5951
▁Ir	-5952
mark	-5953
▁201	-5954
▁204	-5955
▁216	-5956
▁239	-5957
.29</	-5958
Under	-5959
Video	-5960
reads	-5961
tylus	-5962
▁Cool	-5963
▁Roll	-5964
":"307	-5965
ederal	-5966
itamin	-5967
presso	-5968
▁Guard	-5969
Connell	-5970
jewelry	-5971
showroom	-5972
":"2024-06-1	-5973
":"2025-12-2	-5974
":"2026-11-0	-5975
":"2026-12-0	-5976
JD	-5977
UF	-5978
/24	-5979
33@	-5980
444	-5981
453	-5982
474	-5983
ssi	-5984
Long	-5985
apur	-5986
atta	-5987
ayla	-5988
ecor	-5989
lair	-5990
▁219	-5991
▁253	-5992
▁299	-5993
▁Pak	-5994
.37</	-5995
Fleet	-5996
obson	-5997
▁Dess	-5998
▁Glan	-5999
":"257	-6000
clinic	-6001
fitness	-6002
▁Kettle	-6003
▁Oliver	-6004
▁Willis	-6005
/03/2024	-6006
/04/2024	-6007
.00"},{"@	-6008
examplehelp	-6009
":"2024-05-2	-6010
":"2026-02-1	-6011
":"2026-06-1	-6012
":"2026-11-2	-6013
;:	-6014
IR	-6015
QM	-6016
UJ	-6017
WS	-6018
XF	-6019
XK	-6020
077	-6021
270	-6022
342	-6023
472	-6024
▁9,	-6025
.","	-6026
.36"	-6027
Ring	-6028
Room	-6029
fina	-6030
olph	-6031
▁Fri	-6032
▁Pit	-6033
.27</	-6034
.77</	-6035
12","	-6036
EFORE	-6037
Noise	-6038
adder	-6039
amila	-6040
":"222	-6041
arcode	-6042
drinks	-6043
silver	-6044
▁Juice	-6045
▁STAFF	-6046
-08"}],"	-6047
trucking	-6048
workshop	-6049
▁Lambton	-6050
▁Univers	-6051
▁Materials	-6052
":"2024-11-0	-6053
":"2026-01-0	-6054
":"2026-05-1	-6055
":"2026-11-1	-6056
VK	-6057
lu	-6058
002	-6059
184	-6060
189	-6061
236	-6062
494	-6063
694	-6064
Col	-6065
Sak	-6066
tex	-6067
▁Dr	-6068
▁We	-6069
▁Wh	-6070
.92"	-6071
East	-6072
amaz	-6073
anti	-6074
glas	-6075
▁171	-6076
▁182	-6077
▁232	-6078
▁27,	-6079
▁32,	-6080
▁Sur	-6081
.89</	-6082
.93</	-6083
Water	-6084
angah	-6085
anley	-6086
ennis	-6087
▁Pear	-6088
▁Rath	-6089
":"270	-6090
2"}],"	-6091
4"}],"	-6092
65"},"	-6093
▁Photo	-6094
▁value	-6095
Monthly	-6096
devices	-6097
▁Served	-6098
/01/2026	-6099
Standing	-6100
▁Karangah	-6101
":"2024-10-1	-6102
":"2026-06-2	-6103
JB	-6104
KS	-6105
NY	-6106
ZC	-6107
yn	-6108
ys	-6109
088	-6110
154	-6111
253	-6112
452	-6113
480	-6114
90@	-6115
Day	-6116
▁Ke	-6117
.76"	-6118
.84"	-6119
Tool	-6120
corn	-6121
elly	-6122
emai	-6123
gher	-6124
▁126	-6125
▁203	-6126
▁226	-6127
▁237	-6128
▁268	-6129
▁30,	-6130
▁309	-6131
▁Ash	-6132
▁DVD	-6133
▁Fry	-6134
.41</	-6135
Throw	-6136
cords	-6137
inery	-6138
inner	-6139
nacle	-6140
▁Wall	-6141
▁sold	-6142
events	-6143
reader	-6144
source	-6145
usable	-6146
▁Boots	-6147
▁Liver	-6148
▁thank	-6149
-8"}],"	-6150
▁Ladder	-6151
▁School	-6152
/07/2026	-6153
▁Studios	-6154
▁Glanmire	-6155
▁payrnent	-6156
developers	-6157
warehousing	-6158
":"2024-02-0	-6159
":"2024-04-2	-6160
":"2025-02-0	-6161
":"2025-03-1	-6162
":"2025-03-2	-6163
":"2025-09-2	-6164
EP	-6165
HH	-6166
VM	-6167
ZO	-6168
uw	-6169
)</	-6170
-26	-6171
-36	-6172
14@	-6173
275	-6174
495	-6175
Mix	-6176
Tur	-6177
amu	-6178
tur	-6179
-978	-6180
.22"	-6181
="11	-6182
atar	-6183
ield	-6184
osta	-6185
▁Inc	-6186
▁VIA	-6187
.21</	-6188
.47</	-6189
clear	-6190
▁Dine	-6191
":"192	-6192
":"278	-6193
ernail	-6194
irtual	-6195
-7"}],"	-6196
Holiday	-6197
gallery	-6198
▁change	-6199
/10/2026	-6200
70"},{"@	-6201
Cookware	-6202
▁Rentals	-6203
▁Curbside	-6204
▁Purchase	-6205
▁Liverpool	-6206
":"2024-07-0	-6207
":"2025-10-0	-6208
▁TRANSACTION	-6209
:;	-6210
BA	-6211
CB	-6212
Hy	-6213
JG	-6214
LZ	-6215
NP	-6216
QY	-6217
WI	-6218
XM	-6219
mb	-6220
▁.	-6221
123	-6222
259	-6223
455	-6224
483	-6225
555	-6226
573	-6227
988	-6228
Mal	-6229
Tag	-6230
oks	-6231
▁+9	-6232
.64"	-6233
Rail	-6234
olar	-6235
rink	-6236
▁213	-6237
▁Ven	-6238
.49</	-6239
.61</	-6240
.79</	-6241
16","	-6242
Press	-6243
nchor	-6244
":"287	-6245
illips	-6246
utting	-6247
▁Fryer	-6248
attress	-6249
innacle	-6250
mercial	-6251
▁Agency	-6252
▁Camden	-6253
▁Hoodie	-6254
▁Towels	-6255
/12/2026	-6256
Security	-6257
▁Bracket	-6258
▁Laundry	-6259
financial	-6260
▁Products	-6261
hospitality	-6262
▁Expressway	-6263
":"2024-06-2	-6264
4@	-6265
Mc	-6266
VQ	-6267
WP	-6268
.4"	-6269
/27	-6270
003	-6271
201	-6272
390	-6273
44@	-6274
593	-6275
980	-6276
Ice	-6277
ben	-6278
ras	-6279
,","	-6280
.12"	-6281
Flex	-6282
Hair	-6283
Team	-6284
onut	-6285
rose	-6286
▁169	-6287
▁19,	-6288
▁207	-6289
▁24,	-6290
▁318	-6291
▁Bea	-6292
▁Gal	-6293
▁Kam	-6294
paint	-6295
":"246	-6296
":"263	-6297
":"273	-6298
":"300	-6299
":"318	-6300
vertex	-6301
▁Henry	-6302
ocolate	-6303
-07"}],"	-6304
80"},{"@	-6305
":"2025-05-2	-6306
":"2025-07-2	-6307
Rechargeable	-6308
▁Karangahape	-6309
DY	-6310
EK	-6311
So	-6312
TT	-6313
VS	-6314
XY	-6315
20@	-6316
336	-6317
484	-6318
504	-6319
64@	-6320
71@	-6321
chi	-6322
get	-6323
mor	-6324
Seat	-6325
Tech	-6326
izab	-6327
oner	-6328
pose	-6329
▁"24	-6330
.73</	-6331
.85</	-6332
Front	-6333
arcia	-6334
plies	-6335
":"286	-6336
Change	-6337
▁Joint	-6338
▁Nagar	-6339
▁clerk	-6340
Outdoor	-6341
Parking	-6342
elangor	-6343
neakers	-6344
/11/2024	-6345
▁INVOICE	-6346
▁Networks	-6347
▁University	-6348
":"2025-11-0	-6349
GF	-6350
JI	-6351
Je	-6352
UQ	-6353
ZI	-6354
/25	-6355
004	-6356
150	-6357
282	-6358
34@	-6359
37@	-6360
41@	-6361
778	-6362
888	-6363
Jet	-6364
ada	-6365
ush	-6366
▁Mt	-6367
.24"	-6368
.96"	-6369
LINE	-6370
Mari	-6371
angu	-6372
lant	-6373
▁15,	-6374
▁21,	-6375
▁263	-6376
▁AMT	-6377
.11</	-6378
.39</	-6379
.63</	-6380
Round	-6381
▁Brun	-6382
▁Tier	-6383
▁Flash	-6384
▁Label	-6385
▁Sheet	-6386
▁Trade	-6387
-0"}],"	-6388
-9"}],"	-6389
atarina	-6390
▁Player	-6391
/10/2024	-6392
▁Apparel	-6393
▁Research	-6394
▁Cambridge	-6395
▁Accounting	-6396
GM	-6397
JF	-6398
jö	-6399
102	-6400
39@	-6401
401	-6402
599	-6403
91@	-6404
="8	-6405
bru	-6406
cre	-6407
law	-6408
oga	-6409
ste	-6410
uli	-6411
▁WE	-6412
▁rm	-6413
.56"	-6414
gion	-6415
king	-6416
yday	-6417
▁18,	-6418
▁185	-6419
▁200	-6420
▁278	-6421
▁312	-6422
▁39,	-6423
▁Hat	-6424
.97</	-6425
Hotel	-6426
▁Eden	-6427
▁Graf	-6428
":"265	-6429
":"285	-6430
eatery	-6431
rowave	-6432
solute	-6433
▁Decor	-6434
theater	-6435
▁Westem	-6436
▁Cabinet	-6437
▁Grafton	-6438
electrics	-6439
▁Desserts	-6440
▁Doorbell	-6441
▁PURCHASE	-6442
architects	-6443
▁Engineers	-6444
electronics	-6445
▁Technology	-6446
":"2024-09-0	-6447
":"2026-12-1	-6448
OF	-6449
RY	-6450
VB	-6451
XS	-6452
,"3	-6453
454	-6454
86@	-6455
pha	-6456
sci	-6457
sim	-6458
ław	-6459
▁as	-6460
come	-6461
gier	-6462
host	-6463
ohan	-6464
▁180	-6465
▁241	-6466
▁243	-6467
▁265	-6468
▁Aun	-6469
▁PRE	-6470
.03</	-6471
Cross	-6472
SALES	-6473
anaki	-6474
antas	-6475
epend	-6476
icial	-6477
▁Rand	-6478
":"280	-6479
Global	-6480
Sports	-6481
hammed	-6482
▁Bowen	-6483
Shipper	-6484
▁BEFORE	-6485
▁Queens	-6486
/03/2025	-6487
/05/2025	-6488
90"},{"@	-6489
▁Aungier	-6490
Northstar	-6491
▁Strategy	-6492
▁Taranaki	-6493
strategies	-6494
$6	-6495
KY	-6496
PB	-6497
▁o	-6498
-51	-6499
/16	-6500
/22	-6501
/23	-6502
104	-6503
493	-6504
503	-6505
595	-6506
98@	-6507
>38	-6508
ACC	-6509
Sky	-6510
ize	-6511
oro	-6512
▁SH	-6513
▁ro	-6514
.08"	-6515
.16"	-6516
Cour	-6517
ikko	-6518
inar	-6519
leod	-6520
▁308	-6521
▁313	-6522
▁Met	-6523
▁Tie	-6524
":"02	-6525
.09</	-6526
17","	-6527
Snack	-6528
ector	-6529
▁CODE	-6530
▁Zone	-6531
▁oper	-6532
":"312	-6533
":"336	-6534
25"},"	-6535
Router	-6536
cklace	-6537
riguez	-6538
▁Track	-6539
Blanket	-6540
Camping	-6541
medical	-6542
surplus	-6543
▁Murphy	-6544
/04/2025	-6545
wellness	-6546
▁Showroom	-6547
▁operator	-6548
Motherboard	-6549
1@	-6550
CF	-6551
IF	-6552
JM	-6553
PD	-6554
QB	-6555
QH	-6556
XH	-6557
po	-6558
.50	-6559
13@	-6560
155	-6561
326	-6562
475	-6563
61@	-6564
87@	-6565
maz	-6566
usu	-6567
uto	-6568
.32"	-6569
Hiro	-6570
Main	-6571
RDER	-6572
ahra	-6573
asta	-6574
lake	-6575
text	-6576
vans	-6577
▁208	-6578
▁22,	-6579
▁220	-6580
▁26,	-6581
▁267	-6582
▁307	-6583
▁317	-6584
▁Ben	-6585
▁Mal	-6586
Speed	-6587
owski	-6588
shore	-6589
":"200	-6590
":"221	-6591
":"251	-6592
":"274	-6593
ilment	-6594
▁Outer	-6595
▁charg	-6596
▁Bucket	-6597
▁Strcet	-6598
▁Stylus	-6599
/02/2025	-6600
/11/2026	-6601
ependent	-6602
materials	-6603
Continental	-6604
":"2026-06-0	-6605
JR	-6606
To	-6607
WR	-6608
cs	-6609
kh	-6610
zm	-6611
-96	-6612
40@	-6613
492	-6614
60-	-6615
68@	-6616
887	-6617
Mag	-6618
enu	-6619
lah	-6620
mah	-6621
san	-6622
.04"	-6623
.88"	-6624
;00"	-6625
amed	-6626
hani	-6627
udit	-6628
▁212	-6629
▁234	-6630
▁269	-6631
▁270	-6632
▁34,	-6633
▁doc	-6634
.71</	-6635
Abdel	-6636
aniel	-6637
ummer	-6638
▁Oven	-6639
":"315	-6640
arning	-6641
lounge	-6642
▁goods	-6643
Upgrade	-6644
/07/2025	-6645
skincare	-6646
▁College	-6647
▁Merrion	-6648
furniture	-6649
▁Industries	-6650
":"2024-07-1	-6651
":"2025-11-2	-6652
▁Investments	-6653
7@	-6654
GC	-6655
GW	-6656
HB	-6657
MM	-6658
UA	-6659
VF	-6660
XW	-6661
ti	-6662
-81	-6663
.3"	-6664
/14	-6665
/17	-6666
321	-6667
473	-6668
479	-6669
54@	-6670
78@	-6671
89@	-6672
err	-6673
iao	-6674
▁Af	-6675
▁MG	-6676
▁Ti	-6677
.46"	-6678
atin	-6679
▁173	-6680
▁192	-6681
▁195	-6682
▁228	-6683
▁277	-6684
▁291	-6685
▁Pad	-6686
emory	-6687
loset	-6688
ssion	-6689
▁till	-6690
":"214	-6691
":"261	-6692
":"284	-6693
":"295	-6694
":"305	-6695
":"344	-6696
61"},"	-6697
lantic	-6698
▁Creek	-6699
/05/2024	-6700
Regional	-6701
akefield	-6702
district	-6703
sciences	-6704
":"2018-0	-6705
Bluetooth	-6706
▁Projector	-6707
":"2024-08-2	-6708
▁consignment	-6709
9@	-6710
>6	-6711
VN	-6712
XI	-6713
.1"	-6714
.7"	-6715
/19	-6716
/28	-6717
144	-6718
26@	-6719
272	-6720
30@	-6721
32@	-6722
38@	-6723
402	-6724
81@	-6725
eet	-6726
far	-6727
nzo	-6728
oss	-6729
-778	-6730
.28"	-6731
.44"	-6732
ever	-6733
ible	-6734
nard	-6735
ract	-6736
tore	-6737
vacy	-6738
▁14,	-6739
▁310	-6740
▁38,	-6741
▁389	-6742
▁40,	-6743
▁Nap	-6744
.43</	-6745
.57</	-6746
.75</	-6747
ewart	-6748
undas	-6749
white	-6750
▁Cruz	-6751
":"343	-6752
62"},"	-6753
64"},"	-6754
Access	-6755
Lounge	-6756
orning	-6757
▁count	-6758
Battery	-6759
Dimitri	-6760
▁Device	-6761
▁Dundas	-6762
▁Little	-6763
▁Mosley	-6764
/09/2026	-6765
▁Foundry	-6766
▁Congress	-6767
":"6"},{"@	-6768
▁Custorner	-6769
Productivity	-6770
▁Development	-6771
>0	-6772
HQ	-6773
JE	-6774
SA	-6775
SP	-6776
UO	-6777
172	-6778
182	-6779
254	-6780
485	-6781
686	-6782
73@	-6783
77@	-6784
83@	-6785
979	-6786
997	-6787
>37	-6788
VIP	-6789
uma	-6790
ung	-6791
.14"	-6792
.72"	-6793
Peak	-6794
main	-6795
oute	-6796
▁252	-6797
▁256	-6798
▁Amt	-6799
▁Kaw	-6800
▁Luc	-6801
▁Mot	-6802
.23</	-6803
.53</	-6804
.59</	-6805
Arrow	-6806
lotte	-6807
▁Blue	-6808
▁Sale	-6809
":"186	-6810
":"205	-6811
":"310	-6812
":"314	-6813
63"},"	-6814
:00","	-6815
Tender	-6816
motors	-6817
opular	-6818
▁Curta	-6819
▁Hills	-6820
Uniform	-6821
izabeth	-6822
venture	-6823
insights	-6824
printing	-6825
strategy	-6826
▁Jackson	-6827
▁balance	-6828
▁charged	-6829
▁Granville	-6830
▁processed	-6831
maintenance	-6832
▁Investment	-6833
Ie	-6834
Il	-6835
MR	-6836
QQ	-6837
UC	-6838
vr	-6839
111	-6840
499	-6841
80@	-6842
999	-6843
Tim	-6844
ady	-6845
ija	-6846
mid	-6847
oru	-6848
pre	-6849
.68"	-6850
gold	-6851
robe	-6852
▁194	-6853
▁257	-6854
▁301	-6855
▁335	-6856
▁37,	-6857
▁Ram	-6858
.07</	-6859
.95</	-6860
Elect	-6861
Glass	-6862
Shelf	-6863
books	-6864
patio	-6865
▁2017	-6866
▁Lens	-6867
▁Real	-6868
":"302	-6869
Marcel	-6870
Screen	-6871
Summit	-6872
hammad	-6873
ohamed	-6874
▁Remed	-6875
Classic	-6876
oundbar	-6877
▁Cooler	-6878
▁Design	-6879
▁Drinks	-6880
/07/2024	-6881
creative	-6882
▁Theater	-6883
-31"},{"@	-6884
▁Curtains	-6885
▁Elizabeth	-6886
▁Restaurant	-6887
6@	-6888
FD	-6889
FR	-6890
HY	-6891
JY	-6892
Lu	-6893
WQ	-6894
XA	-6895
/13	-6896
15@	-6897
174	-6898
1="	-6899
24@	-6900
502	-6901
552	-6902
574	-6903
74@	-6904
Mic	-6905
bey	-6906
ige	-6907
par	-6908
ser	-6909
.52"	-6910
anks	-6911
elix	-6912
sand	-6913
▁186	-6914
▁287	-6915
▁300	-6916
▁324	-6917
▁378	-6918
▁All	-6919
▁Law	-6920
▁qty	-6921
.17</	-6922
.87</	-6923
decor	-6924
orton	-6925
▁Bags	-6926
▁Soap	-6927
":"283	-6928
":"298	-6929
":"303	-6930
":"316	-6931
Orange	-6932
holiday	-6933
telecom	-6934
thernet	-6935
▁Hamper	-6936
/02/2024	-6937
/06/2026	-6938
▁Douglas	-6939
▁FULFILL	-6940
▁Privacy	-6941
▁counter	-6942
-49"},{"@	-6943
packaging	-6944
resources	-6945
":"8"},{"@	-6946
operations	-6947
▁Developers	-6948
":"2025-08-2	-6949
HA	-6950
HK	-6951
IE	-6952
IV	-6953
IY	-6954
SM	-6955
WO	-6956
XE	-6957
XZ	-6958
,23	-6959
.9"	-6960
31@	-6961
583	-6962
592	-6963
Bal	-6964
FER	-6965
hes	-6966
oll	-6967
zab	-6968
▁$2	-6969
.78"	-6970
Area	-6971
eway	-6972
ocus	-6973
oume	-6974
▁"19	-6975
▁17,	-6976
▁196	-6977
▁285	-6978
▁29,	-6979
▁35,	-6980
.19</	-6981
.67</	-6982
Early	-6983
Prote	-6984
White	-6985
amuel	-6986
diner	-6987
orres	-6988
riniv	-6989
▁Mile	-6990
▁Team	-6991
▁sent	-6992
":"269	-6993
":"272	-6994
":"311	-6995
20"},"	-6996
Secure	-6997
atinum	-6998
hesive	-6999
issant	-7000
▁Organ	-7001
▁Health	-7002
-30"}],"	-7003
/09/2025	-7004
/12/2025	-7005
atteries	-7006
payrnent	-7007
textiles	-7008
▁Madison	-7009
-10"},{"@	-7010
▁Clothing	-7011
▁Container	-7012
▁Hospitality	-7013
CN	-7014
FN	-7015
XO	-7016
jc	-7017
.5"	-7018
45@	-7019
989	-7020
BBQ	-7021
Bel	-7022
Mop	-7023
Wal	-7024
gor	-7025
obs	-7026
oda	-7027
="07	-7028
City	-7029
adis	-7030
adow	-7031
edom	-7032
mode	-7033
▁214	-7034
▁236	-7035
▁Mir	-7036
▁Sun	-7037
.51</	-7038
.55</	-7039
.83</	-7040
Aneta	-7041
aving	-7042
ullen	-7043
":"267	-7044
":"308	-7045
":"319	-7046
":"335	-7047
29"},"	-7048
68"},"	-7049
Annual	-7050
Vertex	-7051
trends	-7052
▁Paint	-7053
Folding	-7054
Pioneer	-7055
limited	-7056
▁Before	-7057
▁Regent	-7058
/01/2025	-7059
/03/2026	-7060
Espresso	-7061
Pressure	-7062
research	-7063
▁Kildare	-7064
Processor	-7065
▁Junction	-7066
▁Takeaway	-7067
▁Tendered	-7068
distribution	-7069
DB	-7070
GY	-7071
JS	-7072
UU	-7073
lt	-7074
/15	-7075
090	-7076
113	-7077
17@	-7078
25@	-7079
306	-7080
334	-7081
42@	-7082
51@	-7083
775	-7084
93@	-7085
96@	-7086
pta	-7087
▁"6	-7088
▁Av	-7089
.86"	-7090
hieu	-7091
ownt	-7092
▁"28	-7093
▁174	-7094
▁280	-7095
▁Hop	-7096
.31</	-7097
atery	-7098
hanna	-7099
▁Comp	-7100
":"324	-7101
Repair	-7102
ictory	-7103
iffith	-7104
▁Frame	-7105
▁Wipes	-7106
owntown	-7107
▁Fashion	-7108
▁Shipped	-7109
-34"},{"@	-7110
-64"},{"@	-7111
":"1"},{"@	-7112
▁Architects	-7113
▁Strategies	-7114
AW	-7115
Az	-7116
FY	-7117
Im	-7118
59@	-7119
66@	-7120
67@	-7121
790	-7122
85@	-7123
94@	-7124
>24	-7125
cha	-7126
hor	-7127
▁de	-7128
.74"	-7129
ANCE	-7130
Gold	-7131
▁"01	-7132
▁176	-7133
▁255	-7134
▁295	-7135
▁31,	-7136
▁315	-7137
▁372	-7138
▁498	-7139
▁Flo	-7140
Space	-7141
ivery	-7142
muter	-7143
prise	-7144
▁Pope	-7145
▁city	-7146
▁copy	-7147
":"245	-7148
":"290	-7149
67"},"	-7150
Harbor	-7151
▁Therm	-7152
brewing	-7153
getable	-7154
restige	-7155
.04.2025	-7156
/08/2024	-7157
/11/2025	-7158
Reusable	-7159
concepts	-7160
▁Machine	-7161
-93"},{"@	-7162
Northwest	-7163
▁Catering	-7164
":"2"},{"@	-7165
innovations	-7166
▁Merchandise	-7167
▁Technologies	-7168
GK	-7169
IT	-7170
JW	-7171
KT	-7172
PS	-7173
VO	-7174
XV	-7175
ZZ	-7176
087	-7177
105	-7178
11@	-7179
301	-7180
446	-7181
572	-7182
65@	-7183
76@	-7184
avo	-7185
gst	-7186
ife	-7187
iga	-7188
uro	-7189
.58"	-7190
▁193	-7191
▁227	-7192
▁261	-7193
▁28,	-7194
▁282	-7195
▁Gar	-7196
Toner	-7197
andro	-7198
oseph	-7199
ostat	-7200
under	-7201
▁Coat	-7202
▁Node	-7203
":"262	-7204
":"275	-7205
":"413	-7206
":"417	-7207
44"},"	-7208
60"},"	-7209
bistro	-7210
veland	-7211
▁Hooks	-7212
Virtual	-7213
▁Eatery	-7214
/10/2025	-7215
advisors	-7216
footwear	-7217
nglasses	-7218
-38"},{"@	-7219
-46"},{"@	-7220
-89"},{"@	-7221
-95"},{"@	-7222
▁DISPATCH	-7223
▁District	-7224
▁Remedies	-7225
":"3"},{"@	-7226
▁Worldwide	-7227
▁Appliances	-7228
5@	-7229
BE	-7230
FQ	-7231
GO	-7232
22@	-7233
356	-7234
35@	-7235
482	-7236
671	-7237
Box	-7238
eem	-7239
iaz	-7240
los	-7241
pla	-7242
wan	-7243
▁Ak	-7244
.18"	-7245
Mesh	-7246
RAND	-7247
▁13,	-7248
▁USB	-7249
▁per	-7250
Aless	-7251
cargo	-7252
endly	-7253
esert	-7254
▁City	-7255
▁Mary	-7256
▁Rock	-7257
":"277	-7258
":"301	-7259
":"313	-7260
":"328	-7261
":"400	-7262
":"407	-7263
ALANCE	-7264
AirTag	-7265
Golden	-7266
Silver	-7267
adilly	-7268
dining	-7269
▁Check	-7270
▁Young	-7271
Drawing	-7272
cadilly	-7273
petcare	-7274
▁Marine	-7275
industri	-7276
roasters	-7277
▁Reserve	-7278
utilities	-7279
▁Kamataka	-7280
▁Richmond	-7281
":"5"},{"@	-7282
":"2026-09-2	-7283
refreshments	-7284
▁Electronics	-7285
DS	-7286
FK	-7287
FP	-7288
Hu	-7289
NK	-7290
NN	-7291
WM	-7292
,03	-7293
080	-7294
120	-7295
159	-7296
29@	-7297
346	-7298
57@	-7299
58@	-7300
646	-7301
70@	-7302
75@	-7303
84@	-7304
95@	-7305
PER	-7306
ahn	-7307
may	-7308
yes	-7309
▁al	-7310
Deep	-7311
Fati	-7312
Game	-7313
Vlad	-7314
ahan	-7315
asim	-7316
eria	-7317
hole	-7318
indo	-7319
nife	-7320
pher	-7321
thew	-7322
▁16,	-7323
▁181	-7324
▁260	-7325
▁393	-7326
▁409	-7327
▁Net	-7328
▁War	-7329
again	-7330
▁Caus	-7331
▁Fare	-7332
":"306	-7333
onsive	-7334
ternal	-7335
utlery	-7336
▁Hotel	-7337
▁Salad	-7338
▁Salon	-7339
▁Style	-7340
/08/2025	-7341
playPort	-7342
roissant	-7343
▁Monahan	-7344
-48"},{"@	-7345
-83"},{"@	-7346
▁Gardiner	-7347
▁Skincare	-7348
automotive	-7349
▁Batteries	-7350
Compression	-7351
▁Corporation	-7352
▁Productivity	-7353
GU	-7354
HR	-7355
Ka	-7356
MK	-7357
MS	-7358
SC	-7359
gn	-7360
/26	-7361
21@	-7362
27@	-7363
53@	-7364
575	-7365
60@	-7366
626	-7367
64-	-7368
779	-7369
916	-7370
974	-7371
Add	-7372
SCC	-7373
Sur	-7374
mam	-7375
▁Sv	-7376
.26"	-7377
INAL	-7378
Paid	-7379
coln	-7380
ewis	-7381
hsan	-7382
iger	-7383
iley	-7384
peak	-7385
pper	-7386
sion	-7387
▁20,	-7388
▁272	-7389
▁286	-7390
▁314	-7391
▁438	-7392
▁461	-7393
▁Mus	-7394
Excel	-7395
First	-7396
atoes	-7397
court	-7398
ierra	-7399
terns	-7400
":"260	-7401
":"282	-7402
":"378	-7403
91"},"	-7404
Refill	-7405
iterns	-7406
pantry	-7407
urnber	-7408
▁Drink	-7409
CREATED	-7410
Private	-7411
burgers	-7412
mission	-7413
▁Custom	-7414
▁Flores	-7415
Computer	-7416
Electric	-7417
supplies	-7418
▁Fitness	-7419
▁SHIPPED	-7420
-76"},{"@	-7421
-84"},{"@	-7422
▁Harcourt	-7423
▁MERCHANT	-7424
▁Packaging	-7425
Dehumidifier	-7426
BK	-7427
FV	-7428
GQ	-7429
JC	-7430
JX	-7431
PN	-7432
PU	-7433
PY	-7434
aO	-7435
192	-7436
28@	-7437
656	-7438
789	-7439
Bra	-7440
Key	-7441
awb	-7442
dan	-7443
enz	-7444
ggi	-7445
ojc	-7446
▁Cy	-7447
▁Na	-7448
-788	-7449
.02"	-7450
.62"	-7451
.82"	-7452
Mail	-7453
Rice	-7454
Swim	-7455
inoa	-7456
orgi	-7457
ruit	-7458
well	-7459
yber	-7460
▁"03	-7461
▁23,	-7462
▁274	-7463
▁355	-7464
▁Emp	-7465
▁Gil	-7466
▁bhd	-7467
▁ref	-7468
Filip	-7469
Great	-7470
Track	-7471
akumi	-7472
grity	-7473
ittal	-7474
metro	-7475
shawe	-7476
▁Melb	-7477
▁Wash	-7478
▁Wind	-7479
":"264	-7480
":"346	-7481
":"352	-7482
":"364	-7483
27"},"	-7484
Pillow	-7485
icture	-7486
iginal	-7487
lender	-7488
▁Dixon	-7489
▁Evans	-7490
Horizon	-7491
▁Dining	-7492
▁Spring	-7493
▁Trends	-7494
/06/2025	-7495
▁Devices	-7496
-37"},{"@	-7497
-65"},{"@	-7498
Microwave	-7499
▁Causeway	-7500
▁Concepts	-7501
▁Melboume	-7502
▁Pictures	-7503
▁Merchants	-7504
development	-7505
specialists	-7506
▁Fitzwilliam	-7507
professionals	-7508
8@	-7509
AA	-7510
EO	-7511
EY	-7512
QR	-7513
SW	-7514
VH	-7515
,"2	-7516
097	-7517
296	-7518
441	-7519
69-	-7520
92@	-7521
970	-7522
Ole	-7523
dal	-7524
doc	-7525
nas	-7526
▁Ow	-7527
.38"	-7528
.98"	-7529
Meet	-7530
Soft	-7531
atal	-7532
nier	-7533
wame	-7534
▁"22	-7535
▁463	-7536
▁Sci	-7537
▁car	-7538
Eagle	-7539
Email	-7540
allad	-7541
plaza	-7542
ridge	-7543
▁Cuba	-7544
▁Ridd	-7545
▁Soup	-7546
":"289	-7547
":"408	-7548
Drawer	-7549
Viktor	-7550
▁Clerk	-7551
▁Moles	-7552
Carrier	-7553
/05/2026	-7554
-42"},{"@	-7555
-54"},{"@	-7556
concierge	-7557
publishing	-7558
furnishings	-7559
informatics	-7560
▁Operations	-7561
▁Thermostat	-7562
FS	-7563
PK	-7564
SY	-7565
aS	-7566
,"+	-7567
098	-7568
132	-7569
176	-7570
406	-7571
48@	-7572
79@	-7573
88@	-7574
="$	-7575
AND	-7576
ECC	-7577
MCC	-7578
Med	-7579
.66"	-7580
Fire	-7581
Pack	-7582
irus	-7583
mpic	-7584
ugen	-7585
▁"20	-7586
▁206	-7587
▁221	-7588
▁231	-7589
▁264	-7590
▁289	-7591
▁328	-7592
▁339	-7593
▁353	-7594
.91</	-7595
▁Cube	-7596
▁Nass	-7597
▁Text	-7598
":"276	-7599
":"304	-7600
":"338	-7601
200","	-7602
69"},"	-7603
adiant	-7604
harbor	-7605
infect	-7606
▁Canal	-7607
▁Maker	-7608
▁Rathm	-7609
▁Venue	-7610
▁promo	-7611
Doormat	-7612
cursion	-7613
growers	-7614
pection	-7615
▁Leeson	-7616
organics	-7617
▁Company	-7618
▁Lincoln	-7619
▁Medical	-7620
▁Stephen	-7621
-36"},{"@	-7622
-73"},{"@	-7623
-85"},{"@	-7624
merchants	-7625
nutrition	-7626
settlement	-7627
▁Electrics	-7628
▁Nutrition	-7629
▁Commercial	-7630
JU	-7631
QC	-7632
TC	-7633
TX	-7634
WN	-7635
/21	-7636
106	-7637
351	-7638
386	-7639
49@	-7640
50@	-7641
542	-7642
56@	-7643
774	-7644
777	-7645
788	-7646
975	-7647
990	-7648
Mad	-7649
RAM	-7650
Ren	-7651
ako	-7652
hen	-7653
lam	-7654
ula	-7655
▁Cr	-7656
▁Ta	-7657
.54"	-7658
Khal	-7659
King	-7660
aina	-7661
aret	-7662
auce	-7663
clus	-7664
isha	-7665
moon	-7666
ndez	-7667
▁290	-7668
▁306	-7669
▁Ltd	-7670
▁Sar	-7671
▁Sim	-7672
▁sdn	-7673
Ocean	-7674
Patio	-7675
anbra	-7676
black	-7677
crown	-7678
fuels	-7679
iford	-7680
ranti	-7681
▁Brig	-7682
":"294	-7683
":"330	-7684
":"461	-7685
17"},"	-7686
37"},"	-7687
66"},"	-7688
strong	-7689
▁Major	-7690
anbrass	-7691
produce	-7692
▁Khyber	-7693
▁Martin	-7694
▁Shears	-7695
▁Turner	-7696
Velocity	-7697
▁Chicken	-7698
-60"},{"@	-7699
-61"},{"@	-7700
-79"},{"@	-7701
-92"},{"@	-7702
Universal	-7703
▁Boarding	-7704
▁OConnell	-7705
▁Sciences	-7706
":"4"},{"@	-7707
▁Clanbrass	-7708
▁Cleveland	-7709
▁Constable	-7710
▁Riddiford	-7711
▁Molesworth	-7712
▁Piccadilly	-7713
3@	-7714
AK	-7715
FC	-7716
FG	-7717
HN	-7718
QD	-7719
SN	-7720
VY	-7721
WY	-7722
16@	-7723
19@	-7724
23@	-7725
29"	-7726
35-	-7727
471	-7728
55@	-7729
62-	-7730
636	-7731
666	-7732
985	-7733
99@	-7734
CPU	-7735
TCC	-7736
gon	-7737
▁Ah	-7738
▁Ay	-7739
▁Ko	-7740
-717	-7741
aike	-7742
anga	-7743
dder	-7744
hood	-7745
wash	-7746
▁222	-7747
▁276	-7748
▁323	-7749
▁325	-7750
▁400	-7751
▁Lom	-7752
▁NET	-7753
▁how	-7754
asant	-7755
oltán	-7756
▁Math	-7757
▁Roma	-7758
▁Vill	-7759
":"372	-7760
▁Diner	-7761
airview	-7762
onstant	-7763
▁Chapel	-7764
▁region	-7765
▁Bennett	-7766
▁Purpose	-7767
▁Surplus	-7768
▁country	-7769
-33"},{"@	-7770
-69"},{"@	-7771
-71"},{"@	-7772
-80"},{"@	-7773
infecting	-7774
▁Creative	-7775
▁Fanshawe	-7776
▁SHIPMENT	-7777
▁Supplies	-7778
▁Rathmines	-7779
▁Resources	-7780
▁Refreshments	-7781
AG	-7782
JN	-7783
PH	-7784
WK	-7785
,25	-7786
396	-7787
676	-7788
Bag	-7789
CCC	-7790
LCC	-7791
iba	-7792
ila	-7793
▁$0	-7794
▁or	-7795
="01	-7796
lara	-7797
mont	-7798
nova	-7799
pass	-7800
ream	-7801
▁33,	-7802
▁359	-7803
▁Phi	-7804
.81</	-7805
ignal	-7806
▁2018	-7807
▁cour	-7808
":"271	-7809
":"281	-7810
":"329	-7811
":"412	-7812
23"},"	-7813
49"},"	-7814
Sample	-7815
▁Nicol	-7816
clusive	-7817
ristian	-7818
▁Backup	-7819
▁Charge	-7820
▁Realty	-7821
Employee	-7822
Mountain	-7823
▁Glasses	-7824
▁Liberty	-7825
-32"},{"@	-7826
-55"},{"@	-7827
-96"},{"@	-7828
bsborough	-7829
▁Clanbrassil	-7830
▁Specialists	-7831
PA	-7832
PG	-7833
PI	-7834
QV	-7835
QZ	-7836
RB	-7837
TB	-7838
Tü	-7839
ln	-7840
46@	-7841
890	-7842
97@	-7843
993	-7844
>23	-7845
Bur	-7846
Yas	-7847
irn	-7848
pic	-7849
uno	-7850
▁CL	-7851
-977	-7852
.05"	-7853
.42"	-7854
.94"	-7855
="04	-7856
Back	-7857
Belt	-7858
Slow	-7859
akau	-7860
ggie	-7861
inak	-7862
rock	-7863
▁266	-7864
▁284	-7865
▁303	-7866
▁305	-7867
▁322	-7868
▁329	-7869
▁333	-7870
▁358	-7871
▁379	-7872
▁397	-7873
▁GST	-7874
▁Raj	-7875
▁des	-7876
▁off	-7877
Broom	-7878
STAND	-7879
akami	-7880
aside	-7881
azine	-7882
ignee	-7883
othes	-7884
ranty	-7885
▁Karo	-7886
▁Russ	-7887
":"266	-7888
":"293	-7889
":"332	-7890
":"386	-7891
urnent	-7892
▁Books	-7893
▁Bread	-7894
▁Jones	-7895
▁Rakau	-7896
▁Tinak	-7897
▁Tours	-7898
▁store	-7899
Courier	-7900
Gateway	-7901
UTSTAND	-7902
chester	-7903
cuisine	-7904
▁Optics	-7905
▁PLACED	-7906
▁Vision	-7907
▁Watson	-7908
Adhesive	-7909
-43"},{"@	-7910
-75"},{"@	-7911
-99"},{"@	-7912
onstantin	-7913
▁Speakers	-7914
EE	-7915
LX	-7916
SR	-7917
UB	-7918
UH	-7919
UX	-7920
YC	-7921
js	-7922
,28	-7923
.60	-7924
075	-7925
079	-7926
093	-7927
271	-7928
371	-7929
543	-7930
611	-7931
631	-7932
992	-7933
>58	-7934
aby	-7935
adh	-7936
ais	-7937
glo	-7938
▁te	-7939
.06"	-7940
illo	-7941
lear	-7942
uigi	-7943
▁346	-7944
▁362	-7945
▁417	-7946
▁Bru	-7947
▁Tib	-7948
Tower	-7949
artis	-7950
ashid	-7951
birch	-7952
ndary	-7953
prime	-7954
shirt	-7955
umpad	-7956
uxury	-7957
▁Feet	-7958
":"341	-7959
":"398	-7960
":"401	-7961
":"411	-7962
GNMENT	-7963
spring	-7964
▁Cream	-7965
atelier	-7966
estates	-7967
▁Numpad	-7968
▁Pedder	-7969
▁Source	-7970
artisans	-7971
▁Eastern	-7972
▁Jewelry	-7973
▁Macleod	-7974
▁Telecom	-7975
-35"},{"@	-7976
-57"},{"@	-7977
-88"},{"@	-7978
▁Boundary	-7979
▁Insights	-7980
▁Swanston	-7981
▁Textiles	-7982
▁Engineering	-7983
▁Phibsborough	-7984
:0	-7985
BW	-7986
FM	-7987
GG	-7988
Ia	-7989
JH	-7990
JO	-7991
KD	-7992
TD	-7993
my	-7994
,05	-7995
099	-7996
101	-7997
18@	-7998
63@	-7999
66-	-8000
68-	-8001
982	-8002
>44	-8003
CIP	-8004
HCC	-8005
NCC	-8006
kov	-8007
non	-8008
oak	-8009
ref	-8010
zka	-8011
-791	-8012
.34"	-8013
Edge	-8014
Step	-8015
ivic	-8016
nded	-8017
pert	-8018
rish	-8019
smic	-8020
▁262	-8021
▁275	-8022
▁320	-8023
▁347	-8024
▁Fro	-8025
▁Neh	-8026
":"01	-8027
Brown	-8028
Media	-8029
adija	-8030
anjay	-8031
child	-8032
ision	-8033
▁Hano	-8034
▁Pitt	-8035
":"320	-8036
":"345	-8037
":"358	-8038
":"381	-8039
":"388	-8040
":"395	-8041
":"405	-8042
Amount	-8043
atoshi	-8044
mentum	-8045
metals	-8046
tavern	-8047
ustafa	-8048
vanced	-8049
▁Class	-8050
▁Ferry	-8051
▁Gifts	-8052
▁Notre	-8053
anguard	-8054
rishnan	-8055
▁Motors	-8056
▁Pantry	-8057
▁Pearse	-8058
▁Silver	-8059
▁postal	-8060
Flexible	-8061
Southern	-8062
▁Hangers	-8063
▁Hanover	-8064
Northeast	-8065
fessional	-8066
treasures	-8067
▁Footwear	-8068
▁Furniture	-8069
Transaction	-8070
▁Manufacturing	-8071
KB	-8072
OV	-8073
QX	-8074
UW	-8075
VT	-8076
YV	-8077
136	-8078
246	-8079
43@	-8080
553	-8081
Lab	-8082
Sha	-8083
Toa	-8084
ilo	-8085
kac	-8086
▁Bv	-8087
▁OW	-8088
-508	-8089
.55"	-8090
Food	-8091
ahid	-8092
anie	-8093
gdan	-8094
ltra	-8095
oaqu	-8096
open	-8097
oval	-8098
▁311	-8099
▁344	-8100
▁405	-8101
▁778	-8102
▁San	-8103
▁Sav	-8104
Event	-8105
Jeans	-8106
Paper	-8107
Royal	-8108
eljko	-8109
first	-8110
unity	-8111
▁Burr	-8112
":"347	-8113
Action	-8114
Donald	-8115
Living	-8116
Mixing	-8117
Vector	-8118
motion	-8119
uranga	-8120
Planter	-8121
▁Horgan	-8122
▁Laptop	-8123
▁Tamaki	-8124
.07.2026	-8125
Mattress	-8126
ulfilled	-8127
▁Stanley	-8128
-66"},{"@	-8129
Essential	-8130
Projector	-8131
▁document	-8132
":"7"},{"@	-8133
chocolates	-8134
CM	-8135
DF	-8136
FL	-8137
MX	-8138
aB	-8139
pi	-8140
ão	-8141
$16	-8142
.90	-8143
078	-8144
10@	-8145
160	-8146
276	-8147
681	-8148
773	-8149
973	-8150
>39	-8151
UCC	-8152
VCC	-8153
XCC	-8154
asu	-8155
hol	-8156
igg	-8157
rna	-8158
zad	-8159
▁En	-8160
.95"	-8161
="20	-8162
High	-8163
Line	-8164
ares	-8165
bagh	-8166
eman	-8167
mony	-8168
nect	-8169
uera	-8170
▁246	-8171
▁273	-8172
▁340	-8173
▁407	-8174
▁488	-8175
▁air	-8176
Mouse	-8177
Pasta	-8178
cedar	-8179
hotel	-8180
igent	-8181
onder	-8182
utter	-8183
watch	-8184
▁Club	-8185
▁Irir	-8186
▁Lyon	-8187
▁Sett	-8188
▁Wine	-8189
":"337	-8190
":"350	-8191
":"363	-8192
":"389	-8193
":"498	-8194
":"511	-8195
35"},"	-8196
Anchor	-8197
Closet	-8198
Dining	-8199
Falcon	-8200
cinema	-8201
ieszka	-8202
irling	-8203
oaquim	-8204
▁Lewis	-8205
▁Nehru	-8206
▁Scott	-8207
Cutting	-8208
Toaster	-8209
courier	-8210
▁CLIENT	-8211
▁Carton	-8212
▁Hobson	-8213
dispatch	-8214
shipment	-8215
▁Petcare	-8216
-41"},{"@	-8217
-44"},{"@	-8218
-59"},{"@	-8219
-98"},{"@	-8220
▁OUTSTAND	-8221
▁Printing	-8222
▁reference	-8223
0:	-8224
AH	-8225
CQ	-8226
EX	-8227
IH	-8228
NX	-8229
OX	-8230
PM	-8231
PW	-8232
TW	-8233
,02	-8234
131	-8235
376	-8236
44"	-8237
52@	-8238
994	-8239
Ink	-8240
Sea	-8241
ggs	-8242
ien	-8243
rzy	-8244
szt	-8245
woo	-8246
Živ	-8247
-848	-8248
.19"	-8249
Plus	-8250
Vent	-8251
acar	-8252
aziz	-8253
umar	-8254
umer	-8255
▁319	-8256
▁386	-8257
▁408	-8258
▁Hel	-8259
▁Jar	-8260
▁Viv	-8261
▁WAY	-8262
.33</	-8263
Atlas	-8264
Johor	-8265
arkar	-8266
athan	-8267
avier	-8268
etter	-8269
ighty	-8270
swick	-8271
sztof	-8272
uture	-8273
▁Shar	-8274
▁land	-8275
":"355	-8276
":"379	-8277
":"380	-8278
":"383	-8279
":"384	-8280
amazan	-8281
rantiš	-8282
tended	-8283
▁Emmet	-8284
ertific	-8285
▁100100	-8286
.03.2024	-8287
.03.2026	-8288
.08.2026	-8289
rzysztof	-8290
▁Majorib	-8291
▁Manners	-8292
▁account	-8293
-30"},{"@	-8294
-62"},{"@	-8295
-72"},{"@	-8296
-86"},{"@	-8297
inventory	-8298
▁Builders	-8299
▁Irirangi	-8300
▁Organics	-8301
":"9"},{"@	-8302
ertificate	-8303
▁Equipment	-8304
▁Pakuranga	-8305
DisplayPort	-8306
▁Outstanding	-8307
AC	-8308
AF	-8309
Ah	-8310
FH	-8311
IQ	-8312
MJ	-8313
PR	-8314
SZ	-8315
UV	-8316
YW	-8317
vi	-8318
12@	-8319
141	-8320
381	-8321
65-	-8322
69@	-8323
91-	-8324
FCC	-8325
WCC	-8326
fin	-8327
hon	-8328
lay	-8329
sky	-8330
tia	-8331
▁(8	-8332
▁sh	-8333
-667	-8334
.23"	-8335
9999	-8336
="05	-8337
="06	-8338
Shoe	-8339
ided	-8340
ilee	-8341
iviu	-8342
oran	-8343
usuf	-8344
▁302	-8345
▁316	-8346
▁381	-8347
▁465	-8348
▁878	-8349
▁Cox	-8350
Delta	-8351
Grill	-8352
Steam	-8353
young	-8354
▁Beck	-8355
▁Thor	-8356
":"292	-8357
":"385	-8358
":"393	-8359
":"409	-8360
":"419	-8361
22"},"	-8362
28"},"	-8363
57"},"	-8364
Memory	-8365
School	-8366
entina	-8367
graphy	-8368
lesley	-8369
ynamic	-8370
▁Beans	-8371
▁Cloud	-8372
▁elect	-8373
Barcode	-8374
Loyalty	-8375
PURCHAS	-8376
▁Murray	-8377
Sneakers	-8378
boarding	-8379
gnieszka	-8380
▁Cuisine	-8381
▁Refresh	-8382
▁Remuera	-8383
":"0"}],"	-8384
-45"},{"@	-8385
-47"},{"@	-8386
-51"},{"@	-8387
-67"},{"@	-8388
-68"},{"@	-8389
Accessory	-8390
▁Exchange	-8391
▁Roasters	-8392
":"0"},{"@	-8393
Essentials	-8394
▁Chocolate	-8395
▁Processing	-8396
architecture	-8397
BR	-8398
DW	-8399
KF	-8400
KX	-8401
Na	-8402
QS	-8403
SJ	-8404
YR	-8405
aI	-8406
169	-8407
183	-8408
456	-8409
783	-8410
983	-8411
QCC	-8412
RCC	-8413
UNE	-8414
Zip	-8415
ful	-8416
gic	-8417
lau	-8418
pex	-8419
tom	-8420
▁Bh	-8421
▁SV	-8422
-988	-8423
iens	-8424
mier	-8425
utta	-8426
velt	-8427
øren	-8428
▁000	-8429
▁332	-8430
▁395	-8431
▁420	-8432
▁491	-8433
.12",	-8434
.41",	-8435
Basic	-8436
Cable	-8437
Surge	-8438
iling	-8439
reira	-8440
szula	-8441
tates	-8442
ugham	-8443
unwoo	-8444
▁Chin	-8445
":"325	-8446
":"362	-8447
":"399	-8448
14"},"	-8449
Custom	-8450
TENDER	-8451
rahman	-8452
▁Craft	-8453
▁Stool	-8454
Venture	-8455
trusted	-8456
undberg	-8457
▁Mobile	-8458
▁Torres	-8459
▁Vivian	-8460
▁Wright	-8461
National	-8462
elligent	-8463
emporium	-8464
rantišek	-8465
▁Atelier	-8466
▁Feather	-8467
-50"},{"@	-8468
-53"},{"@	-8469
-70"},{"@	-8470
-90"},{"@	-8471
northstar	-8472
▁McCurtain	-8473
▁Utilities	-8474
▁SETTLEMENT	-8475
▁electronic	-8476
▁Featherston	-8477
▁Majoribanks	-8478
EI	-8479
HF	-8480
KA	-8481
MD	-8482
TS	-8483
,07	-8484
001	-8485
20-	-8486
241	-8487
256	-8488
47@	-8489
556	-8490
984	-8491
>50	-8492
>69	-8493
Bro	-8494
cox	-8495
ges	-8496
jad	-8497
ltd	-8498
omy	-8499
plc	-8500
tez	-8501
unn	-8502
▁le	-8503
.65"	-8504
.89"	-8505
.91"	-8506
="14	-8507
Iced	-8508
Marg	-8509
acel	-8510
bury	-8511
eagh	-8512
newa	-8513
quez	-8514
roll	-8515
▁"02	-8516
▁07;	-8517
▁281	-8518
▁330	-8519
▁364	-8520
▁443	-8521
▁487	-8522
▁504	-8523
▁508	-8524
▁Beg	-8525
▁Kor	-8526
▁TEL	-8527
.01</	-8528
.24",	-8529
ichol	-8530
igeru	-8531
swift	-8532
▁Ward	-8533
":"296	-8534
":"349	-8535
":"370	-8536
":"382	-8537
00"},"	-8538
Drying	-8539
Shower	-8540
conomy	-8541
elcome	-8542
nvoice	-8543
rowing	-8544
ubilee	-8545
artland	-8546
lereagh	-8547
transit	-8548
▁Bailey	-8549
▁Barlow	-8550
▁Iterns	-8551
▁Napkin	-8552
▁Wilson	-8553
Blackout	-8554
External	-8555
Software	-8556
justable	-8557
ocurnent	-8558
▁Produce	-8559
▁context	-8560
▁courier	-8561
-82"},{"@	-8562
▁Tinakori	-8563
":"2026-10	-8564
▁Concierge	-8565
▁Wellesley	-8566
▁fulfilment	-8567
CY	-8568
FU	-8569
GS	-8570
It	-8571
JJ	-8572
Os	-8573
YM	-8574
$22	-8575
151	-8576
171	-8577
26-	-8578
554	-8579
606	-8580
616	-8581
621	-8582
873	-8583
9">	-8584
>47	-8585
Ash	-8586
Ben	-8587
Pre	-8588
dam	-8589
iol	-8590
lle	-8591
ndř	-8592
yde	-8593
-308	-8594
-708	-8595
-888	-8596
-963	-8597
.21"	-8598
.3",	-8599
.45"	-8600
="09	-8601
HDMI	-8602
Prun	-8603
Tour	-8604
alle	-8605
inma	-8606
ollo	-8607
umit	-8608
urnb	-8609
átia	-8610
übra	-8611
▁"05	-8612
▁"09	-8613
▁205	-8614
▁283	-8615
▁337	-8616
▁365	-8617
▁373	-8618
▁Bhd	-8619
▁Cer	-8620
▁Jan	-8621
▁Pap	-8622
Label	-8623
bacar	-8624
excel	-8625
▁Till	-8626
":"323	-8627
":"340	-8628
":"360	-8629
":"365	-8630
":"371	-8631
":"403	-8632
":"463	-8633
30"},"	-8634
33"},"	-8635
OUNTER	-8636
etaway	-8637
gerald	-8638
ichael	-8639
perial	-8640
▁Kelly	-8641
▁again	-8642
Blender	-8643
Pruning	-8644
Student	-8645
osevelt	-8646
▁Amiens	-8647
▁Georgi	-8648
Ethernet	-8649
Northern	-8650
▁Burgers	-8651
▁COUNTER	-8652
▁Edwards	-8653
▁Thompson	-8654
▁Brunswick	-8655
▁Automotive	-8656
▁Richardson	-8657
▁Settlement	-8658
communications	-8659
CL	-8660
GL	-8661
He	-8662
KJ	-8663
KK	-8664
RW	-8665
VX	-8666
WA	-8667
hm	-8668
ox	-8669
▁~	-8670
$33	-8671
,08	-8672
126	-8673
196	-8674
23"	-8675
63-	-8676
792	-8677
="3	-8678
>30	-8679
>77	-8680
JCC	-8681
OCC	-8682
axy	-8683
enc	-8684
eum	-8685
ror	-8686
sto	-8687
usz	-8688
yan	-8689
▁$1	-8690
-748	-8691
-758	-8692
.09"	-8693
.67"	-8694
="02	-8695
Dock	-8696
ENCE	-8697
afał	-8698
afsa	-8699
ally	-8700
nith	-8701
rera	-8702
ytro	-8703
ávid	-8704
▁"06	-8705
▁242	-8706
▁351	-8707
▁369	-8708
▁477	-8709
▁591	-8710
▁714	-8711
▁Est	-8712
▁Ing	-8713
.43",	-8714
.46",	-8715
Aleks	-8716
Carry	-8717
Fresh	-8718
Spark	-8719
arida	-8720
ertje	-8721
oussa	-8722
▁Berg	-8723
▁Mand	-8724
▁Whit	-8725
":"000	-8726
":"348	-8727
":"357	-8728
":"438	-8729
24"},"	-8730
acelet	-8731
adeusz	-8732
ighbor	-8733
itsuki	-8734
lowers	-8735
panies	-8736
Łukasz	-8737
▁Costa	-8738
▁Gupta	-8739
▁Leach	-8740
▁Sauce	-8741
▁Strat	-8742
▁Train	-8743
FERENCE	-8744
acebook	-8745
breaker	-8746
pioneer	-8747
uwertje	-8748
▁Assist	-8749
▁Bandon	-8750
▁Cycles	-8751
▁Garcia	-8752
▁Mirror	-8753
▁Nguyen	-8754
.04.2026	-8755
PURCHASE	-8756
ickerson	-8757
▁Brewing	-8758
":"7"}],"	-8759
-56"},{"@	-8760
-63"},{"@	-8761
-97"},{"@	-8762
Extension	-8763
Southwest	-8764
▁Advisors	-8765
▁Atlantic	-8766
▁Brougham	-8767
":"2024-01	-8768
Restaurant	-8769
▁fulfilled	-8770
▁recipient	-8771
▁Chocolates	-8772
▁MacCurtain	-8773
▁Castlereagh	-8774
▁Innovations	-8775
▁OUTSTANDING	-8776
▁Replacement	-8777
▁Professionals	-8778
FW	-8779
GX	-8780
HE	-8781
HT	-8782
PL	-8783
rk	-8784
tt	-8785
$30	-8786
,09	-8787
146	-8788
181	-8789
>57	-8790
bie	-8791
ids	-8792
otr	-8793
rze	-8794
sia	-8795
umc	-8796
uri	-8797
▁CO	-8798
▁me	-8799
-665	-8800
.75"	-8801
Aero	-8802
CIPI	-8803
LSNE	-8804
ahru	-8805
fers	-8806
fija	-8807
into	-8808
ncer	-8809
rzej	-8810
udia	-8811
▁"08	-8812
▁334	-8813
▁413	-8814
▁425	-8815
▁528	-8816
▁717	-8817
▁811	-8818
▁908	-8819
▁Leg	-8820
▁Nur	-8821
▁Sdn	-8822
":"06	-8823
Knife	-8824
Theme	-8825
UMENT	-8826
atias	-8827
elipe	-8828
ocial	-8829
olive	-8830
▁Land	-8831
▁Pike	-8832
▁Suit	-8833
":"333	-8834
":"359	-8835
":"394	-8836
":"519	-8837
11"},"	-8838
18"},"	-8839
Deluxe	-8840
Empire	-8841
Juhani	-8842
access	-8843
anager	-8844
anchor	-8845
idinma	-8846
▁Fuels	-8847
CIPIENT	-8848
▁Strand	-8849
.02.2026	-8850
Backpack	-8851
Purchase	-8852
franklin	-8853
▁Morales	-8854
▁Penrose	-8855
▁Shandon	-8856
Analytics	-8857
recipient	-8858
▁Bathroom	-8859
▁Boutique	-8860
▁Everyday	-8861
▁Portland	-8862
▁Randolph	-8863
":"2024-10	-8864
▁Processed	-8865
Disinfecting	-8866
FO	-8867
IZ	-8868
QN	-8869
VL	-8870
We	-8871
070	-8872
095	-8873
601	-8874
82@	-8875
892	-8876
996	-8877
>64	-8878
>78	-8879
End	-8880
box	-8881
oaa	-8882
zen	-8883
▁$7	-8884
▁SR	-8885
-727	-8886
.61"	-8887
6561	-8888
>8</	-8889
Pass	-8890
aily	-8891
camp	-8892
oter	-8893
rina	-8894
slav	-8895
▁245	-8896
▁336	-8897
▁343	-8898
▁354	-8899
▁464	-8900
▁578	-8901
▁sup	-8902
.32",	-8903
.62",	-8904
Child	-8905
Union	-8906
aresh	-8907
arohi	-8908
berry	-8909
royal	-8910
super	-8911
AMOUNT	-8912
Beacon	-8913
Camera	-8914
Modern	-8915
anaged	-8916
billed	-8917
little	-8918
munity	-8919
ostafa	-8920
ritish	-8921
summit	-8922
▁Dress	-8923
▁Reyes	-8924
▁Bistro	-8925
▁Cinema	-8926
▁Client	-8927
▁Clinic	-8928
▁coupon	-8929
.03.2025	-8930
.09.2025	-8931
Commuter	-8932
Soundbar	-8933
▁Estates	-8934
▁Finance	-8935
▁Growers	-8936
▁Stewart	-8937
":"8"}],"	-8938
-39"},{"@	-8939
-77"},{"@	-8940
-87"},{"@	-8941
Croissant	-8942
ieuwertje	-8943
purchased	-8944
Conference	-8945
Humidifier	-8946
Interstate	-8947
Protection	-8948
Sunglasses	-8949
ighborhood	-8950
▁Treasures	-8951
▁Wakefield	-8952
6%	-8953
DI	-8954
DX	-8955
PE	-8956
PX	-8957
QL	-8958
VC	-8959
VU	-8960
YB	-8961
$58	-8962
,20	-8963
15-	-8964
506	-8965
794	-8966
>48	-8967
DCC	-8968
Ter	-8969
YCC	-8970
bon	-8971
etu	-8972
kun	-8973
lng	-8974
mal	-8975
sub	-8976
▁Is	-8977
-858	-8978
-958	-8979
.17"	-8980
.9",	-8981
ALUE	-8982
Land	-8983
Next	-8984
PAID	-8985
Star	-8986
True	-8987
abio	-8988
atou	-8989
ević	-8990
jjad	-8991
keye	-8992
olan	-8993
ssen	-8994
wild	-8995
xana	-8996
▁"07	-8997
▁304	-8998
▁345	-8999
▁383	-9000
▁468	-9001
▁511	-9002
▁519	-9003
▁563	-9004
▁565	-9005
▁614	-9006
.28",	-9007
.58",	-9008
.78",	-9009
Denim	-9010
esrin	-9011
harth	-9012
igrid	-9013
mytro	-9014
ndřej	-9015
odoro	-9016
ondra	-9017
udley	-9018
vente	-9019
▁Good	-9020
":"353	-9021
":"354	-9022
":"368	-9023
":"465	-9024
":"588	-9025
Nikola	-9026
Sakari	-9027
laudia	-9028
liable	-9029
▁Abbey	-9030
▁Honey	-9031
▁Logan	-9032
▁Olive	-9033
▁State	-9034
▁Tools	-9035
▁Andrew	-9036
.00"}],"	-9037
.02.2024	-9038
.05.2026	-9039
.06.2025	-9040
.08.2024	-9041
▁Johnson	-9042
▁WAYBILL	-9043
":"4"}],"	-9044
orporated	-9045
purchaser	-9046
▁landline	-9047
▁Roosevelt	-9048
▁purchaser	-9049
CX	-9050
DH	-9051
IW	-9052
JA	-9053
RH	-9054
RS	-9055
YE	-9056
zi	-9057
,04	-9058
043	-9059
053	-9060
054	-9061
37"	-9062
870	-9063
893	-9064
987	-9065
>35	-9066
>65	-9067
ILE	-9068
Lee	-9069
Pra	-9070
eef	-9071
hez	-9072
jee	-9073
joy	-9074
szl	-9075
urt	-9076
zel	-9077
▁Ur	-9078
-228	-9079
-828	-9080
-869	-9081
.11"	-9082
.27"	-9083
.73"	-9084
.8",	-9085
>7</	-9086
akes	-9087
anek	-9088
aria	-9089
ctic	-9090
edar	-9091
foot	-9092
itan	-9093
late	-9094
obal	-9095
rett	-9096
stal	-9097
ukka	-9098
urst	-9099
▁271	-9100
▁361	-9101
▁387	-9102
▁390	-9103
▁475	-9104
▁527	-9105
▁547	-9106
▁589	-9107
▁Day	-9108
▁sel	-9109
.71",	-9110
Conso	-9111
Music	-9112
Socks	-9113
Watch	-9114
arson	-9115
iaper	-9116
ikini	-9117
oriko	-9118
ovana	-9119
urban	-9120
▁Hart	-9121
▁Pets	-9122
▁Prep	-9123
▁Tour	-9124
":"322	-9125
":"351	-9126
":"397	-9127
":"404	-9128
":"418	-9129
":"478	-9130
12"},"	-9131
47"},"	-9132
CLIENT	-9133
brahim	-9134
cooter	-9135
eiling	-9136
modern	-9137
▁Drumc	-9138
▁Owing	-9139
▁narne	-9140
Clothes	-9141
Console	-9142
Picture	-9143
Shuttle	-9144
resence	-9145
sperity	-9146
▁Events	-9147
▁Karori	-9148
▁Metals	-9149
▁Nassau	-9150
▁Parker	-9151
▁Resort	-9152
.08.2025	-9153
.09.2026	-9154
Watering	-9155
lighting	-9156
▁Waybill	-9157
interiors	-9158
▁Lighting	-9159
▁Phillips	-9160
▁official	-9161
▁Financial	-9162
accessories	-9163
▁Drumcondra	-9164
▁dispatched	-9165
▁Informatics	-9166
Du	-9167
EW	-9168
HV	-9169
KM	-9170
KO	-9171
NO	-9172
PJ	-9173
QO	-9174
RC	-9175
RG	-9176
TF	-9177
Um	-9178
ón	-9179
▁*	-9180
24-	-9181
25"	-9182
28-	-9183
40"	-9184
641	-9185
772	-9186
793	-9187
795	-9188
>49	-9189
>88	-9190
Ins	-9191
bag	-9192
eco	-9193
maj	-9194
oso	-9195
tiz	-9196
uka	-9197
▁$8	-9198
-507	-9199
-600	-9200
-863	-9201
.97"	-9202
LGNE	-9203
LHNE	-9204
akan	-9205
fine	-9206
iobh	-9207
laza	-9208
ranz	-9209
▁293	-9210
▁338	-9211
▁391	-9212
▁530	-9213
▁538	-9214
▁559	-9215
▁588	-9216
▁660	-9217
▁788	-9218
▁799	-9219
▁Miy	-9220
Turbo	-9221
acper	-9222
ameer	-9223
ashir	-9224
atrix	-9225
iates	-9226
▁Hall	-9227
":"497	-9228
":"504	-9229
":"515	-9230
13"},"	-9231
15"},"	-9232
Bridge	-9233
Jacket	-9234
Takumi	-9235
awkeye	-9236
bright	-9237
▁Plaza	-9238
▁Ramos	-9239
▁Strap	-9240
▁round	-9241
Created	-9242
OCUMENT	-9243
Pacific	-9244
sterdam	-9245
▁Burger	-9246
▁Dudley	-9247
▁Hudson	-9248
▁Morgan	-9249
-31"}],"	-9250
.02.2025	-9251
.05.2024	-9252
.09.2024	-9253
.12.2025	-9254
iddharth	-9255
":"2"}],"	-9256
-78"},{"@	-9257
lifestyle	-9258
▁Robinson	-9259
▁facebook	-9260
":"2026-08	-9261
industrian	-9262
▁Furnishings	-9263
EZ	-9264
GI	-9265
GV	-9266
KH	-9267
PQ	-9268
TZ	-9269
lp	-9270
vt	-9271
yl	-9272
▁Ö	-9273
116	-9274
186	-9275
576	-9276
785	-9277
874	-9278
911	-9279
972	-9280
BCC	-9281
Bus	-9282
Far	-9283
XNE	-9284
nav	-9285
zer	-9286
▁Gy	-9287
-339	-9288
-563	-9289
-565	-9290
-591	-9291
-808	-9292
-930	-9293
.51"	-9294
.77"	-9295
23",	-9296
="17	-9297
Anja	-9298
Host	-9299
arim	-9300
clud	-9301
eavy	-9302
edro	-9303
hijs	-9304
iech	-9305
john	-9306
lira	-9307
long	-9308
oday	-9309
shka	-9310
word	-9311
▁"04	-9312
▁251	-9313
▁352	-9314
▁380	-9315
▁520	-9316
▁544	-9317
▁568	-9318
▁Bak	-9319
▁awb	-9320
.08",	-9321
Light	-9322
Omega	-9323
azuki	-9324
estic	-9325
ireza	-9326
itive	-9327
kinen	-9328
rence	-9329
umiya	-9330
▁Dest	-9331
▁News	-9332
▁Resp	-9333
▁come	-9334
":"327	-9335
":"339	-9336
":"373	-9337
":"374	-9338
":"396	-9339
":"415	-9340
":"420	-9341
Hoodie	-9342
Veggie	-9343
anchez	-9344
golden	-9345
rystal	-9346
zabela	-9347
▁Chips	-9348
▁Greet	-9349
▁OWING	-9350
▁Onewa	-9351
Bedroom	-9352
Cutlery	-9353
Support	-9354
Vitamin	-9355
astings	-9356
liament	-9357
ojciech	-9358
oldings	-9359
▁Knight	-9360
▁Tavern	-9361
▁Taylor	-9362
.10.2024	-9363
.12.2024	-9364
Learning	-9365
SIGNMENT	-9366
boration	-9367
▁Lombard	-9368
▁Manager	-9369
▁Reprint	-9370
-52"},{"@	-9371
-81"},{"@	-9372
unningham	-9373
▁Amsterdam	-9374
▁Stratford	-9375
▁Parliament	-9376
BU	-9377
CZ	-9378
EJ	-9379
MB	-9380
QA	-9381
RX	-9382
TL	-9383
UZ	-9384
WC	-9385
WX	-9386
zs	-9387
16"	-9388
251	-9389
33"	-9390
431	-9391
531	-9392
61-	-9393
Bou	-9394
Glo	-9395
Mil	-9396
agi	-9397
asy	-9398
ats	-9399
cal	-9400
day	-9401
nco	-9402
uke	-9403
wud	-9404
▁ap	-9405
-388	-9406
-398	-9407
-478	-9408
-829	-9409
-929	-9410
.35"	-9411
.59"	-9412
.71"	-9413
Baby	-9414
Crew	-9415
Duff	-9416
LWNE	-9417
Tota	-9418
acob	-9419
anap	-9420
bign	-9421
corp	-9422
ecut	-9423
emin	-9424
hiro	-9425
hton	-9426
imir	-9427
irie	-9428
iska	-9429
nite	-9430
omic	-9431
onia	-9432
szló	-9433
vetl	-9434
znee	-9435
▁13;	-9436
▁326	-9437
▁382	-9438
▁402	-9439
▁410	-9440
▁412	-9441
▁427	-9442
▁428	-9443
▁490	-9444
▁497	-9445
▁619	-9446
▁749	-9447
▁900	-9448
▁Aro	-9449
▁Red	-9450
▁are	-9451
.51",	-9452
ental	-9453
uliya	-9454
ászló	-9455
▁Cres	-9456
▁Lang	-9457
▁Scar	-9458
▁Wang	-9459
":"27-	-9460
":"326	-9461
":"367	-9462
":"427	-9463
":"445	-9464
21"},"	-9465
32"},"	-9466
39"},"	-9467
Client	-9468
Zoltán	-9469
adilla	-9470
aganap	-9471
idency	-9472
ikhail	-9473
▁Adams	-9474
▁Amend	-9475
▁Flops	-9476
▁Metro	-9477
▁Moore	-9478
▁Party	-9479
Charter	-9480
Eastern	-9481
Ordered	-9482
akeside	-9483
consult	-9484
mamanda	-9485
ociates	-9486
▁Beacon	-9487
▁Brooks	-9488
▁Cambie	-9489
▁Walker	-9490
.01.2024	-9491
.07.2025	-9492
.10.2025	-9493
ranziska	-9494
greenwood	-9495
▁Coverage	-9496
":"2025-01	-9497
":"2025-02	-9498
":"2026-01	-9499
▁Gutierrez	-9500
▁Residency	-9501
▁Publishing	-9502
▁merchandise	-9503
orderDocurnent	-9504
EH	-9505
FB	-9506
GZ	-9507
KU	-9508
MP	-9509
RZ	-9510
TN	-9511
Te	-9512
WV	-9513
XX	-9514
YZ	-9515
ua	-9516
$34	-9517
156	-9518
44-	-9519
>61	-9520
>89	-9521
>91	-9522
><1	-9523
ICC	-9524
KCC	-9525
NAS	-9526
cla	-9527
erg	-9528
eza	-9529
kle	-9530
nde	-9531
ngo	-9532
war	-9533
yle	-9534
▁Pu	-9535
-408	-9536
-530	-9537
-959	-9538
.37"	-9539
20",	-9540
News	-9541
Open	-9542
emor	-9543
enji	-9544
rief	-9545
rton	-9546
shar	-9547
▁350	-9548
▁388	-9549
▁398	-9550
▁419	-9551
▁433	-9552
▁439	-9553
▁507	-9554
▁762	-9555
▁Dor	-9556
▁Tem	-9557
.52",	-9558
.65",	-9559
.66",	-9560
.72",	-9561
.74",	-9562
Akiko	-9563
Buyer	-9564
Clear	-9565
Gülay	-9566
baker	-9567
iorgi	-9568
ogurt	-9569
onial	-9570
uller	-9571
urope	-9572
▁Alum	-9573
▁Boyl	-9574
▁Jaya	-9575
":"321	-9576
":"406	-9577
":"416	-9578
":"565	-9579
":"577	-9580
":"691	-9581
10"},"	-9582
59"},"	-9583
bourne	-9584
centre	-9585
charya	-9586
ivirus	-9587
naught	-9588
oushka	-9589
▁Davis	-9590
▁Lamar	-9591
▁Swift	-9592
Forward	-9593
General	-9594
Ramazan	-9595
▁Dinner	-9596
▁Middle	-9597
▁Placed	-9598
▁billed	-9599
.01.2026	-9600
.06.2026	-9601
.11.2024	-9602
document	-9603
holdings	-9604
pinnacle	-9605
reliable	-9606
standard	-9607
▁Getaway	-9608
▁PURCHAS	-9609
-58"},{"@	-9610
▁Boylston	-9611
":"2024-12	-9612
laboration	-9613
▁Inventory	-9614
Photography	-9615
▁Destination	-9616
Bu	-9617
MN	-9618
OA	-9619
OE	-9620
QG	-9621
SV	-9622
VJ	-9623
YS	-9624
di	-9625
231	-9626
32"	-9627
49"	-9628
Bla	-9629
ZCC	-9630
nat	-9631
pal	-9632
-864	-9633
.69"	-9634
.83"	-9635
.99"	-9636
26-0	-9637
="13	-9638
="15	-9639
="18	-9640
Bill	-9641
Siti	-9642
axis	-9643
gren	-9644
ilal	-9645
mbia	-9646
page	-9647
▁296	-9648
▁341	-9649
▁368	-9650
▁370	-9651
▁396	-9652
▁414	-9653
▁456	-9654
▁478	-9655
▁500	-9656
▁509	-9657
▁554	-9658
▁663	-9659
▁707	-9660
▁754	-9661
▁812	-9662
▁858	-9663
▁957	-9664
▁Dub	-9665
▁Elb	-9666
▁Ghu	-9667
▁Ren	-9668
▁Shi	-9669
.17",	-9670
.44",	-9671
.86",	-9672
.93",	-9673
.96",	-9674
Aisha	-9675
Alpha	-9676
Elite	-9677
ansen	-9678
asmin	-9679
aysia	-9680
oodle	-9681
ooper	-9682
smart	-9683
▁Band	-9684
▁Bell	-9685
▁Race	-9686
":"369	-9687
":"387	-9688
":"390	-9689
":"391	-9690
":"485	-9691
":"527	-9692
":"603	-9693
45"},"	-9694
ferred	-9695
▁Karol	-9696
▁VALUE	-9697
▁johor	-9698
Booking	-9699
Compact	-9700
ansgate	-9701
bigniew	-9702
ecutive	-9703
vetlana	-9704
▁Edward	-9705
▁Gaming	-9706
.01.2025	-9707
.12.2026	-9708
Nikolina	-9709
Recovery	-9710
aganappi	-9711
▁Customs	-9712
▁Ghuznee	-9713
▁Pacific	-9714
▁Roberts	-9715
▁carrier	-9716
":"3"}],"	-9717
-40"},{"@	-9718
-94"},{"@	-9719
▁Cookware	-9720
▁Holdings	-9721
▁Stirling	-9722
▁Suitcase	-9723
":"2024-11	-9724
":"2025-07	-9725
":"2025-08	-9726
▁Amendment	-9727
▁Andersons	-9728
▁Interiors	-9729
▁FULFILLMENT	-9730
BF	-9731
BX	-9732
DJ	-9733
FE	-9734
FJ	-9735
HS	-9736
IJ	-9737
KN	-9738
KQ	-9739
MG	-9740
ML	-9741
MQ	-9742
RL	-9743
bi	-9744
fy	-9745
ns	-9746
ês	-9747
$32	-9748
$88	-9749
,24	-9750
11-	-9751
121	-9752
48"	-9753
696	-9754
>20	-9755
>29	-9756
>63	-9757
Cos	-9758
Lot	-9759
Sem	-9760
hib	-9761
inz	-9762
llc	-9763
nts	-9764
olo	-9765
roy	-9766
zyk	-9767
▁Ok	-9768
▁ad	-9769
-300	-9770
-350	-9771
-413	-9772
-620	-9773
-707	-9774
-738	-9775
-927	-9776
.41"	-9777
.85"	-9778
29",	-9779
Auto	-9780
LDNE	-9781
Scar	-9782
adou	-9783
asia	-9784
atte	-9785
heem	-9786
izem	-9787
jama	-9788
lett	-9789
mach	-9790
neau	-9791
uest	-9792
uman	-9793
▁"16	-9794
▁292	-9795
▁294	-9796
▁331	-9797
▁357	-9798
▁360	-9799
▁367	-9800
▁430	-9801
▁479	-9802
▁515	-9803
▁540	-9804
▁549	-9805
▁700	-9806
▁708	-9807
▁711	-9808
▁824	-9809
▁862	-9810
▁947	-9811
▁Jam	-9812
▁PLC	-9813
▁Sea	-9814
▁Sla	-9815
.31",	-9816
.42",	-9817
.88",	-9818
Aiman	-9819
Crest	-9820
Robot	-9821
Train	-9822
asted	-9823
erica	-9824
forge	-9825
inzia	-9826
ksana	-9827
maple	-9828
ohsen	-9829
onika	-9830
orenz	-9831
ragan	-9832
▁Milk	-9833
▁call	-9834
":"331	-9835
":"377	-9836
":"402	-9837
":"410	-9838
":"432	-9839
":"472	-9840
":"563	-9841
":"707	-9842
16"},"	-9843
50"},"	-9844
676","	-9845
Duffel	-9846
French	-9847
Tripod	-9848
akaria	-9849
amille	-9850
anjara	-9851
dalena	-9852
flight	-9853
indful	-9854
oggers	-9855
tisans	-9856
uggage	-9857
vesque	-9858
▁Final	-9859
▁Koram	-9860
Shaving	-9861
carrier	-9862
▁Barton	-9863
Alliance	-9864
Bookcase	-9865
▁Brigade	-9866
▁Economy	-9867
▁Russell	-9868
":"5"}],"	-9869
machinery	-9870
▁Artisans	-9871
▁Williams	-9872
▁Connaught	-9873
▁Lifestyle	-9874
0"	-9875
BC	-9876
CJ	-9877
FX	-9878
FZ	-9879
KR	-9880
KZ	-9881
MU	-9882
TJ	-9883
WG	-9884
$35	-9885
,01	-9886
052	-9887
13-	-9888
24"	-9889
38-	-9890
501	-9891
551	-9892
57-	-9893
651	-9894
67-	-9895
>68	-9896
>99	-9897
Fri	-9898
Gre	-9899
Str	-9900
ilė	-9901
luc	-9902
▁7/	-9903
▁Og	-9904
-015	-9905
-364	-9906
-485	-9907
-488	-9908
-669	-9909
-777	-9910
-807	-9911
-928	-9912
.33"	-9913
.39"	-9914
.43"	-9915
Cosm	-9916
Hoda	-9917
Iron	-9918
Karo	-9919
acek	-9920
eney	-9921
lebe	-9922
oris	-9923
phia	-9924
rise	-9925
ruce	-9926
vers	-9927
▁349	-9928
▁384	-9929
▁399	-9930
▁503	-9931
▁513	-9932
▁577	-9933
▁713	-9934
▁840	-9935
▁999	-9936
▁Off	-9937
.04",	-9938
.09",	-9939
.15",	-9940
.18",	-9941
.19",	-9942
.49",	-9943
.68",	-9944
.82",	-9945
.83",	-9946
Ashok	-9947
Floor	-9948
Kwame	-9949
Maple	-9950
anele	-9951
assan	-9952
atrik	-9953
early	-9954
itali	-9955
livan	-9956
ousef	-9957
stall	-9958
ukwud	-9959
vanna	-9960
▁Bagh	-9961
▁From	-9962
▁Peel	-9963
▁jaya	-9964
▁send	-9965
":"361	-9966
":"433	-9967
":"475	-9968
":"500	-9969
":"502	-9970
":"817	-9971
202","	-9972
40"},"	-9973
48"},"	-9974
Bundle	-9975
Shared	-9976
Yelena	-9977
angala	-9978
autumn	-9979
enneth	-9980
Živilė	-9981
▁Glebe	-9982
▁Nikol	-9983
ORDERED	-9984
issatou	-9985
subtota	-9986
▁Ashton	-9987
▁Howard	-9988
.05.2025	-9989
.06.2024	-9990
Karolina	-9991
Standard	-9992
getables	-9993
▁Banjara	-9994
▁Compute	-9995
▁Details	-9996
▁Spencer	-9997
":"9"}],"	-9998
-74"},{"@	-9999
Abdelaziz	-10000
František	-10001
▁Emporium	-10002
▁Mitchell	-10003
▁Payrnent	-10004
":"2025-03	-10005
":"2026-03	-10006
":"2026-05	-10007
Adjustable	-10008
Windbreaker	-10009
independent	-10010
▁Cornmarket	-10011
▁Shaganappi	-10012
▁Koramangala	-10013
AI	-10014
BG	-10015
DN	-10016
DR	-10017
Oa	-10018
QF	-10019
YI	-10020
aa	-10021
rg	-10022
▁z	-10023
▁©	-10024
$47	-10025
15"	-10026
20"	-10027
22-	-10028
39"	-10029
436	-10030
875	-10031
894	-10032
>67	-10033
Her	-10034
ILS	-10035
PCC	-10036
alu	-10037
gil	-10038
kko	-10039
▁la	-10040
▁pe	-10041
▁un	-10042
-200	-10043
-224	-10044
-288	-10045
-357	-10046
-368	-10047
-588	-10048
-749	-10049
.49"	-10050
35",	-10051
="23	-10052
Hugo	-10053
LANE	-10054
LMNE	-10055
LUNE	-10056
LYNE	-10057
arry	-10058
arte	-10059
hamp	-10060
hian	-10061
igan	-10062
isle	-10063
unal	-10064
▁525	-10065
▁633	-10066
▁655	-10067
▁710	-10068
▁847	-10069
▁Bla	-10070
▁Sel	-10071
.06",	-10072
.48",	-10073
.57",	-10074
.67",	-10075
Check	-10076
Fruit	-10077
Kübra	-10078
Nicol	-10079
adalu	-10080
agawa	-10081
apart	-10082
final	-10083
iking	-10084
irela	-10085
lotta	-10086
orena	-10087
orris	-10088
ouble	-10089
riefs	-10090
rowne	-10091
urley	-10092
▁Lons	-10093
▁Rose	-10094
▁Snow	-10095
▁emai	-10096
":"468	-10097
":"517	-10098
350","	-10099
8"}],"	-10100
Border	-10101
atrien	-10102
▁Grant	-10103
▁Grass	-10104
▁Night	-10105
▁Perez	-10106
":1}},"	-10107
Hyunwoo	-10108
Invoice	-10109
Valeria	-10110
Website	-10111
adalupe	-10112
aseball	-10113
iroslav	-10114
records	-10115
threads	-10116
▁Bottom	-10117
▁parcel	-10118
.10.2026	-10119
platinum	-10120
▁Lothian	-10121
▁voucher	-10122
Frontline	-10123
Margarida	-10124
▁Griffith	-10125
▁Lonsdale	-10126
▁Rodriguez	-10127
▁1001000000	-10128
▁Vegetables	-10129
KI	-10130
KP	-10131
QE	-10132
SU	-10133
YY	-10134
bb	-10135
éa	-10136
082	-10137
17"	-10138
269	-10139
39-	-10140
47"	-10141
486	-10142
57"	-10143
64"	-10144
706	-10145
>40	-10146
Opt	-10147
Pic	-10148
any	-10149
bou	-10150
iah	-10151
jus	-10152
kaw	-10153
lie	-10154
men	-10155
nap	-10156
nil	-10157
qui	-10158
▁Es	-10159
▁bi	-10160
▁su	-10161
-058	-10162
-098	-10163
-111	-10164
-164	-10165
-309	-10166
-427	-10167
-528	-10168
.2",	-10169
33",	-10170
="08	-10171
LFNE	-10172
Yoga	-10173
amla	-10174
hish	-10175
hzad	-10176
iotr	-10177
jörn	-10178
omez	-10179
ozef	-10180
pink	-10181
shaw	-10182
true	-10183
Şule	-10184
▁385	-10185
▁418	-10186
▁424	-10187
▁444	-10188
▁452	-10189
▁462	-10190
▁469	-10191
▁522	-10192
▁553	-10193
▁587	-10194
▁665	-10195
▁718	-10196
▁720	-10197
▁723	-10198
▁728	-10199
▁738	-10200
▁815	-10201
▁822	-10202
▁989	-10203
▁Tom	-10204
▁Vel	-10205
.55",	-10206
.56",	-10207
Cátia	-10208
Fiona	-10209
Kamil	-10210
Luigi	-10211
PERAT	-10212
Ultra	-10213
anilo	-10214
asmus	-10215
build	-10216
jamin	-10217
mitri	-10218
ottle	-10219
▁DETA	-10220
▁Emer	-10221
34"},"	-10222
38"},"	-10223
58"},"	-10224
640","	-10225
Aliona	-10226
Wallet	-10227
iobhán	-10228
lympic	-10229
▁GRAND	-10230
Joaquim	-10231
Nicolás	-10232
ederica	-10233
ullivan	-10234
▁Colaba	-10235
▁Course	-10236
.04.2024	-10237
.07.2024	-10238
Magazine	-10239
Malaysia	-10240
hibition	-10241
shopping	-10242
▁BALANCE	-10243
▁Desktop	-10244
▁Georgia	-10245
-91"},{"@	-10246
Agnieszka	-10247
▁Campbell	-10248
▁Levesque	-10249
▁Priority	-10250
stallation	-10251
▁Deansgate	-10252
▁Certificate	-10253
▁Grassmarket	-10254
-,	-10255
AU	-10256
DA	-10257
DO	-10258
JP	-10259
KV	-10260
QU	-10261
WH	-10262
WT	-10263
XJ	-10264
YD	-10265
,22	-10266
0",	-10267
10"	-10268
19-	-10269
27"	-10270
38"	-10271
6">	-10272
60"	-10273
995	-10274
="4	-10275
>59	-10276
>62	-10277
>80	-10278
QWB	-10279
mur	-10280
nad	-10281
teo	-10282
zgi	-10283
ázs	-10284
▁Nw	-10285
-035	-10286
-057	-10287
-411	-10288
-723	-10289
-798	-10290
-830	-10291
-838	-10292
-878	-10293
.03"	-10294
.1",	-10295
.4",	-10296
24",	-10297
38",	-10298
Data	-10299
LCNE	-10300
LNNE	-10301
Link	-10302
Rush	-10303
ablo	-10304
adim	-10305
akka	-10306
ania	-10307
arie	-10308
ashi	-10309
cius	-10310
czyk	-10311
hoon	-10312
mpie	-10313
oana	-10314
road	-10315
ving	-10316
▁18;	-10317
▁342	-10318
▁377	-10319
▁403	-10320
▁411	-10321
▁442	-10322
▁451	-10323
▁529	-10324
▁557	-10325
▁579	-10326
▁745	-10327
▁899	-10328
▁927	-10329
▁949	-10330
▁991	-10331
▁Lau	-10332
▁Soh	-10333
▁bar	-10334
▁com	-10335
▁ple	-10336
.21",	-10337
.22",	-10338
.34",	-10339
.59",	-10340
.69",	-10341
.98",	-10342
Liviu	-10343
RRIER	-10344
abiba	-10345
aksim	-10346
cipal	-10347
elsen	-10348
nanya	-10349
urora	-10350
▁Call	-10351
▁Diaz	-10352
▁Draw	-10353
▁Mate	-10354
▁Sant	-10355
▁Walk	-10356
":"414	-10357
":"491	-10358
":"758	-10359
Diaper	-10360
Guided	-10361
Milena	-10362
ggings	-10363
ihakka	-10364
Docking	-10365
PERATOR	-10366
anisław	-10367
einrich	-10368
icholas	-10369
▁Cooper	-10370
▁Driver	-10371
▁Gympie	-10372
▁Review	-10373
▁Robson	-10374
▁Tampoi	-10375
Extended	-10376
▁2024-12	-10377
▁Janpath	-10378
▁Mailbox	-10379
-18"},{"@	-10380
ristensen	-10381
▁Hastings	-10382
▁Lawrence	-10383
":"2024-03	-10384
":"2024-08	-10385
":"2026-11	-10386
Konstantin	-10387
▁Kingsford	-10388
▁telephone	-10389
▁Assistance	-10390
▁Cunningham	-10391
1:	-10392
BN	-10393
GH	-10394
HZ	-10395
OH	-10396
RU	-10397
RV	-10398
WD	-10399
WF	-10400
XQ	-10401
rs	-10402
ía	-10403
$57	-10404
,21	-10405
042	-10406
084	-10407
12"	-10408
13"	-10409
14-	-10410
212	-10411
22"	-10412
28"	-10413
5">	-10414
58"	-10415
784	-10416
>98	-10417
Ali	-10418
GCC	-10419
Sim	-10420
emi	-10421
jag	-10422
lew	-10423
neo	-10424
nep	-10425
áta	-10426
-130	-10427
-165	-10428
-265	-10429
-310	-10430
-328	-10431
-344	-10432
-444	-10433
-515	-10434
-524	-10435
-547	-10436
-739	-10437
-900	-10438
-979	-10439
="03	-10440
Caio	-10441
LQNE	-10442
LVNE	-10443
Lars	-10444
Slim	-10445
aird	-10446
eady	-10447
eira	-10448
high	-10449
ifom	-10450
ized	-10451
risk	-10452
sepe	-10453
uson	-10454
äivi	-10455
ëlle	-10456
▁327	-10457
▁371	-10458
▁467	-10459
▁494	-10460
▁506	-10461
▁535	-10462
▁667	-10463
▁691	-10464
▁761	-10465
▁867	-10466
▁869	-10467
▁873	-10468
▁962	-10469
▁Bon	-10470
▁Kot	-10471
▁MOB	-10472
▁Oak	-10473
▁Pun	-10474
.13",	-10475
.16",	-10476
.25",	-10477
.37",	-10478
.64",	-10479
.76",	-10480
.84",	-10481
.89",	-10482
Dávid	-10483
Lemon	-10484
Mehdi	-10485
Nuran	-10486
Print	-10487
Shota	-10488
ainab	-10489
asile	-10490
eynep	-10491
leece	-10492
lence	-10493
lette	-10494
loway	-10495
loyal	-10496
meida	-10497
ssein	-10498
ucker	-10499
▁tamp	-10500
":"366	-10501
":"375	-10502
":"376	-10503
":"428	-10504
":"443	-10505
":"448	-10506
":"450	-10507
":"507	-10508
":"512	-10509
":"523	-10510
":"524	-10511
":"559	-10512
":"591	-10513
":"608	-10514
":"711	-10515
":"765	-10516
":"830	-10517
":"867	-10518
":"977	-10519
.50","	-10520
656195	-10521
Haruki	-10522
Marija	-10523
Tomasz	-10524
amadou	-10525
elmont	-10526
hishek	-10527
ifomia	-10528
zmarek	-10529
▁PROCE	-10530
Printer	-10531
Sweater	-10532
William	-10533
bennett	-10534
jagutta	-10535
lington	-10536
▁Banner	-10537
▁Briefs	-10538
Viktoria	-10539
-29"},{"@	-10540
akrishnan	-10541
leksandar	-10542
▁"2024-01	-10543
▁McKnight	-10544
▁OPERATOR	-10545
▁Princess	-10546
":"2025-11	-10547
":"2025-12	-10548
":"2026-12	-10549
▁Charlotte	-10550
▁Punjagutta	-10551
BJ	-10552
BL	-10553
CU	-10554
EA	-10555
ES	-10556
KC	-10557
MF	-10558
NQ	-10559
Oe	-10560
PF	-10561
VI	-10562
ae	-10563
gọ	-10564
wn	-10565
$49	-10566
$74	-10567
083	-10568
18"	-10569
19"	-10570
25-	-10571
26"	-10572
3">	-10573
787	-10574
>87	-10575
>97	-10576
AWB	-10577
Tie	-10578
Xin	-10579
cab	-10580
gọc	-10581
iní	-10582
lim	-10583
weł	-10584
ğur	-10585
▁$3	-10586
▁Da	-10587
▁LB	-10588
▁US	-10589
-027	-10590
-177	-10591
-238	-10592
-305	-10593
-307	-10594
-567	-10595
-568	-10596
-618	-10597
-765	-10598
-813	-10599
-944	-10600
-949	-10601
-998	-10602
.07"	-10603
.25"	-10604
.31"	-10605
.79"	-10606
45</	-10607
Cann	-10608
Enzo	-10609
Flip	-10610
Flow	-10611
LXNE	-10612
down	-10613
jobs	-10614
luma	-10615
ouza	-10616
ovie	-10617
pine	-10618
unks	-10619
weet	-10620
▁"26	-10621
▁"38	-10622
▁11;	-10623
▁363	-10624
▁366	-10625
▁401	-10626
▁416	-10627
▁429	-10628
▁437	-10629
▁483	-10630
▁758	-10631
▁763	-10632
▁768	-10633
▁798	-10634
▁800	-10635
▁832	-10636
▁Alv	-10637
▁Han	-10638
▁Max	-10639
▁Oil	-10640
.26",	-10641
.95",	-10642
Oriol	-10643
Rafał	-10644
Route	-10645
State	-10646
amura	-10647
asuda	-10648
aëlle	-10649
edran	-10650
igail	-10651
jepan	-10652
otton	-10653
quity	-10654
▁Bars	-10655
▁Cuff	-10656
▁Down	-10657
▁Reed	-10658
▁Toll	-10659
":"342	-10660
":"423	-10661
":"469	-10662
":"530	-10663
":"578	-10664
":"625	-10665
":"710	-10666
":"825	-10667
602","	-10668
Maaike	-10669
Nguyen	-10670
Picnic	-10671
atiana	-10672
dallah	-10673
enuine	-10674
kinson	-10675
ompson	-10676
▁Carna	-10677
▁David	-10678
▁Ortiz	-10679
▁Pitch	-10680
":"245,	-10681
Khadija	-10682
Klaudia	-10683
Mohamed	-10684
Mustafa	-10685
inícius	-10686
optimum	-10687
rgensen	-10688
rinivas	-10689
special	-10690
▁Madras	-10691
▁Rivera	-10692
▁Trunks	-10693
.11.2025	-10694
CUSTOMER	-10695
Selangor	-10696
ortensen	-10697
traction	-10698
▁Holiday	-10699
▁Outdoor	-10700
▁Partner	-10701
▁Records	-10702
▁Tablets	-10703
▁Threads	-10704
-26"},{"@	-10705
Southeast	-10706
▁Contract	-10707
▁Heritage	-10708
▁Califomia	-10709
▁Guadalupe	-10710
":"0.00"}],"	-10711
▁Architecture	-10712
EC	-10713
KL	-10714
Pu	-10715
RF	-10716
TY	-10717
VZ	-10718
WL	-10719
zt	-10720
▁%	-10721
$40	-10722
)",	-10723
,26	-10724
094	-10725
225	-10726
23-	-10727
30-	-10728
36"	-10729
ARG	-10730
IWB	-10731
Kit	-10732
Pot	-10733
Ula	-10734
big	-10735
ged	-10736
ibe	-10737
mes	-10738
riz	-10739
šan	-10740
▁$5	-10741
▁CH	-10742
-128	-10743
-239	-10744
-248	-10745
-349	-10746
-358	-10747
-459	-10748
-461	-10749
-464	-10750
-477	-10751
-523	-10752
-564	-10753
-587	-10754
-730	-10755
-847	-10756
-865	-10757
-962	-10758
.13"	-10759
.29"	-10760
.57"	-10761
.63"	-10762
26",	-10763
34</	-10764
Hana	-10765
LLNE	-10766
LONE	-10767
Mill	-10768
SSED	-10769
Sana	-10770
Tote	-10771
adja	-10772
atja	-10773
heri	-10774
idal	-10775
ndes	-10776
ocal	-10777
ques	-10778
rani	-10779
reed	-10780
vlov	-10781
▁17;	-10782
▁321	-10783
▁423	-10784
▁431	-10785
▁447	-10786
▁450	-10787
▁458	-10788
▁459	-10789
▁473	-10790
▁512	-10791
▁524	-10792
▁573	-10793
▁585	-10794
▁599	-10795
▁600	-10796
▁648	-10797
▁657	-10798
▁669	-10799
▁732	-10800
▁767	-10801
▁805	-10802
▁817	-10803
▁860	-10804
▁905	-10805
▁948	-10806
▁@6%	-10807
▁End	-10808
▁Gre	-10809
▁May	-10810
▁Pow	-10811
▁vat	-10812
.27",	-10813
.45",	-10814
Heavy	-10815
Nuria	-10816
annel	-10817
apnil	-10818
ayton	-10819
ircle	-10820
kside	-10821
today	-10822
vista	-10823
Şahin	-10824
▁Fair	-10825
▁Gold	-10826
▁Koti	-10827
":"453	-10828
":"458	-10829
":"513	-10830
":"525	-10831
":"544	-10832
":"720	-10833
":"744	-10834
":"783	-10835
":"835	-10836
19"},"	-10837
31"},"	-10838
Hiroki	-10839
arding	-10840
cosmic	-10841
inimal	-10842
oussef	-10843
ukwudi	-10844
Željko	-10845
▁Buyer	-10846
▁Count	-10847
▁FINAL	-10848
▁Guild	-10849
▁Stret	-10850
Company	-10851
Satoshi	-10852
arnount	-10853
horizon	-10854
▁Golden	-10855
▁Miller	-10856
▁Togher	-10857
▁tampoi	-10858
Necklace	-10859
Password	-10860
TRACKING	-10861
moreland	-10862
▁Carnaby	-10863
▁DETAILS	-10864
▁Gallery	-10865
="2025-07	-10866
▁Alliance	-10867
▁Bathurst	-10868
▁selangor	-10869
":"2025-05	-10870
":"2025-10	-10871
":"2026-07	-10872
Accounting	-10873
Dieuwertje	-10874
▁Household	-10875
▁Queensway	-10876
▁Sherbourne	-10877
▁Westmoreland	-10878
▁Communications	-10879
DT	-10880
Gi	-10881
IU	-10882
PV	-10883
TG	-10884
TQ	-10885
XL	-10886
XU	-10887
vl	-10888
$26	-10889
$38	-10890
$64	-10891
135	-10892
162	-10893
167	-10894
49-	-10895
541	-10896
63"	-10897
Bri	-10898
Cho	-10899
Hop	-10900
Ing	-10901
Loa	-10902
Paw	-10903
Tem	-10904
riy	-10905
uby	-10906
vac	-10907
óra	-10908
-018	-10909
-207	-10910
-257	-10911
-262	-10912
-338	-10913
-391	-10914
-410	-10915
-417	-10916
-460	-10917
-468	-10918
-710	-10919
-725	-10920
-729	-10921
-745	-10922
-820	-10923
.5",	-10924
18</	-10925
47",	-10926
="24	-10927
Ebru	-10928
Hill	-10929
John	-10930
LTNE	-10931
Zain	-10932
ella	-10933
hmet	-10934
ibow	-10935
kirt	-10936
load	-10937
omir	-10938
pers	-10939
saba	-10940
shay	-10941
sold	-10942
teri	-10943
▁08;	-10944
▁09;	-10945
▁421	-10946
▁441	-10947
▁455	-10948
▁460	-10949
▁492	-10950
▁493	-10951
▁532	-10952
▁593	-10953
▁603	-10954
▁637	-10955
▁672	-10956
▁724	-10957
▁727	-10958
▁744	-10959
▁747	-10960
▁804	-10961
▁841	-10962
▁861	-10963
▁865	-10964
▁868	-10965
▁978	-10966
▁Guy	-10967
▁Sak	-10968
▁Tro	-10969
.02",	-10970
.33",	-10971
.38",	-10972
.47",	-10973
.99",	-10974
Arjun	-10975
Baako	-10976
Elmar	-10977
Eugen	-10978
Pawel	-10979
River	-10980
Sadia	-10981
Usman	-10982
arlic	-10983
ating	-10984
cenic	-10985
parts	-10986
plied	-10987
spark	-10988
sushi	-10989
ysore	-10990
▁Corp	-10991
▁DEST	-10992
▁Duty	-10993
▁Jerv	-10994
▁Long	-10995
▁Malm	-10996
":"12,	-10997
":"392	-10998
":"429	-10999
":"449	-11000
":"487	-11001
":"494	-11002
":"508	-11003
":"520	-11004
":"528	-11005
":"533	-11006
":"548	-11007
":"557	-11008
":"579	-11009
":"661	-11010
26"},"	-11011
Aarohi	-11012
Kacper	-11013
Kamila	-11014
Ondřej	-11015
atriot	-11016
ristol	-11017
▁Booth	-11018
▁Cuffe	-11019
▁PROMO	-11020
Natsuki	-11021
Urszula	-11022
arrings	-11023
eastern	-11024
eronika	-11025
▁Indoor	-11026
▁Respon	-11027
▁Steven	-11028
,2026-08	-11029
26"},{"@	-11030
leksandr	-11031
versized	-11032
▁2024-11	-11033
▁Andheri	-11034
▁Bottoms	-11035
▁Martins	-11036
▁deliver	-11037
":"6"}],"	-11038
Adventure	-11039
Krzysztof	-11040
▁Operator	-11041
▁rounding	-11042
▁Machinery	-11043
Collaboration	-11044
AV	-11045
BY	-11046
CG	-11047
DU	-11048
HL	-11049
HW	-11050
JL	-11051
NU	-11052
OZ	-11053
RN	-11054
SL	-11055
vn	-11056
şe	-11057
$21	-11058
0</	-11059
14"	-11060
161	-11061
165	-11062
35"	-11063
428	-11064
47-	-11065
536	-11066
895	-11067
>33	-11068
JWB	-11069
SIM	-11070
aco	-11071
agu	-11072
ask	-11073
ico	-11074
irí	-11075
lla	-11076
mie	-11077
onz	-11078
rat	-11079
rne	-11080
▁0.	-11081
▁LP	-11082
-038	-11083
-044	-11084
-107	-11085
-127	-11086
-188	-11087
-218	-11088
-340	-11089
-363	-11090
-365	-11091
-387	-11092
-498	-11093
-500	-11094
-513	-11095
-525	-11096
-691	-11097
-705	-11098
-711	-11099
-757	-11100
-763	-11101
-850	-11102
-898	-11103
-908	-11104
-965	-11105
.15"	-11106
26</	-11107
28",	-11108
39",	-11109
44",	-11110
="25	-11111
Aiko	-11112
Alim	-11113
Alma	-11114
Amar	-11115
Doaa	-11116
Emer	-11117
Oana	-11118
Sara	-11119
Sini	-11120
aras	-11121
azli	-11122
bold	-11123
irit	-11124
lind	-11125
wiga	-11126
▁14;	-11127
▁374	-11128
▁404	-11129
▁415	-11130
▁466	-11131
▁495	-11132
▁499	-11133
▁536	-11134
▁548	-11135
▁562	-11136
▁583	-11137
▁629	-11138
▁688	-11139
▁808	-11140
▁814	-11141
▁828	-11142
▁875	-11143
▁909	-11144
▁921	-11145
▁923	-11146
▁940	-11147
▁Cab	-11148
▁Lod	-11149
▁Pos	-11150
.03",	-11151
.07",	-11152
.11",	-11153
.29",	-11154
.75",	-11155
.77",	-11156
.92",	-11157
Azhar	-11158
Mahdi	-11159
SHIPP	-11160
Titan	-11161
Zahra	-11162
argas	-11163
arons	-11164
askan	-11165
elope	-11166
inosa	-11167
olton	-11168
urent	-11169
":"430	-11170
":"434	-11171
":"529	-11172
":"673	-11173
":"748	-11174
916","	-11175
Mariya	-11176
Naresh	-11177
Shahin	-11178
Stream	-11179
curate	-11180
errero	-11181
friars	-11182
iggins	-11183
umbing	-11184
▁Capel	-11185
":"961,	-11186
Alessia	-11187
Checked	-11188
Joggers	-11189
Loafers	-11190
Workout	-11191
freedom	-11192
leasant	-11193
liberty	-11194
robindo	-11195
▁Rogers	-11196
Mohammed	-11197
▁Alaskan	-11198
▁Legroom	-11199
▁Shipper	-11200
":"1"}],"	-11201
":"2017-0	-11202
Valentina	-11203
Worldwide	-11204
▁Necklace	-11205
▁Training	-11206
":"2024-02	-11207
":"2025-09	-11208
":"2026-02	-11209
":"2026-04	-11210
▁PROCESSED	-11211
▁consignee	-11212
▁Blackfriars	-11213
BZ	-11214
JV	-11215
MV	-11216
NL	-11217
SQ	-11218
YL	-11219
tj	-11220
$45	-11221
$55	-11222
,06	-11223
34"	-11224
42"	-11225
50"	-11226
>34	-11227
DIS	-11228
Ewa	-11229
Mac	-11230
ORT	-11231
bil	-11232
eah	-11233
max	-11234
oir	-11235
rod	-11236
▁(7	-11237
▁Aw	-11238
▁Ol	-11239
▁Os	-11240
-000	-11241
-065	-11242
-178	-11243
-324	-11244
-399	-11245
-402	-11246
-450	-11247
-458	-11248
-463	-11249
-512	-11250
-569	-11251
-720	-11252
-759	-11253
-800	-11254
-818	-11255
-825	-11256
-835	-11257
-859	-11258
-877	-11259
-897	-11260
-907	-11261
.6",	-11262
.81"	-11263
.93"	-11264
25",	-11265
37</	-11266
59",	-11267
LPNE	-11268
Lily	-11269
Oleh	-11270
Qiao	-11271
Rain	-11272
Ukko	-11273
Yuna	-11274
atab	-11275
augh	-11276
educ	-11277
gorz	-11278
hall	-11279
inan	-11280
irin	-11281
mill	-11282
urla	-11283
vill	-11284
▁"57	-11285
▁432	-11286
▁440	-11287
▁457	-11288
▁480	-11289
▁486	-11290
▁526	-11291
▁537	-11292
▁551	-11293
▁564	-11294
▁574	-11295
▁586	-11296
▁595	-11297
▁661	-11298
▁664	-11299
▁702	-11300
▁751	-11301
▁753	-11302
▁803	-11303
▁810	-11304
▁819	-11305
▁829	-11306
▁835	-11307
▁844	-11308
▁892	-11309
▁895	-11310
▁932	-11311
▁935	-11312
▁LLC	-11313
▁SIM	-11314
▁Sha	-11315
.01",	-11316
.36",	-11317
.54",	-11318
.97",	-11319
ARGED	-11320
Anisa	-11321
Audio	-11322
Class	-11323
Emine	-11324
Gizem	-11325
Goran	-11326
Hasan	-11327
Janek	-11328
Karim	-11329
Maite	-11330
Pedro	-11331
Priya	-11332
achos	-11333
elsea	-11334
enzie	-11335
ihoon	-11336
inder	-11337
irill	-11338
iting	-11339
lewis	-11340
livia	-11341
oshua	-11342
ruise	-11343
▁Pine	-11344
":"421	-11345
":"431	-11346
":"441	-11347
":"464	-11348
":"492	-11349
":"547	-11350
":"568	-11351
":"587	-11352
":"593	-11353
":"594	-11354
":"706	-11355
":"823	-11356
":"840	-11357
55"},"	-11358
7"}],"	-11359
78"},"	-11360
Deepak	-11361
Energy	-11362
Ferenc	-11363
Gülcan	-11364
Sanjay	-11365
Shahid	-11366
brooke	-11367
finity	-11368
ickett	-11369
ippers	-11370
nchise	-11371
penter	-11372
ranola	-11373
▁2025-	-11374
▁Kurla	-11375
▁Leith	-11376
▁Urban	-11377
Grilled	-11378
Hiroshi	-11379
Scooter	-11380
Shigeru	-11381
flowers	-11382
newtown	-11383
popular	-11384
▁Mysore	-11385
▁Router	-11386
▁Winter	-11387
,2026-01	-11388
,2026-10	-11389
DELIVERY	-11390
Swimwear	-11391
Wojciech	-11392
enduring	-11393
rincipal	-11394
▁CHARGED	-11395
▁Cordova	-11396
▁Jervois	-11397
▁Limited	-11398
▁Sanchez	-11399
▁Thermal	-11400
-13"},{"@	-11401
-22"},{"@	-11402
Antivirus	-11403
education	-11404
essential	-11405
integrity	-11406
▁"2024-10	-11407
▁Response	-11408
":"2024-07	-11409
dispatched	-11410
▁Broadview	-11411
▁Greenwood	-11412
▁Stretford	-11413
▁Fitzgerald	-11414
AE	-11415
BH	-11416
HC	-11417
Ke	-11418
MW	-11419
NC	-11420
YX	-11421
ca	-11422
fa	-11423
gl	-11424
▁u	-11425
$48	-11426
$73	-11427
11"	-11428
29-	-11429
30"	-11430
34-	-11431
600	-11432
>32	-11433
>60	-11434
>73	-11435
Aki	-11436
NWB	-11437
Rui	-11438
SSL	-11439
Tam	-11440
cho	-11441
eym	-11442
lon	-11443
oão	-11444
rix	-11445
tim	-11446
uso	-11447
yap	-11448
▁Au	-11449
$128	-11450
-024	-11451
-049	-11452
-137	-11453
-198	-11454
-297	-11455
-347	-11456
-415	-11457
-418	-11458
-465	-11459
-497	-11460
-535	-11461
-538	-11462
-558	-11463
-598	-11464
-737	-11465
-764	-11466
-767	-11467
-868	-11468
-920	-11469
-937	-11470
-967	-11471
-968	-11472
.7",	-11473
20</	-11474
27",	-11475
Eetu	-11476
Gael	-11477
Kaan	-11478
Mads	-11479
Said	-11480
Sale	-11481
Wood	-11482
Yara	-11483
adel	-11484
arav	-11485
atia	-11486
bion	-11487
ejin	-11488
four	-11489
make	-11490
orne	-11491
tyna	-11492
ubio	-11493
énez	-11494
üler	-11495
▁"30	-11496
▁088	-11497
▁12;	-11498
▁376	-11499
▁485	-11500
▁539	-11501
▁561	-11502
▁569	-11503
▁584	-11504
▁592	-11505
▁602	-11506
▁705	-11507
▁706	-11508
▁716	-11509
▁737	-11510
▁743	-11511
▁750	-11512
▁760	-11513
▁765	-11514
▁784	-11515
▁823	-11516
▁837	-11517
▁848	-11518
▁864	-11519
▁901	-11520
▁907	-11521
▁939	-11522
▁987	-11523
▁988	-11524
▁ACC	-11525
▁Ann	-11526
▁Cup	-11527
▁Ger	-11528
▁Gül	-11529
▁Jin	-11530
▁Les	-11531
▁Nat	-11532
.39",	-11533
.87",	-11534
Aisle	-11535
Amara	-11536
Hafsa	-11537
Honey	-11538
Ilona	-11539
Kaisa	-11540
Local	-11541
Maija	-11542
Olive	-11543
Pavel	-11544
arget	-11545
kseli	-11546
lijus	-11547
lying	-11548
minar	-11549
oboru	-11550
árton	-11551
éline	-11552
▁7/4,	-11553
▁Barr	-11554
▁Brad	-11555
▁Gray	-11556
▁Hand	-11557
▁vege	-11558
":"440	-11559
":"442	-11560
":"490	-11561
":"522	-11562
":"535	-11563
":"549	-11564
":"570	-11565
":"589	-11566
":"700	-11567
":"757	-11568
":"762	-11569
":"778	-11570
":"857	-11571
":"978	-11572
.80","	-11573
Beanie	-11574
Bikini	-11575
Chinos	-11576
Device	-11577
Hiking	-11578
Javier	-11579
Moussa	-11580
Museum	-11581
Sofija	-11582
androv	-11583
ashyap	-11584
brella	-11585
eymour	-11586
ickets	-11587
makeup	-11588
▁Berri	-11589
▁Field	-11590
▁Jeans	-11591
▁Lodhi	-11592
▁Snack	-11593
":"974,	-11594
Ceiling	-11595
INVOICE	-11596
Marcela	-11597
Mitsuki	-11598
harvest	-11599
optimal	-11600
tickets	-11601
▁Dalton	-11602
▁please	-11603
.11.2026	-11604
Bracelet	-11605
friendly	-11606
holidays	-11607
prestige	-11608
ssington	-11609
urelijus	-11610
▁2024-05	-11611
▁Bristol	-11612
-25"},{"@	-11613
Dimitrios	-11614
directory	-11615
universal	-11616
▁Columbus	-11617
▁Peterson	-11618
":"2024-09	-11619
▁Aurobindo	-11620
TRANSACTION	-11621
DG	-11622
DV	-11623
EV	-11624
Ja	-11625
Ko	-11626
NI	-11627
OG	-11628
SG	-11629
TP	-11630
YQ	-11631
sc	-11632
ảo	-11633
$37	-11634
$42	-11635
$68	-11636
33-	-11637
48-	-11638
55"	-11639
65"	-11640
Dom	-11641
Hat	-11642
eri	-11643
esa	-11644
fax	-11645
nor	-11646
vey	-11647
ynn	-11648
şah	-11649
▁ST	-11650
-028	-11651
-108	-11652
-114	-11653
-140	-11654
-159	-11655
-169	-11656
-208	-11657
-215	-11658
-278	-11659
-313	-11660
-317	-11661
-345	-11662
-361	-11663
-414	-11664
-423	-11665
-467	-11666
-491	-11667
-519	-11668
-537	-11669
-550	-11670
-557	-11671
-561	-11672
-700	-11673
-709	-11674
-787	-11675
-814	-11676
-827	-11677
-837	-11678
-840	-11679
-844	-11680
-891	-11681
-938	-11682
-948	-11683
-997	-11684
.01"	-11685
12</	-11686
13",	-11687
19",	-11688
24</	-11689
37",	-11690
="19	-11691
Alba	-11692
Arda	-11693
Esra	-11694
Inês	-11695
Luka	-11696
Menu	-11697
Minh	-11698
Qing	-11699
adge	-11700
alli	-11701
alls	-11702
avez	-11703
avvy	-11704
elax	-11705
emeh	-11706
flex	-11707
game	-11708
hiba	-11709
ibel	-11710
inct	-11711
ofia	-11712
othy	-11713
surf	-11714
uart	-11715
yama	-11716
▁"59	-11717
▁048	-11718
▁15;	-11719
▁392	-11720
▁501	-11721
▁502	-11722
▁533	-11723
▁580	-11724
▁673	-11725
▁678	-11726
▁693	-11727
▁721	-11728
▁733	-11729
▁735	-11730
▁755	-11731
▁790	-11732
▁891	-11733
▁925	-11734
▁928	-11735
▁963	-11736
▁Det	-11737
▁LBS	-11738
▁Lem	-11739
▁Rao	-11740
▁Roe	-11741
.14",	-11742
.23",	-11743
.94",	-11744
Adamu	-11745
Boxer	-11746
Elham	-11747
Ferry	-11748
Kalle	-11749
Leena	-11750
Sahar	-11751
Tamás	-11752
Temur	-11753
annah	-11754
auhan	-11755
emony	-11756
erpet	-11757
focus	-11758
imena	-11759
itial	-11760
orges	-11761
pherd	-11762
quick	-11763
umpur	-11764
▁Book	-11765
▁Howe	-11766
▁Hyde	-11767
":"334	-11768
":"447	-11769
":"454	-11770
":"455	-11771
":"488	-11772
":"489	-11773
":"509	-11774
":"510	-11775
":"537	-11776
":"538	-11777
":"540	-11778
":"551	-11779
":"667	-11780
":"718	-11781
":"749	-11782
":"800	-11783
":"878	-11784
":"928	-11785
682","	-11786
Andrew	-11787
Dmytro	-11788
Hostel	-11789
László	-11790
Nesrin	-11791
Spring	-11792
ampion	-11793
atemeh	-11794
grated	-11795
hudson	-11796
quarie	-11797
school	-11798
zegorz	-11799
▁Bloor	-11800
▁Lever	-11801
Granola	-11802
Leather	-11803
Luggage	-11804
Mathieu	-11805
Siobhán	-11806
Tadeusz	-11807
atabase	-11808
century	-11809
hibault	-11810
istinct	-11811
patrick	-11812
radiant	-11813
ławomir	-11814
▁Caesar	-11815
▁Chavez	-11816
▁Daniel	-11817
▁Fraser	-11818
,2026-03	-11819
MenuItem	-11820
download	-11821
engineer	-11822
fairview	-11823
heritage	-11824
outhwash	-11825
▁2025-08	-11826
▁Handled	-11827
▁Linking	-11828
▁Manning	-11829
▁Seymour	-11830
-12"},{"@	-11831
="2025-10	-11832
Siddharth	-11833
▁"2024-02	-11834
▁"2024-12	-11835
▁Ameerpet	-11836
▁Ceremony	-11837
▁Document	-11838
":"2024-05	-11839
":"2025-04	-11840
Onboarding	-11841
▁Extension	-11842
▁Ossington	-11843
▁promotion	-11844
HX	-11845
JZ	-11846
MC	-11847
MZ	-11848
RJ	-11849
SF	-11850
TK	-11851
WW	-11852
YG	-11853
rl	-11854
ît	-11855
úl	-11856
$70	-11857
$80	-11858
,"1	-11859
02"	-11860
10-	-11861
164	-11862
62"	-11863
69"	-11864
>55	-11865
Fan	-11866
Jin	-11867
Miy	-11868
Nar	-11869
Red	-11870
Set	-11871
War	-11872
alv	-11873
awn	-11874
dez	-11875
eed	-11876
ief	-11877
use	-11878
wat	-11879
▁$4	-11880
▁da	-11881
-157	-11882
-191	-11883
-320	-11884
-327	-11885
-420	-11886
-428	-11887
-430	-11888
-447	-11889
-540	-11890
-544	-11891
-790	-11892
-810	-11893
-918	-11894
-969	-11895
46",	-11896
57</	-11897
="28	-11898
Aina	-11899
Apex	-11900
CIAL	-11901
Ekin	-11902
INAT	-11903
Juho	-11904
Mult	-11905
aban	-11906
city	-11907
kawa	-11908
lark	-11909
link	-11910
razi	-11911
yers	-11912
émie	-11913
▁"29	-11914
▁"62	-11915
▁"98	-11916
▁348	-11917
▁375	-11918
▁422	-11919
▁435	-11920
▁449	-11921
▁470	-11922
▁474	-11923
▁505	-11924
▁534	-11925
▁545	-11926
▁546	-11927
▁582	-11928
▁610	-11929
▁613	-11930
▁620	-11931
▁628	-11932
▁704	-11933
▁742	-11934
▁766	-11935
▁779	-11936
▁818	-11937
▁825	-11938
▁877	-11939
▁920	-11940
▁952	-11941
▁Doc	-11942
▁Gst	-11943
▁Mel	-11944
▁Spr	-11945
▁mar	-11946
/2018	-11947
Alina	-11948
Apron	-11949
Birch	-11950
Deniz	-11951
Elina	-11952
Imran	-11953
Irina	-11954
Jacek	-11955
Mason	-11956
PPORT	-11957
Salim	-11958
Seiji	-11959
Sonia	-11960
Study	-11961
Thijs	-11962
Tümay	-11963
Unity	-11964
Yulia	-11965
acios	-11966
audio	-11967
hmoud	-11968
izuno	-11969
liott	-11970
lunar	-11971
money	-11972
solid	-11973
uomas	-11974
usrat	-11975
verin	-11976
zario	-11977
▁HAND	-11978
":"462	-11979
":"477	-11980
":"480	-11981
":"564	-11982
":"569	-11983
":"574	-11984
":"613	-11985
":"637	-11986
":"717	-11987
":"768	-11988
":"779	-11989
42"},"	-11990
97"},"	-11991
Bashir	-11992
Chinwe	-11993
Giorgi	-11994
Lukasz	-11995
Mantas	-11996
Marika	-11997
Matias	-11998
Mobile	-11999
Season	-12000
forest	-12001
iménez	-12002
offman	-12003
sierra	-12004
ustavo	-12005
▁Begum	-12006
▁Catal	-12007
▁Crown	-12008
▁Karim	-12009
Fitness	-12010
Handbag	-12011
Natural	-12012
Teodoro	-12013
Welcome	-12014
akahiro	-12015
illermo	-12016
unified	-12017
urukawa	-12018
vensson	-12019
website	-12020
▁Fuller	-12021
▁Hubert	-12022
▁MOBILE	-12023
▁Summer	-12024
▁Temple	-12025
66"},{"@	-12026
Baseball	-12027
Bathrobe	-12028
Cardigan	-12029
▁2025-03	-12030
▁Balance	-12031
▁Belmont	-12032
▁HANDLED	-12033
alladares	-12034
▁DESTINAT	-12035
":"2025-06	-12036
Monitoring	-12037
▁Charminar	-12038
▁Reference	-12039
consignment	-12040
▁Inspection	-12041
▁Sherbrooke	-12042
$)	-12043
CR	-12044
HI	-12045
NJ	-12046
PZ	-12047
RP	-12048
VV	-12049
WZ	-12050
YA	-12051
YF	-12052
tv	-12053
vs	-12054
ym	-12055
šo	-12056
$31	-12057
$61	-12058
($)	-12059
17-	-12060
21"	-12061
229	-12062
43"	-12063
53"	-12064
59"	-12065
>45	-12066
Elm	-12067
GWB	-12068
Sol	-12069
cee	-12070
emb	-12071
iku	-12072
oni	-12073
wil	-12074
zac	-12075
▁Ek	-12076
▁Fa	-12077
-008	-12078
-088	-12079
-120	-12080
-138	-12081
-139	-12082
-227	-12083
-230	-12084
-247	-12085
-289	-12086
-412	-12087
-424	-12088
-529	-12089
-555	-12090
-715	-12091
-799	-12092
-862	-12093
-924	-12094
-964	-12095
.47"	-12096
.72)	-12097
10",	-12098
16",	-12099
49",	-12100
Asha	-12101
Eero	-12102
Emre	-12103
Jaan	-12104
LENE	-12105
LKNE	-12106
Mona	-12107
anan	-12108
artz	-12109
burn	-12110
food	-12111
frey	-12112
gacy	-12113
gado	-12114
ilva	-12115
kone	-12116
meka	-12117
ndle	-12118
ndon	-12119
rell	-12120
skin	-12121
ssex	-12122
taxi	-12123
ther	-12124
ália	-12125
▁030	-12126
▁10;	-12127
▁445	-12128
▁472	-12129
▁484	-12130
▁516	-12131
▁521	-12132
▁624	-12133
▁635	-12134
▁644	-12135
▁687	-12136
▁695	-12137
▁699	-12138
▁715	-12139
▁730	-12140
▁757	-12141
▁764	-12142
▁769	-12143
▁780	-12144
▁783	-12145
▁807	-12146
▁830	-12147
▁838	-12148
▁886	-12149
▁904	-12150
▁929	-12151
▁968	-12152
▁969	-12153
▁977	-12154
▁Mag	-12155
▁Mey	-12156
▁Rah	-12157
▁Sam	-12158
▁red	-12159
.63",	-12160
.91",	-12161
Aarya	-12162
Aayla	-12163
Arben	-12164
Crown	-12165
Daily	-12166
Itzel	-12167
Janis	-12168
Jukka	-12169
Keiko	-12170
Lucía	-12171
Marek	-12172
Piotr	-12173
Päivi	-12174
Tanja	-12175
Trail	-12176
akize	-12177
anton	-12178
ather	-12179
enham	-12180
kacem	-12181
lease	-12182
mford	-12183
orski	-12184
wartz	-12185
▁Bash	-12186
▁Crow	-12187
▁Flin	-12188
▁Glen	-12189
▁Leon	-12190
▁Less	-12191
▁Mend	-12192
▁Mill	-12193
▁Parc	-12194
▁Peak	-12195
▁Spad	-12196
▁Stre	-12197
▁Tott	-12198
▁Wolf	-12199
":"424	-12200
":"439	-12201
":"446	-12202
":"456	-12203
":"459	-12204
":"501	-12205
":"503	-12206
":"532	-12207
":"541	-12208
":"575	-12209
":"592	-12210
":"728	-12211
":"759	-12212
":"877	-12213
":"929	-12214
":"955	-12215
54"},"	-12216
99"},"	-12217
Caesar	-12218
Cinzia	-12219
Daniel	-12220
Mirela	-12221
Noriko	-12222
Pajama	-12223
Sigrid	-12224
adwiga	-12225
carter	-12226
double	-12227
elaxed	-12228
ergent	-12229
intage	-12230
itchie	-12231
nessen	-12232
pswich	-12233
secake	-12234
valles	-12235
valley	-12236
▁Anzac	-12237
▁Cesar	-12238
▁Court	-12239
▁Gomez	-12240
▁Slice	-12241
Alireza	-12242
Atsushi	-12243
Levente	-12244
Victory	-12245
cluding	-12246
flights	-12247
general	-12248
nchmark	-12249
▁Pepper	-12250
▁Webcam	-12251
Aissatou	-12252
Miroslav	-12253
Mohammad	-12254
downtown	-12255
▁Burrito	-12256
▁Charing	-12257
▁Jacques	-12258
▁Rajpath	-12259
Underwear	-12260
▁Flinders	-12261
▁Morrison	-12262
Aleksandar	-12263
Chimamanda	-12264
SETTLEMENT	-12265
apartments	-12266
ohannessen	-12267
▁Macquarie	-12268
▁Newspaper	-12269
▁Tottenham	-12270
OJ	-12271
RQ	-12272
$82	-12273
.40	-12274
12-	-12275
260	-12276
31"	-12277
341	-12278
58-	-12279
61"	-12280
668	-12281
8",	-12282
872	-12283
978	-12284
>79	-12285
CWB	-12286
Fro	-12287
Jun	-12288
OPY	-12289
VPN	-12290
gei	-12291
jet	-12292
ops	-12293
say	-12294
spa	-12295
uan	-12296
vat	-12297
yay	-12298
ğan	-12299
▁+4	-12300
▁PV	-12301
$114	-12302
-009	-12303
-014	-12304
-068	-12305
-117	-12306
-205	-12307
-235	-12308
-237	-12309
-299	-12310
-348	-12311
-370	-12312
-400	-12313
-405	-12314
-407	-12315
-448	-12316
-577	-12317
-597	-12318
-714	-12319
-735	-12320
-744	-12321
-857	-12322
-955	-12323
.88)	-12324
28</	-12325
="22	-12326
="27	-12327
Cons	-12328
LRNE	-12329
Lift	-12330
Mika	-12331
Neda	-12332
Nino	-12333
Soup	-12334
Yuri	-12335
apak	-12336
back	-12337
bins	-12338
cold	-12339
edle	-12340
efan	-12341
eley	-12342
iago	-12343
ilar	-12344
leta	-12345
llah	-12346
next	-12347
rect	-12348
resp	-12349
stru	-12350
tjom	-12351
umph	-12352
wick	-12353
▁"+6	-12354
▁"21	-12355
▁16;	-12356
▁20;	-12357
▁406	-12358
▁489	-12359
▁518	-12360
▁570	-12361
▁608	-12362
▁622	-12363
▁623	-12364
▁719	-12365
▁774	-12366
▁797	-12367
▁834	-12368
▁855	-12369
▁859	-12370
▁879	-12371
▁924	-12372
▁955	-12373
▁990	-12374
▁Abr	-12375
▁Arn	-12376
▁Ron	-12377
48","	-12378
Boris	-12379
Cedar	-12380
Damla	-12381
Enter	-12382
Hakan	-12383
Jamal	-12384
Jozef	-12385
Kunal	-12386
Mateo	-12387
Naoko	-12388
Trade	-12389
ckman	-12390
elite	-12391
grave	-12392
haven	-12393
legal	-12394
ollow	-12395
ounty	-12396
radio	-12397
utton	-12398
utumn	-12399
▁Burn	-12400
▁Free	-12401
▁Rain	-12402
":"425	-12403
":"444	-12404
":"460	-12405
":"467	-12406
":"473	-12407
":"483	-12408
":"506	-12409
":"554	-12410
":"566	-12411
":"612	-12412
":"629	-12413
":"633	-12414
":"654	-12415
":"687	-12416
":"745	-12417
":"763	-12418
":"784	-12419
":"791	-12420
":"808	-12421
":"812	-12422
":"85,	-12423
":"863	-12424
":"900	-12425
":"927	-12426
":"957	-12427
Cruise	-12428
Fatima	-12429
Fleece	-12430
Frozen	-12431
Fumiya	-12432
ILMENT	-12433
Oskari	-12434
Rasmus	-12435
Sameer	-12436
Steven	-12437
Vasile	-12438
adhyay	-12439
needle	-12440
ustyna	-12441
vector	-12442
▁Nolan	-12443
▁Route	-12444
▁Talon	-12445
▁north	-12446
▁south	-12447
Chinedu	-12448
amamoto	-12449
constru	-12450
exander	-12451
ittaker	-12452
morning	-12453
perties	-12454
umphrey	-12455
▁Brunts	-12456
▁Fillet	-12457
▁Pender	-12458
▁Ronces	-12459
▁Thread	-12460
▁ernail	-12461
momentum	-12462
robinson	-12463
▁2024-08	-12464
▁Bernard	-12465
▁Springs	-12466
-15"},{"@	-12467
-23"},{"@	-12468
Franziska	-12469
▁Belgrave	-12470
▁Fountain	-12471
":"2024-04	-12472
Enterprise	-12473
interstate	-12474
properties	-12475
responsive	-12476
▁Developer	-12477
▁Middleway	-12478
▁Universal	-12479
▁Exhibition	-12480
▁FULFILMENT	-12481
construction	-12482
▁Threadneedle	-12483
▁Fountainbridge	-12484
):	-12485
EU	-12486
IX	-12487
OT	-12488
SX	-12489
YJ	-12490
yş	-12491
$39	-12492
$44	-12493
$52	-12494
$77	-12495
$96	-12496
.70	-12497
07"	-12498
261	-12499
37-	-12500
40-	-12501
52"	-12502
546	-12503
564	-12504
586	-12505
662	-12506
68"	-12507
691	-12508
GPS	-12509
Oak	-12510
TWB	-12511
Vac	-12512
igu	-12513
ims	-12514
kee	-12515
llo	-12516
loe	-12517
lut	-12518
sum	-12519
xis	-12520
▁6%	-12521
-078	-12522
-105	-12523
-115	-12524
-144	-12525
-145	-12526
-197	-12527
-244	-12528
-277	-12529
-314	-12530
-335	-12531
-378	-12532
-397	-12533
-419	-12534
-425	-12535
-437	-12536
-469	-12537
-494	-12538
-761	-12539
-811	-12540
-815	-12541
-823	-12542
-845	-12543
-889	-12544
-899	-12545
-940	-12546
.87"	-12547
.89)	-12548
08",	-12549
09</	-12550
32",	-12551
48",	-12552
48</	-12553
52",	-12554
53",	-12555
57",	-12556
58",	-12557
Bell	-12558
Ezgi	-12559
Hala	-12560
Jing	-12561
MODE	-12562
Polo	-12563
ahab	-12564
apia	-12565
eroa	-12566
erta	-12567
gram	-12568
ifer	-12569
info	-12570
limo	-12571
omni	-12572
onna	-12573
rood	-12574
safe	-12575
show	-12576
yşan	-12577
▁"61	-12578
▁"65	-12579
▁"67	-12580
▁"68	-12581
▁017	-12582
▁448	-12583
▁476	-12584
▁555	-12585
▁572	-12586
▁575	-12587
▁617	-12588
▁632	-12589
▁654	-12590
▁680	-12591
▁725	-12592
▁770	-12593
▁794	-12594
▁806	-12595
▁833	-12596
▁839	-12597
▁863	-12598
▁914	-12599
▁Jay	-12600
▁Jer	-12601
▁Nov	-12602
▁Web	-12603
▁not	-12604
▁the	-12605
":"3,	-12606
Björn	-12607
Dejan	-12608
Elira	-12609
Mikko	-12610
Raisa	-12611
abore	-12612
asaki	-12613
embly	-12614
gaard	-12615
irnov	-12616
ković	-12617
risto	-12618
ssage	-12619
ultra	-12620
▁Desh	-12621
▁Jean	-12622
▁Rach	-12623
▁Soho	-12624
▁TILL	-12625
▁time	-12626
":"451	-12627
":"452	-12628
":"457	-12629
":"466	-12630
":"474	-12631
":"479	-12632
":"484	-12633
":"514	-12634
":"518	-12635
":"536	-12636
":"555	-12637
":"556	-12638
":"632	-12639
":"634	-12640
":"660	-12641
":"663	-12642
":"669	-12643
":"670	-12644
":"688	-12645
":"723	-12646
":"727	-12647
":"735	-12648
":"747	-12649
":"760	-12650
":"775	-12651
":"789	-12652
":"798	-12653
":"811	-12654
":"827	-12655
":"854	-12656
":"862	-12657
":"908	-12658
":"909	-12659
":"940	-12660
":"948	-12661
":"985	-12662
348","	-12663
613","	-12664
644","	-12665
77"},"	-12666
Céline	-12667
Dmitri	-12668
Nurcan	-12669
Olivia	-12670
Rashid	-12671
Renata	-12672
Salome	-12673
Sander	-12674
Veljko	-12675
anagar	-12676
arajan	-12677
eatriz	-12678
letter	-12679
morris	-12680
social	-12681
ughton	-12682
wealth	-12683
▁Andri	-12684
▁Autom	-12685
▁Globa	-12686
▁Marks	-12687
▁Riley	-12688
▁Souza	-12689
":"625,	-12690
":"996,	-12691
Cancell	-12692
Izabela	-12693
adislav	-12694
careers	-12695
esecake	-12696
harmony	-12697
igueroa	-12698
ikkinen	-12699
initial	-12700
iqueira	-12701
onathan	-12702
ownline	-12703
ractors	-12704
seaside	-12705
▁Cather	-12706
Boubacar	-12707
Leggings	-12708
Vladimir	-12709
Workshop	-12710
Zbigniew	-12711
frontier	-12712
oulevard	-12713
▁2024-01	-12714
▁Account	-12715
▁Content	-12716
▁Horizon	-12717
▁Ipswich	-12718
▁SUPPORT	-12719
-11"},{"@	-12720
="2025-08	-12721
="2025-12	-12722
Apartment	-12723
Crossbody	-12724
community	-12725
equipment	-12726
northwest	-12727
▁Bromford	-12728
▁Thorndon	-12729
Attraction	-12730
▁Catherine	-12731
▁Excursion	-12732
▁Jayanagar	-12733
contractors	-12734
▁"2024-03-0	-12735
▁Electronic	-12736
▁Partnership	-12737
▁Roncesvalles	-12738
AQ	-12739
BM	-12740
Id	-12741
YN	-12742
Yi	-12743
hn	-12744
$59	-12745
,16	-12746
18-	-12747
210	-12748
27-	-12749
417	-12750
45"	-12751
67"	-12752
876	-12753
951	-12754
Ami	-12755
Aoi	-12756
Doc	-12757
EXT	-12758
Man	-12759
VWB	-12760
awc	-12761
bel	-12762
fra	-12763
gom	-12764
how	-12765
leb	-12766
pra	-12767
rya	-12768
ulk	-12769
▁TV	-12770
▁ku	-12771
$122	-12772
$127	-12773
-077	-12774
-091	-12775
-097	-12776
-100	-12777
-135	-12778
-167	-12779
-220	-12780
-269	-12781
-337	-12782
-429	-12783
-435	-12784
-439	-12785
-589	-12786
-608	-12787
-660	-12788
-762	-12789
-769	-12790
-819	-12791
-867	-12792
-909	-12793
-957	-12794
-999	-12795
.19)	-12796
.98)	-12797
02",	-12798
18",	-12799
22",	-12800
45",	-12801
47</	-12802
53</	-12803
CHER	-12804
Inte	-12805
Kian	-12806
Koen	-12807
Lior	-12808
Mode	-12809
Petr	-12810
Shin	-12811
Tian	-12812
amaj	-12813
eeks	-12814
esna	-12815
ilet	-12816
jali	-12817
ksen	-12818
laye	-12819
llis	-12820
nton	-12821
pure	-12822
qbal	-12823
rowe	-12824
wang	-12825
wave	-12826
wind	-12827
árez	-12828
▁"33	-12829
▁"39	-12830
▁018	-12831
▁19;	-12832
▁394	-12833
▁446	-12834
▁517	-12835
▁552	-12836
▁560	-12837
▁604	-12838
▁606	-12839
▁634	-12840
▁642	-12841
▁651	-12842
▁677	-12843
▁679	-12844
▁694	-12845
▁703	-12846
▁709	-12847
▁748	-12848
▁759	-12849
▁772	-12850
▁776	-12851
▁789	-12852
▁820	-12853
▁883	-12854
▁944	-12855
▁954	-12856
▁982	-12857
▁Ali	-12858
▁Dev	-12859
▁Hen	-12860
▁Hos	-12861
▁LED	-12862
▁Nut	-12863
.85",	-12864
Amira	-12865
Anssi	-12866
Burak	-12867
Ehsan	-12868
Eteri	-12869
Judit	-12870
Kenji	-12871
Movie	-12872
Narin	-12873
Rania	-12874
Stone	-12875
URIER	-12876
Vadim	-12877
alenc	-12878
assen	-12879
click	-12880
deira	-12881
games	-12882
ifert	-12883
japur	-12884
konen	-12885
yrood	-12886
▁Arya	-12887
▁COPY	-12888
▁Mult	-12889
▁Paul	-12890
":"24,	-12891
":"422	-12892
":"471	-12893
":"505	-12894
":"516	-12895
":"526	-12896
":"600	-12897
":"630	-12898
":"680	-12899
":"690	-12900
":"714	-12901
":"725	-12902
":"729	-12903
":"754	-12904
":"769	-12905
":"774	-12906
":"820	-12907
":"839	-12908
":"889	-12909
":"891	-12910
":"923	-12911
":"949	-12912
":"965	-12913
03"},"	-12914
41"},"	-12915
Balázs	-12916
Canned	-12917
Ivanna	-12918
Joseph	-12919
Jovana	-12920
Kazuki	-12921
Khalid	-12922
Malika	-12923
Pranav	-12924
Roxana	-12925
Sakura	-12926
Scenic	-12927
Zanele	-12928
aguchi	-12929
ancock	-12930
antley	-12931
awcett	-12932
dersen	-12933
future	-12934
ioleta	-12935
leeper	-12936
▁Hasan	-12937
▁Promo	-12938
▁Rosen	-12939
▁Steel	-12940
":"162,	-12941
":"302,	-12942
":"593,	-12943
":"813,	-12944
":"850,	-12945
)"},{"@	-12946
Mamadou	-12947
Sandals	-12948
okkonen	-12949
premium	-12950
redwood	-12951
udesert	-12952
urnbull	-12953
▁Bandhu	-12954
▁Bvndle	-12955
▁Canvas	-12956
▁Deluxe	-12957
▁Harbor	-12958
▁Permas	-12959
▁Peters	-12960
▁Sarcee	-12961
,2026-07	-12962
,2026-12	-12963
/25/2024	-12964
Catarina	-12965
Roadside	-12966
SHIPMENT	-12967
imperial	-12968
resource	-12969
▁2024-04	-12970
▁2024-10	-12971
▁2025-11	-12972
▁2025-12	-12973
▁Century	-12974
▁Colmore	-12975
▁Context	-12976
▁Notting	-12977
▁Removal	-12978
▁Spadina	-12979
▁subtota	-12980
-19"},{"@	-12981
Equipment	-12982
Oversized	-12983
Purchased	-12984
Stanisław	-12985
gutierrez	-12986
▁"2024-03	-12987
▁Holyrood	-12988
▁Northern	-12989
▁Seasonal	-12990
":"2026-09	-12991
▁Broughton	-12992
▁Detergent	-12993
corporation	-12994
partnership	-12995
Cancellation	-12996
▁Consignment	-12997
Af	-12998
DC	-12999
DM	-13000
GJ	-13001
Ge	-13002
HU	-13003
KW	-13004
Sm	-13005
UL	-13006
fm	-13007
ms	-13008
rt	-13009
$69	-13010
$79	-13011
05"	-13012
08"	-13013
264	-13014
41"	-13015
956	-13016
977	-13017
>22	-13018
>75	-13019
Ane	-13020
Ava	-13021
DWB	-13022
ERK	-13023
Inc	-13024
Joy	-13025
May	-13026
Mid	-13027
RON	-13028
Toi	-13029
UWB	-13030
Way	-13031
fun	-13032
hay	-13033
jew	-13034
nis	-13035
oki	-13036
osw	-13037
otn	-13038
ses	-13039
usy	-13040
ztü	-13041
▁Dl	-13042
▁Do	-13043
▁Ni	-13044
▁TE	-13045
$133	-13046
$175	-13047
-007	-13048
-025	-13049
-029	-13050
-158	-13051
-162	-13052
-163	-13053
-213	-13054
-229	-13055
-240	-13056
-261	-13057
-263	-13058
-298	-13059
-311	-13060
-318	-13061
-323	-13062
-362	-13063
-367	-13064
-369	-13065
-438	-13066
-518	-13067
-520	-13068
-527	-13069
-548	-13070
-657	-13071
-688	-13072
.53"	-13073
19</	-13074
34",	-13075
39</	-13076
50",	-13077
55</	-13078
65",	-13079
Isto	-13080
LBNE	-13081
Miyu	-13082
Nova	-13083
Rita	-13084
Suit	-13085
Tank	-13086
Wild	-13087
acho	-13088
ages	-13089
bott	-13090
eals	-13091
olat	-13092
phot	-13093
tles	-13094
ábor	-13095
▁"37	-13096
▁"40	-13097
▁"45	-13098
▁"78	-13099
▁434	-13100
▁453	-13101
▁510	-13102
▁523	-13103
▁597	-13104
▁598	-13105
▁682	-13106
▁736	-13107
▁782	-13108
▁791	-13109
▁792	-13110
▁882	-13111
▁897	-13112
▁912	-13113
▁965	-13114
▁985	-13115
▁997	-13116
▁AWB	-13117
▁Koh	-13118
▁Lex	-13119
▁Sjö	-13120
▁Tak	-13121
.05",	-13122
.35",	-13123
.79",	-13124
Bilal	-13125
Jacob	-13126
Kinga	-13127
Paweł	-13128
Toivo	-13129
Veera	-13130
amber	-13131
atlas	-13132
bject	-13133
elman	-13134
etham	-13135
idibe	-13136
ineau	-13137
karov	-13138
local	-13139
ooley	-13140
orbit	-13141
rocky	-13142
shire	-13143
ustra	-13144
ztürk	-13145
▁Dish	-13146
▁Gate	-13147
▁Gill	-13148
▁SENT	-13149
▁Tian	-13150
":"493	-13151
":"531	-13152
":"539	-13153
":"605	-13154
":"609	-13155
":"619	-13156
":"639	-13157
":"657	-13158
":"659	-13159
":"668	-13160
":"698	-13161
":"708	-13162
":"74,	-13163
":"750	-13164
":"761	-13165
":"790	-13166
":"809	-13167
":"815	-13168
":"824	-13169
":"860	-13170
":"897	-13171
":"901	-13172
":"934	-13173
":"953	-13174
":"962	-13175
.20","	-13176
104","	-13177
213","	-13178
46"},"	-13179
52"},"	-13180
667","	-13181
Blouse	-13182
Camper	-13183
Domain	-13184
Gaëlle	-13185
Jasmin	-13186
Jelena	-13187
Pepper	-13188
Robert	-13189
Tomato	-13190
abbard	-13191
anford	-13192
argent	-13193
basket	-13194
cooper	-13195
derick	-13196
ellery	-13197
launch	-13198
oughby	-13199
robust	-13200
weight	-13201
wonder	-13202
▁$0.00	-13203
▁2026-	-13204
▁CLERK	-13205
▁Jacob	-13206
▁Lunch	-13207
▁Memor	-13208
▁Samaj	-13209
":"272,	-13210
":"369,	-13211
":"398,	-13212
":"410,	-13213
":"783,	-13214
":"803,	-13215
":"969,	-13216
Andrzej	-13217
Fatimah	-13218
Matthew	-13219
Mikhail	-13220
Roasted	-13221
doulaye	-13222
dynamic	-13223
ingside	-13224
▁"2024-	-13225
▁Austra	-13226
▁Bright	-13227
▁Mallya	-13228
▁Milton	-13229
▁Rachel	-13230
▁Salmon	-13231
/14/2024	-13232
/15/2024	-13233
/24/2026	-13234
/27/2025	-13235
Cristian	-13236
Earrings	-13237
Svetlana	-13238
Veronika	-13239
Workwear	-13240
southern	-13241
vanguard	-13242
▁2025-01	-13243
▁2025-06	-13244
▁Counter	-13245
▁Elliott	-13246
▁Jubilee	-13247
▁Mandela	-13248
▁Olympic	-13249
▁Tremont	-13250
-27"},{"@	-13251
="2025-05	-13252
Excursion	-13253
PURCHASER	-13254
heartland	-13255
jewellery	-13256
rinivasan	-13257
ristopher	-13258
shoreline	-13259
▁"2024-08	-13260
▁Cheetham	-13261
▁Margaret	-13262
▁Papineau	-13263
Additional	-13264
basketball	-13265
▁Frederick	-13266
▁Lexington	-13267
continental	-13268
▁Automation	-13269
▁Beaudesert	-13270
▁Bruntsfield	-13271
▁CONSIGNMENT	-13272
AZ	-13273
BP	-13274
BV	-13275
DZ	-13276
NH	-13277
OK	-13278
Om	-13279
TM	-13280
Ti	-13281
YH	-13282
vd	-13283
$36	-13284
$51	-13285
$53	-13286
$54	-13287
$62	-13288
$78	-13289
$98	-13290
09"	-13291
215	-13292
262	-13293
312	-13294
314	-13295
329	-13296
883	-13297
="7	-13298
="9	-13299
>72	-13300
CEL	-13301
Dry	-13302
Esa	-13303
Léa	-13304
OOD	-13305
Spe	-13306
Top	-13307
ZWB	-13308
avi	-13309
els	-13310
ews	-13311
hir	-13312
jaf	-13313
omo	-13314
osu	-13315
oît	-13316
pez	-13317
▁Mu	-13318
-040	-13319
-129	-13320
-149	-13321
-211	-13322
-462	-13323
-480	-13324
-511	-13325
-517	-13326
-559	-13327
-677	-13328
-724	-13329
-740	-13330
-805	-13331
-812	-13332
-834	-13333
-879	-13334
-935	-13335
-950	-13336
-961	-13337
.22)	-13338
.37)	-13339
.85)	-13340
07",	-13341
08</	-13342
27</	-13343
58</	-13344
91",	-13345
Aman	-13346
Chat	-13347
Dark	-13348
Fuel	-13349
Hoss	-13350
LECT	-13351
Ngọc	-13352
Rich	-13353
Rock	-13354
Toru	-13355
afor	-13356
anjo	-13357
bast	-13358
beer	-13359
bogo	-13360
five	-13361
garh	-13362
golf	-13363
grey	-13364
hika	-13365
hony	-13366
ider	-13367
jell	-13368
lone	-13369
madi	-13370
rohn	-13371
sser	-13372
uela	-13373
wall	-13374
▁079	-13375
▁436	-13376
▁454	-13377
▁514	-13378
▁550	-13379
▁556	-13380
▁640	-13381
▁658	-13382
▁668	-13383
▁674	-13384
▁689	-13385
▁698	-13386
▁729	-13387
▁777	-13388
▁796	-13389
▁842	-13390
▁845	-13391
▁857	-13392
▁870	-13393
▁888	-13394
▁903	-13395
▁950	-13396
▁972	-13397
▁Dig	-13398
▁Div	-13399
▁Eri	-13400
▁Gib	-13401
▁HAL	-13402
▁SUB	-13403
Amani	-13404
Anika	-13405
Artem	-13406
Ayumi	-13407
Chika	-13408
Fabio	-13409
Güler	-13410
Katja	-13411
Klara	-13412
Kumar	-13413
Matej	-13414
Nadja	-13415
Nazli	-13416
Pablo	-13417
Petra	-13418
Taras	-13419
aport	-13420
arado	-13421
athah	-13422
chief	-13423
eland	-13424
erman	-13425
essen	-13426
eters	-13427
ghlin	-13428
itech	-13429
llins	-13430
mence	-13431
nados	-13432
nagar	-13433
noble	-13434
orest	-13435
sharp	-13436
umann	-13437
waite	-13438
▁Bond	-13439
▁Carl	-13440
▁Dils	-13441
▁Duff	-13442
▁Namp	-13443
":"017	-13444
":"481	-13445
":"499	-13446
":"545	-13447
":"598	-13448
":"610	-13449
":"614	-13450
":"638	-13451
":"644	-13452
":"664	-13453
":"665	-13454
":"672	-13455
":"682	-13456
":"705	-13457
":"709	-13458
":"738	-13459
":"777	-13460
":"819	-13461
":"829	-13462
":"832	-13463
":"834	-13464
":"845	-13465
":"855	-13466
":"865	-13467
":"925	-13468
":"939	-13469
":"969	-13470
.90","	-13471
Behzad	-13472
Chiara	-13473
Danilo	-13474
Dental	-13475
Garlic	-13476
Lorena	-13477
Mohsen	-13478
Patrik	-13479
Puffer	-13480
Stefan	-13481
Tereza	-13482
Yuliya	-13483
Zainab	-13484
Zhanna	-13485
avenue	-13486
chanan	-13487
cision	-13488
empire	-13489
fluent	-13490
harris	-13491
hikaji	-13492
isbury	-13493
ishops	-13494
ventry	-13495
▁Ashok	-13496
▁Excel	-13497
▁Fries	-13498
▁Najaf	-13499
▁Small	-13500
":"168,	-13501
":"523,	-13502
":"553,	-13503
":"611,	-13504
":"991,	-13505
Abigail	-13506
Camille	-13507
Katrien	-13508
Morning	-13509
Zakaria	-13510
arewood	-13511
eerbagh	-13512
midland	-13513
roberts	-13514
▁Hitech	-13515
▁Stuart	-13516
▁System	-13517
/23/2024	-13518
Chidinma	-13519
Heinrich	-13520
balanced	-13521
complete	-13522
jellberg	-13523
sterling	-13524
▁Slaught	-13525
▁nurnber	-13526
-21"},{"@	-13527
="2025-02	-13528
Honeymoon	-13529
Pepperoni	-13530
Recipient	-13531
athahalli	-13532
▁"2024-07	-13533
▁Coventry	-13534
▁Kingsway	-13535
▁Nampally	-13536
attacharya	-13537
▁Crowchild	-13538
▁Najafgarh	-13539
▁Northwest	-13540
Abdelrahman	-13541
▁DISPATCHED	-13542
▁Scarborough	-13543
▁Marathahalli	-13544
AO	-13545
DK	-13546
DP	-13547
HG	-13548
Lo	-13549
NA	-13550
_8	-13551
eo	-13552
gs	-13553
$50	-13554
$63	-13555
$65	-13556
$91	-13557
04"	-13558
046	-13559
32-	-13560
66"	-13561
Ade	-13562
Ame	-13563
HWB	-13564
KWB	-13565
SWB	-13566
XWB	-13567
aps	-13568
dis	-13569
usa	-13570
uve	-13571
voy	-13572
▁Us	-13573
▁ex	-13574
▁~~	-13575
$121	-13576
$130	-13577
$136	-13578
$158	-13579
-013	-13580
-055	-13581
-124	-13582
-161	-13583
-168	-13584
-214	-13585
-225	-13586
-258	-13587
-315	-13588
-434	-13589
-514	-13590
-545	-13591
-549	-13592
-554	-13593
-590	-13594
-662	-13595
-713	-13596
-747	-13597
-750	-13598
-802	-13599
-824	-13600
-880	-13601
-939	-13602
-960	-13603
.29)	-13604
.94)	-13605
15</	-13606
17</	-13607
23</	-13608
30",	-13609
44</	-13610
63",	-13611
64",	-13612
Amir	-13613
Ayşe	-13614
Cold	-13615
Iker	-13616
João	-13617
Luca	-13618
Yuki	-13619
ados	-13620
apat	-13621
awad	-13622
core	-13623
dock	-13624
emba	-13625
erra	-13626
fait	-13627
gura	-13628
icio	-13629
itya	-13630
near	-13631
olds	-13632
ouch	-13633
pard	-13634
reci	-13635
yoga	-13636
zero	-13637
▁"91	-13638
▁"99	-13639
▁038	-13640
▁481	-13641
▁576	-13642
▁594	-13643
▁636	-13644
▁639	-13645
▁683	-13646
▁731	-13647
▁787	-13648
▁802	-13649
▁809	-13650
▁902	-13651
▁938	-13652
▁960	-13653
▁984	-13654
▁CMH	-13655
▁REF	-13656
.53",	-13657
ARCEL	-13658
Ainoa	-13659
Arman	-13660
Csaba	-13661
Dušan	-13662
Larry	-13663
Manon	-13664
Matei	-13665
Nadia	-13666
Qasim	-13667
Riley	-13668
Skirt	-13669
Søren	-13670
Tiina	-13671
amble	-13672
apman	-13673
ature	-13674
autos	-13675
boost	-13676
brave	-13677
eadow	-13678
fleet	-13679
ichel	-13680
ikami	-13681
negan	-13682
pages	-13683
ubair	-13684
▁Auck	-13685
▁Cama	-13686
▁Deal	-13687
▁Koen	-13688
▁Laur	-13689
▁Morn	-13690
▁Plus	-13691
▁Tran	-13692
▁rice	-13693
":"356	-13694
":"44,	-13695
":"521	-13696
":"543	-13697
":"560	-13698
":"567	-13699
":"572	-13700
":"584	-13701
":"620	-13702
":"67,	-13703
":"678	-13704
":"713	-13705
":"715	-13706
":"724	-13707
":"737	-13708
":"743	-13709
":"776	-13710
":"875	-13711
":"883	-13712
":"898	-13713
":"920	-13714
":"933	-13715
":"958	-13716
":"968	-13717
":"988	-13718
000","	-13719
129","	-13720
36"},"	-13721
724","	-13722
86"},"	-13723
88"},"	-13724
Amelia	-13725
Dragan	-13726
Khaled	-13727
Maksim	-13728
Nachos	-13729
Renáta	-13730
Salmon	-13731
aisuke	-13732
burger	-13733
camera	-13734
falcon	-13735
hampoo	-13736
inters	-13737
napati	-13738
oconut	-13739
orster	-13740
oswami	-13741
person	-13742
thrive	-13743
urrent	-13744
▁Audit	-13745
▁Cohen	-13746
▁ELECT	-13747
":"143,	-13748
":"229,	-13749
":"339,	-13750
":"465,	-13751
":"658,	-13752
":"788,	-13753
":"791,	-13754
Chelsea	-13755
Filippa	-13756
Hossein	-13757
Michael	-13758
Mostafa	-13759
Sleeper	-13760
Yasemin	-13761
compass	-13762
growing	-13763
hammadi	-13764
melette	-13765
urnmary	-13766
▁Denman	-13767
▁Joseph	-13768
▁Shield	-13769
▁Sussex	-13770
,2026-06	-13771
/20/2026	-13772
/26/2024	-13773
Carlotta	-13774
Vinícius	-13775
mitchell	-13776
williams	-13777
▁Bhikaji	-13778
▁Dimitri	-13779
▁Moseley	-13780
▁Parfait	-13781
-14"},{"@	-13782
-28"},{"@	-13783
companies	-13784
vacations	-13785
▁Bannergh	-13786
▁Crescent	-13787
▁Memorial	-13788
▁Nicolson	-13789
":"2026-06	-13790
Aleksandra	-13791
Alessandro	-13792
Compliance	-13793
▁Purchased	-13794
▁Slaughter	-13795
neighborhood	-13796
▁Basheerbagh	-13797
8:	-13798
9:	-13799
XC	-13800
eI	-13801
wh	-13802
úñ	-13803
$60	-13804
$67	-13805
$72	-13806
,81	-13807
1">	-13808
21-	-13809
211	-13810
224	-13811
286	-13812
315	-13813
411	-13814
46"	-13815
56"	-13816
582	-13817
91"	-13818
>85	-13819
BWB	-13820
Hay	-13821
ISE	-13822
MWB	-13823
exB	-13824
fox	-13825
ivo	-13826
kog	-13827
llp	-13828
oji	-13829
owl	-13830
ukh	-13831
▁Az	-13832
▁Er	-13833
▁an	-13834
▁be	-13835
▁lo	-13836
$109	-13837
$120	-13838
$137	-13839
$146	-13840
-054	-13841
-061	-13842
-118	-13843
-160	-13844
-217	-13845
-245	-13846
-312	-13847
-377	-13848
-457	-13849
-489	-13850
-661	-13851
-663	-13852
-875	-13853
-885	-13854
-989	-13855
.11)	-13856
.26)	-13857
.78)	-13858
01",	-13859
05",	-13860
11</	-13861
14",	-13862
25</	-13863
29</	-13864
33</	-13865
36",	-13866
49</	-13867
55",	-13868
Essi	-13869
FULF	-13870
Iwan	-13871
Jirí	-13872
Nele	-13873
Nika	-13874
Omar	-13875
abić	-13876
aero	-13877
afar	-13878
asha	-13879
auto	-13880
bany	-13881
chat	-13882
exaB	-13883
exaI	-13884
htak	-13885
iden	-13886
ikas	-13887
iron	-13888
navy	-13889
ncan	-13890
onge	-13891
rano	-13892
ters	-13893
▁"97	-13894
▁482	-13895
▁531	-13896
▁541	-13897
▁542	-13898
▁571	-13899
▁625	-13900
▁645	-13901
▁647	-13902
▁671	-13903
▁684	-13904
▁692	-13905
▁739	-13906
▁740	-13907
▁773	-13908
▁775	-13909
▁793	-13910
▁893	-13911
▁970	-13912
▁980	-13913
▁Kne	-13914
▁Kow	-13915
▁Nag	-13916
▁ord	-13917
.73",	-13918
Akash	-13919
Asami	-13920
Bence	-13921
Eyşan	-13922
Grace	-13923
Kasia	-13924
Milan	-13925
Yasin	-13926
Yusuf	-13927
astal	-13928
brown	-13929
civic	-13930
helix	-13931
higan	-13932
inney	-13933
iston	-13934
mpong	-13935
nshaw	-13936
rapid	-13937
ready	-13938
ubien	-13939
uffin	-13940
ulián	-13941
velyn	-13942
▁Four	-13943
▁McLe	-13944
▁Pier	-13945
▁True	-13946
":"11,	-13947
":"550	-13948
":"585	-13949
":"596	-13950
":"618	-13951
":"655	-13952
":"674	-13953
":"693	-13954
":"764	-13955
":"767	-13956
":"795	-13957
":"807	-13958
":"847	-13959
":"859	-13960
07"},"	-13961
170","	-13962
280","	-13963
370","	-13964
98"},"	-13965
Ananya	-13966
Andriy	-13967
Cosmin	-13968
Double	-13969
Felipe	-13970
Jihoon	-13971
Matteo	-13972
Raheem	-13973
Thomas	-13974
attara	-13975
better	-13976
enberg	-13977
gomery	-13978
height	-13979
inchen	-13980
luxury	-13981
native	-13982
obello	-13983
ockton	-13984
odfrey	-13985
rasser	-13986
voyage	-13987
zenith	-13988
émence	-13989
▁Denis	-13990
▁Glass	-13991
▁Grace	-13992
▁Mason	-13993
▁Ogden	-13994
▁Rapid	-13995
▁STORE	-13996
▁Under	-13997
▁Vikas	-13998
▁Yonge	-13999
":"202,	-14000
":"373,	-14001
":"447,	-14002
":"455,	-14003
":"462,	-14004
":"704,	-14005
":"786,	-14006
":"805,	-14007
":"878,	-14008
Baggage	-14009
Federal	-14010
Minimal	-14011
Nikolai	-14012
Organic	-14013
Tatiana	-14014
Youssef	-14015
fferson	-14016
koglund	-14017
premier	-14018
recipes	-14019
rington	-14020
storage	-14021
western	-14022
▁Albany	-14023
▁Aurora	-14024
▁French	-14025
▁Rohtak	-14026
▁Strong	-14027
/16/2025	-14028
/18/2024	-14029
Abhishek	-14030
Advanced	-14031
Anoushka	-14032
Chukwudi	-14033
Federica	-14034
Incident	-14035
Umbrella	-14036
Warranty	-14037
american	-14038
atterson	-14039
consumer	-14040
graphics	-14041
hillside	-14042
ignature	-14043
ithwaite	-14044
resolute	-14045
ukhnagar	-14046
▁2025-02	-14047
▁2025-07	-14048
▁Houston	-14049
="2025-03	-14050
Aurelijus	-14051
Greenwood	-14052
▁"2024-09	-14053
▁Crenshaw	-14054
▁Division	-14055
▁ELECTRON	-14056
▁Kneeland	-14057
▁Michigan	-14058
▁Recovery	-14059
▁Sarjapur	-14060
▁Warranty	-14061
▁Lamington	-14062
▁Northstar	-14063
▁Purchaser	-14064
▁Whitworth	-14065
▁inclusive	-14066
▁DESTINATION	-14067
▁Bannerghatta	-14068
▁Dilsukhnagar	-14069
AJ	-14070
Li	-14071
Ta	-14072
VG	-14073
XR	-14074
eB	-14075
fe	-14076
jk	-14077
uz	-14078
$43	-14079
$84	-14080
$89	-14081
$97	-14082
$99	-14083
,",	-14084
.1)	-14085
089	-14086
213	-14087
235	-14088
318	-14089
344	-14090
347	-14091
349	-14092
45-	-14093
467	-14094
559	-14095
661	-14096
665	-14097
>54	-14098
>90	-14099
Cap	-14100
LWB	-14101
Max	-14102
OWB	-14103
Pen	-14104
YWB	-14105
avy	-14106
ekh	-14107
lux	-14108
nag	-14109
she	-14110
ten	-14111
ucc	-14112
▁AS	-14113
▁BO	-14114
▁mo	-14115
$105	-14116
$108	-14117
$113	-14118
-037	-14119
-047	-14120
-059	-14121
-103	-14122
-110	-14123
-179	-14124
-325	-14125
-360	-14126
-385	-14127
-440	-14128
-483	-14129
-560	-14130
-664	-14131
-668	-14132
-695	-14133
-718	-14134
-773	-14135
-809	-14136
-849	-14137
-860	-14138
-861	-14139
-923	-14140
-933	-14141
-991	-14142
.13)	-14143
.31)	-14144
.41)	-14145
.61)	-14146
.73)	-14147
.74)	-14148
.93)	-14149
.97)	-14150
15",	-14151
16</	-14152
388-	-14153
43",	-14154
54",	-14155
67",	-14156
Asif	-14157
Dóra	-14158
Eiji	-14159
Help	-14160
Onni	-14161
Rosa	-14162
Suat	-14163
Tall	-14164
Thảo	-14165
Uğur	-14166
adop	-14167
akur	-14168
ddar	-14169
deep	-14170
eSIM	-14171
elmi	-14172
ewon	-14173
icks	-14174
igur	-14175
ires	-14176
ncis	-14177
tman	-14178
toys	-14179
udin	-14180
uwer	-14181
very	-14182
wise	-14183
Ömer	-14184
▁015	-14185
▁356	-14186
▁543	-14187
▁558	-14188
▁615	-14189
▁630	-14190
▁670	-14191
▁712	-14192
▁771	-14193
▁831	-14194
▁872	-14195
▁881	-14196
▁889	-14197
▁890	-14198
▁898	-14199
▁942	-14200
▁958	-14201
▁967	-14202
▁994	-14203
▁Bor	-14204
▁Lav	-14205
▁Ray	-14206
▁Yas	-14207
":"4,	-14208
Ahmed	-14209
Almaz	-14210
Artur	-14211
Aysel	-14212
Emily	-14213
Ilari	-14214
Semih	-14215
Trial	-14216
akham	-14217
andar	-14218
delta	-14219
neuve	-14220
oster	-14221
polar	-14222
speed	-14223
▁Hend	-14224
▁Nuts	-14225
▁PAYA	-14226
▁Rene	-14227
▁Sent	-14228
▁Sold	-14229
▁Subs	-14230
▁Vult	-14231
":"26,	-14232
":"435	-14233
":"476	-14234
":"553	-14235
":"573	-14236
":"580	-14237
":"582	-14238
":"595	-14239
":"597	-14240
":"652	-14241
":"677	-14242
":"69,	-14243
":"697	-14244
":"699	-14245
":"70,	-14246
":"703	-14247
":"712	-14248
":"721	-14249
":"730	-14250
":"740	-14251
":"794	-14252
":"799	-14253
":"932	-14254
":"938	-14255
":"980	-14256
":"991	-14257
02"},"	-14258
05"},"	-14259
08"},"	-14260
224","	-14261
53"},"	-14262
651","	-14263
663","	-14264
90"},"	-14265
Adeola	-14266
Bottle	-14267
Giulia	-14268
Hassan	-14269
Samuel	-14270
Sophia	-14271
Vedran	-14272
Zeynep	-14273
active	-14274
adopou	-14275
antosh	-14276
appucc	-14277
arctic	-14278
aricio	-14279
bailey	-14280
ekhout	-14281
lebone	-14282
photos	-14283
signal	-14284
sumoto	-14285
torres	-14286
weeney	-14287
willow	-14288
▁Bacon	-14289
▁Clear	-14290
▁Extra	-14291
▁Keele	-14292
▁Lucas	-14293
▁Lygon	-14294
▁Ouest	-14295
▁Peter	-14296
▁Usman	-14297
":"261,	-14298
":"330,	-14299
":"470,	-14300
":"491,	-14301
":"595,	-14302
":"670,	-14303
":"694,	-14304
":"744,	-14305
":"827,	-14306
":"843,	-14307
":"967,	-14308
Fashion	-14309
Instant	-14310
Managed	-14311
Swapnil	-14312
Timothy	-14313
akhamba	-14314
charity	-14315
charter	-14316
monarch	-14317
▁Caruso	-14318
▁Centra	-14319
▁Launch	-14320
▁Noodle	-14321
▁Vittal	-14322
/17/2024	-14323
/20/2024	-14324
DISPATCH	-14325
Grzegorz	-14326
Sławomir	-14327
absolute	-14328
original	-14329
pendable	-14330
plumbing	-14331
▁2024-07	-14332
▁Bishops	-14333
▁Goodwin	-14334
▁Monthly	-14335
▁Narasim	-14336
▁Nariman	-14337
▁Platter	-14338
▁Vulture	-14339
▁arnount	-14340
-17"},{"@	-14341
="2025-01	-14342
Audiobook	-14343
Sparkling	-14344
appuccino	-14345
iguration	-14346
▁Johnston	-14347
▁MERCHAND	-14348
▁Reliable	-14349
▁Sandgate	-14350
▁Senapati	-14351
▁Westlake	-14352
accountant	-14353
▁Admission	-14354
▁Lauriston	-14355
cornerstone	-14356
▁Barakhamba	-14357
▁Dorchester	-14358
▁Marylebone	-14359
▁Maisonneuve	-14360
":"0.00"},{"@	-14361
▁Configuration	-14362
Ot	-14363
YO	-14364
ww	-14365
ís	-14366
$85	-14367
,"6	-14368
03"	-14369
16-	-14370
340	-14371
52-	-14372
54"	-14373
885	-14374
>$2	-14375
>41	-14376
>82	-14377
>83	-14378
>84	-14379
EWB	-14380
Fax	-14381
Hot	-14382
aga	-14383
akc	-14384
bay	-14385
itz	-14386
mck	-14387
ngu	-14388
oey	-14389
via	-14390
▁HD	-14391
▁JN	-14392
▁SD	-14393
▁ee	-14394
$103	-14395
$112	-14396
-017	-14397
-045	-14398
-064	-14399
-069	-14400
-123	-14401
-125	-14402
-150	-14403
-199	-14404
-212	-14405
-233	-14406
-250	-14407
-259	-14408
-260	-14409
-267	-14410
-304	-14411
-319	-14412
-330	-14413
-359	-14414
-380	-14415
-482	-14416
-509	-14417
-572	-14418
-578	-14419
-638	-14420
-779	-14421
-797	-14422
-893	-14423
-917	-14424
-947	-14425
-987	-14426
.17)	-14427
.39)	-14428
.69)	-14429
.86)	-14430
06",	-14431
43</	-14432
59</	-14433
64</	-14434
Bike	-14435
Eggs	-14436
Fine	-14437
Linh	-14438
Noah	-14439
OODS	-14440
Ossi	-14441
Rina	-14442
Sašo	-14443
Sora	-14444
Sven	-14445
Timo	-14446
arez	-14447
ddle	-14448
elin	-14449
free	-14450
good	-14451
harf	-14452
hren	-14453
rgan	-14454
sons	-14455
tega	-14456
trán	-14457
udor	-14458
zmán	-14459
▁"50	-14460
▁"69	-14461
▁"77	-14462
▁024	-14463
▁039	-14464
▁567	-14465
▁590	-14466
▁609	-14467
▁631	-14468
▁659	-14469
▁685	-14470
▁686	-14471
▁697	-14472
▁701	-14473
▁746	-14474
▁756	-14475
▁795	-14476
▁821	-14477
▁854	-14478
▁876	-14479
▁945	-14480
▁Aki	-14481
▁Egl	-14482
▁Pal	-14483
.61",	-14484
Akane	-14485
Ayman	-14486
David	-14487
Emeka	-14488
Gábor	-14489
Ioana	-14490
Ionut	-14491
Lunch	-14492
Multi	-14493
Salma	-14494
Sumit	-14495
Yasir	-14496
Young	-14497
aveta	-14498
borne	-14499
davis	-14500
found	-14501
homes	-14502
hrens	-14503
ilton	-14504
immer	-14505
jones	-14506
khard	-14507
luten	-14508
nable	-14509
nical	-14510
odges	-14511
quier	-14512
raven	-14513
steel	-14514
teama	-14515
umari	-14516
▁Eggs	-14517
▁Farm	-14518
▁Hair	-14519
▁Horn	-14520
▁Mont	-14521
":"495	-14522
":"571	-14523
":"583	-14524
":"590	-14525
":"615	-14526
":"623	-14527
":"689	-14528
":"701	-14529
":"739	-14530
":"788	-14531
":"805	-14532
":"810	-14533
":"848	-14534
":"850	-14535
":"858	-14536
":"864	-14537
":"87,	-14538
":"887	-14539
":"963	-14540
":"970	-14541
.60","	-14542
09"},"	-14543
201","	-14544
322","	-14545
438","	-14546
657","	-14547
95"},"	-14548
Gloves	-14549
Márton	-14550
Noboru	-14551
PLACED	-14552
Tuomas	-14553
Vitali	-14554
abella	-14555
apollo	-14556
apside	-14557
ascent	-14558
claims	-14559
donald	-14560
hillon	-14561
incent	-14562
matrix	-14563
mighty	-14564
nitial	-14565
terson	-14566
ueller	-14567
winter	-14568
▁Bapat	-14569
▁GOODS	-14570
▁Wharf	-14571
▁retur	-14572
":"130,	-14573
":"153,	-14574
":"262,	-14575
":"282,	-14576
":"303,	-14577
":"311,	-14578
":"315,	-14579
":"334,	-14580
":"427,	-14581
":"505,	-14582
":"508,	-14583
":"533,	-14584
":"537,	-14585
":"662,	-14586
":"664,	-14587
":"691,	-14588
":"767,	-14589
":"778,	-14590
":"830,	-14591
":"944,	-14592
":"947,	-14593
":"956,	-14594
":"977,	-14595
authier	-14596
exampSe	-14597
lection	-14598
ucumber	-14599
▁Rashid	-14600
▁Secure	-14601
▁Tooley	-14602
▁Vertex	-14603
/19/2025	-14604
/22/2024	-14605
Abdallah	-14606
Boarding	-14607
Database	-14608
Everyday	-14609
Katarina	-14610
Pinnacle	-14611
aczmarek	-14612
property	-14613
thompson	-14614
training	-14615
▁Canning	-14616
▁Laurent	-14617
▁Mathura	-14618
▁Ventura	-14619
-16"},{"@	-14620
Guillermo	-14621
Mouthwash	-14622
REFERENCE	-14623
▁"2024-04	-14624
▁Eglinton	-14625
▁Franklin	-14626
▁Pleasant	-14627
Cheesecake	-14628
consultant	-14629
foundation	-14630
richardson	-14631
▁Bluetooth	-14632
▁Cheapside	-14633
▁Fulfilled	-14634
▁Telephone	-14635
Destination	-14636
▁Portobello	-14637
▁discounted	-14638
incorporated	-14639
Ha	-14640
JQ	-14641
QK	-14642
WU	-14643
eO	-14644
▁;	-14645
$71	-14646
$75	-14647
$76	-14648
$87	-14649
00-	-14650
168	-14651
218	-14652
310	-14653
59-	-14654
669	-14655
880	-14656
949	-14657
99-	-14658
Bow	-14659
Gym	-14660
Maj	-14661
PON	-14662
PWB	-14663
Rah	-14664
but	-14665
dds	-14666
kur	-14667
rag	-14668
zki	-14669
▁bl	-14670
▁sa	-14671
$119	-14672
$148	-14673
$152	-14674
$179	-14675
-113	-14676
-264	-14677
-273	-14678
-389	-14679
-404	-14680
-455	-14681
-487	-14682
-599	-14683
-640	-14684
-680	-14685
-712	-14686
-728	-14687
-755	-14688
-775	-14689
-789	-14690
-817	-14691
-985	-14692
.47)	-14693
.59)	-14694
.79)	-14695
14</	-14696
21",	-14697
31",	-14698
40",	-14699
56</	-14700
62</	-14701
Daan	-14702
Dual	-14703
Fish	-14704
LJNE	-14705
LZNE	-14706
Mega	-14707
Paul	-14708
Raúl	-14709
Ryan	-14710
Yoko	-14711
alez	-14712
anue	-14713
arks	-14714
brun	-14715
cert	-14716
cool	-14717
elov	-14718
even	-14719
fred	-14720
holm	-14721
houn	-14722
ifth	-14723
illa	-14724
lero	-14725
mans	-14726
rara	-14727
seca	-14728
sent	-14729
stit	-14730
▁"48	-14731
▁057	-14732
▁080	-14733
▁099	-14734
▁675	-14735
▁690	-14736
▁801	-14737
▁849	-14738
▁852	-14739
▁887	-14740
▁913	-14741
▁933	-14742
▁934	-14743
▁995	-14744
▁Pat	-14745
▁fax	-14746
":"1,	-14747
Brian	-14748
Dario	-14749
FINAL	-14750
Idris	-14751
NTEXT	-14752
Scott	-14753
Shore	-14754
Super	-14755
amora	-14756
attle	-14757
daily	-14758
daoud	-14759
fredo	-14760
hapur	-14761
level	-14762
ohail	-14763
reale	-14764
solar	-14765
sport	-14766
▁Ford	-14767
▁Gach	-14768
▁Hamp	-14769
▁Hunt	-14770
▁Luca	-14771
▁Mini	-14772
▁TELE	-14773
▁Veer	-14774
▁less	-14775
":"15,	-14776
":"436	-14777
":"51,	-14778
":"534	-14779
":"562	-14780
":"586	-14781
":"640	-14782
":"679	-14783
":"734	-14784
":"753	-14785
":"770	-14786
":"822	-14787
":"852	-14788
":"868	-14789
":"870	-14790
":"873	-14791
":"892	-14792
":"899	-14793
":"904	-14794
":"947	-14795
":"967	-14796
":"990	-14797
169","	-14798
248","	-14799
321","	-14800
636","	-14801
642","	-14802
698","	-14803
76"},"	-14804
911","	-14805
Akshay	-14806
George	-14807
Habiba	-14808
Mehmet	-14809
Pakize	-14810
Sajjad	-14811
ananas	-14812
ancake	-14813
anueva	-14814
arclay	-14815
erling	-14816
fferin	-14817
galaxy	-14818
ibowli	-14819
nandes	-14820
onseca	-14821
▁Alber	-14822
▁Brick	-14823
▁Damen	-14824
▁Early	-14825
▁Fifth	-14826
▁Hosur	-14827
▁Stack	-14828
▁Toast	-14829
▁Video	-14830
▁bahru	-14831
":"243,	-14832
":"248,	-14833
":"265,	-14834
":"289,	-14835
":"352,	-14836
":"383,	-14837
":"403,	-14838
":"431,	-14839
":"616,	-14840
":"654,	-14841
":"828,	-14842
":"833,	-14843
":"888,	-14844
":"945,	-14845
Charles	-14846
FULFILL	-14847
Ibrahim	-14848
Justyna	-14849
Mahmoud	-14850
Roksana	-14851
Shampoo	-14852
amazaki	-14853
bastian	-14854
essette	-14855
exBmple	-14856
examplS	-14857
gherita	-14858
onnaise	-14859
▁Butter	-14860
▁Coupon	-14861
▁Spence	-14862
▁Yogurt	-14863
/28/2026	-14864
DOCUMENT	-14865
Penelope	-14866
Slippers	-14867
Srinivas	-14868
colonial	-14869
keystone	-14870
northern	-14871
peterson	-14872
sterlund	-14873
▁0"},{"@	-14874
▁2024-03	-14875
▁Barcode	-14876
▁Miyapur	-14877
▁Uniform	-14878
="2025-11	-14879
Alexander	-14880
Magdalena	-14881
Oleksandr	-14882
RECIPIENT	-14883
Unlimited	-14884
riverside	-14885
sterclass	-14886
▁Dufferin	-14887
▁Madhapur	-14888
▁Official	-14889
▁Potatoes	-14890
Settlement	-14891
bscription	-14892
realestate	-14893
▁FULFILLED	-14894
▁Narasimha	-14895
▁ELECTRONIC	-14896
▁Gachibowli	-14897
▁returnable	-14898
▁Bishopsgate	-14899
▁Morningside	-14900
▁Professional	-14901
,-	-14902
Av	-14903
EG	-14904
IK	-14905
QI	-14906
Sy	-14907
so	-14908
,$2	-14909
.30	-14910
04-	-14911
085	-14912
11;	-14913
19;	-14914
227	-14915
228	-14916
41-	-14917
707	-14918
>70	-14919
>74	-14920
API	-14921
Ece	-14922
Gal	-14923
Ham	-14924
Mia	-14925
Mon	-14926
bud	-14927
imi	-14928
jas	-14929
nur	-14930
pul	-14931
sey	-14932
sor	-14933
spe	-14934
vez	-14935
▁1.	-14936
▁BA	-14937
▁Bä	-14938
▁PR	-14939
▁Rc	-14940
$123	-14941
$124	-14942
$134	-14943
$151	-14944
$173	-14945
,"35	-14946
,"44	-14947
-087	-14948
-109	-14949
-112	-14950
-147	-14951
-203	-14952
-209	-14953
-219	-14954
-223	-14955
-255	-14956
-287	-14957
-291	-14958
-293	-14959
-303	-14960
-333	-14961
-353	-14962
-562	-14963
-699	-14964
-719	-14965
-733	-14966
-780	-14967
-919	-14968
.36)	-14969
.43)	-14970
.46)	-14971
.62)	-14972
.67)	-14973
.99)	-14974
12",	-14975
51",	-14976
="+6	-14977
="16	-14978
="26	-14979
Emma	-14980
Ieva	-14981
Lead	-14982
Nils	-14983
Oper	-14984
Riku	-14985
Snow	-14986
alto	-14987
arge	-14988
aste	-14989
cker	-14990
cycl	-14991
dawn	-14992
fair	-14993
hosp	-14994
kind	-14995
loom	-14996
oley	-14997
oyle	-14998
trum	-14999
vara	-15000
veda	-15001
zuki	-15002
▁"44	-15003
▁"58	-15004
▁"80	-15005
▁"88	-15006
▁040	-15007
▁087	-15008
▁605	-15009
▁618	-15010
▁652	-15011
▁662	-15012
▁741	-15013
▁813	-15014
▁910	-15015
▁930	-15016
▁975	-15017
▁979	-15018
▁998	-15019
▁Dur	-15020
▁Kim	-15021
▁Sky	-15022
▁den	-15023
Antti	-15024
Helmi	-15025
Henry	-15026
Lotte	-15027
Saeed	-15028
Selin	-15029
Vanja	-15030
Vesna	-15031
Whole	-15032
andey	-15033
axter	-15034
erjee	-15035
globe	-15036
ostov	-15037
sonal	-15038
urple	-15039
▁Bart	-15040
▁Beau	-15041
▁CALL	-15042
▁Deep	-15043
▁Pall	-15044
▁Tuna	-15045
":"047	-15046
":"43,	-15047
":"55,	-15048
":"61,	-15049
":"628	-15050
":"648	-15051
":"649	-15052
":"685	-15053
":"692	-15054
":"719	-15055
":"818	-15056
":"826	-15057
":"838	-15058
":"871	-15059
":"903	-15060
":"905	-15061
":"918	-15062
":"930	-15063
216","	-15064
586","	-15065
618","	-15066
655","	-15067
662","	-15068
669","	-15069
Akseli	-15070
Anjali	-15071
Artjom	-15072
Autumn	-15073
Bogdan	-15074
Gülşah	-15075
Hannah	-15076
Ismail	-15077
Joshua	-15078
Market	-15079
OUCHER	-15080
Ronald	-15081
Street	-15082
Tomoko	-15083
ahashi	-15084
aldwin	-15085
aurora	-15086
banner	-15087
broker	-15088
edlund	-15089
hotels	-15090
khardt	-15091
martin	-15092
ongate	-15093
recycl	-15094
timber	-15095
versen	-15096
▁Andre	-15097
▁Bahru	-15098
▁Clair	-15099
▁Jamal	-15100
▁Rubio	-15101
▁Sepul	-15102
▁Spark	-15103
▁Stein	-15104
▁Zahra	-15105
▁table	-15106
":"112,	-15107
":"146,	-15108
":"152,	-15109
":"191,	-15110
":"273,	-15111
":"284,	-15112
":"324,	-15113
":"477,	-15114
":"485,	-15115
":"493,	-15116
":"506,	-15117
":"538,	-15118
":"546,	-15119
":"574,	-15120
":"752,	-15121
":"795,	-15122
":"820,	-15123
":"821,	-15124
":"895,	-15125
":"915,	-15126
":"936,	-15127
":"959,	-15128
":"998,	-15129
Account	-15130
Kenneth	-15131
Madison	-15132
Stjepan	-15133
Sxample	-15134
alencia	-15135
ballero	-15136
jackson	-15137
leading	-15138
mindful	-15139
quierdo	-15140
sadilla	-15141
▁Archer	-15142
▁Bogdan	-15143
▁Cannon	-15144
▁Donald	-15145
▁Hoddle	-15146
▁Hornby	-15147
▁Mizuno	-15148
▁Orange	-15149
▁Yousef	-15150
▁europe	-15151
▁follow	-15152
▁Öztürk	-15153
,2026-04	-15154
,2026-05	-15155
,2026-11	-15156
/28/2024	-15157
campbell	-15158
hospital	-15159
ickinson	-15160
phillips	-15161
sponsive	-15162
ørgensen	-15163
▁2025-04	-15164
▁Alberni	-15165
▁Alfredo	-15166
▁Almeida	-15167
▁CARRIER	-15168
▁CONTEXT	-15169
▁Camping	-15170
▁Doumbia	-15171
▁Georges	-15172
▁express	-15173
-24"},{"@	-15174
adopoulos	-15175
recycling	-15176
southwest	-15177
strategic	-15178
worldwide	-15179
▁"2024-11	-15180
▁Beaubien	-15181
▁Graphics	-15182
▁Savarkar	-15183
networking	-15184
▁Canongate	-15185
▁RECIPIENT	-15186
▁REFERENCE	-15187
▁Sepulveda	-15188
springfield	-15189
▁Dispatched	-15190
▁Steelhouse	-15191
7:	-15192
$41	-15193
$66	-15194
$90	-15195
,32	-15196
,33	-15197
.2)	-15198
.5)	-15199
14;	-15200
319	-15201
323	-15202
Ble	-15203
MER	-15204
Seo	-15205
coO	-15206
edy	-15207
gym	-15208
rup	-15209
ulz	-15210
▁Go	-15211
▁VR	-15212
$100	-15213
$107	-15214
$168	-15215
$208	-15216
-012	-15217
-023	-15218
-155	-15219
-185	-15220
-268	-15221
-275	-15222
-355	-15223
-390	-15224
-445	-15225
-579	-15226
-585	-15227
-630	-15228
-690	-15229
-760	-15230
-770	-15231
-804	-15232
-839	-15233
-882	-15234
-884	-15235
-902	-15236
-942	-15237
-982	-15238
.25)	-15239
.33)	-15240
.44)	-15241
.53)	-15242
.75)	-15243
.92)	-15244
13</	-15245
17",	-15246
30</	-15247
41",	-15248
61</	-15249
Axis	-15250
Eric	-15251
Kaia	-15252
METH	-15253
Nora	-15254
Shar	-15255
Vest	-15256
adem	-15257
athi	-15258
brau	-15259
cast	-15260
chel	-15261
elik	-15262
enny	-15263
esai	-15264
etch	-15265
glow	-15266
ieux	-15267
irrn	-15268
jeri	-15269
othp	-15270
post	-15271
rica	-15272
sage	-15273
tall	-15274
ueze	-15275
zawa	-15276
▁"$2	-15277
▁"47	-15278
▁010	-15279
▁028	-15280
▁063	-15281
▁068	-15282
▁091	-15283
▁471	-15284
▁627	-15285
▁638	-15286
▁650	-15287
▁666	-15288
▁781	-15289
▁826	-15290
▁850	-15291
▁871	-15292
▁874	-15293
▁884	-15294
▁917	-15295
▁919	-15296
▁959	-15297
▁976	-15298
▁996	-15299
▁Dup	-15300
▁HOW	-15301
▁Tee	-15302
▁VIP	-15303
-22">	-15304
Aarav	-15305
Ahmad	-15306
Bojan	-15307
Endre	-15308
GRAND	-15309
Mixed	-15310
Omple	-15311
PHONE	-15312
Rohan	-15313
Scarf	-15314
Sinan	-15315
Sofia	-15316
Tünde	-15317
affar	-15318
ashed	-15319
attor	-15320
chran	-15321
cruis	-15322
enson	-15323
ermak	-15324
honey	-15325
human	-15326
motor	-15327
ordan	-15328
oreno	-15329
owery	-15330
proud	-15331
ramer	-15332
reyes	-15333
slate	-15334
thews	-15335
trail	-15336
usage	-15337
whole	-15338
▁Aven	-15339
▁Baut	-15340
▁Bury	-15341
▁Cone	-15342
▁Copy	-15343
▁Fulf	-15344
▁Pali	-15345
▁SEND	-15346
▁Wick	-15347
":"37,	-15348
":"482	-15349
":"486	-15350
":"54,	-15351
":"546	-15352
":"552	-15353
":"602	-15354
":"604	-15355
":"65,	-15356
":"675	-15357
":"695	-15358
":"702	-15359
":"733	-15360
":"742	-15361
":"752	-15362
":"781	-15363
":"837	-15364
":"869	-15365
":"888	-15366
":"961	-15367
04"},"	-15368
206","	-15369
229","	-15370
246","	-15371
311","	-15372
323","	-15373
355","	-15374
457","	-15375
503","	-15376
566","	-15377
604","	-15378
653","	-15379
666","	-15380
81"},"	-15381
918","	-15382
Shirin	-15383
abbagh	-15384
adirov	-15385
ampong	-15386
berman	-15387
ennedy	-15388
ickers	-15389
inguez	-15390
instit	-15391
ixeira	-15392
marble	-15393
meadow	-15394
morgan	-15395
nchard	-15396
ocados	-15397
orange	-15398
tennis	-15399
washer	-15400
▁Adamu	-15401
▁Aneta	-15402
▁Badge	-15403
▁Crest	-15404
▁Denny	-15405
▁Ennis	-15406
▁Grill	-15407
▁Majid	-15408
▁Speed	-15409
▁Søren	-15410
▁Throw	-15411
▁Trash	-15412
▁Trobe	-15413
":"119,	-15414
":"144,	-15415
":"147,	-15416
":"149,	-15417
":"159,	-15418
":"188,	-15419
":"208,	-15420
":"228,	-15421
":"281,	-15422
":"338,	-15423
":"377,	-15424
":"390,	-15425
":"391,	-15426
":"509,	-15427
":"525,	-15428
":"551,	-15429
":"591,	-15430
":"648,	-15431
":"688,	-15432
":"692,	-15433
":"703,	-15434
":"718,	-15435
":"735,	-15436
":"798,	-15437
":"851,	-15438
":"972,	-15439
":"985,	-15440
":"988,	-15441
":"989,	-15442
Daisuke	-15443
Farland	-15444
Fatemeh	-15445
Jadwiga	-15446
Package	-15447
Relaxed	-15448
awadzki	-15449
chelaga	-15450
connect	-15451
country	-15452
cruises	-15453
exaBple	-15454
ickland	-15455
izaveta	-15456
prairie	-15457
ramatta	-15458
rawford	-15459
sunrise	-15460
thunder	-15461
▁Africa	-15462
▁Anchor	-15463
▁Bowery	-15464
▁Cermak	-15465
▁Conrad	-15466
▁Dupont	-15467
▁Kabore	-15468
▁Lesson	-15469
▁Pavlov	-15470
▁Vargas	-15471
.08"}],"	-15472
/24/2024	-15473
/25/2025	-15474
Internet	-15475
SHIPPING	-15476
Sandwich	-15477
Takahiro	-15478
alliance	-15479
attorney	-15480
mountain	-15481
wangrice	-15482
▁Barrack	-15483
▁Bedroom	-15484
▁Creator	-15485
▁Docking	-15486
▁Hampden	-15487
▁Kawasan	-15488
▁Pioneer	-15489
▁Quality	-15490
▁Weekend	-15491
▁applied	-15492
="2025-09	-15493
Charlotte	-15494
Marketing	-15495
PURCHASED	-15496
Reference	-15497
cheampong	-15498
institute	-15499
▁Bautista	-15500
▁Beaufort	-15501
▁Begumpet	-15502
":"2024-06	-15503
Inspection	-15504
Newsletter	-15505
clearwater	-15506
▁2024-05-0	-15507
▁Accessory	-15508
▁PURCHASED	-15509
▁Southland	-15510
intelligent	-15511
motorcycles	-15512
▁Waterworks	-15513
▁Whitefield	-15514
▁Perindustrian	-15515
/0	-15516
DL	-15517
DQ	-15518
OL	-15519
TU	-15520
YU	-15521
cc	-15522
00"	-15523
08;	-15524
09-	-15525
10;	-15526
18;	-15527
263	-15528
365	-15529
46-	-15530
511	-15531
512	-15532
780	-15533
>92	-15534
>95	-15535
Ata	-15536
FRE	-15537
GNE	-15538
The	-15539
bik	-15540
cht	-15541
fyi	-15542
hao	-15543
rus	-15544
thy	-15545
▁Hy	-15546
▁IX	-15547
▁Ka	-15548
▁OR	-15549
$104	-15550
$135	-15551
$147	-15552
$162	-15553
$166	-15554
,"11	-15555
,"50	-15556
-030	-15557
-060	-15558
-122	-15559
-470	-15560
-490	-15561
-495	-15562
-607	-15563
-609	-15564
-678	-15565
-698	-15566
-704	-15567
-905	-15568
-925	-15569
-934	-15570
-975	-15571
-994	-15572
.05)	-15573
.09)	-15574
.16)	-15575
.24)	-15576
.27)	-15577
.34)	-15578
.35)	-15579
05</	-15580
2026	-15581
66",	-15582
68",	-15583
Aria	-15584
Core	-15585
Live	-15586
Neil	-15587
Sold	-15588
Yumi	-15589
brid	-15590
cruz	-15591
ealy	-15592
easy	-15593
enas	-15594
iges	-15595
iqui	-15596
keby	-15597
mbay	-15598
pton	-15599
reia	-15600
suda	-15601
tand	-15602
ugar	-15603
volt	-15604
▁"64	-15605
▁023	-15606
▁077	-15607
▁566	-15608
▁596	-15609
▁611	-15610
▁612	-15611
▁676	-15612
▁918	-15613
▁936	-15614
▁964	-15615
▁983	-15616
▁AIR	-15617
▁Nak	-15618
▁Ret	-15619
.81",	-15620
Craft	-15621
Paavo	-15622
ademy	-15623
atten	-15624
avala	-15625
bikes	-15626
cobar	-15627
geois	-15628
ieira	-15629
ilvia	-15630
khize	-15631
later	-15632
ledge	-15633
nache	-15634
rural	-15635
storm	-15636
ubert	-15637
ukher	-15638
uston	-15639
vital	-15640
▁Alam	-15641
▁Baas	-15642
▁Barn	-15643
▁Bern	-15644
▁Cote	-15645
▁Deng	-15646
▁Digb	-15647
▁Flex	-15648
▁Game	-15649
▁Item	-15650
▁Khan	-15651
▁LAND	-15652
▁LINE	-15653
▁Moor	-15654
▁Nost	-15655
▁Path	-15656
▁Wade	-15657
▁wang	-15658
":"18,	-15659
":"19,	-15660
":"581	-15661
":"599	-15662
":"617	-15663
":"635	-15664
":"650	-15665
":"732	-15666
":"755	-15667
":"782	-15668
":"793	-15669
":"801	-15670
":"802	-15671
":"803	-15672
":"813	-15673
":"821	-15674
":"828	-15675
":"833	-15676
":"849	-15677
":"861	-15678
":"872	-15679
":"874	-15680
":"907	-15681
":"917	-15682
":"936	-15683
":"941	-15684
":"945	-15685
223","	-15686
601","	-15687
633","	-15688
Bright	-15689
Camila	-15690
Hyejin	-15691
Island	-15692
Justin	-15693
Kirill	-15694
Noémie	-15695
Ximena	-15696
beacon	-15697
common	-15698
expert	-15699
idalgo	-15700
island	-15701
nguyen	-15702
restha	-15703
ustard	-15704
▁2024-	-15705
▁Bayat	-15706
▁Chang	-15707
▁Latte	-15708
▁McKay	-15709
▁Osman	-15710
▁Silva	-15711
▁Vaugh	-15712
▁rnode	-15713
▁speed	-15714
":"140,	-15715
":"148,	-15716
":"154,	-15717
":"160,	-15718
":"192,	-15719
":"258,	-15720
":"266,	-15721
":"274,	-15722
":"287,	-15723
":"314,	-15724
":"320,	-15725
":"335,	-15726
":"353,	-15727
":"381,	-15728
":"452,	-15729
":"468,	-15730
":"520,	-15731
":"573,	-15732
":"575,	-15733
":"579,	-15734
":"597,	-15735
":"635,	-15736
":"651,	-15737
":"681,	-15738
":"693,	-15739
":"701,	-15740
":"723,	-15741
":"758,	-15742
":"793,	-15743
":"868,	-15744
":"869,	-15745
":"917,	-15746
":"920,	-15747
":"925,	-15748
":"975,	-15749
":"999,	-15750
Beatriz	-15751
Gustavo	-15752
Natália	-15753
Newtown	-15754
Violeta	-15755
academy	-15756
astline	-15757
gateway	-15758
granite	-15759
hawkeye	-15760
inclair	-15761
morales	-15762
organic	-15763
utledge	-15764
watches	-15765
▁Amrani	-15766
▁BILLED	-15767
▁Common	-15768
▁Euston	-15769
▁Hariri	-15770
▁Neiges	-15771
▁Pillow	-15772
▁Rokeby	-15773
▁Window	-15774
/13/2024	-15775
/13/2026	-15776
/19/2024	-15777
/24/2025	-15778
Laughlin	-15779
Research	-15780
Vacation	-15781
champion	-15782
football	-15783
griffith	-15784
highland	-15785
landmark	-15786
majestic	-15787
ukherjee	-15788
velocity	-15789
▁2024-06	-15790
▁Bäckman	-15791
▁Charged	-15792
▁Clayton	-15793
▁Fremont	-15794
▁Ingalls	-15795
▁Trombay	-15796
▁Wickham	-15797
▁america	-15798
excluding	-15799
inclusive	-15800
▁Mattress	-15801
▁Sneakers	-15802
▁Standing	-15803
associates	-15804
prosperity	-15805
▁2026-01-1	-15806
▁TELEPHONE	-15807
barwangrice	-15808
▁"2024-04-0	-15809
▁MERCHANDISE	-15810
▁perindustrian	-15811
jn	-15812
ré	-15813
vc	-15814
$81	-15815
$93	-15816
16;	-15817
17;	-15818
267	-15819
31-	-15820
36-	-15821
424	-15822
481	-15823
496	-15824
581	-15825
838	-15826
884	-15827
>16	-15828
>26	-15829
>56	-15830
>86	-15831
Mer	-15832
NET	-15833
PRO	-15834
Sle	-15835
arw	-15836
exI	-15837
nes	-15838
nte	-15839
ues	-15840
van	-15841
▁8.	-15842
▁Gl	-15843
▁pm	-15844
$140	-15845
$141	-15846
$157	-15847
$163	-15848
,"57	-15849
-033	-15850
-050	-15851
-067	-15852
-070	-15853
-085	-15854
-194	-15855
-342	-15856
-379	-15857
-539	-15858
-573	-15859
-593	-15860
-670	-15861
-679	-15862
-703	-15863
-753	-15864
-794	-15865
-795	-15866
-853	-15867
-890	-15868
-980	-15869
-990	-15870
.03)	-15871
.04)	-15872
.07)	-15873
.15)	-15874
.18)	-15875
.48)	-15876
.52)	-15877
.64)	-15878
.81)	-15879
.91)	-15880
10</	-15881
11",	-15882
2025	-15883
35</	-15884
Body	-15885
Ines	-15886
Jack	-15887
Kids	-15888
Lake	-15889
Leah	-15890
Lumi	-15891
SKET	-15892
Ying	-15893
acco	-15894
aley	-15895
aman	-15896
anut	-15897
arnp	-15898
ayan	-15899
azio	-15900
best	-15901
clam	-15902
full	-15903
iser	-15904
ogel	-15905
quet	-15906
ruff	-15907
sted	-15908
tyre	-15909
uren	-15910
▁"35	-15911
▁"63	-15912
▁"75	-15913
▁#::	-15914
▁011	-15915
▁052	-15916
▁061	-15917
▁062	-15918
▁581	-15919
▁649	-15920
▁752	-15921
▁785	-15922
▁853	-15923
▁953	-15924
▁961	-15925
▁974	-15926
▁993	-15927
▁Awb	-15928
▁Cho	-15929
▁Cic	-15930
▁LLP	-15931
▁Utz	-15932
-14">	-15933
-18">	-15934
-20</	-15935
35","	-15936
Adama	-15937
After	-15938
Basia	-15939
Boots	-15940
Mahon	-15941
Reiko	-15942
Ville	-15943
anken	-15944
annon	-15945
brisk	-15946
brose	-15947
butus	-15948
clark	-15949
eagle	-15950
edman	-15951
guild	-15952
idane	-15953
ideal	-15954
ipley	-15955
nyder	-15956
olina	-15957
ozlov	-15958
pearl	-15959
seven	-15960
terra	-15961
trand	-15962
ussen	-15963
video	-15964
yield	-15965
▁Brea	-15966
▁Just	-15967
▁Next	-15968
▁Salt	-15969
▁Sarr	-15970
▁Shin	-15971
▁Sion	-15972
▁Stud	-15973
▁Tota	-15974
▁Verm	-15975
":"040	-15976
":"30,	-15977
":"437	-15978
":"496	-15979
":"542	-15980
":"756	-15981
":"766	-15982
":"77,	-15983
":"785	-15984
":"787	-15985
":"804	-15986
":"806	-15987
":"81,	-15988
":"844	-15989
":"910	-15990
":"921	-15991
":"935	-15992
":"952	-15993
":"954	-15994
":"972	-15995
-6","@	-15996
.10","	-15997
168","	-15998
209","	-15999
221","	-16000
242","	-16001
264","	-16002
273","	-16003
308","	-16004
471","	-16005
56"},"	-16006
578","	-16007
679","	-16008
681","	-16009
79"},"	-16010
914","	-16011
96"},"	-16012
Aleksi	-16013
Harper	-16014
Object	-16015
Quinoa	-16016
RDERED	-16017
Turkey	-16018
anquet	-16019
arwish	-16020
course	-16021
etchup	-16022
finest	-16023
inkler	-16024
inokun	-16025
kowski	-16026
leslaw	-16027
ncient	-16028
oirier	-16029
parker	-16030
rogers	-16031
select	-16032
steady	-16033
uentes	-16034
▁Abdel	-16035
▁Ahmed	-16036
▁Basic	-16037
▁Coron	-16038
▁First	-16039
▁Martí	-16040
▁Mateo	-16041
▁Noise	-16042
▁Ocean	-16043
▁Phiri	-16044
▁Salim	-16045
▁Tapia	-16046
":"0","	-16047
":"107,	-16048
":"124,	-16049
":"126,	-16050
":"132,	-16051
":"138,	-16052
":"141,	-16053
":"166,	-16054
":"263,	-16055
":"278,	-16056
":"292,	-16057
":"318,	-16058
":"332,	-16059
":"365,	-16060
":"375,	-16061
":"396,	-16062
":"420,	-16063
":"435,	-16064
":"445,	-16065
":"486,	-16066
":"488,	-16067
":"515,	-16068
":"536,	-16069
":"572,	-16070
":"577,	-16071
":"578,	-16072
":"582,	-16073
":"599,	-16074
":"600,	-16075
":"617,	-16076
":"622,	-16077
":"627,	-16078
":"636,	-16079
":"652,	-16080
":"655,	-16081
":"674,	-16082
":"685,	-16083
":"689,	-16084
":"733,	-16085
":"766,	-16086
":"769,	-16087
":"772,	-16088
":"812,	-16089
":"842,	-16090
":"857,	-16091
":"858,	-16092
":"890,	-16093
":"894,	-16094
":"942,	-16095
":"957,	-16096
":"965,	-16097
":"971,	-16098
Anthony	-16099
Cheddar	-16100
Massage	-16101
exOmple	-16102
healthy	-16103
natural	-16104
nurnber	-16105
▁BASKET	-16106
▁Bolton	-16107
▁Dennis	-16108
▁Dlrect	-16109
▁Guzmán	-16110
▁Madsen	-16111
▁Multiv	-16112
▁Savage	-16113
▁Spread	-16114
.69"}],"	-16115
/27/2024	-16116
Heritage	-16117
Ladislav	-16118
cleaning	-16119
inchenko	-16120
othpaste	-16121
positive	-16122
presence	-16123
superior	-16124
woodland	-16125
▁Arbutus	-16126
▁Downing	-16127
▁Managed	-16128
▁Mohamed	-16129
▁Parking	-16130
▁Vermont	-16131
-05"},{"@	-16132
-20"},{"@	-16133
="2025-06	-16134
ankenship	-16135
clamation	-16136
▁Complete	-16137
▁Cordless	-16138
,2026-03-0	-16139
Collection	-16140
▁2026-07-1	-16141
▁Companies	-16142
▁Concourse	-16143
▁Hochelaga	-16144
="2025-06-0	-16145
▁Associates	-16146
▁Coronation	-16147
▁McLaughlin	-16148
▁Parramatta	-16149
$0	-16150
Ph	-16151
cB	-16152
pu	-16153
wo	-16154
,29	-16155
.8)	-16156
01"	-16157
12;	-16158
220	-16159
244	-16160
265	-16161
328	-16162
338	-16163
364	-16164
660	-16165
>42	-16166
>51	-16167
>66	-16168
Ass	-16169
Ber	-16170
CHE	-16171
Ile	-16172
NOW	-16173
ega	-16174
jwa	-16175
mil	-16176
odi	-16177
oza	-16178
wel	-16179
▁CU	-16180
▁DN	-16181
▁Im	-16182
▁Kw	-16183
▁cs	-16184
▁na	-16185
▁sp	-16186
$115	-16187
$132	-16188
$149	-16189
$153	-16190
$174	-16191
$317	-16192
,"37	-16193
-075	-16194
-095	-16195
-210	-16196
-249	-16197
-403	-16198
-449	-16199
-499	-16200
-575	-16201
-605	-16202
-639	-16203
-687	-16204
-870	-16205
-895	-16206
.21)	-16207
.23)	-16208
.54)	-16209
.55)	-16210
03</	-16211
54</	-16212
56",	-16213
="21	-16214
Full	-16215
adav	-16216
alph	-16217
arro	-16218
bosa	-16219
cars	-16220
edge	-16221
emer	-16222
[...]
