<unk>	0
<s>	0
</s>	0
":"	-2.45901
","	-2.6754
type	-3.59042
id	-3.95912
":"#	-4.04881
":{"@	-4.05363
.	-4.12475
▁	-4.16659
price	-4.18527
name	-4.20968
item	-4.23501
,	-4.25881
value	-4.34759
Value	-4.35865
y	-4.40642
s	-4.57063
Quantit	-4.60464
","@	-4.61203
address	-4.67476
Property	-4.73253
"},"	-4.8644
a	-4.89715
ation	-4.92389
"},{"@	-4.93225
t	-4.94735
unit	-4.96913
▁"	-4.97421
>	-4.9796
Offer	-5.07253
-	-5.08421
renc	-5.13737
Cur	-5.13933
Spe	-5.15729
cific	-5.16119
:	-5.1661
order	-5.18153
P	-5.20215
Tex	-5.23029
offer	-5.23968
Address	-5.28673
tive	-5.299
Price	-5.33852
><	-5.35718
R	-5.3726
http	-5.38518
://	-5.38518
":	-5.46957
seller	-5.51762
e	-5.52209
C	-5.53205
ch	-5.55094
ed	-5.56086
S	-5.56777
</	-5.57266
ema	-5.5861
org	-5.58769
},{"@	-5.67718
-1	-5.71013
customer	-5.71273
Unit	-5.77244
/	-5.77259
td	-5.78155
":[{"@	-5.78609
ible	-5.9371
lig	-5.93876
"	-5.94696
-2	-5.98311
reference	-6.04369
":1}}	-6.05451
@	-6.05551
ity	-6.06458
postal	-6.07265
Code	-6.07342
egion	-6.07994
ostal	-6.0823
street	-6.08499
Local	-6.08514
example	-6.09182
▁<	-6.09312
ountry	-6.09845
Payment	-6.10333
payment	-6.11043
sku	-6.11189
roduct	-6.14166
total	-6.15847
Order	-6.18216
_	-6.19573
p	-6.20241
email	-6.22157
tatus	-6.31222
",	-6.32345
},"	-6.34453
▁=	-6.3761
-3	-6.43589
th	-6.44486
▁Street	-6.47343
Organiz	-6.48518
delivery	-6.48612
,"	-6.50858
▁1	-6.51615
▁Number	-6.52848
▁line	-6.55532
Due	-6.5568
="	-6.56394
Service	-6.565
></	-6.56813
GBP	-6.57274
EUR	-6.64662
1	-6.64686
▁-	-6.67818
line	-6.69026
INR	-6.71304
AUD	-6.72411
NZD	-6.7485
USD	-6.75789
tax	-6.77051
tr	-6.78757
SGD	-6.79068
▁Amount	-6.79899
Method	-6.80996
0	-6.81485
ent	-6.82194
shipper	-6.82872
▁ID	-6.83489
ifier	-6.84182
-4	-6.85107
telephone	-6.8568
Delivery	-6.85826
▁order	-6.85935
"}	-6.86342
ph	-6.87131
Customer	-6.87201
gra	-6.87418
▁{	-6.8847
{"@	-6.88754
Number	-6.88974
Date	-6.89049
context	-6.8907
accepted	-6.89566
tional	-6.89829
]}	-6.89982
ddi	-6.90008
ER	-6.90101
▁}	-6.90333
CAD	-6.90338
U	-6.9087
Tax	-6.91768
]	-6.93761
[	-6.96072
▁Name	-6.99004
ID	-6.99953
":1}	-7.00285
▁2	-7.00559
▁Mode	-7.01809
Cashier	-7.02046
Subtotal	-7.02609
▁Type	-7.03176
Receipt	-7.04286
Register	-7.04817
)	-7.05652
"}}	-7.06373
url	-7.06941
5	-7.09041
8	-7.09148
O	-7.11945
A	-7.12614
▁x	-7.16115
product	-7.17244
3	-7.17998
qty	-7.19244
MY	-7.19496
T	-7.20365
":2	-7.21927
-1"},{"@	-7.22439
quantity	-7.22698
▁total	-7.23364
2	-7.24211
I	-7.25208
Person	-7.27001
r	-7.27307
▁5	-7.274
4	-7.31254
$	-7.31769
OR	-7.3393
6	-7.34204
Processing	-7.36561
B	-7.37109
"}],"	-7.38351
co	-7.40809
M	-7.42122
New	-7.4241
▁8	-7.43726
-------------	-7.43735
IN	-7.44497
omplete	-7.44533
▁Road	-7.48049
NCE	-7.48645
▁4	-7.48693
RTA	-7.50316
-5	-7.5083
7	-7.50872
▁3	-7.50961
der	-7.5128
_1_	-7.5152
billing	-7.52235
▁S	-7.54164
merchant	-7.55424
Parcel	-7.56401
Card	-7.56592
9	-7.5692
Credit	-7.5773
Discount	-7.58677
▁9	-7.60043
Singapore	-7.60799
▁</	-7.61094
h	-7.61627
shop	-7.62576
D	-7.62724
provi	-7.63915
orders	-7.67393
l	-7.69159
on	-7.69336
L	-7.69393
-2"},{"@	-7.69687
12	-7.69746
support	-7.70468
▁tax	-7.70832
store	-7.70964
Tracking	-7.72742
▁EUR	-7.73058
":"1	-7.74546
d	-7.74907
▁Kingdom	-7.74932
▁GBP	-7.7554
F	-7.77442
Wellington	-7.77886
91	-7.78218
▁Zealand	-7.78688
18	-7.78965
_2_	-7.79702
▁INR	-7.80467
Auckland	-7.80519
Pickup	-7.80923
Z	-7.8225
status	-7.82482
▁totals	-7.82618
Q	-7.828
FA	-7.83567
H	-7.84078
TAL	-7.84921
24	-7.84934
J	-7.85476
▁Bundle	-7.85635
▁NZD	-7.85991
m	-7.86034
▁6	-7.86058
26	-7.87947
In	-7.88695
N	-7.89174
E	-7.89829
n	-7.91425
▁7	-7.91585
15	-7.92241
16	-7.92389
▁(	-7.92402
":3	-7.9409
▁AUD	-7.94224
com	-7.95539
direct	-7.96017
checkout	-7.96018
13	-7.96834
44	-7.9733
▁A	-7.98841
RO	-7.99164
RD	-7.99571
▁States	-7.99712
17	-7.99954
11	-8.00752
▁SGD	-8.00932
▁Unit	-8.01236
19	-8.01747
▁no	-8.02849
▁0	-8.05026
KU	-8.05725
▁Set	-8.05919
ing	-8.0654
56	-8.07485
14	-8.08113
G	-8.0813
38	-8.0858
;	-8.08806
▁USD	-8.09241
global	-8.09319
▁gst	-8.11418
▁CAD	-8.11481
▁ship	-8.11597
-3"},{"@	-8.1192
10	-8.12554
Australia	-8.1279
-2"}],"	-8.13248
▁20	-8.13282
64	-8.14208
58	-8.14385
V	-8.14438
▁H	-8.14484
22	-8.15219
section	-8.16339
Ireland	-8.16609
Document	-8.16995
ead	-8.17057
74	-8.17177
bod	-8.17297
6","	-8.17375
68	-8.18694
subtotal	-8.18725
57	-8.18802
92	-8.18828
table	-8.18904
20	-8.18977
29	-8.19046
▁|	-8.19106
▁payment	-8.19542
28	-8.19681
8","	-8.20179
▁Global	-8.21358
31	-8.21396
▁Pack	-8.22141
54	-8.22812
06	-8.23519
Cash	-8.23699
1>	-8.23726
33	-8.24028
▁/	-8.24111
--------------	-8.24267
India	-8.24373
mail	-8.24532
27	-8.24667
Central	-8.24694
23	-8.25391
-1"}],"	-8.25514
36	-8.25758
75	-8.25761
▁date	-8.26098
▁:	-8.26265
88	-8.26745
totals	-8.26942
c	-8.27293
":4	-8.27433
▁&	-8.27682
▁Express	-8.2842
45	-8.28609
▁New	-8.28622
and	-8.29065
5","	-8.29189
▁Notice	-8.2957
46	-8.29629
34	-8.29641
05	-8.30037
98	-8.30384
_3_	-8.30581
25	-8.30609
2","	-8.30761
83	-8.30816
32	-8.31456
team	-8.31856
4","	-8.31878
08	-8.31973
77	-8.32263
b	-8.32648
▁B	-8.32656
▁$	-8.32799
K	-8.33002
service	-8.33698
04	-8.33701
48	-8.33739
Canada	-8.33854
59	-8.34127
69	-8.34252
>2</	-8.34447
▁Code	-8.34766
39	-8.3532
09	-8.35411
86	-8.35483
o	-8.35619
21	-8.35894
▁and	-8.36394
78	-8.36539
63	-8.36731
47	-8.36744
43	-8.36954
52	-8.37154
receipts	-8.37226
94	-8.37392
k	-8.37461
Leinster	-8.37952
▁Summary	-8.37973
40	-8.38025
66	-8.38064
Dublin	-8.38317
97	-8.38593
▁T	-8.38835
▁Receipt	-8.39172
▁details	-8.3942
▁Co	-8.40084
55	-8.40434
▁Singapore	-8.41016
9","	-8.41106
84	-8.41118
07	-8.41131
72	-8.41152
02	-8.41255
▁G	-8.41326
3","	-8.4135
▁10	-8.41365
▁sr	-8.41859
7","	-8.41937
an	-8.4212
85	-8.42361
▁C	-8.42783
▁J	-8.43744
71	-8.43765
35	-8.43845
▁Confirmation	-8.44345
87	-8.44441
REG	-8.45115
42	-8.45773
30	-8.4632
81	-8.46367
>1</	-8.46947
▁P	-8.47245
W	-8.47516
1","	-8.47932
▁D	-8.47964
le	-8.48167
79	-8.48522
CA	-8.48902
items	-8.4905
65	-8.49091
70	-8.49091
82	-8.50989
53	-8.52166
+1	-8.52326
POS	-8.52339
49	-8.52499
England	-8.5255
89	-8.52742
er	-8.52979
Y	-8.53104
X	-8.53523
▁I	-8.54422
▁Place	-8.54556
60	-8.54631
ment	-8.54719
me	-8.55117
South	-8.55431
62	-8.56002
g	-8.56254
41	-8.57309
03	-8.57363
93	-8.57395
96	-8.57944
▁L	-8.58009
95	-8.58282
00	-8.5917
Subscription	-8.59204
▁Package	-8.59459
67	-8.59624
Total	-8.60111
i	-8.61013
▁subtotal	-8.61821
Cork	-8.62218
▁amount	-8.62273
Munster	-8.63083
online	-8.63436
1,	-8.63863
Delivered	-8.64482
▁M	-8.64581
Bank	-8.64821
▁E	-8.6498
76	-8.65849
MEM	-8.65938
NZ	-8.66397
-3"}],"	-8.67084
▁Direct	-8.6713
50	-8.67849
▁Office	-8.68289
u	-8.68505
61	-8.68909
ency	-8.69274
▁York	-8.69366
▁with	-8.69366
▁Delhi	-8.6975
Item	-8.70384
▁phone	-8.70709
London	-8.7088
99	-8.71204
▁Pay	-8.71369
ine	-8.71812
_4_	-8.71893
-4"}],"	-8.71908
at	-8.72008
":5	-8.72171
▁contact	-8.72221
+44	-8.72619
▁R	-8.74291
▁Suite	-8.74482
ish	-8.7451
+61	-8.74597
▁is	-8.74779
73	-8.74845
▁Network	-8.76069
,1	-8.76591
▁12	-8.77533
▁Floor	-8.78773
01	-8.79078
▁16	-8.79285
▁Avenue	-8.79321
▁Way	-8.79329
37	-8.79451
$1	-8.8036
▁of	-8.80759
Transfer	-8.81084
placed	-8.81108
▁email	-8.81143
▁Subscription	-8.81252
▁F	-8.81271
▁17	-8.81367
▁13	-8.81379
class	-8.81581
▁[	-8.81977
▁placed	-8.81994
Queensland	-8.82113
INV	-8.82879
▁r	-8.84003
Advance	-8.84383
▁15	-8.84468
tracking	-8.84574
method	-8.84576
51	-8.84582
▁Service	-8.84598
phone	-8.8518
▁Store	-8.8547
CLI	-8.85747
▁K	-8.8588
CUST	-8.86342
contact	-8.86374
USR	-8.86428
CC	-8.86498
curr	-8.86757
0","	-8.87372
Brisbane	-8.8738
▁O	-8.87417
At	-8.87678
▁W	-8.87941
90	-8.87942
▁0.00	-8.88024
▁You	-8.88091
Edinburgh	-8.88549
number	-8.88799
en	-8.888
field	-8.89156
dateti	-8.89207
▁c	-8.89996
BUYER	-8.90637
▁18	-8.90822
▁section	-8.91201
6,	-8.91573
▁Wales	-8.91617
rn	-8.91667
ello	-8.9226
Manchester	-8.92871
+353	-8.93055
By	-8.93182
eller	-8.93234
-4"},{"@	-8.93325
4,	-8.93844
▁Card	-8.93946
Maharashtra	-8.94139
Sales	-8.94261
-5"}],"	-8.94491
Mumbai	-8.94779
Sydney	-8.94786
mart	-8.94807
Scotland	-8.94844
▁11	-8.94947
▁Registration	-8.95428
SO	-8.95555
▁19	-8.95715
Checkout	-8.96077
000	-8.96478
Melbourne	-8.96729
al	-8.96734
▁Subject	-8.96737
GST	-8.97111
▁(1	-8.97173
ORD	-8.97491
▁invoice	-8.97572
2,	-8.97831
],	-8.98244
Available	-8.98454
▁N	-8.99054
▁Australia	-8.99068
▁14	-8.99247
ly	-8.99388
,2	-8.99424
f	-8.99634
+65	-8.99868
Vancouver	-9.00065
8,	-9.00087
▁Items	-9.00088
NE	-9.00162
▁delivery	-9.00673
▁Central	-9.01366
PO	-9.01541
▁Level	-9.02119
3,	-9.02554
-6	-9.02613
GB	-9.02657
▁cash	-9.02815
x	-9.02993
alan	-9.03326
TXN	-9.03335
market	-9.03512
▁2,	-9.041
▁Columbia	-9.04217
▁b	-9.05011
5,	-9.05324
▁to	-9.05718
RT	-9.05963
▁India	-9.06303
▁V	-9.06706
v	-9.0696
▁(2	-9.07588
▁1,	-9.07603
▁Kit	-9.08012
0.00	-9.08133
Alberta	-9.08549
▁Transfer	-9.09133
Victoria	-9.09199
Calgary	-9.0929
la	-9.09378
Takeaway	-9.10037
▁Invoice	-9.10091
▁Ap	-9.1026
Bengaluru	-9.10816
▁Plan	-9.10822
+64	-9.10983
w	-9.11199
":6	-9.112
▁Edition	-9.11543
▁receipt	-9.11547
>3</	-9.11565
RCP	-9.1159
Karnataka	-9.12306
Remote	-9.1231
Premiu	-9.12393
▁NZ	-9.12486
Transit	-9.13027
led	-9.13042
▁In	-9.13205
▁Ireland	-9.13329
▁shipp	-9.1349
solutions	-9.13853
▁Renewal	-9.14635
▁customer	-9.14876
ot	-9.15081
80	-9.1578
WEB	-9.1623
▁#	-9.18322
el	-9.19007
Bri	-9.20015
Toronto	-9.20281
9,	-9.2032
▁i	-9.20556
▁Canada	-9.20679
rm	-9.22197
less	-9.22226
Seattle	-9.22803
or	-9.2328
chedu	-9.2366
Store	-9.23843
":"+	-9.24527
Ontario	-9.24533
XP	-9.25384
Online	-9.25576
▁England	-9.26016
Delhi	-9.2647
Curbside	-9.27152
▁you	-9.27594
▁U	-9.27975
Ship	-9.28476
group	-9.28944
▁product	-9.29274
▁f	-9.29472
▁quantity	-9.29522
in	-9.29539
▁l	-9.29642
Austin	-9.30114
Texas	-9.30309
▁due	-9.30818
ool	-9.3128
app	-9.31746
▁m	-9.32096
7,	-9.32274
▁Gran	-9.32909
:00	-9.33232
▁Series	-9.3453
ware	-9.34852
▁on	-9.35034
▁Z	-9.35256
ell	-9.35274
Change	-9.35475
▁King	-9.35542
▁code	-9.35728
▁employee	-9.36461
6"},{"@	-9.36592
▁Q	-9.36662
TRK	-9.36827
▁cashier	-9.37542
PKG	-9.37916
▁30	-9.38148
▁g	-9.38182
▁Queen	-9.3843
io	-9.38604
ce	-9.39138
ummary	-9.39373
$2	-9.394
▁24	-9.39514
am	-9.40461
▁mode	-9.4048
▁No	-9.40529
▁Date	-9.40558
(	-9.40856
>1	-9.41784
▁21	-9.4241
Dispatch	-9.43009
'	-9.43534
▁change	-9.43536
▁28	-9.43676
>4</	-9.43714
▁3,	-9.44145
▁25	-9.44548
ift	-9.44551
▁23	-9.44874
▁rm	-9.45546
goods	-9.46897
▁Collection	-9.46904
▁than	-9.4707
rian	-9.47118
▁X	-9.47278
ion	-9.4754
Chicago	-9.47813
▁Shent	-9.47813
▁Y	-9.48437
iz	-9.49517
SHIP	-9.49578
▁26	-9.49637
.51	-9.49961
▁07	-9.50208
ol	-9.5056
!	-9.51146
tena	-9.51156
▁Collins	-9.51173
▁Bin	-9.51177
▁CA	-9.51246
▁NO	-9.5129
for	-9.51781
Problem	-9.51819
▁processing	-9.52287
row	-9.52444
▁j	-9.52543
▁+	-9.52632
▁number	-9.52958
ebit	-9.53436
Illinois	-9.53446
▁Cour	-9.53454
Washington	-9.5419
able	-9.54369
tarter	-9.546
▁p	-9.55147
▁George	-9.55234
▁reg	-9.55613
▁Bottle	-9.55932
▁Ticket	-9.561
Tendered	-9.56874
ma	-9.57414
,3	-9.57791
network	-9.58166
▁k	-9.58948
▁o	-9.59448
4"},{"@	-9.5946
▁TOTAL	-9.59721
▁PAYMENT	-9.59866
▁08	-9.59876
▁09	-9.59994
_5_	-9.60626
▁jala	-9.61036
ome	-9.61218
7"},{"@	-9.61542
partners	-9.61871
3"},{"@	-9.62327
Din	-9.62583
▁Stand	-9.62843
▁Partners	-9.63137
▁ordered	-9.63468
▁by	-9.6359
▁sales	-9.63707
▁Total	-9.63717
▁"1	-9.6442
▁Station	-9.64443
▁Membership	-9.64509
▁35	-9.64785
▁Washington	-9.64867
Blue	-9.65396
▁Baker	-9.65966
ky	-9.66537
▁Tax	-9.66574
labs	-9.67033
▁DATE	-9.67192
ric	-9.6773
":"25	-9.67812
grocer	-9.68367
cool	-9.68544
it	-9.68604
▁d	-9.68799
▁bhd	-9.69718
▁Raffl	-9.69718
ssic	-9.69725
▁Shop	-9.69732
▁Case	-9.69859
ED	-9.70381
▁03	-9.70916
ct	-9.7098
ha	-9.71081
▁sdn	-9.71088
▁tel	-9.71121
-7	-9.71814
▁+1	-9.72287
▁Cable	-9.72735
▁Shelf	-9.72842
leet	-9.72846
▁Bank	-9.72902
▁Dispatch	-9.73191
▁Credit	-9.73361
▁40	-9.73469
▁33	-9.73828
▁v	-9.73876
collective	-9.73884
▁Flores	-9.73985
":"21	-9.74131
▁Mouse	-9.74165
▁Main	-9.7435
9"},{"@	-9.74906
express	-9.75313
▁service	-9.75661
ord	-9.75665
▁22	-9.75732
ut	-9.75982
1"},{"@	-9.76163
ern	-9.7649
Cla	-9.76586
▁in	-9.76754
▁Transit	-9.76813
chard	-9.76838
":"14	-9.76854
▁Blanket	-9.77192
▁de	-9.77241
▁Bri	-9.77497
hardware	-9.77722
Restaurant	-9.78232
▁Labs	-9.78233
▁payable	-9.78235
▁Meal	-9.78237
us	-9.78963
$3	-9.79276
es	-9.79381
▁America	-9.79458
supply	-9.79726
▁discount	-9.79763
▁Ben	-9.79794
▁qty	-9.79993
-02	-9.80038
▁Or	-9.80509
▁01	-9.81036
ler	-9.8122
Domin	-9.81241
▁Parn	-9.81242
USB	-9.81435
>5</	-9.81462
2"},{"@	-9.81782
8"},{"@	-9.82027
un	-9.82321
▁be	-9.8238
▁Storage	-9.82434
Shipp	-9.82453
}],"	-9.82974
▁Pass	-9.83104
▁TXN	-9.83159
LE	-9.83565
▁77	-9.83599
up	-9.8396
1.2	-9.8398
-03	-9.8409
▁n	-9.84296
Johor	-9.84342
▁Ceci	-9.84342
vertex	-9.84376
▁Smith	-9.84505
9.2	-9.84943
North	-9.85032
▁INV	-9.85463
▁Cook	-9.85543
▁(3	-9.85735
▁Serango	-9.85929
▁Carter	-9.86172
▁products	-9.86409
▁city	-9.8656
services	-9.87038
▁Reservation	-9.8754
systems	-9.87542
Indoor	-9.87559
teven	-9.87713
vas	-9.87714
▁w	-9.87723
-88	-9.87738
Fi	-9.87758
▁Keyboard	-9.87785
ST	-9.88381
ual	-9.88423
▁h	-9.88585
agh	-9.89186
ur	-9.89228
▁Watson	-9.893
▁Monitor	-9.89562
▁ORDER	-9.89962
%	-9.901
▁(4	-9.90114
ia	-9.9029
Can	-9.90569
▁31	-9.90599
▁#:	-9.90638
green	-9.90848
▁Bhd	-9.90848
adison	-9.90848
▁Shipping	-9.90849
▁Young	-9.91008
▁Flight	-9.91074
▁Cruz	-9.91075
Ox	-9.91542
▁Scott	-9.9175
NR	-9.91849
2.2	-9.91858
▁purchase	-9.92095
▁Ship	-9.92107
resh	-9.9248
▁again	-9.92543
inclusiv	-9.92544
▁Sdn	-9.92544
outlet	-9.92546
esar	-9.92546
Fami	-9.92641
▁RCP	-9.92672
▁Mo	-9.92701
▁+64	-9.92743
Lil	-9.92769
▁SSD	-9.92801
▁PO	-9.93117
eak	-9.93376
-09	-9.934
-05	-9.9369
▁method	-9.93763
iden	-9.94034
▁Filter	-9.94264
▁Extender	-9.94264
retail	-9.94267
indust	-9.94267
▁Logistics	-9.94267
▁Systems	-9.94268
▁Market	-9.94269
energy	-9.94269
awas	-9.94269
Compa	-9.9427
▁Charger	-9.94366
▁Cox	-9.94618
arry	-9.95157
▁50	-9.95188
-82	-9.95384
▁67	-9.95406
ers	-9.95935
digital	-9.96021
factory	-9.96021
Travel	-9.9622
▁Howard	-9.96403
▁0.	-9.9656
▁Payment	-9.97015
-77	-9.97082
,4	-9.97277
▁at	-9.97747
▁Grocer	-9.97807
▁SO	-9.97814
aba	-9.97839
Apple	-9.98038
▁Nelson	-9.98052
Well	-9.98113
▁Light	-9.98141
▁Hub	-9.98152
-06	-9.98218
▁Rodriguez	-9.98224
▁Available	-9.98455
wift	-9.98592
-0	-9.98847
j	-9.99508
▁Parade	-9.99623
▁Talb	-9.99626
trading	-9.99683
mond	-9.99761
▁Victoria	-9.99844
ness	-10.003
▁05	-10.0112
lu	-10.0126
▁REG	-10.0142
mobility	-10.0148
▁Collective	-10.0151
▁facebook	-10.0161
▁Lewis	-10.0164
▁Brown	-10.0178
Tablet	-10.0179
um	-10.018
▁Lamp	-10.0189
iley	-10.0191
are	-10.0272
op	-10.0305
▁48	-10.0336
house	-10.0336
Employee	-10.0336
▁Ward	-10.0337
enu	-10.0342
▁Wood	-10.035
▁Hall	-10.0356
-67	-10.0365
▁Evans	-10.0365
▁Chair	-10.0368
America	-10.037
-60	-10.0372
-08	-10.0396
treet	-10.0423
▁net	-10.0438
ak	-10.0481
▁OF	-10.0497
-01	-10.0498
▁41	-10.0504
▁Hose	-10.0529
▁Jaya	-10.0529
point	-10.0529
▁Hardware	-10.0529
▁Mobility	-10.0529
bigail	-10.0529
livia	-10.0529
melia	-10.0529
▁Supply	-10.0529
▁Broadway	-10.0529
▁fo	-10.0529
clear	-10.0529
ria	-10.0541
▁Morris	-10.0543
▁Wright	-10.0547
▁Johnson	-10.0552
▁Hill	-10.0554
king	-10.0555
Wire	-10.0561
▁Kelly	-10.0561
▁Thompson	-10.0561
-85	-10.0562
28"},{"@	-10.0564
Office	-10.0569
bakery	-10.0577
106	-10.0613
▁us	-10.0644
ley	-10.0696
$4	-10.07
6.1	-10.0708
ic	-10.0717
urope	-10.0725
Joseph	-10.0725
Winter	-10.0725
▁Edwards	-10.0726
▁amt	-10.0727
▁Combo	-10.0739
▁Richardson	-10.0755
ental	-10.0757
▁Mart	-10.0759
▁Torres	-10.0761
Company	-10.0765
▁Bennett	-10.0768
▁ORD	-10.0805
ling	-10.081
od	-10.0815
Th	-10.0815
Mas	-10.0845
ala	-10.0851
▁90	-10.0852
▁tracking	-10.0867
▁02	-10.0909
▁Watch	-10.0924
▁Stewart	-10.0925
annah	-10.0925
blue	-10.0925
tephen	-10.0925
▁jaya	-10.0925
aul	-10.0925
bennett	-10.0926
▁37	-10.0941
▁Dock	-10.0942
-72	-10.0947
Prim	-10.0957
▁johor	-10.0972
Storage	-10.0974
rban	-10.0986
Visa	-10.0999
▁u	-10.1022
200	-10.1046
ndrew	-10.1051
station	-10.1083
come	-10.1086
ichael	-10.1113
8.2	-10.1114
":"0.00"}],"	-10.1128
corner	-10.1129
oak	-10.1133
▁95	-10.1135
▁6,	-10.1139
-76	-10.114
▁Ramos	-10.114
▁Bailey	-10.116
▁00	-10.1161
▁Lee	-10.1171
▁created	-10.1174
Goog	-10.1178
Cook	-10.1179
100	-10.1204
▁James	-10.1216
▁Green	-10.1217
Robert	-10.1229
▁Goog	-10.1287
▁Travel	-10.1314
eliable	-10.1322
▁06	-10.1329
Round	-10.1334
kitchen	-10.1336
▁Speaker	-10.1337
▁Drill	-10.1337
▁Bulb	-10.1337
distributors	-10.1337
▁Reg	-10.1337
oshua	-10.1337
media	-10.1337
▁Tampoi	-10.1337
kka	-10.1337
▁Trading	-10.1337
West	-10.1338
▁TAX	-10.1338
▁Anderson	-10.1352
▁+44	-10.1356
0.6	-10.1364
▁BY	-10.1377
inc	-10.1377
ve	-10.1392
▁Ne	-10.1394
-11	-10.1407
▁44	-10.1414
1.7	-10.1419
2"},"	-10.1424
-93	-10.1461
202	-10.1464
ud	-10.1467
Co	-10.1501
onald	-10.1507
wholesale	-10.155
amila	-10.155
▁Digital	-10.155
boutique	-10.155
▁Retail	-10.155
enelope	-10.1552
81200	-10.1552
right	-10.1553
9"}],"	-10.1556
ike	-10.1569
▁House	-10.1576
▁Walker	-10.1577
▁Garcia	-10.1579
▁Ortiz	-10.1579
▁Ad	-10.1585
▁Reyes	-10.1589
▁Roberts	-10.159
▁The	-10.1596
▁80	-10.16
Air	-10.1613
-10	-10.162
":"51	-10.1626
uba	-10.1627
▁Po	-10.1664
-96	-10.1669
ake	-10.1725
3"},"	-10.1728
ig	-10.1728
-21	-10.1733
undle	-10.1743
provisions	-10.1767
Selangor	-10.1767
▁Energy	-10.1767
▁DUE	-10.1767
land	-10.1773
▁Services	-10.1783
▁Clark	-10.1787
▁MODE	-10.1787
▁Martin	-10.1791
Trust	-10.1795
-8	-10.1796
▁Robinson	-10.1808
Wi	-10.1809
Clo	-10.1829
-89	-10.1846
▁47	-10.1858
-62	-10.1858
Portab	-10.1864
il	-10.188
yan	-10.188
▁27	-10.1883
▁Thomas	-10.1886
ad	-10.1888
,5	-10.1901
hru	-10.1905
-71	-10.1906
▁36	-10.1918
170	-10.1939
▁60	-10.1943
▁Plant	-10.1978
▁re	-10.1985
▁vege	-10.1987
1"},"	-10.1987
▁Kitchen	-10.1989
▁Quay	-10.1989
▁Drive	-10.1989
Sophia	-10.199
lexander	-10.199
▁Trip	-10.199
▁tampoi	-10.199
000656195584	-10.199
ayla	-10.1999
▁70	-10.2
▁Phillips	-10.2006
101	-10.201
▁Wilson	-10.2013
▁Brooks	-10.2013
▁Jones	-10.2017
0"}],"	-10.204
355	-10.2047
▁bill	-10.2068
aman	-10.207
":"37	-10.2083
▁SHIP	-10.2085
-07	-10.2096
Gra	-10.2101
▁53	-10.2111
-69	-10.2119
▁Da	-10.214
-65	-10.2154
▁Air	-10.2157
ng	-10.2172
oah	-10.22
▁%	-10.2204
atthew	-10.2213
▁Option	-10.2217
▁Gomez	-10.2217
international	-10.2217
▁Factory	-10.2217
Business	-10.2217
▁Lambt	-10.2217
▁Media	-10.2217
▁@6%	-10.2217
▁Outlet	-10.2217
▁selangor	-10.2217
nova	-10.2217
▁rounding	-10.2218
northstar	-10.2221
Bar	-10.2224
crown	-10.2228
▁Murphy	-10.2237
pioneer	-10.2238
No	-10.2247
Mia	-10.2258
son	-10.2259
▁Mitchell	-10.2263
hi	-10.2265
▁Davis	-10.2267
eah	-10.2272
▁45	-10.2284
Garden	-10.2286
▁4,	-10.2298
tem	-10.2305
ET	-10.2307
104	-10.2319
▁Pat	-10.2343
302	-10.2365
▁sold	-10.2371
-79	-10.2433
port	-10.2444
▁WEB	-10.2445
imothy	-10.2449
Sofia	-10.2449
▁TYPE	-10.2449
▁Rental	-10.2452
-04	-10.2452
main	-10.2452
-78	-10.2453
▁co	-10.2471
▁Perez	-10.2474
▁Col	-10.2483
▁Morgan	-10.2497
83"},{"@	-10.2497
Coffee	-10.2528
▁per	-10.2532
5"},{"@	-10.2532
▁Problem	-10.2541
▁PayPal	-10.2569
-92	-10.2576
▁Sy	-10.2614
-95	-10.2625
-56	-10.2645
▁st	-10.2649
▁Apple	-10.2657
▁sub	-10.2661
ertex	-10.2682
ndar	-10.2686
alaysia	-10.2687
▁pleas	-10.2688
birch	-10.2688
hub	-10.269
itern	-10.269
chan	-10.2691
▁Cash	-10.2691
▁Campbell	-10.2709
▁Moore	-10.2709
▁Adams	-10.2716
ie	-10.2717
33"},{"@	-10.2724
▁tender	-10.2728
Park	-10.2771
Mastercard	-10.2772
is	-10.2784
▁68	-10.2801
▁*	-10.2811
ummit	-10.2826
swift	-10.2829
152.	-10.2836
141	-10.2838
21"},{"@	-10.2866
-49	-10.2869
▁To	-10.2879
-94	-10.2892
58"},{"@	-10.2904
▁Pri	-10.2905
25"},{"@	-10.2918
peak	-10.2926
▁Mall	-10.2931
▁Terrace	-10.2931
pharmacy	-10.2931
Soft	-10.2931
MENT	-10.2932
kitchenware	-10.2932
ical	-10.2933
open	-10.2933
elm	-10.2943
▁Taylor	-10.2949
▁7/4,	-10.2955
▁Miller	-10.2961
.25","	-10.2963
280	-10.2966
12,	-10.298
egister	-10.2988
26"},{"@	-10.2998
4"}],"	-10.3007
($	-10.3016
Ava	-10.3017
▁Port	-10.3039
west	-10.3068
129	-10.3093
▁pa	-10.3109
▁ca	-10.3117
-66	-10.3138
7"}],"	-10.3139
-97	-10.3144
Emil	-10.3158
▁96	-10.3175
white	-10.3181
icholas	-10.3181
▁Point	-10.3181
narne	-10.3181
▁Boutique	-10.3182
park	-10.3182
fast	-10.3182
Minima	-10.3183
▁Rom	-10.3183
oise	-10.319
metro	-10.3191
fresh	-10.3192
▁+61	-10.3195
▁Cooper	-10.3196
-84	-10.3196
▁Nguyen	-10.3204
▁Morales	-10.3204
▁Parker	-10.321
52"},{"@	-10.321
Em	-10.3212
hristopher	-10.3227
▁Reed	-10.3233
>6</	-10.3256
54"},{"@	-10.3265
="+1	-10.3268
-9	-10.3299
-55	-10.3314
▁support	-10.3319
2.00	-10.332
6</	-10.3345
▁Coffee	-10.3351
46"},{"@	-10.3352
randon	-10.336
sh	-10.3361
ustin	-10.3364
27"},{"@	-10.3381
3.00	-10.3425
aide	-10.3437
▁Bou	-10.3438
travel	-10.3438
studio	-10.3438
▁Solutions	-10.3438
amuel	-10.3438
nthony	-10.3438
ll	-10.3466
▁Shorts	-10.3469
cox	-10.3469
nson	-10.3487
Donald	-10.349
82"},{"@	-10.3527
ri	-10.3539
north	-10.3541
43"},{"@	-10.3553
12"},{"@	-10.3559
92"},{"@	-10.3567
ced	-10.3569
920	-10.3591
98"},{"@	-10.3634
29"},{"@	-10.3637
▁Visa	-10.3642
600	-10.366
145	-10.3671
▁99	-10.3692
ever	-10.3701
▁Provisions	-10.3701
▁International	-10.3701
▁NUMBER	-10.3701
▁Distribution	-10.3701
Wall	-10.3701
▁Sanchez	-10.3702
▁Add	-10.3706
▁Tray	-10.3733
lo	-10.3739
▁Access	-10.3741
▁Rivera	-10.3743
75"},{"@	-10.3747
▁Rogers	-10.3759
▁72	-10.377
Me	-10.377
27-	-10.3772
988	-10.3776
▁55	-10.3784
>$	-10.3789
▁Discover	-10.3802
-83	-10.3817
gst	-10.3819
-99	-10.3851
8"}],"	-10.3856
ble	-10.3859
05"},{"@	-10.3861
William	-10.387
▁Park	-10.3874
0"},{"@	-10.3894
-48	-10.3903
02"},{"@	-10.3915
-90	-10.3923
ex	-10.3931
rown	-10.3953
▁Bakery	-10.3957
by	-10.3958
▁79	-10.3969
▁Salad	-10.3971
▁Bagg	-10.3971
mitchell	-10.3971
velyn	-10.3971
▁Karangahap	-10.3971
▁NAME	-10.3971
▁Swanst	-10.3971
Chloe	-10.3971
enjamin	-10.3971
▁Wholesale	-10.3971
acob	-10.3972
luma	-10.3972
onathan	-10.3975
harbor	-10.3976
maple	-10.3979
▁Pharmacy	-10.3982
Dav	-10.3989
▁Harris	-10.3991
":"47	-10.4013
ick	-10.4023
978	-10.4049
office	-10.4051
57"},{"@	-10.4058
30"},{"@	-10.4082
▁Tea	-10.4104
5.00	-10.4132
▁51	-10.4134
▁PKG	-10.4138
427	-10.4175
85"},{"@	-10.4212
▁or	-10.4213
299	-10.4222
▁43	-10.4225
23"},{"@	-10.4226
65"},{"@	-10.4234
Shippe	-10.4245
Edward	-10.4247
cafe	-10.4248
▁Shoes	-10.4248
▁Upgrade	-10.4249
▁Headphones	-10.4249
depot	-10.4249
thompson	-10.4249
commerce	-10.4249
horizon	-10.4249
Vacuu	-10.4249
carlett	-10.4249
▁Kensingto	-10.4249
▁Cancel	-10.4249
▁trans	-10.4249
Adjust	-10.4249
prime	-10.4249
tooth	-10.4249
harles	-10.4249
▁Goods	-10.4249
-80	-10.4258
14"},{"@	-10.4259
raft	-10.4265
▁Per	-10.4267
royal	-10.427
234	-10.4271
▁Shirt	-10.4274
Br	-10.4285
▁Peterson	-10.4287
▁Mail	-10.4288
▁time	-10.4289
▁Williams	-10.4301
no	-10.4304
Ar	-10.4309
56"},{"@	-10.4311
-98	-10.4323
281	-10.4339
az	-10.4358
":"41	-10.4363
Express	-10.4378
-73	-10.4379
71"},{"@	-10.4393
▁+353	-10.4394
207	-10.4404
ning	-10.442
▁12,	-10.4426
8.20	-10.4452
:00"	-10.4462
▁cs	-10.4466
760	-10.4479
634	-10.4479
lee	-10.4481
":"55	-10.4511
ln	-10.4521
▁for	-10.4527
93"},{"@	-10.453
ward	-10.4534
outfitters	-10.4535
sabella	-10.4535
corp	-10.4535
carter	-10.4545
703	-10.4545
▁Permas	-10.4556
▁Delivery	-10.4567
-70	-10.4589
▁White	-10.4598
▁License	-10.4598
-87	-10.4604
35"},{"@	-10.4653
Thomas	-10.467
Scott	-10.4671
Bea	-10.4671
▁Jacket	-10.4678
-41	-10.4687
18"},{"@	-10.4695
▁76	-10.4704
799	-10.4723
890	-10.4738
2.99	-10.4747
▁82	-10.4763
284	-10.4774
▁ta	-10.4785
122	-10.4807
803	-10.4808
606	-10.4816
orthstar	-10.4824
▁Centr	-10.4828
▁Tier	-10.4829
▁Cafe	-10.4829
▁Commerce	-10.4829
▁Depot	-10.4829
Extra	-10.4829
▁Corner	-10.4829
lewis	-10.4829
Zoe	-10.483
▁rice	-10.4831
▁Plu	-10.4834
nket	-10.4836
Gar	-10.4839
ang	-10.484
▁Diaz	-10.4845
520	-10.4849
▁Booking	-10.485
350	-10.4853
▁Jackson	-10.4855
▁14.	-10.4867
22"},{"@	-10.4883
▁Gray	-10.4885
nce	-10.4896
▁ref	-10.4896
net	-10.4904
stone	-10.4921
▁Cargo	-10.4923
One	-10.4927
▁Mile	-10.4928
-50	-10.495
-75	-10.4951
▁Desk	-10.4952
-68	-10.4956
ress	-10.4966
llow	-10.4967
Henr	-10.497
Kenne	-10.497
Backpack	-10.497
36"},{"@	-10.499
77"},{"@	-10.499
352	-10.499
▁+9	-10.4997
15"},{"@	-10.5001
-59	-10.5004
LD	-10.5005
z	-10.5021
$7	-10.5031
▁not	-10.5032
726	-10.5045
▁Company	-10.5069
494	-10.5072
Mon	-10.5072
ada	-10.5094
ne	-10.5102
ioneer	-10.5104
▁ee	-10.5114
-00	-10.5122
q	-10.5129
59"},{"@	-10.5129
▁Selection	-10.5132
▁bar	-10.5132
▁Causeway	-10.5132
first	-10.5132
Power	-10.5132
logistics	-10.5132
shirt	-10.5132
▁Outfitters	-10.5132
▁Koramanga	-10.5132
▁Fulfillment	-10.5132
▁Ground	-10.5132
aleb	-10.5133
east	-10.5133
▁ADDRESS	-10.5134
▁46	-10.5134
8</	-10.5152
-86	-10.5184
Pri	-10.5196
▁"$	-10.5221
rk	-10.5224
amp	-10.5254
38"},{"@	-10.5263
summit	-10.5265
328	-10.5272
PayPal	-10.5285
344	-10.5296
5-	-10.531
739	-10.5312
IT	-10.532
▁Mastercard	-10.5334
11,	-10.5386
0.04	-10.539
Nor	-10.5394
001	-10.5408
lette	-10.5423
▁Walk	-10.5442
▁Transport	-10.5444
ville	-10.5444
Rechargea	-10.5444
center	-10.5445
▁OConnel	-10.5445
▁Kitchenware	-10.5446
232	-10.5453
works	-10.5456
true	-10.5464
▁Works	-10.5473
LT	-10.5487
▁the	-10.5493
▁(5	-10.5506
▁Gutierrez	-10.5519
odern	-10.5526
55"},{"@	-10.5526
2"}],"	-10.5528
84"},{"@	-10.554
-24	-10.5563
398	-10.5574
inch	-10.5591
south	-10.5605
Webcam	-10.5606
Jacket	-10.5607
39"},{"@	-10.5609
US	-10.5609
24"},{"@	-10.563
>5	-10.5635
30,	-10.564
7</	-10.5659
▁"+1	-10.5677
GD	-10.5692
-64	-10.5705
94"},{"@	-10.5728
736	-10.5732
48"},{"@	-10.5732
811	-10.574
examp	-10.574
597	-10.5743
347	-10.5745
16"},{"@	-10.5752
athan	-10.5763
▁Soap	-10.5767
▁Refill	-10.5767
Deluxe	-10.5767
central	-10.5767
▁~~	-10.5767
Nova	-10.5768
gade	-10.5768
warehouse	-10.5769
pickup	-10.577
▁se	-10.5772
▁Of	-10.5773
▁METHOD	-10.5786
ucas	-10.5793
modern	-10.5804
251	-10.5816
▁tea	-10.5822
616	-10.583
▁42	-10.5838
ter	-10.5861
882	-10.5862
art	-10.5866
▁fax	-10.5881
45"},{"@	-10.5888
Je	-10.589
▁+65	-10.5891
ZT	-10.5899
2.66	-10.5902
George	-10.5942
Direct	-10.5943
Tea	-10.595
LL	-10.5978
81"},{"@	-10.5988
321	-10.5991
79"},{"@	-10.5998
PT	-10.6001
LA	-10.6036
670	-10.6055
66"},{"@	-10.6083
1</	-10.6083
aple	-10.6091
72"},{"@	-10.6098
Sunglasses	-10.61
Jack	-10.61
01"},{"@	-10.61
▁Cleaning	-10.61
▁Stay	-10.61
Develop	-10.61
richardson	-10.61
▁Warehouse	-10.61
▁Lei	-10.61
rogers	-10.61
Lapt	-10.6101
Fast	-10.6101
aniel	-10.6101
▁bahru	-10.6102
▁Distributors	-10.6109
brown	-10.611
1.32	-10.6112
ntin	-10.6112
ca	-10.6116
exclud	-10.6118
95"},{"@	-10.6118
176	-10.6121
ow	-10.613
▁AMOUNT	-10.613
961	-10.6153
962	-10.6165
XT	-10.6167
▁Turner	-10.6169
896	-10.6169
to	-10.6177
tone	-10.6179
NV	-10.62
▁XP	-10.622
60,	-10.6224
41"},{"@	-10.6237
off	-10.6241
109	-10.6243
date	-10.6259
691	-10.6267
03"},{"@	-10.6272
El	-10.6273
oyal	-10.6278
Global	-10.6288
787	-10.63
▁04	-10.6307
855	-10.6316
574	-10.6323
-12	-10.6326
Re	-10.6331
878	-10.6334
-58	-10.6335
49"},{"@	-10.6361
248	-10.6365
river	-10.6369
403	-10.6385
62"},{"@	-10.6403
11"},{"@	-10.642
▁Willi	-10.6436
76"},{"@	-10.6443
rodriguez	-10.6445
trusted	-10.6445
▁Forwarding	-10.6445
▁Flind	-10.6445
▁Freight	-10.6445
reyes	-10.6445
arper	-10.6445
agle	-10.6445
161	-10.6445
settle	-10.6445
▁Kar	-10.6446
Mag	-10.6448
llc	-10.6449
▁POS	-10.645
682	-10.6452
▁Ala	-10.6459
-57	-10.6467
▁meat	-10.6482
294.	-10.6486
3"}],"	-10.6487
Bir	-10.6505
anchor	-10.6509
▁Tender	-10.6521
YT	-10.6533
78"},{"@	-10.6549
▁Olive	-10.6552
-43	-10.6561
866	-10.6562
▁Email	-10.6564
les	-10.6574
ahru	-10.6578
432	-10.6607
17"},{"@	-10.6614
TT	-10.6618
974	-10.6623
ir	-10.6639
Water	-10.6641
River	-10.6641
6"}],"	-10.6641
etro	-10.6655
,6	-10.6671
549	-10.6685
cr	-10.6691
959	-10.6691
▁Ch	-10.6703
▁27.	-10.6703
186	-10.6704
▁Ltd	-10.6705
1.68	-10.6726
310	-10.674
68"},{"@	-10.6746
1"}],"	-10.6755
-53	-10.6764
91"},{"@	-10.6777
50"},{"@	-10.6784
422	-10.6791
kan	-10.6793
arbor	-10.6796
ina	-10.6797
barwangrice	-10.6802
cooper	-10.6802
▁available	-10.6802
▁staff	-10.6802
▁Courier	-10.6802
▁Group	-10.6802
▁Studio	-10.6802
▁returnable	-10.6802
▁Baggage	-10.6803
vez	-10.6803
390	-10.6815
09"},{"@	-10.6817
▁Cap	-10.6818
▁pm	-10.682
▁~	-10.6823
;00	-10.6828
604	-10.6832
re	-10.685
ora	-10.6851
290	-10.6861
▁Organizer	-10.687
2017	-10.6872
▁Kent	-10.6873
pe	-10.6874
young	-10.6886
932	-10.6892
20"},{"@	-10.6962
▁2018	-10.6979
-33	-10.6994
417	-10.6997
4.04	-10.7014
Green	-10.7014
James	-10.7014
BT	-10.7018
090	-10.7028
side	-10.7048
ill	-10.7062
5.44	-10.7066
08"},{"@	-10.7067
226	-10.7068
60"},{"@	-10.707
ORDER	-10.7073
272	-10.7105
▁di	-10.7113
871	-10.7137
▁52	-10.7142
▁6%	-10.7144
86"},{"@	-10.7163
consulting	-10.7173
▁Entry	-10.7173
▁RECEIPT	-10.7173
▁SUBTOTAL	-10.7173
robinson	-10.7173
▁Camb	-10.7173
▁Lane	-10.7173
▁Payable	-10.7178
/2026	-10.7186
▁34"},"	-10.7187
349	-10.7188
williams	-10.7191
▁uni	-10.7202
▁we	-10.7208
▁Cas	-10.7211
2.80	-10.7211
roberts	-10.7215
3.46	-10.7222
172	-10.7224
▁transaction	-10.7237
2</	-10.725
-74	-10.7251
396	-10.7258
tanding	-10.726
▁Cha	-10.7261
002	-10.7262
-42	-10.7267
GT	-10.727
930	-10.7276
6.85	-10.7283
00"},{"@	-10.73
▁Roya	-10.7304
▁Pi	-10.7313
▁orders	-10.7313
9</	-10.7321
67,	-10.734
unda	-10.7386
Mark	-10.7392
221	-10.7394
Desk	-10.7398
▁40"},"	-10.7399
480	-10.7403
▁TRK	-10.7412
288	-10.743
98,	-10.7435
237	-10.7444
320	-10.7447
605	-10.7467
256	-10.7486
▁21"},"	-10.7498
1.10	-10.7503
657	-10.7519
▁sa	-10.7519
430	-10.7523
804	-10.7534
AC	-10.7536
▁paid	-10.7546
3.96	-10.7553
Custom	-10.7555
▁Insurance	-10.7557
torres	-10.7557
▁Carrier	-10.7557
Relaxe	-10.7557
scott	-10.7557
▁Corp	-10.7557
morgan	-10.7558
-54	-10.7558
Open	-10.7558
▁LLC	-10.7558
tics	-10.7559
golden	-10.7562
cedar	-10.7567
63"},{"@	-10.7578
▁REGI	-10.7579
▁Coat	-10.758
973	-10.7596
▁lot	-10.7598
523	-10.7598
▁Id	-10.76
660	-10.7607
271	-10.7613
383	-10.7614
▁ar	-10.7639
1.16	-10.7656
024	-10.7656
-40	-10.7691
526	-10.7692
.65","	-10.7692
▁"+	-10.7695
829	-10.772
▁Tracking	-10.7724
67"},{"@	-10.7727
8.04	-10.7729
32"},{"@	-10.7729
31"},{"@	-10.7732
0-	-10.7739
840	-10.7744
53"},{"@	-10.7749
▁BUYER	-10.7788
Jeans	-10.7796
▁Res	-10.7796
360	-10.7797
532	-10.7797
Seat	-10.7799
PAYMENT	-10.7799
▁ku	-10.7806
▁as	-10.7815
965	-10.7817
89"},{"@	-10.7833
▁CUST	-10.7833
-27	-10.7849
96"},{"@	-10.7862
254	-10.7864
KT	-10.7874
608	-10.7881
-44	-10.7881
Uni	-10.7887
harlotte	-10.7897
346	-10.7904
0.28	-10.7905
Table	-10.7912
▁000	-10.7916
/2025	-10.792
462	-10.7924
po	-10.7926
naly	-10.7937
UT	-10.7948
8.00	-10.7952
Stream	-10.7957
watson	-10.7957
holdings	-10.7957
▁Macl	-10.7957
evin	-10.7957
▁Last	-10.7957
▁Trail	-10.7957
▁served	-10.7958
cruz	-10.7958
▁wang	-10.7959
6.00	-10.7959
▁Wang	-10.7959
avy	-10.7962
▁Pizza	-10.7974
3.92	-10.7975
406	-10.7977
▁doc	-10.7991
Ann	-10.7998
▁Lon	-10.8002
▁SALE	-10.8033
▁5,	-10.8038
233	-10.8042
69,	-10.8045
▁PA	-10.8061
335	-10.8061
-52	-10.8066
007	-10.8069
351	-10.8074
ran	-10.8084
-34	-10.8089
465	-10.8102
927	-10.8109
358	-10.8111
▁billing	-10.8112
)"}	-10.8116
▁Seat	-10.8122
▁El	-10.8131
sort	-10.8139
642	-10.8156
▁Webcam	-10.8161
820	-10.8164
▁wa	-10.8168
▁Mar	-10.8172
87"},{"@	-10.8175
ara	-10.8177
295	-10.8182
▁cr	-10.8189
andar	-10.819
▁12"},"	-10.8198
be	-10.82
)"},{"@	-10.8208
▁On	-10.8212
perma	-10.8212
61"},{"@	-10.8214
Discover	-10.8215
939	-10.8216
681	-10.8216
grand	-10.8223
04"},{"@	-10.824
▁deliver	-10.8251
944	-10.8262
617	-10.8273
576	-10.829
QT	-10.8292
99"},{"@	-10.8292
nchor	-10.8298
742	-10.8308
-45	-10.8336
399	-10.8338
239	-10.8345
425	-10.8359
2.24	-10.8369
907	-10.8372
é	-10.8372
Mini	-10.8372
▁Hosting	-10.8374
ortiz	-10.8374
ventures	-10.8374
flores	-10.8374
’	-10.8374
aintenance	-10.8374
morales	-10.8374
▁Mix	-10.8374
▁Bourk	-10.8374
Belt	-10.8375
sdal	-10.8375
wood	-10.8376
howard	-10.8376
▁Rice	-10.8376
lim	-10.8376
694	-10.8402
reliable	-10.8404
-51	-10.8405
▁Fron	-10.8412
64"},{"@	-10.8426
446	-10.8428
Car	-10.8435
▁vegetable	-10.8438
3",	-10.8442
012	-10.8449
-47	-10.8454
697	-10.8463
▁SV	-10.8463
rivera	-10.8467
rder	-10.8478
Lot	-10.848
9.08	-10.8481
584	-10.8482
JT	-10.8482
565	-10.8498
648	-10.8504
42"},{"@	-10.8509
-81	-10.8515
DT	-10.8523
nd	-10.855
$12	-10.8552
889	-10.858
590	-10.8587
-38	-10.8589
▁TO	-10.8603
0.02	-10.8617
0.49	-10.8618
730	-10.862
▁pe	-10.8631
5"}],"	-10.8632
John	-10.8643
Clear	-10.8647
Phone	-10.8647
Pro	-10.8652
▁ho	-10.8654
307	-10.866
611	-10.8662
-20	-10.8676
AT	-10.868
bill	-10.8699
786	-10.8705
▁105	-10.8717
0.48	-10.8744
ck	-10.875
828	-10.8763
▁18.	-10.8769
934	-10.8779
ki	-10.8797
Operat	-10.8808
turner	-10.8809
evans	-10.8809
jones	-10.8809
morris	-10.8809
▁Center	-10.8809
▁mobile	-10.8809
First	-10.8809
effrey	-10.8809
▁speed	-10.8809
gutierrez	-10.8809
Room	-10.8809
plc	-10.8809
▁Lama	-10.8809
="+9	-10.8812
Rounding	-10.8815
▁bas	-10.8815
▁Dut	-10.8816
208	-10.8816
wright	-10.882
▁su	-10.8827
594	-10.8828
904	-10.8841
▁final	-10.8856
reed	-10.8863
0.56	-10.8872
silver	-10.8883
":"121	-10.8886
="+64	-10.8894
13"},{"@	-10.8922
ank	-10.8925
261	-10.8927
▁By	-10.8936
WE	-10.8937
▁(867388	-10.8959
641	-10.8966
7.46	-10.8972
▁Jeans	-10.8987
1.76	-10.8991
2.86	-10.8992
20.00	-10.9013
add	-10.9018
663	-10.9033
ws	-10.9037
69"},{"@	-10.9047
88"},{"@	-10.9052
4.62	-10.9054
tota	-10.9088
▁west	-10.9097
Hoodie	-10.91
Ever	-10.91
▁6"},"	-10.9101
fax	-10.9104
-32	-10.9147
-6"},{"@	-10.9151
▁26"},"	-10.9155
age	-10.9164
733	-10.9169
▁ga	-10.917
711	-10.9177
ransaction	-10.9189
776	-10.9194
4"	-10.9201
732	-10.9201
6.72	-10.9205
ket	-10.9218
.64</	-10.9224
10"},{"@	-10.9234
3.38	-10.9243
▁te	-10.9247
reland	-10.9255
412	-10.9256
▁Boarding	-10.9263
▁Burger	-10.9263
▁Janpath	-10.9263
davis	-10.9263
▁Ventures	-10.9263
exarnple	-10.9263
▁Consulting	-10.9263
▁PLC	-10.9264
vista	-10.9264
East	-10.9264
hall	-10.9264
johnson	-10.9265
43800	-10.9268
998	-10.927
▁100	-10.927
martin	-10.927
▁Pur	-10.9272
▁Piccadilly	-10.9275
▁Juice	-10.9289
▁"5	-10.9292
▁Kim	-10.9312
3.80	-10.9324
1.49	-10.9335
957	-10.934
▁276	-10.9344
4</	-10.9349
470	-10.9353
Lum	-10.936
797	-10.9361
0.96	-10.9379
378	-10.9386
HT	-10.9388
408	-10.9398
per	-10.9401
$14	-10.9405
▁table	-10.9418
933	-10.9419
8.16	-10.9456
bo	-10.946
Care	-10.9476
PA	-10.9482
WT	-10.9496
2"	-10.9522
392	-10.9523
7.00	-10.9523
411	-10.9524
▁fe	-10.9524
267	-10.9534
lla	-10.9534
737	-10.9545
▁si	-10.9545
524	-10.955
7"	-10.9561
2018	-10.9569
YB	-10.957
-16	-10.9577
Socks	-10.9578
Mile	-10.958
184	-10.9581
Main	-10.9582
hill	-10.9584
urch	-10.9589
Bundle	-10.9597
▁ka	-10.9625
#	-10.9633
▁25"},"	-10.9635
34"},{"@	-10.9669
93,	-10.9678
40"},{"@	-10.9709
▁Grassmarket	-10.9739
wilson	-10.9739
▁Boulevard	-10.9739
james	-10.9739
peterson	-10.9739
▁SERVICE	-10.9739
▁TRACKING	-10.9739
augh	-10.9739
campbell	-10.9739
▁Whitw	-10.9739
jackson	-10.974
▁Lodh	-10.974
▁via	-10.9741
273	-10.9745
917	-10.9751
578	-10.9755
434	-10.9755
702	-10.9756
lake	-10.9756
▁Inc	-10.9758
▁TENDER	-10.9767
▁Honey	-10.9775
▁121	-10.9776
-7"},{"@	-10.978
1.74	-10.9786
324	-10.9788
-36	-10.9794
613	-10.9804
592	-10.9809
562	-10.9831
-61	-10.9846
989	-10.9853
945	-10.9866
▁ON	-10.9881
▁River	-10.9882
387	-10.9889
1.60	-10.9905
▁sea	-10.9908
▁tota	-10.991
665	-10.9926
4-	-10.9927
515	-10.9932
go	-10.9937
VT	-10.9986
baker	-10.9994
$11	-10.9998
9.86	-11.0012
$10	-11.0021
47"},{"@	-11.0021
816	-11.0022
Hot	-11.0031
dol	-11.0036
▁north	-11.0038
ZZ	-11.006
650	-11.0061
out	-11.0071
8.96	-11.0076
Cargo	-11.008
677	-11.0081
&	-11.0082
day	-11.0094
ltd	-11.0102
NT	-11.0105
▁Grano	-11.0116
-35	-11.0122
90"},{"@	-11.0131
179	-11.0142
▁29.	-11.0142
Ul	-11.0152
our	-11.0155
8.68	-11.0161
940	-11.0161
334	-11.0163
086	-11.017
cy	-11.0175
-39	-11.0175
449	-11.0187
▁Mas	-11.0201
7.92	-11.0206
37,	-11.0211
▁na	-11.0214
510	-11.0217
615	-11.0217
224	-11.0219
833	-11.0227
4.64	-11.023
818	-11.0232
ckup	-11.0234
8"	-11.0234
umpur	-11.0239
edar	-11.0239
harris	-11.0239
nguyen	-11.0239
phillips	-11.0239
Inspection	-11.0239
adams	-11.0239
03-87686092	-11.0239
Essential	-11.0239
america	-11.0239
▁destination	-11.0239
Quick	-11.0239
bailey	-11.024
kelly	-11.024
▁bow	-11.0241
ICE	-11.0242
▁pos	-11.0249
Train	-11.0254
▁124	-11.0255
old	-11.0258
51"},{"@	-11.026
2",	-11.0267
342	-11.0274
8.18	-11.0283
▁www	-11.0286
▁Premiu	-11.0286
▁Line	-11.0292
LW	-11.0299
Vis	-11.0303
▁Created	-11.0311
57,	-11.0315
▁Router	-11.0319
orth	-11.0321
8.07	-11.0335
ZY	-11.0352
25,	-11.0361
▁Support	-11.0361
Conn	-11.0366
":"139	-11.0373
539	-11.0381
4.55	-11.039
301	-11.0411
MM	-11.0412
take	-11.0413
56,	-11.0414
TO	-11.0422
813	-11.0424
OO	-11.0427
385	-11.043
329	-11.043
▁grand	-11.0437
OW	-11.044
942	-11.0444
7.74	-11.0448
838	-11.0454
nn	-11.0482
8.85	-11.0485
972	-11.0486
XW	-11.0488
0.53	-11.049
▁bi	-11.0509
▁Backpack	-11.0515
1.00	-11.0519
IS	-11.0528
LY	-11.0534
He	-11.0549
32,	-11.0554
750	-11.0559
0.55	-11.0562
7.99	-11.0568
▁120	-11.0569
622	-11.0576
ial	-11.0576
6.01	-11.0579
620	-11.06
376	-11.0608
Blanket	-11.0609
2.84	-11.0614
0.76	-11.0618
490	-11.0625
757	-11.0638
▁USR	-11.0643
3.37	-11.0651
▁Wi	-11.0682
975	-11.0721
▁Georg	-11.0728
7"},"	-11.0733
▁3"},"	-11.0738
ef	-11.0744
/2024	-11.0748
▁Ca	-11.0753
▁ae	-11.0754
862	-11.0759
scription	-11.0766
walker	-11.0766
▁Session	-11.0766
▁PAYABLE	-11.0766
▁Universit	-11.0766
▁salesperson	-11.0766
Organi	-11.0766
▁card	-11.0767
901	-11.0768
nerg	-11.077
2.70	-11.0774
urban	-11.0778
12.5	-11.0781
RE	-11.0781
WC	-11.0781
GE	-11.0828
ue	-11.0835
▁Oil	-11.0835
hat	-11.0836
1.12	-11.0841
▁+3	-11.0851
-5"},{"@	-11.0874
353	-11.0883
="+353	-11.089
7.14	-11.0893
710	-11.0897
▁Sneakers	-11.0912
864	-11.0914
▁(6	-11.0926
0.74	-11.0931
AV	-11.0944
olden	-11.0949
▁Ran	-11.0964
-25	-11.0973
ker	-11.0982
50.00	-11.1001
296	-11.1002
▁GST	-11.1014
.56</	-11.1039
842	-11.1044
om	-11.1046
436	-11.1051
▁103	-11.107
458	-11.1093
997	-11.1093
489	-11.1102
327	-11.1106
723	-11.1133
738	-11.1134
JD	-11.1143
ZL	-11.1144
":"20.	-11.115
500	-11.1151
1.80	-11.1151
582	-11.1154
793	-11.1161
Ticket	-11.1163
invoice	-11.1164
5.46	-11.1165
LX	-11.1172
hot	-11.1179
647	-11.1188
10.00	-11.1192
▁sh	-11.1192
oung	-11.1195
859	-11.12
646	-11.1204
5.36	-11.1206
263	-11.1221
Email	-11.1229
Sale	-11.1244
952	-11.1248
3.56	-11.1258
▁sale	-11.1271
88.4	-11.1272
,+64	-11.128
▁fr	-11.1284
28.7	-11.1291
KH	-11.1294
806	-11.1305
+	-11.1313
▁1001000000	-11.1314
▁Ban	-11.1316
="2025-	-11.132
▁Includ	-11.132
▁Deansgate	-11.1321
thomas	-11.1321
nelson	-11.1321
itamin	-11.1321
¥	-11.1321
Genera	-11.1321
Wallet	-11.1321
ermany	-11.1321
▁Spad	-11.1321
cook	-11.1321
everling	-11.1323
▁ORDERED	-11.1324
atura	-11.1324
Master	-11.1327
80"},{"@	-11.1327
northwest	-11.1332
smith	-11.1332
DOC	-11.1334
416	-11.1335
4.00	-11.1335
1",	-11.1339
93.6	-11.1342
8.90	-11.1342
410	-11.1354
BB	-11.1355
hop	-11.136
447,	-11.1372
GA	-11.1377
-13	-11.1396
IB	-11.1402
ange	-11.1405
35.1	-11.1405
5.54	-11.1406
214	-11.1408
eet	-11.1414
2.12	-11.1418
DS	-11.1437
5.76	-11.1446
304	-11.1453
85.6	-11.1465
▁19"},"	-11.1476
6.69	-11.1481
4.35	-11.1483
LM	-11.1501
▁ro	-11.1503
197	-11.1503
949	-11.151
AL	-11.151
ice	-11.153
▁Phone	-11.1533
":"22.	-11.1537
ub	-11.1551
▁36"},"	-11.1553
LH	-11.1554
tems	-11.1562
▁27"},"	-11.1562
Ku	-11.1564
▁Water	-11.1581
ko	-11.1611
194	-11.1625
▁Se	-11.1628
▁Kenne	-11.1629
662	-11.1644
do	-11.1661
▁122	-11.167
XZ	-11.1683
LB	-11.1685
▁33"},"	-11.1688
37"},{"@	-11.1695
356	-11.1701
ani	-11.1707
674	-11.1709
956	-11.1712
▁$7.	-11.1723
RW	-11.1726
▁Th	-11.1744
Sneakers	-11.1748
7.20	-11.175
Shelf	-11.1751
amount	-11.1752
TOTAL	-11.1756
Kit	-11.1763
2.47	-11.1771
17.3	-11.1777
DE	-11.178
sales	-11.1789
-8"},{"@	-11.1796
":"156	-11.1803
":"146	-11.1809
▁0%	-11.1816
ZE	-11.1833
5.50	-11.1841
LK	-11.188
405	-11.1884
▁+6	-11.1898
ubject	-11.1904
▁Beans	-11.1909
▁Consultation	-11.1909
stewart	-11.191
▁Holdings	-11.191
▁Badge	-11.191
▁packag	-11.191
▁veggies	-11.191
ernail	-11.191
▁lumpur	-11.1911
Past	-11.1913
Exp	-11.1923
EN	-11.194
LF	-11.1943
▁§	-11.1944
24.4	-11.1952
▁—	-11.1956
BW	-11.1978
cake	-11.1979
994	-11.1981
380	-11.1993
ZX	-11.1996
SW	-11.1999
Charlott	-11.2
EQ	-11.2004
876	-11.2014
GR	-11.2019
ZM	-11.202
0.84	-11.2021
="+65	-11.2041
KG	-11.2041
2.73	-11.207
▁fil	-11.2076
624	-11.2092
734	-11.211
8.38	-11.2114
▁Socks	-11.2114
▁so	-11.2117
795	-11.2118
▁Clear	-11.2135
ive	-11.2138
urn	-11.2138
BD	-11.2175
Ba	-11.218
QL	-11.2201
▁Me	-11.2213
7.80	-11.2217
▁south	-11.222
6.39	-11.2227
EE	-11.2231
▁ti	-11.2232
359	-11.2233
ew	-11.2236
0.37	-11.225
▁da	-11.2255
7.52	-11.2272
847	-11.2288
033	-11.2301
835	-11.2307
3.25	-11.2322
309	-11.2339
16.80	-11.2343
ear	-11.2343
-37	-11.2349
=	-11.2349
858	-11.2355
▁CLI	-11.2373
QZ	-11.2374
code	-11.2377
419	-11.2388
▁tt	-11.2388
065	-11.2394
▁oo	-11.2407
386	-11.2409
LV	-11.241
374	-11.2424
":"137	-11.2427
47-	-11.2428
ilver	-11.2429
36.00	-11.2435
636	-11.2448
069	-11.2451
AX	-11.2461
LN	-11.2462
▁Gu	-11.2464
▁Lin	-11.2482
FT	-11.2487
SB	-11.2487
pc	-11.2491
507	-11.2499
817	-11.2503
64.7	-11.2511
9.37	-11.2518
▁cart	-11.2519
pon	-11.253
7.10	-11.2534
▁Visit	-11.2534
clark	-11.2534
murphy	-11.2535
ramos	-11.2535
taylor	-11.2535
Repair	-11.2535
Shuttl	-11.2535
▁Lothian	-11.2535
▁sushi	-11.2535
avolio	-11.2535
——	-11.2535
▁EMAIL	-11.2536
▁1851-	-11.2536
parker	-11.254
▁Alam	-11.2542
▁Jar	-11.2542
0.23	-11.2545
eight	-11.2547
▁bu	-11.2553
3.85	-11.2556
▁\	-11.2561
IF	-11.2572
JG	-11.2574
669	-11.2576
OY	-11.2577
▁32"},"	-11.2578
8.95	-11.2581
8.34	-11.2584
michael	-11.2593
▁chicken	-11.2603
▁ttt	-11.2614
pain	-11.2615
5.87	-11.2618
717	-11.2626
528	-11.2631
▁34,	-11.2639
":"28.	-11.2641
ND	-11.2643
543	-11.2651
EL	-11.2652
698	-11.2657
":"112	-11.2657
9.02	-11.2657
▁Bill	-11.2672
4.44	-11.2705
▁MG	-11.2706
2.88	-11.2734
822	-11.2737
ov	-11.2746
▁592	-11.2749
val	-11.275
LJ	-11.2757
0.75	-11.2759
▁Hoodie	-11.2764
▁18"},"	-11.2764
▁148	-11.2768
ncy	-11.2776
▁Pro	-11.2776
▁240	-11.2787
▁perma	-11.2788
849	-11.2795
90@	-11.2795
610	-11.2799
5.79	-11.2804
▁37"},"	-11.2807
icy	-11.2815
▁z	-11.2818
AF	-11.2823
764	-11.2859
▁17"},"	-11.2864
748	-11.2867
TE	-11.2883
▁Henr	-11.2884
3.49	-11.2891
":"209	-11.2893
62@	-11.2895
▁con	-11.2897
402	-11.2901
9.45	-11.2904
472	-11.2908
80,	-11.2909
407	-11.2911
SH	-11.2913
▁spi	-11.2915
ies	-11.2915
4.13	-11.2917
ian	-11.2918
807	-11.2922
369	-11.2922
9.78	-11.2951
▁300	-11.2954
":"178	-11.2973
7.85	-11.2974
▁pre	-11.2986
986	-11.3003
▁offic	-11.3007
501	-11.3008
Gran	-11.3012
0.19	-11.3013
li	-11.3023
231	-11.303
188	-11.3033
purchase	-11.3037
Horizon	-11.3039
Support	-11.304
Gutierrez	-11.3042
johor	-11.3043
Rodriguez	-11.3043
Monitor	-11.3043
-9"},{"@	-11.3048
ZU	-11.3053
ali	-11.306
70"},{"@	-11.3062
9.52	-11.3074
":"151	-11.3077
435	-11.3077
Grano	-11.3093
01-	-11.3098
527	-11.3102
ZD	-11.3111
":"116	-11.3125
Set	-11.3136
▁Nor	-11.3144
fi	-11.3149
▁Fami	-11.3162
mm	-11.3168
6.99	-11.318
▁cou	-11.3182
▁ke	-11.3196
▁Adjustment	-11.3201
garcia	-11.3201
STORE	-11.3201
¢	-11.3201
aini	-11.3201
brooks	-11.3202
▁air	-11.3204
/12/2026	-11.3205
kim	-11.3207
/11/2025	-11.3208
ssion	-11.3213
LQ	-11.3217
▁may	-11.322
/12/20	-11.3224
▁Gra	-11.3227
4.40	-11.3229
▁29"},"	-11.3232
tton	-11.3235
894	-11.3236
GU	-11.3239
":"166.	-11.3241
otm	-11.3242
467	-11.3257
▁CUSTOMER	-11.3264
▁es	-11.3272
late	-11.3275
155	-11.3277
778	-11.3286
▁user	-11.3294
▁46.	-11.3297
1.50	-11.3297
▁10"},"	-11.3302
53.1	-11.3303
8.58	-11.3306
▁Ordered	-11.3308
3.50	-11.3309
.86</	-11.3314
635	-11.3315
BF	-11.332
▁PURCHASE	-11.3344
8.61	-11.335
MA	-11.3361
HM	-11.3366
▁Horizon	-11.3367
000"},{"@	-11.3378
teama	-11.3379
ade	-11.3387
▁pan	-11.3394
▁290	-11.3403
BN	-11.3422
iller	-11.3426
.2026	-11.3452
XK	-11.3465
026	-11.3478
▁320	-11.348
-14	-11.3485
319	-11.3487
ZJ	-11.3492
39.4	-11.3499
8.22	-11.3518
QW	-11.354
hai	-11.354
2.63	-11.3551
ZW	-11.3551
HJ	-11.3589
":"341	-11.3594
GF	-11.3606
KC	-11.361
NB	-11.3628
87@	-11.3634
NW	-11.3644
7.17	-11.3668
39@	-11.3673
UB	-11.368
}	-11.3688
5",	-11.369
iza	-11.3694
715	-11.3705
TG	-11.3711
6.22	-11.3718
▁des	-11.372
484	-11.3727
ree	-11.3737
KB	-11.3746
Tru	-11.3749
Purchase	-11.375
794	-11.3753
White	-11.3756
License	-11.3756
Rogers	-11.3756
created	-11.3757
Howard	-11.3757
Davis	-11.3758
Bennett	-11.3758
ZH	-11.3762
ref	-11.3768
Lamp	-11.3768
WW	-11.3776
WR	-11.3778
KE	-11.3783
7.95	-11.3785
7.25	-11.3801
0%	-11.3815
865	-11.383
14@	-11.3833
ON	-11.384
▁25,	-11.385
xample	-11.3869
7.89	-11.3871
219	-11.3875
853	-11.3878
perator	-11.3888
▁Mich	-11.3905
BO	-11.3909
":"103	-11.391
950	-11.3912
":"2024-03-0	-11.3914
Salesperson	-11.3915
Lemonade	-11.3915
sign	-11.3915
▁Fries	-11.3915
▁Rob	-11.3915
▁adjustment	-11.3916
▁outstanding	-11.3916
▁away	-11.3916
▁adj	-11.3916
eacock	-11.3916
anderson	-11.3916
/06/2024	-11.3916
▁consign	-11.3916
▁VIA	-11.3916
▁simplifi	-11.3916
▁alam	-11.3916
COT	-11.3917
Veggie	-11.3917
COUNT	-11.3918
▁Bars	-11.3921
▁Via	-11.3922
YW	-11.3924
":"276	-11.3926
:17:00	-11.3928
▁184	-11.3931
XA	-11.3935
/03/202	-11.3939
":"201	-11.3941
onic	-11.3947
":"191	-11.3947
lex	-11.3952
▁Paid	-11.3954
nut	-11.3956
1.30	-11.3962
BQ	-11.3964
VIP	-11.3964
":"107	-11.3969
58.41	-11.3986
JW	-11.3989
rikat	-11.3993
367	-11.3995
mina	-11.4006
▁Sandwich	-11.4007
get	-11.4011
":"2026-07-1	-11.4013
VO	-11.4023
Pass	-11.4037
▁food	-11.4046
GH	-11.4047
WF	-11.4048
JJ	-11.4049
568	-11.4055
▁Headset	-11.4057
asi	-11.4066
MW	-11.4067
80.0	-11.4068
72.4	-11.4077
680	-11.4079
WL	-11.4082
EW	-11.4089
767	-11.409
2.50	-11.4103
":"130.	-11.4114
40.62	-11.4126
":"242	-11.4127
9.01	-11.4139
559	-11.4148
0.41	-11.4162
UX	-11.4167
":"82.	-11.4178
891	-11.4178
▁Ever	-11.4181
QA	-11.4202
673	-11.4213
hah	-11.4228
▁719	-11.4236
KJ	-11.4237
-42"},{"@	-11.4243
1)	-11.4259
ard	-11.4268
034	-11.4269
ZB	-11.4278
QN	-11.4279
8",	-11.4287
IU	-11.4299
0.54	-11.4302
▁1.00	-11.4303
229	-11.4315
992	-11.432
▁all	-11.4329
IO	-11.433
6.50	-11.4365
":"154.	-11.4368
ZG	-11.4379
▁65.	-11.438
6.36	-11.4382
ZQ	-11.4386
▁mo	-11.4397
Hat	-11.4405
9.32	-11.4423
▁167	-11.4426
1.08	-11.4428
937	-11.4428
21@	-11.4433
603	-11.4438
▁Garden	-11.4448
TH	-11.4459
▁he	-11.4467
ACC	-11.4476
VZ	-11.4482
que	-11.4486
":"262	-11.4486
AG	-11.4487
Jas	-11.4488
7.15	-11.4492
.58</	-11.4499
59.9	-11.4521
PURCHASE	-11.4522
▁614	-11.4523
Turner	-11.4525
Mitchell	-11.4526
oo	-11.4526
Morgan	-11.4526
Mouse	-11.4527
▁28"},"	-11.4532
Lee	-11.4533
Bill	-11.4537
NN	-11.4544
▁can	-11.4548
64@	-11.4551
1.62	-11.4574
▁State	-11.4581
bal	-11.46
ik	-11.4604
xclud	-11.4644
MT	-11.4671
4.67	-11.4676
WO	-11.4683
Itern	-11.4683
UQ	-11.4684
▁Burrito	-11.4685
payrnent	-11.4685
▁counter	-11.4685
▁supplies	-11.4685
▁waybill	-11.4685
▁Merchan	-11.4685
niaga	-11.4685
▁tebrau	-11.4685
stationery	-11.4685
▁apr	-11.4685
loor	-11.4685
epper	-11.4686
edwards	-11.4686
▁this	-11.4686
▁floor	-11.4686
/01/2025	-11.4686
▁Box	-11.4686
custorner	-11.4687
own	-11.4687
Reed	-11.4688
myr	-11.4688
heras	-11.4689
▁zr	-11.4694
":"330	-11.4694
437	-11.4694
▁Bur	-11.4701
5"	-11.4701
▁PHONE	-11.4718
save	-11.4721
▁38"},"	-11.4725
ava	-11.4727
▁BILL	-11.4745
YJ	-11.4755
▁CREATED	-11.4758
34.2	-11.4758
0.01	-11.4765
▁Hu	-11.4778
▁client	-11.4784
":"127	-11.4793
FH	-11.4795
48.7	-11.4807
zo	-11.481
":"2024-09-2	-11.481
6%	-11.482
/11/2024	-11.4822
Sou	-11.4825
▁domino	-11.4827
ME	-11.4836
899,	-11.4844
sted	-11.4861
ington	-11.4871
▁14"},"	-11.4871
UK	-11.4881
▁Blue	-11.4884
877	-11.4898
":"244	-11.4901
-19"},{"@	-11.4908
":"827	-11.491
/06/2026	-11.4921
▁du	-11.4927
80@	-11.4932
79.8	-11.4938
032	-11.4948
VW	-11.4951
▁out	-11.4953
▁530	-11.4958
885	-11.4963
4.80	-11.4975
":"536	-11.498
UG	-11.4981
▁11"},"	-11.4982
903	-11.4986
":"35.	-11.4987
unt	-11.4988
VB	-11.4998
▁270	-11.5016
YA	-11.5034
WN	-11.5053
▁Tru	-11.5065
5@	-11.5069
WV	-11.5089
QJ	-11.5099
▁127	-11.5111
":"245	-11.5117
MG	-11.5118
▁day	-11.5121
613,	-11.5127
▁125	-11.5136
3.91	-11.5138
.34</	-11.5145
.04.2025	-11.515
6.0","	-11.5153
▁579	-11.5154
DY	-11.5158
HX	-11.5169
GJ	-11.5176
-2018	-11.5179
761	-11.5184
1.01	-11.5188
754	-11.5195
743	-11.5196
0.25	-11.52
▁3.00	-11.5201
JU	-11.5215
FN	-11.5219
-77"},{"@	-11.5221
235	-11.5228
▁lo	-11.5229
sel	-11.5232
WK	-11.5243
▁mil	-11.5244
":"744	-11.5257
144,	-11.5258
3271	-11.5264
$82	-11.5267
36@	-11.5293
XV	-11.53
WX	-11.5301
929	-11.5305
WG	-11.5307
905	-11.5319
II	-11.533
BH	-11.5332
4.87	-11.5336
now	-11.5343
5.69	-11.5348
Headset	-11.5355
SALE	-11.5358
Torres	-11.5359
Robinson	-11.5359
Reyes	-11.5359
Account	-11.5362
Light	-11.5362
Hub	-11.5366
dominos	-11.5366
uan	-11.5368
1.90	-11.5369
▁Wire	-11.5376
1.33	-11.5381
0.39	-11.5382
":"298	-11.5385
▁30"},"	-11.5385
▁24"},"	-11.5394
▁US	-11.5413
5.98	-11.5419
▁500	-11.5436
FY	-11.5437
GW	-11.5442
812,	-11.5452
▁223	-11.5453
GQ	-11.5461
risbane	-11.5468
Season	-11.5471
Creat	-11.5477
WJ	-11.548
arge	-11.5481
721	-11.5492
":"165.	-11.5502
ffice	-11.5503
smi	-11.5506
ccount	-11.5506
▁charge	-11.5514
▁process	-11.5515
MAIL	-11.5516
Cheeseburger	-11.5517
Latte	-11.5517
▁Wrap	-11.5518
▁Blend	-11.5518
Dengkil	-11.5518
company	-11.5518
welcome	-11.5518
/06/2025	-11.5518
▁Strcet	-11.5518
▁SERVED	-11.5518
▁Details	-11.5518
▁dengkil	-11.5518
▁survey	-11.5518
:07:00	-11.5518
▁server	-11.5518
/02/2026	-11.5518
▁owing	-11.5518
▁disc	-11.5518
▁visit	-11.5518
:13:00	-11.5519
PWB	-11.5519
▁copy	-11.5519
Gril	-11.552
▁include	-11.5521
/07/2024	-11.5523
\"	-11.5524
serv	-11.5525
3.70	-11.5526
43300	-11.5529
mix	-11.5532
Roa	-11.5532
▁TEL	-11.5533
heng	-11.5533
▁wal	-11.5536
plus	-11.5538
subtota	-11.5539
▁pro	-11.5543
AND	-11.5548
337	-11.5548
47500	-11.5548
":"701	-11.5554
▁Snack	-11.5555
oni	-11.5556
▁incl	-11.5561
149	-11.5565
send	-11.5568
▁cheese	-11.5569
,+9	-11.5583
5.33	-11.5587
":"175.	-11.5596
▁import	-11.5597
JF	-11.5599
4.45	-11.5606
▁round	-11.5609
6.82	-11.5609
long	-11.5612
21.4	-11.5619
cn	-11.5621
+603	-11.5621
▁it	-11.5625
▁Tee	-11.563
583	-11.5644
":"199	-11.5647
▁banda	-11.5652
▁3.90	-11.5655
▁400	-11.5656
8.19	-11.5659
rov	-11.5661
ci	-11.5666
▁cle	-11.5667
▁216	-11.5669
paid	-11.5671
bi	-11.5682
▁Tim	-11.5683
Organizer	-11.5691
KL	-11.5698
▁922	-11.57
XN	-11.5706
Williams	-11.5706
2.97	-11.5711
4.54	-11.5727
RK	-11.5728
gan	-11.5736
▁qu	-11.5739
44.0	-11.5751
-6"}],"	-11.5761
use	-11.5762
▁153.	-11.5763
":"279	-11.5766
.23</	-11.5777
BV	-11.5779
▁631	-11.5779
YY	-11.5792
963,	-11.5804
Roberts	-11.5814
809	-11.5821
29.68	-11.5832
":"671	-11.5836
andrew	-11.5855
ger	-11.5858
VY	-11.587
$27.	-11.5871
0.65	-11.5872
YH	-11.5881
GN	-11.5882
XM	-11.5886
▁mak	-11.589
":"996	-11.5898
dai	-11.5904
OZ	-11.5925
1.66	-11.5925
*	-11.5951
Or	-11.5962
VA	-11.597
GM	-11.598
027	-11.6
KY	-11.6001
FB	-11.6005
▁bri	-11.6016
mple	-11.6016
632	-11.6017
HZ	-11.6034
":"869	-11.605
":"2024-06-0	-11.6061
6.42	-11.608
FE	-11.6084
3.99	-11.6097
VI	-11.61
▁Ava	-11.6105
▁22"},"	-11.6106
NI	-11.611
":"2026-03-1	-11.611
":"2025-02-0	-11.611
QF	-11.6117
69@	-11.6125
":"2024-02-1	-11.6126
IV	-11.6129
▁714	-11.613
ZV	-11.6137
7.79	-11.6152
98@	-11.6156
83@	-11.6157
▁140.	-11.6166
9.69	-11.6175
837	-11.6175
":"144.	-11.6189
7.68	-11.6192
mai	-11.6216
mall	-11.6217
20@	-11.6217
57@	-11.6236
":"187	-11.6236
3.22	-11.6242
▁318	-11.6244
ZI	-11.6259
food	-11.6264
Thompson	-11.6269
Chair	-11.6269
tender	-11.6269
Kelly	-11.6269
Collection	-11.6269
▁27,	-11.6272
▁678	-11.6293
":"300	-11.6303
DX	-11.6305
Cox	-11.6305
▁683	-11.6316
robert	-11.6323
▁Bea	-11.6337
ION	-11.6345
uit	-11.6369
87.3	-11.6374
ingapore	-11.6384
#:	-11.6386
DU	-11.6389
":"303	-11.6399
":"21.0	-11.6404
transaction	-11.6419
BK	-11.642
ontact	-11.6423
Doc	-11.6425
":"2024-01-2	-11.6426
":"2024-06-1	-11.6426
":"2025-04-1	-11.6426
":"2025-09-1	-11.6426
▁rr	-11.6426
▁Detergent	-11.6427
excl	-11.6427
▁Melbou	-11.6427
▁CASHIER	-11.6427
▁DISCOUNT	-11.6427
▁Served	-11.6427
PROMO	-11.6427
embangan	-11.6427
ataka	-11.6427
Client	-11.6427
▁Desa	-11.6427
.52</	-11.6428
/01/2024	-11.643
.03.2026	-11.6432
▁charged	-11.6432
▁PRE	-11.6433
▁inv	-11.6435
LWB	-11.6439
":"0.50"	-11.644
JI	-11.6442
9.93	-11.6444
▁gri	-11.6449
Tota	-11.6451
6.80	-11.6451
NF	-11.6453
▁data	-11.6455
refundable	-11.6455
LINE	-11.6456
830,	-11.6459
▁TRANSACT	-11.6475
YI	-11.6476
783,	-11.648
loyal	-11.6487
409,	-11.6489
9.25	-11.6489
696,	-11.6493
▁promo	-11.6499
▁36,	-11.6501
dson	-11.6502
0.60	-11.6516
▁tar	-11.6524
XF	-11.6528
bia	-11.6528
":"270	-11.6548
cert	-11.655
DI	-11.6564
lang	-11.657
▁note	-11.657
":"339	-11.6575
▁buyer	-11.6579
0.40	-11.6583
**	-11.6588
6.63	-11.6602
5.60	-11.6604
AD	-11.6607
4.72	-11.6607
97.3	-11.6608
Cable	-11.6609
▁Account	-11.6615
▁29,	-11.6616
117,	-11.662
tsu	-11.6629
NH	-11.6636
XO	-11.664
ginal	-11.6643
":"136	-11.6644
9.99	-11.6651
ING	-11.6652
OFF	-11.6658
471	-11.666
":"692	-11.6665
▁209	-11.6672
YX	-11.6675
475	-11.6684
314	-11.6693
IQ	-11.6699
bil	-11.67
IG	-11.6702
":"798	-11.6704
":"2025-03-0	-11.6705
XY	-11.6709
▁au	-11.6709
▁81.	-11.671
-44"},{"@	-11.6719
-7"}],"	-11.6724
if	-11.6755
0.87	-11.6762
LI	-11.6763
▁Net	-11.6772
MF	-11.678
AE	-11.6784
▁John	-11.6789
2.19	-11.6801
-80"},{"@	-11.6801
NL	-11.6803
="07	-11.6803
":"426	-11.6811
":"625	-11.6821
XQ	-11.6826
KX	-11.6832
rc	-11.6837
":"362	-11.6841
ection	-11.6842
":"654	-11.6861
010	-11.6871
ein	-11.6876
GK	-11.688
GG	-11.6884
NQ	-11.6889
-54"},{"@	-11.689
IK	-11.689
1.99	-11.6898
188,	-11.691
▁150	-11.6924
HD	-11.6943
EF	-11.6945
▁SH	-11.6949
12.00	-11.6951
ml	-11.6954
0718	-11.6958
▁et	-11.6971
MD	-11.6984
":"197.	-11.6985
":"2025-07-2	-11.6987
54.6	-11.7009
6.65	-11.7013
6.60	-11.7024
nde	-11.7045
FZ	-11.7046
":"289	-11.7049
YE	-11.7054
15:0	-11.7058
43@	-11.7079
XD	-11.7086
47@	-11.709
503	-11.7091
1.44	-11.7106
▁AT	-11.7119
32@	-11.7119
91.9	-11.7144
▁Mark	-11.7151
3.11	-11.717
080	-11.7183
iv	-11.7184
HE	-11.7193
38.3	-11.7202
orthwest	-11.7212
YQ	-11.7225
▁fl	-11.7233
99.7	-11.7234
▁580	-11.7235
":"03-	-11.7247
▁**	-11.7253
-21"},{"@	-11.7262
buyer	-11.7263
Router	-11.7266
Tender	-11.7266
Access	-11.7268
Richardson	-11.7269
Evans	-11.7269
Keyboard	-11.7269
Bailey	-11.727
Carter	-11.727
SSD	-11.7278
466	-11.728
.13</	-11.7282
tore	-11.7283
Brown	-11.7294
84.84	-11.7348
27.3	-11.7358
▁$0.5	-11.7363
96.5	-11.7391
▁refund	-11.7396
OK	-11.7397
3.65	-11.7401
53.0	-11.7404
esti	-11.7407
▁margar	-11.7408
":"135.	-11.7414
anchez	-11.7421
ustorner	-11.7425
":"2025-01-0	-11.7425
":"2024-06-2	-11.7425
":"2024-10-2	-11.7425
":"2024-12-0	-11.7425
":"2025-09-0	-11.7426
emb	-11.7426
rvice	-11.7426
244.81	-11.7427
03-40210276	-11.7427
perez	-11.7427
▁Bowl	-11.7427
▁Supplies	-11.7427
▁Reference	-11.7427
0005583085-	-11.7427
000781500416	-11.7427
£	-11.7427
▁exchange	-11.7427
▁pizza	-11.7427
▁problem	-11.7427
63.73	-11.7427
CLIENT	-11.7427
°	-11.7427
▁MERCHAN	-11.7427
▁FULFIL	-11.7427
000750673920	-11.7427
odsworth	-11.7427
▁combo	-11.7427
allahan	-11.7427
etapak	-11.7427
coffee	-11.7428
Guest	-11.7428
.10.2026	-11.7428
nature	-11.7429
udang	-11.7429
Payrnent	-11.7429
:45:00	-11.7429
/01/2026	-11.743
▁handle	-11.7431
82.37	-11.7432
▁pax	-11.7433
3.30	-11.7434
38.91	-11.7434
ZK	-11.7436
ZWB	-11.7437
46.7	-11.7439
NWB	-11.744
41.18	-11.7445
▁fu	-11.7448
ESS	-11.745
▁100100000035	-11.7452
▁rmo	-11.7452
45.91	-11.7454
21.20	-11.7455
water	-11.7455
▁39"},"	-11.7467
Operator	-11.7468
23.39	-11.747
▁Charg	-11.747
▁bread	-11.7474
17.45	-11.748
VH	-11.7484
133.92	-11.7487
▁Staff	-11.7489
FL	-11.7495
TZ	-11.7495
JE	-11.7496
tab	-11.7497
▁recipient	-11.7507
53200	-11.7511
anting	-11.7514
2.79	-11.7527
27.73	-11.7527
74.83	-11.7552
":"505	-11.7561
":"278	-11.7561
ONE	-11.7566
477,	-11.7569
NG	-11.7574
18.80	-11.7579
82.1	-11.7582
YG	-11.7582
153.2	-11.7587
":"551	-11.7595
▁set	-11.7609
▁07:1	-11.7609
243,	-11.7616
▁INVO	-11.7617
.68</	-11.7618
":"805	-11.7623
FG	-11.763
553,	-11.7641
▁$0.4	-11.7646
Hand	-11.7653
▁Purchase	-11.7667
.2025	-11.7674
0.20	-11.7681
":"2024-03-1	-11.7701
":"2018-04-1	-11.7702
obal	-11.7704
▁370	-11.7705
NK	-11.7718
686	-11.7727
899	-11.7735
Sport	-11.7753
BG	-11.7764
159,	-11.7776
":"735	-11.778
3.18	-11.7781
▁203.	-11.7791
466,	-11.7796
54.93	-11.7801
-31"},{"@	-11.7802
ung	-11.7807
FO	-11.7812
":"413	-11.7822
222,	-11.7824
mary	-11.7828
▁10010000006	-11.7832
":"293	-11.7854
ost	-11.7861
":"802	-11.7878
07:3	-11.7895
TCC	-11.7913
5.07	-11.7916
353,	-11.7918
963	-11.7944
▁752	-11.7959
11.90	-11.7962
76@	-11.7965
":"433	-11.7967
1366	-11.7993
7057	-11.8025
18.14	-11.8025
247.8	-11.8029
-41"},{"@	-11.8037
":"707	-11.8062
-26"},{"@	-11.8064
":"843	-11.8064
":"2026-03-0	-11.8103
":"2026-01-0	-11.8125
":"2025-08-2	-11.814
1010	-11.8171
0.10	-11.8172
153","	-11.8189
":"573	-11.8194
inal	-11.82
66.4	-11.82
":"198	-11.8202
931	-11.8203
1.42	-11.8204
VX	-11.8233
▁217.	-11.8235
8.99	-11.8245
eries	-11.8251
her	-11.8268
▁pl	-11.8276
▁cl	-11.828
time	-11.8281
":"591	-11.8294
jun	-11.8296
93.56	-11.8308
712	-11.8308
":"2025-11-1	-11.831
312,	-11.8315
-414	-11.8326
54.98	-11.8327
▁628	-11.8349
vegetable	-11.8377
Peterson	-11.8379
Mail	-11.8379
Garcia	-11.838
Ortiz	-11.838
Nelson	-11.838
Cruz	-11.838
Flight	-11.838
Baker	-11.8381
":"941	-11.8383
Bottle	-11.8385
26.00	-11.8385
TK	-11.8395
95.9	-11.8421
153,	-11.8426
777	-11.843
Created	-11.8432
▁tori	-11.8451
":"593	-11.8471
3.10	-11.8478
▁cla	-11.8479
▁ru	-11.8489
▁san	-11.8495
OV	-11.851
ispatch	-11.8531
Theat	-11.8536
":"2025-03-1	-11.8536
":"2026-05-2	-11.8537
":"2024-04-2	-11.8537
106.06	-11.8537
":"2025-07-1	-11.8537
Server	-11.8537
WINTER	-11.8538
gomez	-11.8538
diaz	-11.8538
89.04	-11.8538
moore	-11.8538
▁essen	-11.8538
wimm	-11.8538
/09/2024	-11.8538
▁CONT	-11.8538
▁Tebrau	-11.8538
81109-	-11.8538
▁besi	-11.8538
uyama	-11.8539
/08/2026	-11.854
▁Amt	-11.854
▁reggi	-11.8541
▁jane	-11.8541
:26:00	-11.8542
▁Off	-11.8542
▁Even	-11.8543
/04/2024	-11.8543
74.96	-11.8544
.03.2024	-11.8544
▁gut	-11.8546
VWB	-11.8547
YWB	-11.8549
17.48	-11.8549
QWB	-11.855
▁ori	-11.8552
dney	-11.8552
DQ	-11.8552
▁pasi	-11.8555
/03/2024	-11.8555
Jane	-11.8556
▁pi	-11.856
ACT	-11.8566
▁tip	-11.8578
":"441	-11.8581
QY	-11.8586
850,	-11.8591
977,	-11.8594
▁del	-11.8597
▁don	-11.86
228,	-11.86
":"2026-03-2	-11.8605
▁balance	-11.8608
/25/20	-11.8609
▁kee	-11.8612
9000	-11.8615
-31-	-11.8626
-63-	-11.8628
979,	-11.8659
":"2024-08-0	-11.8668
ouble	-11.8671
":"874	-11.868
":"533	-11.8705
▁695	-11.8714
43.5	-11.8716
759,	-11.8756
95.69	-11.8757
mia	-11.8764
egal	-11.8794
VM	-11.88
OX	-11.8803
":"577	-11.8816
IX	-11.8818
▁225	-11.8852
.24</	-11.8857
/02/2024	-11.8881
15;	-11.8897
▁316	-11.8897
10.60	-11.8903
▁BA	-11.8943
9.90	-11.8947
165,	-11.8949
69.8	-11.8954
2.5","	-11.8956
181,	-11.8956
":"651	-11.8977
batan	-11.8996
VE	-11.9
▁340	-11.9009
":"2024-11-1	-11.9015
/05/2024	-11.9022
":"336	-11.9031
":"265	-11.9041
stor	-11.9049
":"2025-04-2	-11.9062
FV	-11.9067
BY	-11.9091
8.57	-11.9098
":"2026-01-2	-11.9108
KK	-11.9139
purchaser	-11.9149
":"258	-11.9173
-0.01	-11.9174
81.80	-11.9174
":"2026-10-1	-11.9175
VK	-11.9179
07:5	-11.9179
GY	-11.9191
2026	-11.9199
UCC	-11.9217
86.4	-11.9229
":"922	-11.9239
▁Pre	-11.9242
":"868	-11.9246
1248	-11.9259
▁174.	-11.9281
DZ	-11.9282
▁762	-11.9284
768,	-11.9312
":"719	-11.9323
":"579	-11.9324
":"2024-04-0	-11.9332
":"2026-07-0	-11.935
9.3","	-11.9354
":"2025-08-0	-11.9373
":"285	-11.9376
YL	-11.9397
":"841	-11.9398
11.7	-11.9408
ox	-11.941
▁dr	-11.941
240,	-11.9412
1252	-11.9416
":"2025-05-2	-11.9417
pport	-11.9425
20.49	-11.943
":"821	-11.9433
0.45	-11.9435
6.95	-11.9437
56.95	-11.9467
45.6	-11.9472
":"311	-11.9497
":"2025-11-2	-11.9501
138.3	-11.9511
.42</	-11.9528
08:1	-11.9532
rv	-11.9546
":"2025-05-1	-11.9558
VF	-11.9576
39.3	-11.9582
nom	-11.9584
278,	-11.9591
5421	-11.9619
client	-11.9625
Sandwich	-11.9625
Olive	-11.9629
Tray	-11.9629
Shorts	-11.9629
mode	-11.9629
Adams	-11.9629
Jones	-11.963
House	-11.963
Walker	-11.963
DATE	-11.963
Package	-11.9631
Johnson	-11.9631
":"461	-11.964
Miller	-11.9641
Tee	-11.9644
Hill	-11.9645
":"756	-11.9649
49.3	-11.9649
user	-11.9655
cotland	-11.966
XC	-11.966
57.5	-11.967
9.5","	-11.9676
Oil	-11.9678
rus	-11.9678
▁rh	-11.9683
YD	-11.9693
KV	-11.9715
engaluru	-11.9735
28.09	-11.9738
3.78	-11.975
otal	-11.9751
nc	-11.9764
5.30	-11.9767
2.83	-11.9776
5008	-11.9779
":"720	-11.9783
tates	-11.9783
":"2024-07-1	-11.9786
":"2025-01-1	-11.9787
":"2026-08-1	-11.9787
":"2024-09-0	-11.9787
":"2024-07-0	-11.9787
":"2018-03-2	-11.9787
":"2026-05-1	-11.9787
007.50	-11.9788
Cappuccino	-11.9788
▁Towels	-11.9788
562.05	-11.9788
017-6057770	-11.9788
:23:00	-11.9788
▁chinois	-11.9788
109.14	-11.9788
collins	-11.9788
spring	-11.9788
alakong	-11.9788
exBmple	-11.9788
000306020352	-11.9788
▁Mobile	-11.9788
▁STAFF	-11.9788
▁VALUE	-11.9788
▁glove	-11.9788
▁indah	-11.9788
▁restaurant	-11.9788
Buyer	-11.9788
▁CODE	-11.9788
▁Indah	-11.9788
▁anton	-11.9788
/09/2025	-11.9788
/02/2025	-11.9788
sophia	-11.9788
flash	-11.9788
235.85	-11.9788
▁slice	-11.9788
plug	-11.9788
black	-11.9789
vip	-11.9789
▁sanyu	-11.9789
.07.2025	-11.9789
:12:00	-11.9789
/08/2025	-11.9789
member	-11.9789
/08/2024	-11.979
▁subang	-11.979
75.64	-11.979
Counter	-11.979
▁CASH	-11.979
▁call	-11.979
ILS	-11.979
roof	-11.9791
night	-11.9791
7.75","	-11.9791
▁received	-11.9791
▁barley	-11.9791
/10/2024	-11.9791
iku	-11.9791
▁tue	-11.9791
:34:00	-11.9792
▁REF	-11.9792
▁BEF	-11.9792
/04/2026	-11.9793
:57:00	-11.9794
33.14	-11.9794
33.98	-11.9796
33.24	-11.9796
▁2025-	-11.9798
▁Tablets	-11.98
81750	-11.9801
86.64	-11.9801
31.23	-11.9802
xamplS	-11.9802
/07/202	-11.9803
64.14	-11.9803
22.38	-11.9806
bur	-11.9809
Vip	-11.981
▁sw	-11.981
folk	-11.981
":"0.46"	-11.9811
144.08	-11.9816
86.43	-11.9816
NX	-11.9818
▁Ave	-11.9819
48.88	-11.9823
Dining	-11.9824
26.47	-11.9825
43.64	-11.9827
13.00	-11.9828
24.24	-11.9828
265.46	-11.9828
INVO	-11.9834
17.97	-11.9837
even	-11.9838
rain	-11.984
142.5	-11.9844
26.96	-11.9845
YK	-11.9849
32.59	-11.985
ross	-11.9851
104.67	-11.9856
▁11;	-11.9859
106.3	-11.9861
01"}],"	-11.9865
137.7	-11.9866
▁seti	-11.987
":"318	-11.9871
445,	-11.9879
":"895	-11.9883
22.22	-11.9886
96.32	-11.989
100100000170	-11.9899
24.32	-11.99
55100	-11.9904
▁Sv	-11.9904
25.58	-11.9907
":"30.9	-11.9918
40170	-11.9926
31.22	-11.994
29.24	-11.9941
JK	-11.9947
▁roll	-11.9958
/05/2025	-11.9975
55.24	-11.9985
care	-11.999
":"631	-12.0001
58.29	-12.0017
$153.	-12.0019
+3	-12.0019
Count	-12.0026
444,	-12.0031
16.12	-12.0034
488,	-12.0046
":"658	-12.0062
TION	-12.0069
DIS	-12.007
Pasi	-12.0072
1180	-12.0086
Vi	-12.0092
.03.202	-12.0128
Mode	-12.0139
▁gin	-12.016
ji	-12.0173
535.5	-12.0177
77.92	-12.0188
▁12:3	-12.0193
1090	-12.0197
XB	-12.0197
▁976	-12.0197
3.41	-12.0218
":"203.	-12.023
":"550	-12.0235
266,	-12.0235
XE	-12.0246
":"766	-12.0253
uca	-12.0263
102,	-12.0269
▁cb	-12.0276
rac	-12.0284
102.00	-12.0295
":"508	-12.0307
QV	-12.0309
28.00	-12.0338
259,	-12.0349
":"538	-12.0357
46.17	-12.036
189,	-12.0364
8150	-12.0389
237.4	-12.0404
":"19.0	-12.0418
nci	-12.0437
":"2025-06-1	-12.0443
":"438	-12.0446
":"2025-02-1	-12.0461
kor	-12.047
":"2026-11-0	-12.0488
JX	-12.049
":"923	-12.0496
War	-12.0497
":"354	-12.0503
96.6	-12.0543
YZ	-12.0547
285.0	-12.0549
▁br	-12.0551
-631	-12.0584
▁12.0	-12.0618
":"2026-04-1	-12.0623
86.00	-12.063
08:4	-12.0634
4.08	-12.0636
1783	-12.0637
3.29	-12.0648
1.40	-12.0651
0032	-12.0654
35.51	-12.0656
▁mar	-12.066
bla	-12.0706
YV	-12.0722
":"2025-03-2	-12.0724
rtua	-12.0733
elect	-12.0758
":"2025-12-2	-12.0775
162,	-12.0784
175.2	-12.079
5140	-12.079
▁em	-12.0793
ller	-12.0809
4.20	-12.081
▁970	-12.0811
":"211	-12.0813
▁143.	-12.0853
21.60	-12.0859
":"612	-12.0868
":"2024-01-0	-12.0871
":"2025-05-0	-12.0871
lington	-12.0877
▁past	-12.0877
▁1001000001	-12.0883
▁231.	-12.0883
":"2026-11-1	-12.0911
":"2024-08-1	-12.0926
3.01	-12.0938
":"2025-12-1	-12.0942
/28/2024	-12.0956
2019	-12.0961
":"504	-12.0975
ister	-12.0978
44.9	-12.0982
▁din	-12.0992
6.34	-12.0993
8448	-12.1003
69.02	-12.1048
38.39	-12.1049
round	-12.1051
chicken	-12.1054
3.90	-12.1055
3.20	-12.1056
Kim	-12.1056
Perez	-12.1058
Wilson	-12.1058
Martin	-12.1058
final	-12.1058
Hall	-12.1059
Smith	-12.1059
cashier	-12.1059
Amount	-12.106
{	-12.106
Brooks	-12.1062
doc	-12.1063
▁1001	-12.1065
373	-12.1069
Parker	-12.1071
▁7/4	-12.1074
":"14.0	-12.1079
":"205.	-12.108
":"287	-12.1084
011	-12.1086
25.87	-12.1094
":"150.	-12.1097
rnar	-12.1109
▁wan	-12.1132
meat	-12.1139
481,	-12.1149
atu	-12.1152
ubscription	-12.1174
▁Offic	-12.1177
lect	-12.1192
exam	-12.1194
HIP	-12.1196
/01/20	-12.1206
▁COU	-12.1213
":"2018-05-1	-12.1214
":"2024-09-1	-12.1215
":"2025-06-0	-12.1215
":"2025-08-1	-12.1215
":"2024-02-2	-12.1216
162.71	-12.1216
":"2025-10-2	-12.1216
arul	-12.1216
KWB	-12.1216
▁Harr	-12.1216
▁cabrales	-12.1216
Margar	-12.1217
▁Stack	-12.1217
▁semmelknédel	-12.1217
▁choco	-12.1217
Installation	-12.1217
WELCOME	-12.1217
Recipient	-12.1217
▁check	-12.1217
.09.2024	-12.1217
?	-12.1217
Petaling	-12.1217
RECIPIENT	-12.1217
▁COPY	-12.1217
▁Entity	-12.1217
▁OWING	-12.1217
▁Outstanding	-12.1217
▁petaling	-12.1217
▁sauce	-12.1217
garden	-12.1217
▁DETA	-12.1217
▁book	-12.1217
Flash	-12.1217
▁Owing	-12.1217
berry	-12.1217
guys	-12.1217
375.8	-12.1217
premio	-12.1217
▁Telephone	-12.1217
▁lager	-12.1217
Subang	-12.1217
kenneth	-12.1217
SAVE	-12.1217
/10/2025	-12.1217
PLUS	-12.1217
ivery	-12.1217
lvd	-12.1217
▁anne	-12.1217
Franc	-12.1217
93.07	-12.1217
▁caseifici	-12.1217
oucher	-12.1217
DEAL	-12.1217
:24:00	-12.1217
ocurnent	-12.1217
/10/2026	-12.1217
▁ehsan	-12.1218
▁super	-12.1218
▁bayside	-12.1218
CWB	-12.1218
lken	-12.1218
hsan	-12.1218
▁$0.9	-12.1218
Laun	-12.1219
▁fries	-12.1219
Laur	-12.122
▁Iterns	-12.122
:42:00	-12.1221
:50:00	-12.1222
▁Ful	-12.1222
mason	-12.1223
/12/2025	-12.1223
▁how	-12.1223
▁enter	-12.1224
▁AMT	-12.1224
Web	-12.1224
195.0	-12.1225
qui	-12.1225
/07/2026	-12.1225
▁teri	-12.1226
42.46	-12.1226
pack	-12.1228
▁SUB	-12.1231
▁onion	-12.1231
58.15	-12.1231
302.79	-12.1232
▁soup	-12.1232
▁1.20	-12.1232
333.6	-12.1233
Seri	-12.1238
▁0.50	-12.1238
cond	-12.124
14.88	-12.1241
24.66	-12.1241
▁Stationer	-12.1242
noah	-12.1244
":"679	-12.1247
WY	-12.1252
990,	-12.1256
81100	-12.1256
▁193.	-12.1258
▁09;	-12.126
▁18:5	-12.1265
▁let	-12.1268
151.7	-12.1279
50.38	-12.128
▁dine	-12.1285
132.54	-12.1285
▁141,	-12.1289
24.00	-12.1309
five	-12.1311
-23-	-12.1318
tain	-12.132
-3362	-12.132
:03:00	-12.1328
496,	-12.1329
92.61	-12.1332
▁Pap	-12.1333
OOD	-12.1341
67.14	-12.1366
442,	-12.1381
13.26	-12.1384
.41</	-12.1392
▁282.	-12.1392
":"964	-12.1393
455,	-12.1395
/19/202	-12.1403
▁11:4	-12.1415
3.34	-12.1425
148.00	-12.1428
-918	-12.1434
365,	-12.1445
":"2026-02-0	-12.1445
":"420	-12.1452
":"614	-12.1488
966,	-12.1494
▁14:3	-12.1498
305,	-12.15
119,	-12.1501
0128	-12.1502
493,	-12.1504
▁4.5	-12.1518
":"722	-12.1523
152.00	-12.1546
▁15:5	-12.1555
▁13:5	-12.1555
112,	-12.1556
wai	-12.1557
478,	-12.156
15:3	-12.1561
206.1	-12.1578
-614	-12.1625
282,	-12.1626
4.75	-12.1653
":"656	-12.1657
39.62	-12.1661
5.90	-12.1663
▁bak	-12.1675
YCC	-12.1679
":"547	-12.1682
.81</	-12.1698
967","	-12.1714
623,	-12.1719
17:4	-12.172
":"2024-10-0	-12.1764
":"130	-12.1802
5081	-12.1806
":"13.1	-12.1828
97.8	-12.1832
0%)	-12.186
3092	-12.1872
":"884	-12.1886
":"2026-06-1	-12.1895
▁782	-12.1916
":"348	-12.1943
ional	-12.1948
":"2025-01-2	-12.196
":"541	-12.1971
XI	-12.1976
.02.2025	-12.1995
▁carr	-12.2001
":"132.	-12.2005
8728	-12.2019
-844	-12.2048
246,	-12.2054
":"457	-12.2083
deal	-12.2085
":"215.	-12.2108
11.00	-12.2119
":"225	-12.2187
09:1	-12.2218
":"970	-12.2222
":"763	-12.2232
79.3	-12.2236
4.95	-12.2241
iso	-12.2258
.08.2026	-12.2287
867388-	-12.2293
▁10010000001	-12.2312
▁ab	-12.2339
150,	-12.235
nigl	-12.2373
▁21.0	-12.2379
19:5	-12.2379
3.82	-12.2429
85"}],"	-12.2436
▁10.0	-12.2442
":"282.	-12.245
":"676	-12.2452
20.16"	-12.2455
":"2025-09-2	-12.2462
":"728	-12.2493
":"2024-05-0	-12.25
.10.2025	-12.2522
ngg	-12.2523
2050	-12.253
":"2018-02-2	-12.2538
":"2024-10-1	-12.2539
":"2026-08-2	-12.2554
liver	-12.256
67.1	-12.2563
":"2018-04-0	-12.257
":"10.0	-12.2592
▁desc	-12.26
18.81	-12.2607
":"2024-11-0	-12.2607
":"2025-10-0	-12.2625
▁22.0	-12.264
655","	-12.2665
sale	-12.2665
":"12.0	-12.271
import	-12.272
CREATED	-12.272
CUSTOMER	-12.2721
16.25	-12.2722
www	-12.2722
Fron	-12.2724
AMOUNT	-12.2724
Works	-12.2724
Shirt	-12.2724
Morales	-12.2725
Nguyen	-12.2725
Campbell	-12.2725
Moore	-12.2725
Murphy	-12.2725
MODE	-12.2725
Lewis	-12.2725
Jackson	-12.2727
Clark	-12.2729
Dock	-12.273
Young	-12.2732
reg	-12.2737
Wright	-12.2744
:54",	-12.2762
73.7	-12.2785
10:0	-12.2801
xico	-12.2802
62.5	-12.2815
17.01	-12.282
arcel	-12.2823
4128	-12.283
rga	-12.284
rim	-12.2846
cen	-12.2847
":"514	-12.2849
▁6.0	-12.286
6244	-12.2861
-848	-12.2861
back	-12.2875
132,	-12.2881
nterprise	-12.2882
":"2024-04-1	-12.2882
309.22	-12.2882
367.62	-12.2882
:14:00	-12.2883
162.46	-12.2883
▁Svbscription	-12.2883
232.87	-12.2883
316.03	-12.2883
akery	-12.2883
pegesild	-12.2883
136.76	-12.2883
142.09	-12.2883
lver	-12.2883
▁Bvndle	-12.2883
823.26	-12.2883
599.57	-12.2883
▁lkura	-12.2883
116.46	-12.2883
UWB	-12.2883
pollo	-12.2883
▁teriyaki	-12.2883
002105827328	-12.2883
jack	-12.2883
139.66	-12.2883
▁Shake	-12.2883
134.96	-12.2883
squa	-12.2883
▁brush	-12.2883
538.59	-12.2884
Welcome	-12.2884
FLASH	-12.2884
▁Kepong	-12.2884
koene	-12.2884
000381399040	-12.2884
▁Dlrect	-12.2884
860671-	-12.2884
Profess	-12.2884
bér	-12.2884
erkku	-12.2884
nergizer	-12.2884
randenburg	-12.2884
rankenversand	-12.2884
®	-12.2884
»	-12.2884
▁CONSIGN	-12.2884
▁CONTEXT	-12.2884
▁OUTSTANDING	-12.2884
▁WAYBILL	-12.2884
▁battery	-12.2884
▁grusbl	-12.2884
▁guest	-12.2884
▁print	-12.2884
001531760640	-12.2884
Technica	-12.2884
▁Consign	-12.2884
▁awb	-12.2884
.12.2024	-12.2884
Promo	-12.2884
▁(11900)	-12.2884
1135772-	-12.2884
▁RECE	-12.2884
001694261248	-12.2884
henry	-12.2884
joseph	-12.2884
▁safe	-12.2884
enezuela	-12.2884
114.24	-12.2884
542.7	-12.2884
669.28	-12.2884
tearn	-12.2884
159.54	-12.2884
arnil	-12.2884
221.03	-12.2884
razil	-12.2884
aqueria	-12.2884
Penel	-12.2884
reggc	-12.2884
▁15/48	-12.2884
▁tempura	-12.2884
▁laur	-12.2884
MEGA	-12.2884
878.39	-12.2884
▁ball	-12.2884
.01.2025	-12.2884
Shampoo	-12.2884
▁courdavault	-12.2884
board	-12.2884
260.62	-12.2884
286.14	-12.2884
128.84	-12.2884
39.89	-12.2884
156.54	-12.2884
pork	-12.2884
▁darul	-12.2884
▁@0%	-12.2885
531.26	-12.2885
ption	-12.2885
104.86	-12.2885
172.94	-12.2885
▁double	-12.2885
▁meal	-12.2885
ssar	-12.2885
320.07	-12.2885
▁vis	-12.2885
4.29</	-12.2885
▁seksye	-12.2885
single	-12.2885
963.6	-12.2885
▁franc	-12.2885
58.71	-12.2885
TWB	-12.2885
▁Enterprise	-12.2886
strict	-12.2886
63.36	-12.2886
DWB	-12.2886
lunch	-12.2886
▁9481	-12.2886
scap	-12.2886
▁will	-12.2886
Reward	-12.2886
▁new	-12.2887
87.44	-12.2887
▁rated	-12.2887
64.27	-12.2887
yellow	-12.2887
LJNE	-12.2887
57.18	-12.2887
60.35	-12.2888
lily	-12.2888
44300	-12.2888
.06.2025	-12.2888
liam	-12.2888
:35:00	-12.2889
133.6	-12.2889
▁pow	-12.289
40.61	-12.289
▁23/1	-12.289
52.39	-12.289
:46:00	-12.2891
42.58	-12.2891
490.53	-12.2891
receip	-12.2892
56.87	-12.2892
122.97	-12.2893
87.28	-12.2894
▁ave	-12.2894
23.36	-12.2894
146.78	-12.2894
762.94	-12.2894
593.92	-12.2894
203.21	-12.2896
454.35	-12.2897
42.81	-12.2897
tarte	-12.2897
799.32	-12.2897
18:25	-12.2898
45.14	-12.2898
29.76	-12.2899
23.44	-12.2899
30.79	-12.2899
15.61	-12.29
wit	-12.29
▁31.0	-12.29
226.95	-12.29
17.21	-12.29
Bxample	-12.29
13.36	-12.2902
176.8	-12.2903
16.31	-12.2904
26.76	-12.2904
nora	-12.2904
▁teh	-12.2905
35.84	-12.2906
48.64	-12.2906
278.19	-12.2907
19.76	-12.2907
17.08	-12.2908
531.08	-12.2908
456.7	-12.2908
41.15	-12.2909
▁fri	-12.2909
220.19	-12.291
17.19	-12.2911
/04/202	-12.2913
86.04	-12.2913
ILL	-12.2916
matthew	-12.2917
490.0	-12.2918
▁eo	-12.2918
▁sya	-12.2918
82.64	-12.2921
UNT	-12.2922
neer	-12.2923
gula	-12.2928
728.28	-12.293
117.93	-12.2933
":"31.0	-12.2937
16.00	-12.294
109.24	-12.2941
445.4	-12.2943
lling	-12.2943
241.99	-12.2944
olida	-12.2947
47301	-12.295
109.25	-12.2951
136.34	-12.2951
":"969	-12.2953
99.36	-12.2959
210,	-12.2959
ottle	-12.296
▁7937	-12.2961
140,	-12.2961
315.9	-12.2965
40.89	-12.2966
20.50	-12.2973
▁4137	-12.2974
52100	-12.2979
94.26	-12.2981
42100	-12.2986
63.18	-12.2987
83.75	-12.2989
440,	-12.2994
254.64	-12.3004
:43:00	-12.3014
28.28	-12.3014
bundle	-12.3014
46.57	-12.3015
43200	-12.3015
32.94	-12.3018
22.24	-12.302
48.36	-12.3027
":"14.3	-12.3027
554,	-12.3032
12.44	-12.3035
":"55.0	-12.3035
xampSe	-12.3037
23.05	-12.3039
82.49	-12.3052
milia	-12.3056
ims	-12.3063
":"13.0	-12.3064
32.18	-12.3073
14776	-12.3096
704,	-12.3105
rue	-12.3107
":"43.3	-12.3109
2024-12-20	-12.311
235.7	-12.3116
5.9","	-12.3125
▁PRO	-12.3126
93.13	-12.3132
2025-06-22	-12.3139
83.11	-12.3145
52.00	-12.3145
":"936	-12.3153
289.9	-12.3153
13.43	-12.3159
19.21	-12.3162
63.99	-12.3163
128.3	-12.3166
16:4	-12.3178
21.07	-12.3196
▁11.5	-12.3202
101.76	-12.3205
":"779	-12.3222
23.82	-12.3224
":"51.9	-12.3246
ix	-12.3251
":"999	-12.3254
26.90	-12.3268
":"112.7	-12.3277
22.34	-12.3283
":"485	-12.3311
372,	-12.3315
60.00	-12.3318
30.39	-12.3322
2026-11-02	-12.3356
2026-02-09	-12.3357
015-	-12.3383
282.02	-12.3395
65.1	-12.3397
-052	-12.3402
108.6	-12.3412
▁13:4	-12.3415
.07.2026	-12.3421
31.36	-12.3424
13.96	-12.3465
erni	-12.3473
▁30.9	-12.3487
10/2	-12.3519
8:00",	-12.3523
74.08	-12.3527
22.73	-12.3559
▁17:1	-12.3573
40.58	-12.3579
gli	-12.3579
19.56	-12.358
232.9	-12.3581
":"509	-12.3583
":"768	-12.3601
121.85	-12.3604
▁60.4	-12.3604
":"343	-12.3622
26.60	-12.3694
":"246	-12.37
":"2026-10-2	-12.3714
▁11.8	-12.3716
0731	-12.3735
":"18.0	-12.3752
14.95	-12.3755
":"967	-12.38
":"984	-12.3805
68.9	-12.3813
▁seri	-12.3814
20:1	-12.3815
":"2026-02-2	-12.3828
2.49	-12.3845
627"},{"@	-12.3855
":"880	-12.3875
65.84	-12.3876
52.17	-12.3877
31.00	-12.388
2018-05-01	-12.3895
111.3	-12.3934
App	-12.3955
44.44	-12.3984
":"947	-12.3988
122.3	-12.3999
bean	-12.3999
128.1	-12.4003
65.57	-12.4009
5104	-12.4019
":"537	-12.4105
":"2026-06-0	-12.4137
":"2018-03-1	-12.4142
296.8	-12.4172
":"82.7	-12.4183
▁2294	-12.4214
▁$9.9	-12.4221
2.07.2026	-12.4265
.04.2024	-12.4295
":"140.6	-12.4359
wis	-12.4375
75.65	-12.4389
":"463	-12.4428
.10.2024	-12.4437
12.74	-12.446
405.3	-12.4463
6.90	-12.4471
46.82	-12.4495
17.85	-12.4555
11:2	-12.4562
":"2018-02-0	-12.4568
ight	-12.4601
":"2024-12-2	-12.4612
208.43	-12.4613
":"2025-04-0	-12.4617
10.25	-12.4681
53.88	-12.4702
recipient	-12.4718
promo	-12.4719
facebook	-12.4721
Honey	-12.4723
Booking	-12.4724
Permas	-12.4725
Harris	-12.4725
Taylor	-12.4725
Phillips	-12.4725
Anderson	-12.4725
Combo	-12.4725
Morris	-12.4725
Wood	-12.4725
Watson	-12.4726
Flores	-12.4726
Membership	-12.4726
|	-12.4727
BILL	-12.4729
Invoice	-12.473
11.13	-12.4739
$111.	-12.4751
▁Deliver	-12.4758
37.39	-12.4774
william	-12.4778
9.74</	-12.4801
▁17:0	-12.481
32.54	-12.4817
torage	-12.484
01/21/202	-12.4844
ANDL	-12.4849
ntario	-12.485
▁sho	-12.4852
37.23	-12.4864
▁fulfil	-12.4873
▁11/1	-12.4873
voice	-12.4877
ndia	-12.4877
▁Retai	-12.4879
":"2018-05-2	-12.488
":"2018-06-1	-12.4881
2017-12-26	-12.4881
62.38	-12.4881
▁payab	-12.4881
":"138.8	-12.4882
veggie	-12.4882
":"253.5	-12.4882
58000.00	-12.4882
163.6	-12.4882
rales	-12.4882
356.62	-12.4882
▁Payab	-12.4882
":"115.4	-12.4882
eksye	-12.4883
":"155.0	-12.4883
255.16	-12.4883
IWB	-12.4883
ugat	-12.4883
▁lvdr	-12.4883
▁alice	-12.4883
brau	-12.4883
712.95	-12.4883
Check	-12.4883
rtesia	-12.4883
CHECKOUT	-12.4883
appadeaux	-12.4883
▁glass	-12.4883
WEEKEND	-12.4884
▁gastronomo	-12.4884
!!!	-12.4884
999999999999	-12.4884
Reggi	-12.4884
exaIpl	-12.4884
tfitters	-12.4884
”	-12.4884
▁CHARGED	-12.4884
▁DELIVER	-12.4884
▁closed	-12.4884
▁condition	-12.4884
▁kepong	-12.4884
▁METH	-12.4884
▁drink	-12.4884
▁klosterbier	-12.4884
▁tofu	-12.4884
▁gardenia	-12.4884
gary	-12.4884
▁telino	-12.4884
sofia	-12.4884
/26/2024	-12.4884
ebsite	-12.4884
launch	-12.4884
Balance	-12.4884
:59:00	-12.4884
xOmple	-12.4884
▁pasties	-12.4884
Drop	-12.4884
272.96	-12.4884
436.38	-12.4884
▁soda	-12.4884
:47:00	-12.4884
▁biscuits	-12.4884
.11.2026	-12.4884
▁PAYA	-12.4884
lanket	-12.4884
392.29	-12.4884
extra	-12.4884
garl	-12.4884
136.75	-12.4884
358.43	-12.4884
855.55	-12.4884
370.44	-12.4885
▁more	-12.4885
="2025-08-	-12.4885
▁242.7	-12.4885
chloe	-12.4885
565.04	-12.4885
17.00	-12.4885
99.28	-12.4885
erdang	-12.4885
462.72	-12.4885
ebud	-12.4885
262.29	-12.4886
▁202717	-12.4886
▁6199	-12.4886
▁submi	-12.4886
▁landline	-12.4886
903.8	-12.4886
129.85	-12.4886
1.84</	-12.4886
Save	-12.4887
▁(6%)	-12.4887
deros	-12.4887
jonathan	-12.4888
▁person	-12.4888
justin	-12.4888
vins	-12.4888
":"101.8	-12.4889
391.62	-12.489
870.41	-12.489
61.94	-12.4891
0000003	-12.4891
▁8.40	-12.4891
▁149.1	-12.4892
":"242.7	-12.4892
99.09	-12.4893
104.44	-12.4893
▁vie	-12.4893
rhé	-12.4893
24004	-12.4893
98.49	-12.4893
uz	-12.4895
ayside	-12.4896
12:41	-12.4896
78.15	-12.4898
49.68	-12.4899
70.68	-12.49
DROP	-12.4901
72.82	-12.4901
402.83	-12.4902
79.55	-12.4903
60.61	-12.4905
84.09	-12.4905
konbu	-12.4905
▁big	-12.4906
":"110.4	-12.4907
zen	-12.4907
97.5	-12.4908
25.19	-12.4908
miss	-12.4909
23.67	-12.4911
zz	-12.4912
6.30	-12.4917
11:18	-12.492
lino	-12.4921
":"67.5	-12.4924
$181.	-12.4928
35.09	-12.493
13.95	-12.4933
63.95	-12.4934
":"18.4	-12.4937
suppo	-12.4937
326.86	-12.4938
60.66	-12.494
▁compl	-12.4942
hinese	-12.4949
174.90	-12.4951
":"58.2	-12.4955
280.65	-12.4964
79.65	-12.4964
frie	-12.497
19.34	-12.4973
▁42.0	-12.4981
.01.2026	-12.4981
246.9	-12.4989
52.09	-12.4992
nail	-12.4994
/02/2	-12.4995
▁anal	-12.4996
47.64	-12.5002
70.27	-12.5004
72.21	-12.5008
309.64	-12.502
":"24.0	-12.5026
":"121.3	-12.5027
":"269.0	-12.5028
▁win	-12.5039
":"13.2	-12.5041
37.78	-12.5042
53300	-12.5046
52.89"	-12.5046
48.52	-12.5048
2026-07-22	-12.5049
11.69	-12.505
7.30	-12.5051
▁roge	-12.5053
":"140.1	-12.5067
stop	-12.507
zer	-12.5085
2024-11-28	-12.5086
chai	-12.5087
▁19.0	-12.5089
28.45	-12.5101
4.10	-12.5104
▁07:0	-12.5107
134.3	-12.5124
396.2	-12.5131
▁hila	-12.5137
888"},{"@	-12.5147
oods	-12.515
144.16	-12.5155
2024-01-10	-12.5157
2026-10-03	-12.5159
2018-04-17	-12.5164
2026-06-21	-12.5184
:51:00	-12.5187
45.28	-12.5187
69.24	-12.5192
70.94	-12.5205
59.52	-12.5208
3.84"	-12.5208
11.25	-12.522
▁2026-	-12.5227
18.02	-12.5244
▁44.1	-12.5249
47341	-12.5249
":"68.5	-12.5255
▁11.9	-12.5259
235.6	-12.5275
2024-05-25	-12.5312
14.90	-12.5348
":"557	-12.5349
2026-02-02	-12.5361
77.56	-12.5372
▁5.5	-12.5407
250.00	-12.5417
▁15.2	-12.5428
28.15	-12.5463
18.75	-12.5494
$149.	-12.5499
▁15.0	-12.55
2/16	-12.5561
6%)	-12.5563
":"240.0	-12.5576
497-	-12.5584
3.60	-12.56
":"17.7	-12.5621
148.4	-12.5662
▁7.0	-12.569
8.43</	-12.5694
ARC	-12.5747
▁17.8	-12.5832
▁sou	-12.5862
▁12.3	-12.5898
":"30.0	-12.5933
":"2024-05-2	-12.5941
emma	-12.5975
":"2.20	-12.601
10:2	-12.6049
22.50	-12.6093
":"2026-10-0	-12.6182
26.34	-12.6193
":"2018-01-1	-12.6239
-03-20	-12.625
291-	-12.638
/24/2	-12.6394
/05/2026	-12.6405
":"10.00"	-12.6467
":"2026-12-0	-12.6497
▁Ston	-12.6556
":"2025-06-2	-12.6595
":"2026-09-1	-12.6607
$127.	-12.6655
":"2025-07-0	-12.6656
12:5	-12.6668
":"116.2	-12.6688
":"2024-01-1	-12.6738
":"2026-12-1	-12.6752
.04.2026	-12.6755
303.4	-12.6757
▁Chu	-12.6758
100100000060	-12.6791
10:1	-12.6811
":"2024-05-1	-12.6812
":"2026-09-2	-12.6812
":"2025-10-1	-12.6854
:21:00",	-12.6865
mber	-12.687
":"2025-02-2	-12.6973
▁good	-12.6976
▁38.0	-12.6994
":"2025-11-0	-12.6999
▁24.0	-12.7005
":"48.2	-12.7027
":"2024-12-1	-12.7029
":"2017-11-1	-12.7057
":"2025-12-0	-12.7061
2.32</	-12.7064
":"2017-03-0	-12.7079
▁03/05	-12.7088
"196.7	-12.7128
":"45.2	-12.7139
":"2018-05-0	-12.7142
40.16	-12.7155
—	-12.7161
70.7	-12.7205
72.6	-12.721
balance	-12.7218
Staff	-12.7219
cheese	-12.722
20:5	-12.722
§	-12.7222
TENDER	-12.7223
Juice	-12.7223
~	-12.7224
METHOD	-12.7224
Diaz	-12.7225
Cooper	-12.7225
Ramos	-12.7225
Charger	-12.7226
▁10010000003	-12.7228
94.89	-12.7275
▁hung	-12.73
work	-12.7303
93.52	-12.7311
rading	-12.7313
117.9	-12.732
supp	-12.7323
ondon	-12.7343
ndoor	-12.7356
21.83	-12.7364
rooks	-12.7372
rganizer	-12.7374
▁Auck	-12.7376
carte	-12.7377
utlet	-12.7378
outique	-12.7379
":"2018-06-2	-12.7379
▁receive	-12.7379
▁rate	-12.7379
12:46:33	-12.738
":"2018-01-2	-12.738
/53796	-12.738
00012659	-12.738
":"2018-06-0	-12.738
Process	-12.738
bert	-12.7381
aggage	-12.7381
19:22:25	-12.7381
▁Bund	-12.7381
":"2024-07-2	-12.7382
2017-08-19	-12.7382
182.07	-12.7382
2026-04-28	-12.7382
123.79	-12.7382
596.19	-12.7382
266.55	-12.7382
275705	-12.7382
":"114.0	-12.7382
2017-05-13	-12.7382
762.93	-12.7382
180.92	-12.7382
mpang	-12.7382
228.91	-12.7382
192.54	-12.7382
222.11	-12.7382
145.39	-12.7382
535.39	-12.7382
830.26	-12.7382
305.09	-12.7382
649.26	-12.7382
789.56	-12.7382
149.61	-12.7382
13:48:43	-12.7382
162.05	-12.7382
297.37	-12.7382
415.24	-12.7382
564.6	-12.7382
291.75	-12.7382
532.03	-12.7382
uchong	-12.7382
194.93	-12.7382
263.19	-12.7382
852.02	-12.7382
2026-04-27	-12.7382
251.37	-12.7382
297.58	-12.7382
313.77	-12.7382
531.03	-12.7382
horchata	-12.7382
tunnbrod	-12.7382
283.47	-12.7382
844.8	-12.7382
394.57	-12.7382
399.94	-12.7382
233.28	-12.7382
314.36	-12.7382
743.88	-12.7382
951.94	-12.7382
451.38	-12.7382
515.89	-12.7382
140.95	-12.7383
168.97	-12.7383
223.69	-12.7383
337.56	-12.7383
118.36	-12.7383
227.13	-12.7383
▁sild	-12.7383
1000070	-12.7383
110.82	-12.7383
163.83	-12.7383
1123.2	-12.7383
160.77	-12.7383
312.6	-12.7383
379.77	-12.7383
831.47	-12.7383
946.46	-12.7383
268.06	-12.7383
414.78	-12.7383
332.30	-12.7383
471.05	-12.7383
965.22	-12.7383
271.36	-12.7383
185.43	-12.7383
210.0	-12.7383
255.88	-12.7383
275.71	-12.7383
192.35	-12.7383
269.18	-12.7383
374.76	-12.7383
613.32	-12.7383
134.05	-12.7383
00038813	-12.7383
190.98	-12.7383
385.56	-12.7383
672.71	-12.7383
694.11	-12.7383
126.59	-12.7383
389.7	-12.7383
249.8	-12.7383
405.89	-12.7383
287.27	-12.7383
345.39	-12.7383
536.28	-12.7383
600.85	-12.7383
HWB	-12.7383
147.28	-12.7383
206.68	-12.7383
238.65	-12.7383
933.44	-12.7383
219.15	-12.7383
228.35	-12.7383
257.64	-12.7383
519.9	-12.7383
antastica	-12.7383
349.36	-12.7383
185.86	-12.7383
:28:00	-12.7383
155.32	-12.7383
141.53	-12.7383
241.97	-12.7383
412.48	-12.7383
800.0	-12.7383
117.57	-12.7383
272.89	-12.7383
406.38	-12.7383
252.0	-12.7383
357.2	-12.7383
822.42	-12.7383
247.96	-12.7383
1094.96	-12.7383
168.08	-12.7383
186.98	-12.7383
187.69	-12.7383
2017-07-09	-12.7383
218.53	-12.7383
358.02	-12.7383
675.82	-12.7383
-001488	-12.7383
▁Powder	-12.7383
729.79	-12.7383
862.14	-12.7383
▁Distrib	-12.7383
335.05	-12.7383
uklaa	-12.7383
218.4	-12.7383
292.23	-12.7383
413.67	-12.7383
670.18	-12.7383
297.11	-12.7383
172.87	-12.7383
checko	-12.7383
▁Rcgistration	-12.7383
▁paviova	-12.7383
113.97	-12.7383
157.26	-12.7383
198.09	-12.7383
▁leve	-12.7383
280.98	-12.7383
litre	-12.7383
119.55	-12.7383
402.44	-12.7383
194.79	-12.7383
297.03	-12.7383
439.00	-12.7383
":"115.2	-12.7383
739.14	-12.7383
▁goreng	-12.7383
▁sauerkraut	-12.7383
1066.86	-12.7383
220.08"	-12.7383
336.56	-12.7383
346.77	-12.7383
932.71	-12.7383
néickebrod	-12.7383
189.05	-12.7383
▁Larnp	-12.7383
345.57	-12.7383
911.36	-12.7383
145.71	-12.7383
128.21	-12.7383
233.47	-12.7383
147.51	-12.7383
307.37	-12.7383
342.26	-12.7383
▁tourtiére	-12.7383
296.92	-12.7383
236.81	-12.7383
272.77	-12.7383
1676.68	-12.7383
284.18	-12.7383
408.86	-12.7383
338.28	-12.7383
101.43	-12.7383
349.95	-12.7383
▁Jamcs	-12.7383
(718)229-2367	-12.7383
+60342661226	-12.7383
-881408	-12.7383
155.28	-12.7383
candinavia	-12.7383
▁burger	-12.7383
196.06"	-12.7383
212.3	-12.7383
▁Development	-12.7383
177.29	-12.7383
551.67	-12.7383
▁Joncs	-12.7383
▁Pcrez	-12.7383
167.04"	-12.7383
329.66	-12.7383
508.06	-12.7383
176.74	-12.7383
339.05	-12.7383
▁japane	-12.7383
▁mutton	-12.7383
▁welding	-12.7383
158.17	-12.7383
234.29	-12.7383
302.23	-12.7383
603-90213004	-12.7383
136.48	-12.7383
172.69	-12.7383
239.35	-12.7383
▁gummibérchen	-12.7383
182.28	-12.7383
246.81	-12.7383
special	-12.7383
1034.91	-12.7383
105.47	-12.7383
▁Distribut	-12.7383
147.83	-12.7383
983.06	-12.7383
▁holder	-12.7383
109.43	-12.7383
188.05	-12.7383
473.16	-12.7383
173.32	-12.7383
Extende	-12.7383
299.72	-12.7383
119.47	-12.7383
FREESHIP	-12.7383
NIGHT	-12.7383
maribel	-12.7383
208.64	-12.7383
simen	-12.7383
▁Prnck	-12.7383
202.44	-12.7383
388.47	-12.7383
deluxe	-12.7383
297.4	-12.7383
▁55423228	-12.7384
▁Audit	-12.7384
▁Streev	-12.7384
▁weddings	-12.7384
Spring	-12.7384
eSample	-12.7384
03-89410243	-12.7384
nurnber	-12.7384
▁1-300-888-3	-12.7384
▁Corncr	-12.7384
bensdeli	-12.7384
utih	-12.7384
000144596992	-12.7384
000897208320	-12.7384
001032994816	-12.7384
003-1227834	-12.7384
107.21	-12.7384
1211036-	-12.7384
123768-	-12.7384
196.25	-12.7384
226.97	-12.7384
801222-	-12.7384
BUNDLE	-12.7384
Walmart	-12.7384
arnount	-12.7384
erkeley	-12.7384
ierrot	-12.7384
iguel	-12.7384
iinchen	-12.7384
ristobal	-12.7384
sawassen	-12.7384
tuttgart	-12.7384
udbrandsdalsost	-12.7384
▁07/20/202	-12.7384
▁Narne	-12.7384
▁damansara	-12.7384
▁necessar	-12.7384
▁utama	-12.7384
000241512448	-12.7384
784.17	-12.7384
ostbratwurst	-12.7384
▁#8-35	-12.7384
▁Tumer	-12.7384
▁sofie	-12.7384
002043319-	-12.7384
007299-	-12.7384
beverage	-12.7384
▁1393.74"	-12.7384
▁campaig	-12.7384
▁slip	-12.7384
▁manag	-12.7384
00001855	-12.7384
godos	-12.7384
000707211264	-12.7384
001371123712	-12.7384
1132106-	-12.7384
1219716-	-12.7384
190.13	-12.7384
98.15</	-12.7384
Anton	-12.7384
egambut	-12.7384
/18/2024	-12.7384
226.31	-12.7384
hatsapp	-12.7384
rattc	-12.7384
001335787520	-12.7384
029197	-12.7384
anyu	-12.7384
george	-12.7384
▁kering	-12.7384
000689913854	-12.7384
2/13/2025	-12.7384
▁107.9	-12.7384
137.43	-12.7384
cBec	-12.7384
lbuquerque	-12.7384
master	-12.7384
262.23	-12.7384
147.4	-12.7384
173.76	-12.7384
▁validation	-12.7384
arcelona	-12.7384
242.06	-12.7384
007190	-12.7384
187.13	-12.7384
109.39	-12.7384
146.07	-12.7384
895841	-12.7384
▁size	-12.7384
112.67	-12.7384
Print	-12.7384
178.75	-12.7384
▁Comer	-12.7384
▁almond	-12.7384
326.98	-12.7384
468.46	-12.7384
▁sucre	-12.7384
butter	-12.7384
▁dosa	-12.7384
Organlzer	-12.7384
Member	-12.7384
▁1393.5	-12.7384
1554.21	-12.7384
369.7	-12.7384
827.18	-12.7384
192.64	-12.7384
wandk	-12.7384
112.41	-12.7384
248.24	-12.7384
705.09	-12.7384
420.92	-12.7384
waiter	-12.7384
293.69	-12.7384
gge	-12.7384
146.24	-12.7384
151.31	-12.7384
563.04	-12.7384
▁Emas	-12.7384
285.39	-12.7384
kkk	-12.7384
170.64	-12.7384
1014.2	-12.7384
198.26	-12.7384
223.87	-12.7384
138.08	-12.7384
309.42	-12.7384
107.09	-12.7384
191.36	-12.7384
380.18	-12.7384
Deal	-12.7385
119.19	-12.7385
73.04	-12.7385
▁186.5	-12.7385
330.94	-12.7385
.08.2025	-12.7385
80.88	-12.7385
mega	-12.7385
238.92	-12.7385
159.76	-12.7385
▁18:19	-12.7385
673381	-12.7385
1951.2	-12.7385
▁puchong	-12.7385
90.92	-12.7385
▁Cvs	-12.7385
303.68	-12.7385
Ople	-12.7385
131.13	-12.7385
▁ampang	-12.7385
":"186.5	-12.7385
seves	-12.7385
465.34	-12.7385
cactu	-12.7385
378.52	-12.7385
:36:00	-12.7385
223.83	-12.7385
▁devolug	-12.7385
ratuity	-12.7385
431.3	-12.7385
▁41906	-12.7385
uchanan	-12.7385
▁otti	-12.7385
283.51	-12.7385
156.88	-12.7385
57.76	-12.7385
768.98	-12.7385
575.4	-12.7385
125.65	-12.7385
972.8	-12.7385
570.0	-12.7385
89.87	-12.7385
76.47	-12.7385
Benja	-12.7385
84.43	-12.7386
▁tikka	-12.7386
380.9	-12.7386
▁tack	-12.7386
84.59	-12.7386
▁Collec	-12.7386
125.64	-12.7386
236.56"	-12.7386
92.76	-12.7386
345.64	-12.7386
39.94	-12.7386
168.28	-12.7386
warth	-12.7386
39.07	-12.7386
▁Mah	-12.7386
89.27	-12.7387
▁155.0	-12.7387
Irders	-12.7387
▁box	-12.7387
75.21	-12.7387
125.02	-12.7387
237.8	-12.7387
13.76	-12.7387
engk	-12.7387
929.64"	-12.7387
179.31	-12.7387
18041902170358	-12.7387
49.72	-12.7387
56.21	-12.7387
▁7850	-12.7387
campa	-12.7387
3.02</	-12.7387
18:22:	-12.7387
41.89	-12.7387
249.65	-12.7387
58.09	-12.7387
▁mah	-12.7387
105.97	-12.7387
56.33	-12.7388
▁6589	-12.7388
811.78	-12.7388
160.0	-12.7388
▁6643	-12.7388
139.28	-12.7388
588.45	-12.7388
194.21"	-12.7388
41.03	-12.7388
59.11	-12.7388
241.26	-12.7388
75.04	-12.7388
▁7404	-12.7388
184.71	-12.7389
321.9	-12.7389
71.96	-12.7389
105.25	-12.7389
70563	-12.7389
▁7311	-12.7389
:06:00"	-12.7389
103.87	-12.7389
AWB	-12.7389
▁196.8	-12.7389
550.0	-12.7389
691.8	-12.739
80805	-12.739
15.53	-12.739
526.62"	-12.739
▁7429	-12.7391
578.36"	-12.7391
▁130.2	-12.7391
155.65	-12.7391
430.8	-12.7392
471.25	-12.7392
-72788	-12.7392
287.5	-12.7392
33139	-12.7393
avern	-12.7393
knish	-12.7393
276.88	-12.7393
99.33	-12.7393
239.48"	-12.7393
324.65	-12.7393
200.62	-12.7394
61.87	-12.7394
522.5	-12.7394
78.27	-12.7394
60.69	-12.7395
339.9	-12.7395
96.88	-12.7395
ulfillment	-12.7396
▁107.6	-12.7396
131.77	-12.7396
68.48	-12.7396
48.08	-12.7398
72.13	-12.7398
,2026-	-12.7399
143.6	-12.7399
77.83	-12.74
37.22	-12.74
40.85	-12.7401
43.13	-12.7402
132.93	-12.7404
92.48	-12.7404
":"7.60"	-12.7405
18:30	-12.7405
2.06.2024	-12.7405
287.83"	-12.7405
$201.	-12.7406
89.26	-12.7408
21.87	-12.7408
21.98	-12.741
215.75	-12.7411
103.3	-12.7412
$253.	-12.7413
▁9872	-12.7413
15.95	-12.7414
47.02	-12.7414
580.08	-12.7415
278.46"	-12.7415
172.46	-12.7416
136.09"	-12.7416
245.56	-12.7417
":"307.6	-12.7419
▁199.5	-12.742
132.17	-12.7421
30.30	-12.7422
25.26	-12.7424
":"42.9	-12.7425
":"156.4	-12.7426
290.62	-12.7426
ceipt	-12.7427
748.13	-12.7428
934.95"	-12.743
135.75	-12.7431
165.85	-12.7431
94.23	-12.7433
240.24	-12.7433
154.71	-12.7435
98.94	-12.7435
▁crea	-12.7438
159.42	-12.7439
62.78	-12.7439
130.94	-12.7441
175.68	-12.7441
nau	-12.7443
":"313.8	-12.7445
"10.44	-12.7449
166.98	-12.7449
":"92.5	-12.745
$45.2	-12.7451
"119.4	-12.7454
184.5",	-12.7456
69.66"	-12.7457
94.09"	-12.7458
166.92	-12.7459
163.81	-12.746
166.58	-12.7462
erdan	-12.7466
15.40	-12.7468
16.52	-12.7468
22.44	-12.7469
▁trad	-12.7469
hungo	-12.747
gesi	-12.7478
redit	-12.748
64.18",	-12.7481
":"03-554232	-12.7481
46.05	-12.7486
282.04	-12.7487
55.99	-12.7488
153.03	-12.7489
217.77	-12.7489
258.1	-12.7492
313.3	-12.7498
23.19	-12.7499
217.34	-12.7502
146.12"	-12.7503
33.07	-12.7508
":"54.1	-12.7508
":"198.1	-12.7509
▁mexic	-12.7513
64.57	-12.7516
99.38	-12.7518
":"71.4	-12.7521
259.56	-12.7524
46.67	-12.7525
10.21	-12.7528
agon	-12.7532
143.12	-12.7535
14:55	-12.7536
36.41	-12.7539
easoning	-12.754
▁45.7	-12.7542
55.82	-12.7545
70.32	-12.7546
$121.	-12.7557
46.21	-12.7561
2026-04-03	-12.7565
15.06	-12.7567
23.66	-12.7571
75.49	-12.7576
46.23	-12.7577
76.29	-12.758
▁09:4	-12.7584
2026-12-24	-12.7585
":"91.0	-12.7587
▁poli	-12.7591
2026-12-22	-12.7591
55.04	-12.7604
2026-09-20	-12.7604
":"284.8	-12.7609
▁12/1	-12.7612
06.2024	-12.7619
316.48	-12.7621
302.9	-12.764
62.81	-12.7642
galed	-12.7645
18.55	-12.766
▁13.2	-12.767
179.7	-12.7686
30.11	-12.7687
83.19	-12.7687
11.53	-12.7695
2025-12-08	-12.7715
144.68	-12.7715
":"29.9	-12.7715
27.98	-12.772
▁09:5	-12.7723
▁7445	-12.7731
11.83	-12.7733
2025-04-03	-12.7734
129.56	-12.7768
2026-06-04	-12.7771
2025-11-07	-12.778
":"34000"	-12.7782
2026-06-26	-12.7792
65.26	-12.7795
50.46	-12.7797
2025-02-23	-12.7809
▁14:5	-12.7809
15.32	-12.7813
679.	-12.7817
27.75	-12.7822
35.93	-12.7836
2026-02-20	-12.7839
73.86	-12.7847
2025-07-04	-12.7848
79.71	-12.7848
▁5839	-12.7859
2026-06-12	-12.7879
2026-10-01	-12.7881
2026-12-05	-12.7885
2018-04-06	-12.789
14.03	-12.7893
":"114.8	-12.7893
93.76	-12.7905
▁76.7	-12.7938
312.32	-12.7953
$453.	-12.7958
128.4	-12.7969
13.71	-12.7995
14.50	-12.8002
2024-11-07	-12.8002
23.48	-12.8006
2026-10-24	-12.801
2024-05-07	-12.801
2025-06-10	-12.8028
▁32.7	-12.8085
2026-10-10	-12.8117
62.41	-12.8126
":"22.00"	-12.813
▁20:2	-12.8137
2025-10-09	-12.8154
2026-06-11	-12.8155
72.14"	-12.8157
▁suc	-12.8179
175.9	-12.8214
2025-01-26	-12.8226
2025-12-22	-12.8249
25.25	-12.8273
2025-06-12	-12.8279
▁22,9	-12.8324
127.05	-12.8331
2024-02-16	-12.8333
2018-04-14	-12.8338
":"8.7	-12.8347
2025-03-28	-12.8358
10.58	-12.8361
73.3	-12.838
8.93",	-12.8382
1/03/20	-12.839
2025-04-24	-12.8391
2017-09-01	-12.8409
71.41	-12.8415
2024-04-05	-12.8428
08;4	-12.8446
▁13:3	-12.8458
":"2018-04-2	-12.8501
09:3	-12.8502
2024-11-18	-12.8546
148.13	-12.8584
2025-03-03	-12.8598
▁19:1	-12.8622
▁caju	-12.8654
2018-01-13	-12.8665
2018-04-24	-12.873
33868	-12.8733
":"2026-08-0	-12.8733
221.5	-12.8858
":"2017-02-0	-12.8912
5.6</	-12.8941
":"2026-06-2	-12.9049
acke	-12.9085
618.5	-12.9088
":"2017-09-0	-12.9114
714.9	-12.9117
▁25.4	-12.9118
"20.31	-12.9142
12:2	-12.9198
":"11.9	-12.926
":"23.2	-12.9304
":"2026-09-0	-12.9324
130.04"	-12.9329
6/03/20	-12.9351
▁10.7	-12.9448
.11.2025	-12.9517
ntai	-12.9636
/10/201	-12.9724
105.6	-12.9776
198.43	-12.9855
Mega	-12.9905
168.44	-12.9953
.08.2024	-12.9997
lden	-13.0141
266.28	-13.0186
="2025-10-	-13.0262
":"2026-05-0	-13.0268
hilaa	-13.028
":"2024-02-0	-13.0307
":"2026-01-1	-13.0421
":"316.4	-13.0481
153.71	-13.0504
TRANSACTI	-13.052
\	-13.0528
bread	-13.0553
Snack	-13.0554
PHONE	-13.0555
Pizza	-13.0558
Pharmacy	-13.0558
55423213	-13.0582
▁17;5	-13.0635
llinois	-13.0671
onbu	-13.0675
anner	-13.0687
ennett	-13.0694
quant	-13.0696
/08/20	-13.0707
ackpack	-13.0708
▁Globa	-13.0712
":"153.35"	-13.0713
rgh	-13.0713
iscuits	-13.0714
177.24	-13.0714
12:11:00	-13.0714
":"182.4	-13.0714
":"2019-03-	-13.0714
roadway	-13.0714
adge	-13.0714
ulb	-13.0714
2018-02-12	-13.0714
":"243.8	-13.0715
12:05:00	-13.0715
▁devolu	-13.0715
▁Wholesa	-13.0715
venue	-13.0715
":"217.2	-13.0715
000-074020	-13.0715
2017-10-29	-13.0715
275.23	-13.0715
181.21	-13.0715
glob	-13.0715
":"108.4	-13.0715
147.62",	-13.0715
171.47	-13.0715
222.06",	-13.0715
365.22",	-13.0715
814.12",	-13.0715
583.73	-13.0716
":"525.0"	-13.0716
250.47	-13.0716
"181.07	-13.0716
2026-11-20	-13.0716
"247.45	-13.0716
181.45	-13.0716
102.68	-13.0716
2024-08-22	-13.0716
1204.06	-13.0716
.79999999999995	-13.0716
461.67	-13.0716
1073.88	-13.0716
706.77	-13.0716
21485-00	-13.0716
675.57	-13.0716
185.15	-13.0716
315.1	-13.0716
18:16:00	-13.0716
2024-08-28	-13.0716
▁return	-13.0716
2017-06-13	-13.0716
372.74	-13.0716
"217.59	-13.0716
bananas	-13.0716
geitost	-13.0716
▁Whlt	-13.0716
1372.92	-13.0716
177.96	-13.0716
163.19	-13.0716
-7469-	-13.0716
▁466.7	-13.0716
667238	-13.0717
306.2	-13.0717
872.45	-13.0717
977.88	-13.0717
493.57	-13.0717
":"2007-1	-13.0717
845705	-13.0717
899110	-13.0717
840463	-13.0717
examBle	-13.0717
656.06	-13.0717
ajazd	-13.0717
levar	-13.0717
summer	-13.0717
▁Systerns	-13.0717
769370	-13.0717
544134	-13.0717
887.88	-13.0717
BONUS	-13.0717
HOLIDAY	-13.0717
Weekend	-13.0717
aBple	-13.0717
snacks	-13.0717
▁GeorgernStreet	-13.0717
▁Utama	-13.0717
▁chevalier	-13.0717
▁kaseladen	-13.0717
▁lanchonetes	-13.0717
.01.2024	-13.0717
Location	-13.0717
▁accepta	-13.0717
2018-04-30	-13.0717
285.62	-13.0717
491285	-13.0717
Arnount	-13.0717
Bonus	-13.0717
Waiter	-13.0717
aillarde	-13.0717
bonus	-13.0717
clover	-13.0717
imili	-13.0717
ourmandes	-13.0717
▁08:32:00	-13.0717
▁13:56:00	-13.0717
▁20/03/201	-13.0717
▁Kingdorn	-13.0717
▁MOBILE	-13.0717
▁Problern	-13.0717
▁exchangable	-13.0717
▁mojito	-13.0717
▁mushroo	-13.0717
▁related	-13.0717
▁rnethod	-13.0717
▁romero	-13.0717
▁ticket	-13.0717
▁universiti	-13.0717
▁job	-13.0717
▁lamb	-13.0717
▁longbreads	-13.0717
$225.4	-13.0717
.07.2024	-13.0717
omillo	-13.0717
626752	-13.0717
▁420.0	-13.0717
▁525.0	-13.0717
▁liqu	-13.0717
,2026-03-22	-13.0717
-000127	-13.0717
Own	-13.0717
▁1147.58"	-13.0717
▁28.05.202	-13.0717
▁312.92	-13.0717
▁996.9	-13.0717
▁Bcnnett	-13.0717
▁money	-13.0717
▁"02/14/2024	-13.0717
▁better	-13.0717
/22/2024	-13.0717
erjuntai	-13.0717
suppoIt	-13.0717
▁1130.57"	-13.0717
/14/2026	-13.0717
725870	-13.0717
▁146.98	-13.0717
▁244.58	-13.0717
▁279.1	-13.0717
▁736.96	-13.0717
/14/2024	-13.0717
khoo	-13.0717
▁trip	-13.0717
629795	-13.0717
▁Vcrt	-13.0717
▁becon	-13.0717
elicateses	-13.0717
▁198.11	-13.0717
649829	-13.0717
712315	-13.0717
/15/2025	-13.0717
696860	-13.0717
lgn	-13.0717
▁338.23	-13.0717
030461	-13.0717
873176	-13.0717
992579	-13.0717
▁149.4	-13.0717
▁754.57"	-13.0717
065645	-13.0717
▁must	-13.0717
"133.84	-13.0717
▁20:01:	-13.0717
▁appli	-13.0717
357.96	-13.0717
ifica	-13.0717
951770	-13.0717
974429	-13.0717
651.72	-13.0717
913586	-13.0717
mportadora	-13.0717
954999	-13.0717
785558	-13.0717
644237	-13.0717
871297	-13.0717
171.31",	-13.0717
954536	-13.0717
900989	-13.0717
686279	-13.0717
2.16</	-13.0717
rrito	-13.0717
624831	-13.0717
456.09	-13.0717
800.46	-13.0717
▁114.0	-13.0717
559148	-13.0718
013310	-13.0718
800721	-13.0718
554973	-13.0718
136.27	-13.0718
="2025-03-0	-13.0718
174938	-13.0718
4.38</	-13.0718
506158	-13.0718
911067	-13.0718
144213	-13.0718
332113	-13.0718
102.31	-13.0718
724322	-13.0718
":"108.5"	-13.0718
700.4	-13.0718
854337	-13.0719
815598	-13.0719
522298	-13.0719
▁498.5	-13.0719
088531	-13.0719
856225	-13.0719
-432-6	-13.0719
337431	-13.0719
807230	-13.0719
193323	-13.0719
882429	-13.0719
1071.66	-13.0719
609860	-13.0719
774891	-13.0719
303538	-13.072
remo	-13.072
8/02/201	-13.072
180309	-13.072
991911	-13.072
287.98	-13.072
210.52	-13.072
▁34.0	-13.072
461860	-13.072
▁243.9	-13.072
":"188.6	-13.0721
▁110,00	-13.0721
136.66	-13.0721
":"188.8	-13.0721
922593	-13.0721
imited	-13.0721
62749	-13.0721
171.9	-13.0721
▁105.78"	-13.0721
183980	-13.0721
06300	-13.0721
707311	-13.0722
172487	-13.0722
209.06	-13.0722
▁Provi	-13.0722
679829	-13.0723
▁259.1	-13.0723
":"225.4	-13.0723
$56.8	-13.0723
92495	-13.0723
47400	-13.0724
▁185.2	-13.0724
213498	-13.0724
589.22"	-13.0725
90020	-13.0725
145.96",	-13.0727
"348.73	-13.073
415488	-13.073
406.78"	-13.073
97124	-13.0731
$217.9	-13.0731
▁351.5	-13.0732
371613	-13.0734
38135	-13.0735
▁145.5	-13.0735
":"17.81"	-13.0735
1581.6	-13.0736
$83.2	-13.0737
▁45.22"	-13.0738
134.24	-13.074
79114	-13.0744
59801	-13.0745
▁162.3	-13.0748
▁170.1	-13.0748
316141	-13.0751
396.56"	-13.0751
304830	-13.0754
72094	-13.0754
":"8.40"	-13.0757
116.51	-13.0759
358783	-13.0759
▁38.8	-13.076
318703	-13.076
":"530.4	-13.076
.06.202	-13.0764
▁Kelan	-13.077
67211	-13.0775
":"420.0"	-13.0778
211.15"	-13.0785
50497	-13.0786
":"530.0	-13.0789
/21/2026	-13.0789
":"5.27"	-13.0789
▁kni	-13.0789
argarita	-13.0792
16429	-13.0797
"11.41	-13.0797
156.56",	-13.0799
42083	-13.0802
":"401.6	-13.0803
ocument	-13.0805
316.96"	-13.0805
1410.1	-13.0807
165.55	-13.0809
"19.43	-13.081
51454	-13.0819
49522	-13.0827
":"105.3	-13.0828
124.78	-13.0831
130.32	-13.0835
urke	-13.0837
308.5"	-13.0852
314.52	-13.0859
32.02"	-13.0863
":"268.1	-13.0863
11048	-13.0864
$188.6	-13.087
$47.4	-13.0873
372.64	-13.0877
721.83",	-13.088
17;54	-13.0887
92.31"	-13.0894
":"128.5	-13.0904
▁Handle	-13.0906
2026-07-20	-13.0909
":"155.7	-13.091
298.25	-13.0923
77461	-13.0942
LZN	-13.0946
"122.83	-13.0947
183.29",	-13.095
16;2	-13.0952
"25.89	-13.0953
95.28"	-13.0998
2024-11-21	-13.1007
22563	-13.1008
2026-01-10	-13.102
":"223.9	-13.1031
115.98",	-13.1044
7.39</	-13.105
206.3	-13.1067
":"228.0	-13.1097
":"159.8	-13.1125
2024-02-01	-13.114
507.14"	-13.1146
▁186.0	-13.1147
2026-12-10	-13.1156
2026-08-03	-13.1177
53445	-13.118
2026-05-06	-13.1184
2026-09-02	-13.1186
":"758.4	-13.1191
▁2.93"	-13.1212
2024-12-17	-13.1229
2026-09-27	-13.1239
2026-08-08	-13.1272
2024-05-27	-13.1288
555.8	-13.1319
2025-06-24	-13.1321
2026-09-12	-13.1334
2026-12-01	-13.1339
2026-10-04	-13.1346
scarg	-13.1387
":"400.0	-13.1397
395.4	-13.1427
":"217.9	-13.146
2026-10-23	-13.1482
2026-02-25	-13.1566
2024-10-07	-13.1589
2026-06-08	-13.1604
100100000006	-13.1615
27.15",	-13.1635
2025-09-25	-13.1694
2025-02-17	-13.1713
2024-10-01	-13.1724
2025-01-25	-13.1745
2024-11-08	-13.1751
1.07</	-13.1802
2025-02-14	-13.1842
62.9"	-13.1892
2025-05-23	-13.1901
2024-08-07	-13.1912
▁Brando	-13.2011
2026-01-22	-13.204
2025-08-05	-13.2055
2026-03-24	-13.2077
14.11.202	-13.2078
2026-07-06	-13.2135
2026-03-25	-13.2165
2025-08-22	-13.2179
skcah	-13.2181
2024-03-14	-13.2206
2024-08-06	-13.2235
2026-01-05	-13.2238
648071	-13.2281
47481	-13.2287
▁01/02/20	-13.2292
2026-03-06	-13.2327
2024-06-03	-13.2385
2024-03-16	-13.2392
78243	-13.2401
▁4610",	-13.2406
79153	-13.249
2025-07-28	-13.2557
$25.3	-13.2622
373.21",	-13.2753
128.19",	-13.2775
48.42"	-13.2849
2026-07-14	-13.2895
2017-02-04	-13.2912
"2024-11-05	-13.2918
203.55	-13.3054
▁ordeIs	-13.3059
▁373.21"	-13.3077
2018-05-04	-13.3182
2018-03-12	-13.3301
"154.57	-13.338
2018-03-18	-13.3555
▁11/06/20	-13.3986
":"2024-11-2	-13.4047
253.46"	-13.4355
Premi	-13.4504
▁Christoph	-13.4619
12/11/202	-13.4621
":"2026-12-2	-13.4827
":"2026-07-2	-13.4952
"286.2	-13.5181
":"2026-04-0	-13.5311
▁28.04.202	-13.532
":"2018-01-0	-13.5351
▁03/05/202	-13.5354
":"2018-03-0	-13.5371
252.62",	-13.5411
":"259.5	-13.5435
"199.3	-13.5502
Piccadilly	-13.5558
Distributors	-13.556
discount	-13.5561
Collins	-13.5561
eipts	-13.5578
▁23/05/20	-13.5623
":"10010000006	-13.5648
nelope	-13.5665
▁ADDRES	-13.5679
▁johns	-13.569
1/05/20	-13.5709
groce	-13.571
▁selango	-13.571
$236.5	-13.571
▁Subscripti	-13.571
2017-12-19	-13.5711
":"2017-12-0	-13.5712
1801/26821	-13.5712
18051502160344	-13.5712
▁Renewa	-13.5712
":"2017-11-01	-13.5713
ictoria	-13.5713
16:16:13	-13.5713
2016-12-27	-13.5713
2017-03-18	-13.5713
2017-04-16	-13.5713
1159923	-13.5713
robinso	-13.5713
53418053885	-13.5713
▁Statio	-13.5713
":"2018-03-31	-13.5714
":"2026-02-1	-13.5714
1-248350	-13.5714
1.20000000000002	-13.5714
13:34:14	-13.5714
16:17:50	-13.5714
17:11:42	-13.5714
1802127714	-13.5714
18051202170431	-13.5714
18:17:54	-13.5714
2016-12-03	-13.5714
53-154439	-13.5714
ummibérchen	-13.5714
":"2012-12-	-13.5714
":"696.7	-13.5714
-09783433	-13.5714
-94308019"	-13.5714
00241867	-13.5714
0251915	-13.5714
08:31:00	-13.5714
13:29:51	-13.5714
18/06/04-1016956	-13.5714
39758121	-13.5714
447-004439	-13.5714
waebp	-13.5714
16:58:00	-13.5714
":"243.9	-13.5715
":"693.2	-13.5715
-03340950"	-13.5715
-0734634497	-13.5715
-0907838554",	-13.5715
-10283011"	-13.5715
-1605931218	-13.5715
-22188201	-13.5715
-2326697026"	-13.5715
-2385-7810"	-13.5715
-3549-8046	-13.5715
-3622622204"	-13.5715
-3687044097	-13.5715
-47183598	-13.5715
-51802675",	-13.5715
-5423301528	-13.5715
-59049730	-13.5715
-7709-8293	-13.5715
-916080	-13.5715
00011043	-13.5715
00011926	-13.5715
00110840	-13.5715
0100080332	-13.5715
11:07:06	-13.5715
12:45:41	-13.5715
13:19:29	-13.5715
1803/28617	-13.5715
18040902160299	-13.5715
18052702160246	-13.5715
18:21:09	-13.5715
2017-08-14	-13.5715
2017-11-24	-13.5715
34683857",	-13.5715
5:18:08	-13.5715
6.00000000000003	-13.5715
arroz	-13.5715
1170190	-13.5715
reliab	-13.5715
Shampo	-13.5715
eceived	-13.5715
▁Consultin	-13.5715
-0230-3440",	-13.5715
-0554-0855	-13.5715
-0557566713"	-13.5715
-10472218"	-13.5715
-1214-0754",	-13.5715
-12561276	-13.5715
-1622-0897	-13.5715
-1680374375"	-13.5715
-1734708068",	-13.5715
-182774	-13.5715
-196902	-13.5715
-221384	-13.5715
-2236-5321	-13.5715
-2391-2692	-13.5715
-29613927	-13.5715
-39945368",	-13.5715
-40584442"	-13.5715
-42071831"	-13.5715
-4530070780"	-13.5715
-4644-2215-1343	-13.5715
-4938512258"	-13.5715
-56584246"	-13.5715
-588752",	-13.5715
-59367321"	-13.5715
-60623901",	-13.5715
-61143134	-13.5715
-61962014",	-13.5715
-64029311	-13.5715
-64059350",	-13.5715
-641113"	-13.5715
-64397750	-13.5715
-65747834	-13.5715
-69656747	-13.5715
-72957083",	-13.5715
-76429826	-13.5715
-7957-3362	-13.5715
-84591008",	-13.5715
-9466785779",	-13.5715
-94981437	-13.5715
-97797066	-13.5715
000118079	-13.5715
01476149"	-13.5715
05804045	-13.5715
09062927	-13.5715
10406094764	-13.5715
1042.48"	-13.5715
1069.54	-13.5715
11537289	-13.5715
12:54:37	-13.5715
1307.32	-13.5715
13366333	-13.5715
17941058",	-13.5715
18041002160370	-13.5715
18050302170448	-13.5715
18052202160306	-13.5715
18:07:35	-13.5715
2016-09-26	-13.5715
2017-01-22	-13.5715
2017-03-17	-13.5715
2017-03-24	-13.5715
2017-08-26	-13.5715
230.98"	-13.5715
297.28"	-13.5715
33432011",	-13.5715
38221615	-13.5715
38996533	-13.5715
483.48"	-13.5715
5340943003	-13.5715
57141996	-13.5715
68758715"	-13.5715
93119336"	-13.5715
ZLZOYH	-13.5715
custom	-13.5715
enchilada	-13.5715
kaldosa	-13.5715
1446.32	-13.5715
EntryvPackage	-13.5715
6.20000000000002	-13.5715
implifi	-13.5715
1542.96	-13.5715
"338.44	-13.5715
"633.21	-13.5715
"774.39	-13.5715
":"1620.0"	-13.5715
":"238.1	-13.5715
":"418.6	-13.5715
-0066002401",	-13.5715
-0078-1746"	-13.5715
-03894922	-13.5715
-0398-7780	-13.5715
-0407572465	-13.5715
-045573"	-13.5715
-0691812728",	-13.5715
-0748-6196-1185	-13.5715
-0792-4018-2339	-13.5715
-0904-5722"	-13.5715
-0925540817	-13.5715
-10735650	-13.5715
-10930642	-13.5715
-1174845837	-13.5715
-13261864"	-13.5715
-13579167",	-13.5715
-15102873	-13.5715
-15524983	-13.5715
-15627428"	-13.5715
-16070153	-13.5715
-1614-590	-13.5715
-17050858	-13.5715
-1800-3136	-13.5715
-18245811",	-13.5715
-1996982171"	-13.5715
-22723037"	-13.5715
-22820391	-13.5715
-2433422988	-13.5715
-24685553	-13.5715
-263991	-13.5715
-2672810029	-13.5715
-2680686590	-13.5715
-2729-7601-7428	-13.5715
-2747051899	-13.5715
-2815423987	-13.5715
-28891950	-13.5715
-2946-4873	-13.5715
-297168	-13.5715
-2998-9202	-13.5715
-33064804	-13.5715
-33552509"	-13.5715
-3445734924"	-13.5715
-36627818	-13.5715
-385453",	-13.5715
-3864935368	-13.5715
-38767868	-13.5715
-3937923114	-13.5715
-411751",	-13.5715
-42210-138075	-13.5715
-43882799	-13.5715
-44869657",	-13.5715
-45105370	-13.5715
-45652417	-13.5715
-4610-8355",	-13.5715
-4861971497"	-13.5715
-4968-2709	-13.5715
-51220755"	-13.5715
-5141-3921	-13.5715
-5167-9231	-13.5715
-5193-9904",	-13.5715
-52238895	-13.5715
-5248-1794"	-13.5715
-5271-1704	-13.5715
-54056791	-13.5715
-55407630"	-13.5715
-56124743	-13.5715
-56530931"	-13.5715
-59340438",	-13.5715
-59503682	-13.5715
-5974036398	-13.5715
-5989122102	-13.5715
-6241-3716	-13.5715
-62645945	-13.5715
-63290730	-13.5715
-6360-9142	-13.5715
-6400617367	-13.5715
-65646443",	-13.5715
-6645-0567-1250	-13.5715
-6711282741",	-13.5715
-6771-6052",	-13.5715
-67909171",	-13.5715
-6791-0519	-13.5715
-68478247	-13.5715
-68605174",	-13.5715
-688375"	-13.5715
-6890822525	-13.5715
-68918399	-13.5715
-69216165	-13.5715
-70404746",	-13.5715
-72982015	-13.5715
-73032250	-13.5715
-7306201148	-13.5715
-7365-4286	-13.5715
-73810989	-13.5715
-7412-4268"	-13.5715
-74394552	-13.5715
-7733-8111",	-13.5715
-7896-3295	-13.5715
-8036802781"	-13.5715
-80403622	-13.5715
-8079778441",	-13.5715
-8088007	-13.5715
-82306612",	-13.5715
-8282-9636",	-13.5715
-84791061	-13.5715
-8506-7453-3582	-13.5715
-86172828	-13.5715
-86915072"	-13.5715
-908053"	-13.5715
-9100-7446"	-13.5715
-91893693"	-13.5715
-92447290"	-13.5715
-9303-0700	-13.5715
-934013",	-13.5715
-94457374	-13.5715
-9539-5129-76	-13.5715
-96708661	-13.5715
-9684368712",	-13.5715
-9707-1453	-13.5715
-9778-2415"	-13.5715
-98278790	-13.5715
00233394	-13.5715
03-56381988	-13.5715
04126148"	-13.5715
05679283	-13.5715
0614402817	-13.5715
1-188357	-13.5715
1067.38	-13.5715
108-5969-8567-70	-13.5715
1169.79"	-13.5715
1255.89"	-13.5715
1340.42	-13.5715
1389.54	-13.5715
14033028	-13.5715
14483031"	-13.5715
14855085	-13.5715
16032102170360	-13.5715
1606.76	-13.5715
168-0625-9876-39	-13.5715
17:39:00	-13.5715
18040202170496	-13.5715
18040402170361	-13.5715
18050202160376	-13.5715
18051002160303	-13.5715
18051102160270	-13.5715
18051602160350	-13.5715
18061302170319	-13.5715
18185127	-13.5715
18353/102/70311	-13.5715
2016-09-20	-13.5715
2017-01-06	-13.5715
2017-01-29	-13.5715
2017-06-25	-13.5715
2017-11-21	-13.5715
2026-11-28	-13.5715
20:23:14	-13.5715
25228350613	-13.5715
2806084532"	-13.5715
28481960",	-13.5715
30523148",	-13.5715
33436903"	-13.5715
338.05",	-13.5715
35618136	-13.5715
38459449",	-13.5715
44100773813"	-13.5715
453.21"	-13.5715
47921794"	-13.5715
48027642	-13.5715
48146443"	-13.5715
5024755198	-13.5715
542-2608-0452-83	-13.5715
55084803	-13.5715
58527021490"	-13.5715
58554599	-13.5715
600-1928-5313-20	-13.5715
60000053668	-13.5715
62337688	-13.5715
65-6528-7014-30"	-13.5715
67405012"	-13.5715
68165054	-13.5715
682-4478-0774-37	-13.5715
71922574"	-13.5715
73051496"	-13.5715
74-1716-7186-45	-13.5715
76639808"	-13.5715
77435200319	-13.5715
77800972"	-13.5715
78416753	-13.5715
81080303	-13.5715
81281919",	-13.5715
85576091247	-13.5715
86307615	-13.5715
95637928",	-13.5715
995.64"	-13.5715
OQCRLBS	-13.5715
ultibanco	-13.5715
▁Clrnrk	-13.5715
▁SophiacRobinson	-13.5715
11490.7	-13.5715
1163.94	-13.5715
ZRLGXZD	-13.5715
1349.66	-13.5715
ourdavault	-13.5715
1050.57	-13.5715
aseifici	-13.5715
1127.96	-13.5715
▁Packagc	-13.5715
1660.06	-13.5715
497.76	-13.5715
1477.88	-13.5715
neaklrs	-13.5716
▁Piccadil	-13.5716
1446.84	-13.5716
"401.56	-13.5716
":"1101.8	-13.5716
":"312.9	-13.5716
-01006920	-13.5716
-0108558	-13.5716
-02586854	-13.5716
-03169137	-13.5716
-03356686	-13.5716
-04065796	-13.5716
-041476"	-13.5716
-04162689	-13.5716
-0471-2219-3283	-13.5716
-0486662119	-13.5716
-0497138131	-13.5716
-0573-5758-9080	-13.5716
-05922082	-13.5716
-0593-7178-7827"	-13.5716
-05986258	-13.5716
-0673-1572-2993	-13.5716
-0728-7669	-13.5716
-07816119	-13.5716
-0903175449	-13.5716
-09134326"	-13.5716
-09706857",	-13.5716
-1028-0744-3050	-13.5716
-10365708",	-13.5716
-1092-5289	-13.5716
-1182-6986-	-13.5716
-11879478	-13.5716
-1195-6754	-13.5716
-1243-2719-6835	-13.5716
-1288769697	-13.5716
-1311-8849	-13.5716
-136220",	-13.5716
-1421-6118",	-13.5716
-14729633	-13.5716
-15073573	-13.5716
-1558122823"	-13.5716
-16126419",	-13.5716
-163371",	-13.5716
-1660-4190"	-13.5716
-17629520"	-13.5716
-17778525	-13.5716
-1822-9380	-13.5716
-1930-7582"	-13.5716
-2005-4929"	-13.5716
-21941504	-13.5716
-21980453"	-13.5716
-22069305	-13.5716
-2250-7944	-13.5716
-2259-4704",	-13.5716
-2259833064",	-13.5716
-2266897464	-13.5716
-2364446303	-13.5716
-2399-9838	-13.5716
-24591834"	-13.5716
-2598777939	-13.5716
-2785280863",	-13.5716
-28365733	-13.5716
-2894082858	-13.5716
-3036088862	-13.5716
-30363428"	-13.5716
-309633	-13.5716
-3131427214	-13.5716
-31826149	-13.5716
-32100293	-13.5716
-32455515	-13.5716
-3265336596",	-13.5716
-3300-7537	-13.5716
-33834804	-13.5716
-33860943"	-13.5716
-34836406	-13.5716
-3486758047	-13.5716
-3547868120	-13.5716
-35662746",	-13.5716
-3569454	-13.5716
-36675226	-13.5716
-3933673763	-13.5716
-3986-1842	-13.5716
-43488408	-13.5716
-43598631	-13.5716
-43882834	-13.5716
-44610571	-13.5716
-44694044	-13.5716
-4509269392",	-13.5716
-4554-4302"	-13.5716
-46092077	-13.5716
-46704462	-13.5716
-4741-4836-7512	-13.5716
-4786-1145	-13.5716
-4846-8587-1919	-13.5716
-4846091509	-13.5716
-4998499644	-13.5716
-5107-3166",	-13.5716
-51926802"	-13.5716
-5289-7755",	-13.5716
-5391-7678	-13.5716
-5450-0393	-13.5716
-55090852	-13.5716
-5558388170	-13.5716
-56009559	-13.5716
-56461538",	-13.5716
-57436569"	-13.5716
-5767-0915",	-13.5716
-57809965	-13.5716
-5969-5685"	-13.5716
-5974-4179-9030	-13.5716
-60794398",	-13.5716
-6122-0944	-13.5716
-61483559	-13.5716
-62087635"	-13.5716
-62628991	-13.5716
-6274-5956	-13.5716
-639646",	-13.5716
-639772	-13.5716
-653063",	-13.5716
-65351757	-13.5716
-65651564"	-13.5716
-65677898	-13.5716
-6602-8521	-13.5716
-66575978"	-13.5716
-6669-9785	-13.5716
-6670-5842	-13.5716
-6715-1309	-13.5716
-67204876	-13.5716
-6731-3710-0450"	-13.5716
-6779-7304",	-13.5716
-67837820	-13.5716
-68358538"	-13.5716
-70068995"	-13.5716
-7039-9942-9094	-13.5716
-70565300	-13.5716
-7151927346	-13.5716
-7388875832	-13.5716
-74441592	-13.5716
-74993795	-13.5716
-75402554	-13.5716
-7779-9298-0025"	-13.5716
-7787233743	-13.5716
-7796-2068	-13.5716
-7870-4633	-13.5716
-81477932",	-13.5716
-81505784	-13.5716
-8346-5486	-13.5716
-8411277588	-13.5716
-8471-0966	-13.5716
-8640-9204-3364"	-13.5716
-86856707",	-13.5716
-87614742	-13.5716
-8923-9519	-13.5716
-8963-3025	-13.5716
-89793521	-13.5716
-89896311	-13.5716
-91229639	-13.5716
-913708	-13.5716
-9248-9278-7521	-13.5716
-93920703	-13.5716
-9505-8222-2987	-13.5716
-9567612081"	-13.5716
-96947642",	-13.5716
-9696303678	-13.5716
-98451125",	-13.5716
-98725770"	-13.5716
-99734696	-13.5716
-999181"	-13.5716
0.80000000000001	-13.5716
00012440	-13.5716
00024585	-13.5716
01509659	-13.5716
01717227	-13.5716
02066910"	-13.5716
03220573	-13.5716
03748532	-13.5716
04403653	-13.5716
061710130220258	-13.5716
07306723	-13.5716
08970144	-13.5716
09257108	-13.5716
09548947215	-13.5716
10389175430	-13.5716
1058909839"	-13.5716
1080685465"	-13.5716
109-3739-6884-01	-13.5716
1114.74"	-13.5716
11:13:31	-13.5716
1382.62	-13.5716
15367937"	-13.5716
1572.02	-13.5716
17704789"	-13.5716
18040502160302	-13.5716
18041402160201	-13.5716
18041802170465	-13.5716
18060602160364	-13.5716
18062002170346	-13.5716
18831563	-13.5716
2016-11-05	-13.5716
2016-11-08	-13.5716
2017-01-28	-13.5716
2017-02-12	-13.5716
2017-05-02	-13.5716
2017-07-04	-13.5716
2017-08-25	-13.5716
2017-09-22	-13.5716
2017-09-26	-13.5716
2017-10-01	-13.5716
2017-12-22	-13.5716
212.96"	-13.5716
220.86"	-13.5716
238.42"	-13.5716
275.17",	-13.5716
27840289613	-13.5716
2882458294"	-13.5716
29711475697	-13.5716
31648081",	-13.5716
31945193",	-13.5716
346-7412-6430-38	-13.5716
36831103121	-13.5716
37.5999999999999	-13.5716
371.67"	-13.5716
382.32"	-13.5716
39492113	-13.5716
4243786363	-13.5716
427.400000000001	-13.5716
4883311875	-13.5716
50839536027	-13.5716
51426060"	-13.5716
51606085499"	-13.5716
52101706	-13.5716
52653119283	-13.5716
5414287"	-13.5716
59851639	-13.5716
6,67511358"	-13.5716
60438811	-13.5716
6119999704	-13.5716
62005665769	-13.5716
630.05"	-13.5716
63797063151"	-13.5716
64-3078-4992-37	-13.5716
641-6321"	-13.5716
657-5552-1946-26	-13.5716
73036780	-13.5716
73295431	-13.5716
73430013"	-13.5716
746.56"	-13.5716
74784312506"	-13.5716
76183364964	-13.5716
793-8698-	-13.5716
79918603	-13.5716
80228-0101-77106	-13.5716
818.509.9463	-13.5716
81854626570"	-13.5716
82-1655-0160-81"	-13.5716
82181890	-13.5716
824-7001-4722-51	-13.5716
82774224	-13.5716
85150634	-13.5716
856.98"	-13.5716
8717511408	-13.5716
875.52"	-13.5716
8898220904	-13.5716
976-0817-0327-05	-13.5716
97781580	-13.5716
983.97"	-13.5716
WYNIPDQY	-13.5716
▁1805/0201	-13.5716
▁Florern	-13.5716
▁Hvadset	-13.5716
▁Selecvion	-13.5716
2026-11-21	-13.5716
"164.39	-13.5716
-10787081	-13.5716
-1203-9785	-13.5716
-1934-0447	-13.5716
-3025-5207	-13.5716
-77102430	-13.5716
1460.82	-13.5716
2362.25	-13.5716
1548.32	-13.5716
1187.05	-13.5716
1703.28	-13.5716
1104.25	-13.5716
1182.68	-13.5716
602.03	-13.5716
464.82",	-13.5716
toothbrush	-13.5716
▁Havris	-13.5716
"204.66	-13.5716
":"312.4	-13.5716
":"409.6	-13.5716
-00103977	-13.5716
-0064220601	-13.5716
-0456-8447	-13.5716
-04632324",	-13.5716
-0580203623",	-13.5716
-06633321	-13.5716
-0716-8168	-13.5716
-0743386698	-13.5716
-09857621	-13.5716
-10583905	-13.5716
-1106-4212	-13.5716
-13815034	-13.5716
-13907672"	-13.5716
-14177077	-13.5716
-1448-8462-8774"	-13.5716
-1451023463"	-13.5716
-15946303	-13.5716
-1603-0585-6582"	-13.5716
-1614-2991-9166	-13.5716
-16494042	-13.5716
-18244074",	-13.5716
-18609807	-13.5716
-19115243",	-13.5716
-19179544	-13.5716
-2031-6481"	-13.5716
-2035-7990	-13.5716
-2165-5731-7987"	-13.5716
-22828617"	-13.5716
-23158315	-13.5716
-23938438	-13.5716
-25631669	-13.5716
-2610990891	-13.5716
-266154	-13.5716
-272193",	-13.5716
-28046930	-13.5716
-2840-0122-8212	-13.5716
-2940-9699	-13.5716
-30562978	-13.5716
-30569224",	-13.5716
-31080294"	-13.5716
-31476403	-13.5716
-3191859834	-13.5716
-3228-3300	-13.5716
-3479688432	-13.5716
-36159337	-13.5716
-3637299084	-13.5716
-3660-0900	-13.5716
-369508"	-13.5716
-3827-8770-6424	-13.5716
-3985-8337",	-13.5716
-401176",	-13.5716
-41833312	-13.5716
-42349570	-13.5716
-43016563	-13.5716
-4373715783	-13.5716
-4477312827	-13.5716
-4490-4018-2602	-13.5716
-45757739	-13.5716
-46350698",	-13.5716
-4784-2198",	-13.5716
-48664796	-13.5716
-49946763	-13.5716
-50192186",	-13.5716
-5047573859",	-13.5716
-5127-2748	-13.5716
-5133817721	-13.5716
-5141-6184	-13.5716
-53771540	-13.5716
-54298726	-13.5716
-5659898	-13.5716
-59157667	-13.5716
-61110733	-13.5716
-6362-8400	-13.5716
-639567	-13.5716
-65128509	-13.5716
-65193374	-13.5716
-655622",	-13.5716
-657185"	-13.5716
-6670-2997	-13.5716
-66766703	-13.5716
-67772060	-13.5716
-68512053	-13.5716
-7171-0553"	-13.5716
-7418-8942	-13.5716
-7769288842	-13.5716
-7773519737	-13.5716
-782308",	-13.5716
-7978-9484-6268	-13.5716
-80760852	-13.5716
-8106-9849-2301	-13.5716
-81846915"	-13.5716
-8284723868	-13.5716
-829134",	-13.5716
-83960999	-13.5716
-8421-9505-7829"	-13.5716
-85442992"	-13.5716
-8634-8	-13.5716
-86364806	-13.5716
-87434735",	-13.5716
-8763-2747	-13.5716
-878388",	-13.5716
-8919-2644	-13.5716
-89222262"	-13.5716
-9019134391	-13.5716
-90523266	-13.5716
-913250	-13.5716
-92046257	-13.5716
-9301-7489	-13.5716
-9375-2992-0961	-13.5716
-9512-4694	-13.5716
-95187597	-13.5716
-9554908365",	-13.5716
-95771733	-13.5716
-96553522	-13.5716
-975861",	-13.5716
-99823756",	-13.5716
0007/0112423	-13.5716
004-864	-13.5716
02983290	-13.5716
03151526	-13.5716
041-8613-6190-99	-13.5716
05788410755"	-13.5716
072-6456	-13.5716
07242402131	-13.5716
0892438	-13.5716
1009.43	-13.5716
1029.43	-13.5716
1045.42	-13.5716
1068.74"	-13.5716
10977727	-13.5716
1130.73	-13.5716
1171.24"	-13.5716
119-6401-5071-28	-13.5716
1297.98"	-13.5716
1395.66	-13.5716
1434.86	-13.5716
1485.28	-13.5716
153.93",	-13.5716
1577.57"	-13.5716
1637.42"	-13.5716
1651.14	-13.5716
1655.22"	-13.5716
1700.31	-13.5716
17849988	-13.5716
1790.95	-13.5716
18:15:00	-13.5716
1900540659	-13.5716
2016-12-09	-13.5716
2016-12-13	-13.5716
2016-12-19	-13.5716
2016-12-20	-13.5716
2017-01-08	-13.5716
2017-01-14	-13.5716
2017-02-14	-13.5716
2017-04-15	-13.5716
2017-07-02	-13.5716
2017-09-19	-13.5716
2017-10-07	-13.5716
2017-10-21	-13.5716
2017-12-12	-13.5716
2017-12-17	-13.5716
2019-02-27	-13.5716
2019840709	-13.5716
2049.48	-13.5716
21118567167	-13.5716
2198.46	-13.5716
232-8157-9096-03	-13.5716
2326029216	-13.5716
2353.62	-13.5716
240.21",	-13.5716
240.82"	-13.5716
24745010220"	-13.5716
2543700293"	-13.5716
25892969"	-13.5716
2635.22"	-13.5716
2770.11"	-13.5716
2819.12"	-13.5716
291.06"	-13.5716
291.84",	-13.5716
2936.03	-13.5716
2973.61"	-13.5716
3005.35	-13.5716
3457.05	-13.5716
359469086	-13.5716
3641.31	-13.5716
3747.29	-13.5716
38907007003	-13.5716
392-2400	-13.5716
42209830906"	-13.5716
445-5164-8328-77	-13.5716
469.44"	-13.5716
48399824013"	-13.5716
50011336",	-13.5716
546.06"	-13.5716
54786041578"	-13.5716
55216680370	-13.5716
56,69283"	-13.5716
5638742316	-13.5716
56555588341	-13.5716
579-7197-5187-35	-13.5716
5879203707	-13.5716
61290171066	-13.5716
61427258469"	-13.5716
63991484",	-13.5716
647-4308-7901-75	-13.5716
66-0579-8846-03"	-13.5716
6911334101261	-13.5716
705-3022-5477-05	-13.5716
70961709",	-13.5716
72686542262	-13.5716
727.86"	-13.5716
801.98"	-13.5716
82258406	-13.5716
877-6713-1787-40	-13.5716
89028640101"	-13.5716
8934467641"	-13.5716
9-3086-94	-13.5716
90545798	-13.5716
9239995785	-13.5716
9305129468"	-13.5716
9514268511	-13.5716
9555047302026	-13.5716
96813350	-13.5716
97918622698	-13.5716
98245243	-13.5716
99141190",	-13.5716
993.72	-13.5716
DDOYPMVO	-13.5716
PSFTLGCV	-13.5716
avocado	-13.5716
cheeseburger	-13.5716
▁1154.26	-13.5716
▁20:83:11	-13.5716
▁773-0606	-13.5716
▁Acccss	-13.5716
▁Gvtierrez	-13.5716
▁Keybvard	-13.5716
▁Vivit	-13.5716
▁malacca	-13.5716
▁shouyu	-13.5716
2018-02-10	-13.5716
2275.01	-13.5716
"167.98	-13.5716
-44601647	-13.5716
-9966-31	-13.5716
1143.81	-13.5716
1384.82	-13.5716
1466.04	-13.5716
1927.01	-13.5716
2822.54	-13.5716
2930.89	-13.5716
IndoorvPlant	-13.5716
▁Avdit	-13.5716
▁Rentvl	-13.5716
3355.17	-13.5716
1278.01	-13.5716
1660.34	-13.5716
1002.41	-13.5716
772.93	-13.5716
1039.55	-13.5716
-1402935	-13.5716
00000000401	-13.5716
034-9177	-13.5716
065356920144	-13.5716
6179661387	-13.5716
lemonader	-13.5716
▁828-3191	-13.5716
▁biryani	-13.5716
▁chorizo	-13.5716
▁cochinita	-13.5716
▁matjeshering	-13.5716
4/06/20	-13.5716
"259.48	-13.5716
"400.99	-13.5716
":"394.3	-13.5716
":"498.5"	-13.5716
,1768630,"	-13.5716
-0214351408	-13.5716
-0332906423	-13.5716
-07147137	-13.5716
-0800-5882-7292-	-13.5716
-0973613831	-13.5716
-2200-8290-3178"	-13.5716
-24835962	-13.5716
-2642-8979-6583	-13.5716
-29621697	-13.5716
-334594",	-13.5716
-34605707	-13.5716
-37718467	-13.5716
-472995"	-13.5716
-48306645	-13.5716
-4857-7047	-13.5716
-503221",	-13.5716
-525692"	-13.5716
-53543841	-13.5716
-56395595	-13.5716
-584068",	-13.5716
-6164619225	-13.5716
-624312"	-13.5716
-651628",	-13.5716
-65480155	-13.5716
-6748-0858	-13.5716
-67707225	-13.5716
-7134-6285	-13.5716
-74306591	-13.5716
-784957"	-13.5716
-7855226143"	-13.5716
-838677"	-13.5716
-84665361	-13.5716
-9063-7864-2702	-13.5716
-918782"	-13.5716
-94619069"	-13.5716
0134709863	-13.5716
03-895699823	-13.5716
0341434733	-13.5716
036-2233-9209-70	-13.5716
03970100943	-13.5716
0626245	-13.5716
06698808	-13.5716
08311483439	-13.5716
0969591422	-13.5716
09893912178	-13.5716
103-4632-0510-33	-13.5716
1063.48	-13.5716
1063.61	-13.5716
1119.07"	-13.5716
1119.68"	-13.5716
1138103789	-13.5716
1175.08"	-13.5716
1276.33	-13.5716
1334.12"	-13.5716
1471.23"	-13.5716
1520.67	-13.5716
1522060547"	-13.5716
1563.42	-13.5716
1566.81	-13.5716
1583.58"	-13.5716
16031202170432	-13.5716
1628.36"	-13.5716
1754.94"	-13.5716
1778.72"	-13.5716
1781714461	-13.5716
1790.08"	-13.5716
1796.94	-13.5716
1808.14"	-13.5716
1817.05"	-13.5716
182-7316-2438-37	-13.5716
1837.37	-13.5716
1994.69	-13.5716
2017-01-23	-13.5716
2017-02-24	-13.5716
2017-09-11	-13.5716
2017-12-25	-13.5716
206.05",	-13.5716
2066.94	-13.5716
2178.14	-13.5716
2193.58	-13.5716
22564501357	-13.5716
2337.82	-13.5716
23593734	-13.5716
2367.59"	-13.5716
2419.13"	-13.5716
252.87",	-13.5716
2553.61	-13.5716
267.400000000001	-13.5716
2701.84	-13.5716
27237132835	-13.5716
2737.91"	-13.5716
2775.08	-13.5716
2798.55	-13.5716
28-9293-5739-95"	-13.5716
297-6179-0095-86	-13.5716
2994.05	-13.5716
325.62",	-13.5716
384.49",	-13.5716
4074.63	-13.5716
41150696	-13.5716
4115440971	-13.5716
42140946478	-13.5716
4240039991	-13.5716
449-6402-0285-04	-13.5716
500224314	-13.5716
5039745892	-13.5716
5797119030	-13.5716
5816079063"	-13.5716
588.82"	-13.5716
59959141823	-13.5716
62080169179	-13.5716
6408631909	-13.5716
64824525136"	-13.5716
67479276	-13.5716
7065793"	-13.5716
746-9566-2614-71	-13.5716
748418862	-13.5716
749.11"	-13.5716
76825372699	-13.5716
77811340	-13.5716
7894418343	-13.5716
8.20000000000005	-13.5716
8069573747	-13.5716
81225919741"	-13.5716
8388202373	-13.5716
86355092	-13.5716
8907113840"	-13.5716
90426121698	-13.5716
905-7585-2467-88	-13.5716
907-8111-0901-28	-13.5716
92761197540"	-13.5716
93548074643"	-13.5716
960.77"	-13.5716
▁254-328-3371	-13.5716
▁486-848-6180	-13.5716
▁597-0906	-13.5716
▁713-922-0340	-13.5716
▁Wilscn	-13.5716
▁cantonese	-13.5716
▁handycutter	-13.5716
▁nitril	-13.5716
"588.83	-13.5717
11:20:04	-13.5717
2499.03	-13.5717
3235.47	-13.5717
"123.43	-13.5717
1085.45	-13.5717
1125.83	-13.5717
2003.76	-13.5717
2361.06	-13.5717
3254.74	-13.5717
683.81"	-13.5717
"105.19	-13.5717
1099.53	-13.5717
1147.98	-13.5717
1394.43	-13.5717
1401.26	-13.5717
1867.39	-13.5717
1909.89	-13.5717
216.88"	-13.5717
3090.98	-13.5717
-918633-	-13.5717
1077.76	-13.5717
1253.63	-13.5717
1761.35	-13.5717
1467.28	-13.5717
2176.14	-13.5717
1234.76	-13.5717
1290.32	-13.5717
2090.77	-13.5717
03-77343462	-13.5717
1035.64	-13.5717
vDeansgate	-13.5717
▁070-128-5066	-13.5717
▁138-805-1392	-13.5717
▁417-580-4826"	-13.5717
▁421689-082,"	-13.5717
▁468-500-7104	-13.5717
▁472-405-5789	-13.5717
▁819-342-8731"	-13.5717
▁939-866-7082	-13.5717
▁942-728-6871	-13.5717
▁944-134-7251	-13.5717
▁Fllght	-13.5717
1141.57	-13.5717
766.53	-13.5717
1141.38	-13.5717
763.84	-13.5717
boutiq	-13.5717
▁Slreet	-13.5717
001-539829	-13.5717
016-7574666	-13.5717
017-60567770	-13.5717
03-56127718	-13.5717
03-79681818	-13.5717
0341434722	-13.5717
07-3886830	-13.5717
1.2000-0240	-13.5717
1020.98"	-13.5717
3123.31"	-13.5717
34623604	-13.5717
4-233-2785"	-13.5717
472-5379	-13.5717
786-275-6944	-13.5717
Ieceipts	-13.5717
RHSZR	-13.5717
VAYJVMY	-13.5717
hesterfield	-13.5717
tameem	-13.5717
ventIres	-13.5717
▁049-742-2228"	-13.5717
▁111-946-3942	-13.5717
▁128-061-0081",	-13.5717
▁181-785-8072	-13.5717
▁333-9750	-13.5717
▁585-521-0831	-13.5717
▁651-111-6513"	-13.5717
▁781-620-1686	-13.5717
▁872-575-8400"	-13.5717
▁900-844-4859"	-13.5717
▁907-210-5792	-13.5717
▁982-682-2695	-13.5717
▁contento	-13.5717
▁lollipop	-13.5717
▁pescado	-13.5717
▁shorba	-13.5717
7/07/2	-13.5717
287.82	-13.5717
603-62591420	-13.5717
▁Broadwac	-13.5717
▁Ovtlet	-13.5717
$91.62</	-13.5717
(516)561-3556	-13.5717
-01525660	-13.5717
-0208-0715	-13.5717
-188839	-13.5717
-2622-7536	-13.5717
-28923616	-13.5717
-5480-4068	-13.5717
-8068-5323	-13.5717
-81090352	-13.5717
-8762-5235-0308"	-13.5717
-92849835	-13.5717
-9416-5330-2948	-13.5717
-96944260	-13.5717
000000416405	-13.5717
000000416993	-13.5717
003-1220615	-13.5717
003500055500	-13.5717
009725614790	-13.5717
012-3163818	-13.5717
0122648835	-13.5717
01682691	-13.5717
03-54127718	-13.5717
03-78870693	-13.5717
1010155279"	-13.5717
119-8022-3884-20	-13.5717
2012-0011	-13.5717
27795975	-13.5717
29497551	-13.5717
312-266-6444	-13.5717
464-3404-1543-59	-13.5717
56343069	-13.5717
62162963	-13.5717
66862338680"	-13.5717
922-0913-0211-83	-13.5717
Beceip	-13.5717
LAUNCH	-13.5717
LOYAL	-13.5717
abbaye	-13.5717
▁(#095)	-13.5717
▁006-676-6013"	-13.5717
▁017-737-4940",	-13.5717
▁028-095-8590	-13.5717
▁028-402-8704	-13.5717
▁039-144-5540	-13.5717
▁053-934-9955",	-13.5717
▁090-308-0076	-13.5717
▁239-687-4491	-13.5717
▁320-224-3262	-13.5717
▁403-564-0921"	-13.5717
▁435-501-9456"	-13.5717
▁443-177-2116",	-13.5717
▁453-833-3902"	-13.5717
▁464-948-2338	-13.5717
▁635-083-0024	-13.5717
▁655-533-3239	-13.5717
▁659-426-2173	-13.5717
▁711-430-5709"	-13.5717
▁741-935-6338	-13.5717
▁859586"	-13.5717
▁886-882-5425	-13.5717
▁924105	-13.5717
▁930-474-2340"	-13.5717
▁936-689-0644"	-13.5717
▁Grasvmarket	-13.5717
▁Kitcvenware	-13.5717
▁ThernTerrace	-13.5717
▁toumnai	-13.5717
rewery	-13.5717
(215)922-3427	-13.5717
-02282483	-13.5717
-1574-4173	-13.5717
-20564921	-13.5717
-2291-0749	-13.5717
-2468-9919	-13.5717
-30448646	-13.5717
-4134-2288	-13.5717
-4713-6672	-13.5717
-51388392	-13.5717
-6248-8744	-13.5717
-76313131	-13.5717
-9024-9152	-13.5717
000394528745	-13.5717
001169342944	-13.5717
001869250560	-13.5717
005625257729	-13.5717
11951581	-13.5717
603-62692420	-13.5717
91842511	-13.5717
95204955	-13.5717
DELUXE	-13.5717
LIMITED	-13.5717
Oitchen	-13.5717
TabletlCase	-13.5717
eIample	-13.5717
whole	-13.5717
▁Collectvve	-13.5717
▁Confir	-13.5717
▁Encrgy	-13.5717
▁LothiancRoad	-13.5717
▁NovacTrading	-13.5717
0019458538736	-13.5717
▁"2024-06-04	-13.5717
▁1050.97	-13.5717
▁1084.97	-13.5717
▁1449.44	-13.5717
▁1671.07	-13.5717
▁2151.81	-13.5717
▁2189.49	-13.5717
▁2263.47	-13.5717
▁2306.61	-13.5717
▁2484.19	-13.5717
▁2599.22	-13.5717
▁2627.96	-13.5717
▁2782.95	-13.5717
19:10:00	-13.5717
"216.33	-13.5717
"268.31	-13.5717
$21.05"	-13.5717
$213.9"	-13.5717
$400.61</	-13.5717
$54.7"	-13.5717
$98.24"	-13.5717
%=$7.	-13.5717
,02/28/2026	-13.5717
-0119-4574	-13.5717
-02425844	-13.5717
-0414-8252	-13.5717
-0662-4470	-13.5717
-08622245	-13.5717
-0898-1400	-13.5717
-0988-2614	-13.5717
-107258",	-13.5717
-11637082	-13.5717
-1350-2996	-13.5717
-17597249	-13.5717
-2036-5343-	-13.5717
-2196-3796	-13.5717
-2454103725"	-13.5717
-26277699	-13.5717
-27363503	-13.5717
-2747-7853	-13.5717
-2857-1593-1833	-13.5717
-2911-7835	-13.5717
-34259756	-13.5717
-379377",	-13.5717
-38107683	-13.5717
-4121-6932	-13.5717
-4500-9920	-13.5717
-45157758	-13.5717
-4751-4719-1378	-13.5717
-4774-8982	-13.5717
-52867801	-13.5717
-5599-6930-7434	-13.5717
-56659134	-13.5717
-60010034	-13.5717
-6627-9017-8501	-13.5717
-7071-0357	-13.5717
-72126809	-13.5717
-7468-0333-5003	-13.5717
-7669-7451	-13.5717
-79564384	-13.5717
-81317658	-13.5717
-82076221	-13.5717
-8218-2273	-13.5717
-83239052	-13.5717
-8575-7987	-13.5717
-870733"	-13.5717
-87971851	-13.5717
-9006-3554-9277	-13.5717
-9020-9360	-13.5717
-920865"	-13.5717
-9228-7645	-13.5717
-9301-8876	-13.5717
-9368-6819-	-13.5717
-9602-2363	-13.5717
-97638042	-13.5717
-99329898	-13.5717
-999625"	-13.5717
000121653	-13.5717
000129863680	-13.5717
000154042368	-13.5717
000220499968	-13.5717
000549584896	-13.5717
000689004544	-13.5717
000945983488	-13.5717
001260458-	-13.5717
001334708408	-13.5717
001451637-	-13.5717
001534702408	-13.5717
001685499904	-13.5717
001880666112	-13.5717
001930047488	-13.5717
002017394688	-13.5717
002309592-	-13.5717
002693074-	-13.5717
00534185	-13.5717
0093353618	-13.5717
01407545	-13.5717
02389-673	-13.5717
03-55250588	-13.5717
03-60570314	-13.5717
03-62062378	-13.5717
0390542829	-13.5717
04876-786	-13.5717
08091184	-13.5717
08737-363	-13.5717
09-690-7329"	-13.5717
1-632-1946	-13.5717
1002.33"	-13.5717
1030.46"	-13.5717
1055.17"	-13.5717
1068.46"	-13.5717
1088.1"	-13.5717
1091.31"	-13.5717
1116258-	-13.5717
1118258-	-13.5717
1125830-	-13.5717
113-4034-7929-82	-13.5717
1186.55"	-13.5717
1198447-	-13.5717
123.89",	-13.5717
126926-	-13.5717
12700973225	-13.5717
12:50:51	-13.5717
13501181422	-13.5717
136-6381-6198-13	-13.5717
1368.71"	-13.5717
137-4684-4523-56	-13.5717
1370.89	-13.5717
13:09:37	-13.5717
13:34:29	-13.5717
140.77",	-13.5717
1442.26"	-13.5717
14551/1582555	-13.5717
1517.67"	-13.5717
1523.93"	-13.5717
1590.94"	-13.5717
1633.64"	-13.5717
1699.53"	-13.5717
174.03",	-13.5717
18041702170490	-13.5717
183.72"	-13.5717
1895.25	-13.5717
18:12:32	-13.5717
1945.02"	-13.5717
2000070000010	-13.5717
2002.98"	-13.5717
2012-0013	-13.5717
2017-05-21	-13.5717
2017-08-27	-13.5717
20:04:08	-13.5717
210414650	-13.5717
23082241	-13.5717
25366263	-13.5717
2918.74"	-13.5717
2937.11"	-13.5717
2984.49	-13.5717
3,0-4039	-13.5717
310-1108-15"	-13.5717
3278.55	-13.5717
3511032318	-13.5717
3524.52"	-13.5717
38287750519	-13.5717
397-4430-6647-45	-13.5717
414.12"	-13.5717
43597154180	-13.5717
470-7715-3577-75	-13.5717
47214401	-13.5717
47552192	-13.5717
47945078	-13.5717
4898.02"	-13.5717
4974052854569	-13.5717
4974052854583	-13.5717
5.05.2024	-13.5717
519537-	-13.5717
57978423	-13.5717
6018840126306675	-13.5717
603-62592420	-13.5717
620500604401	-13.5717
62685670215	-13.5717
653.32"	-13.5717
65352989	-13.5717
667.09"	-13.5717
675.91"	-13.5717
6992517113"	-13.5717
69994417	-13.5717
8-9367"	-13.5717
835643-	-13.5717
860871-	-13.5717
894996-	-13.5717
91.5999999999999	-13.5717
91683488	-13.5717
9555221303467	-13.5717
9555559040027	-13.5717
9556001217233	-13.5717
966752-	-13.5717
973.773.7100	-13.5717
>$130.85</	-13.5717
EOTQJNNSJ	-13.5717
EdwardcYoung	-13.5717
FIRST	-13.5717
QJXGUUYRTJS	-13.5717
arszawa	-13.5717
courpad	-13.5717
mailBexaple	-13.5717
measurement	-13.5717
ordwwd	-13.5717
oulouse	-13.5717
ourgogne	-13.5717
receBpts	-13.5717
shgecafe	-13.5717
swiped	-13.5717
unewalde	-13.5717
uthorization	-13.5717
whitc	-13.5717
witzerland	-13.5717
wolza	-13.5717
▁"$101.83"	-13.5717
▁#42210-0	-13.5717
▁029-629-7438	-13.5717
▁06/11/2026	-13.5717
▁084-813-1464	-13.5717
▁1035.62	-13.5717
▁1087.16	-13.5717
▁1115.43	-13.5717
▁112.78"	-13.5717
▁1123.87	-13.5717
▁1157.94	-13.5717
▁124-612-0807"	-13.5717
▁125-341-4835",	-13.5717
▁1255.64	-13.5717
▁1257.42	-13.5717
▁130-766-6743	-13.5717
▁131-335-9329",	-13.5717
▁138,340-998,"	-13.5717
▁1426.03	-13.5717
▁1457.82	-13.5717
▁14:05:00	-13.5717
▁1518.09	-13.5717
▁1599.9	-13.5717
▁1614.49	-13.5717
▁1635.86	-13.5717
▁17:33:00	-13.5717
▁17:58:00	-13.5717
▁1916.03	-13.5717
▁1924.71	-13.5717
▁1970.05	-13.5717
▁1971.05	-13.5717
▁2026-06-16	-13.5717
▁2154.36	-13.5717
▁219-084-1648	-13.5717
▁23.02.2	-13.5717
▁2333.84	-13.5717
▁2642.62	-13.5717
▁2682.69	-13.5717
▁269.05</	-13.5717
▁297-924-6257	-13.5717
▁3/1378	-13.5717
▁3044.53	-13.5717
▁3072.62	-13.5717
▁3165.14	-13.5717
▁344-711-9009	-13.5717
▁393-698-8739	-13.5717
▁394-794-9752	-13.5717
▁401-064-2570"	-13.5717
▁440-720-4410	-13.5717
▁500-613-0530	-13.5717
▁508-191-2733",	-13.5717
▁531-256-4222",	-13.5717
▁543-0544	-13.5717
▁585-518-1108",	-13.5717
▁668-547-1522"	-13.5717
▁671-632-0484"	-13.5717
▁678-893-5541	-13.5717
▁728-630-6248	-13.5717
▁770-579-2949	-13.5717
▁776-513-6576",	-13.5717
▁789-864-8869"	-13.5717
▁811.3</	-13.5717
<	-14.5478
«	-14.5714
‘	-14.5715
“	-14.5716
©	-14.5717
€	-14.5717
