<unk>	0
<s>	0
</s>	0
":"	-2.41654
","	-2.61365
type	-3.5351
":{"@	-4.01885
id	-4.01987
":"#	-4.04848
price	-4.12176
item	-4.13867
name	-4.1423
.	-4.19647
,	-4.20033
value	-4.27101
Value	-4.28192
Quantit	-4.54303
address	-4.58099
","@	-4.59685
▁	-4.61215
Property	-4.65739
>	-4.74312
▁"	-4.80244
"},{"@	-4.85673
"},"	-4.86064
unit	-4.9433
-	-4.96344
ency	-5.03679
Offer	-5.05469
Curr	-5.06292
Speci	-5.06573
fication	-5.06606
s	-5.06853
order	-5.12254
y	-5.14697
><	-5.19158
offer	-5.21682
Price	-5.2182
Text	-5.22865
ative	-5.23452
Address	-5.24343
http	-5.28939
://	-5.2894
:	-5.30976
":	-5.31934
seller	-5.43864
</	-5.45819
ma	-5.48595
org	-5.5037
sche	-5.51016
S	-5.54738
ed	-5.56108
customer	-5.58998
-1	-5.63717
td	-5.65287
Unit	-5.66657
/	-5.74168
},{"@	-5.76931
":[{"@	-5.78605
P	-5.80889
▁<	-5.81962
"	-5.82644
-2	-5.91038
ible	-5.91939
elig	-5.92264
reference	-5.93124
":1}}	-5.9371
sku	-5.94354
p	-5.94698
example	-5.99126
_	-5.99356
ity	-6.00266
Code	-6.01267
payment	-6.01962
ostal	-6.02066
Local	-6.02142
Region	-6.02179
street	-6.02307
postal	-6.02325
Country	-6.0249
Payment	-6.0407
email	-6.04887
total	-6.08026
",	-6.0835
Order	-6.12693
Product	-6.15816
@	-6.16313
tatus	-6.20205
▁=	-6.22868
a	-6.2429
},"	-6.2632
-3	-6.31939
▁line	-6.36401
Service	-6.39679
></	-6.40503
ation	-6.4057
Organiz	-6.43192
="	-6.45017
▁-	-6.45195
GBP	-6.48628
EUR	-6.49048
Due	-6.51014
▁Number	-6.51492
1	-6.51635
delivery	-6.52497
INR	-6.53706
th	-6.54882
▁Street	-6.55112
tax	-6.60362
SGD	-6.61686
line	-6.61909
NZD	-6.61985
▁Amount	-6.62096
USD	-6.64147
AUD	-6.64365
CAD	-6.64752
-4	-6.66464
tr	-6.67701
com	-6.68595
Method	-6.7322
▁ID	-6.74456
telephone	-6.74487
▁{	-6.74842
▁}	-6.7513
Tax	-6.75365
▁order	-6.78332
Date	-6.81067
ER	-6.86307
▁Mode	-6.86353
Delivery	-6.86424
ID	-6.86554
▁Name	-6.86747
accepted	-6.86797
▁Road	-6.87129
▁Type	-6.87298
Number	-6.87705
graph	-6.87743
{"@	-6.87747
context	-6.88003
ident	-6.88015
dditional	-6.88176
Customer	-6.88247
ifier	-6.8832
Register	-6.88453
]	-6.88509
]}	-6.8863
,"	-6.8865
Subtotal	-6.88915
Cashier	-6.89005
Receipt	-6.891
[	-6.89341
"}}	-6.90248
url	-6.9025
ROR	-6.90359
▁1	-6.93983
t	-6.96596
0	-6.9885
quantity	-7.02167
▁x	-7.03531
qty	-7.03571
T	-7.05949
shipper	-7.09863
Person	-7.11697
O	-7.1278
":2	-7.14359
":1}	-7.15083
I	-7.16168
-5	-7.19763
-1"},{"@	-7.22
Processing	-7.23721
-------------	-7.24847
3	-7.25709
A	-7.26383
5	-7.29113
▁2	-7.29229
▁</	-7.30347
2	-7.33135
_1_	-7.33469
8	-7.34393
4	-7.3573
7	-7.38928
▁S	-7.38935
▁5	-7.39952
Discount	-7.40572
Card	-7.41964
Singapore	-7.42534
Credit	-7.43518
New	-7.45686
Complete	-7.46925
6	-7.48967
)	-7.52024
e	-7.52894
provider	-7.53677
▁GBP	-7.55005
B	-7.55616
AL	-7.55736
▁EUR	-7.56418
AIN	-7.57013
UNC	-7.57152
9	-7.57314
ERT	-7.5737
status	-7.57566
In	-7.59999
▁8	-7.60131
▁INR	-7.61359
FAT	-7.62251
▁totals	-7.62379
_2_	-7.62755
"}	-7.63573
store	-7.66587
Auckland	-7.67802
Pickup	-7.68424
▁Bundle	-7.68481
h	-7.68493
▁Kingdom	-7.68889
▁Zealand	-7.70606
-2"},{"@	-7.708
▁Date	-7.72618
▁States	-7.74774
▁NZD	-7.75236
":3	-7.75598
C	-7.75762
▁9	-7.76812
Parcel	-7.77432
▁3	-7.78516
Tracking	-7.79809
billing	-7.8016
▁CAD	-7.80372
▁AUD	-7.8071
▁4	-7.8077
▁USD	-7.80806
▁SGD	-7.81315
2","	-7.81904
6","	-7.81943
co	-7.83062
n	-7.8413
direct	-7.84145
KU	-7.86399
8","	-7.86579
orders	-7.88424
r	-7.89314
Shipped	-7.89898
▁total	-7.9032
4","	-7.90335
PRD	-7.91701
Z	-7.93523
Q	-7.93717
table	-7.94808
▁Global	-7.94863
M	-7.9508
7","	-7.95904
3","	-7.96223
Document	-7.96863
l	-7.97207
▁A	-7.97392
D	-7.97818
body	-7.99195
section	-7.99852
▁0	-8.0045
head	-8.0061
▁6	-8.01101
9","	-8.01243
subtotal	-8.01361
5","	-8.02052
▁H	-8.02188
;	-8.05115
L	-8.05274
totals	-8.05779
team	-8.07776
support	-8.07781
items	-8.07845
▁New	-8.07889
1>	-8.08321
Ireland	-8.08395
▁Notice	-8.0921
▁/	-8.09216
Central	-8.09434
▁Avenue	-8.09604
E	-8.10353
▁Receipt	-8.10503
":4	-8.10717
Australia	-8.10824
-3"},{"@	-8.10959
Canada	-8.1119
1","	-8.11348
-2"}],"	-8.11402
India	-8.1202
Wellington	-8.12022
▁Unit	-8.12056
_3_	-8.12192
26	-8.13555
▁payment	-8.13732
--------------	-8.1486
▁Express	-8.15499
▁tax	-8.15622
▁Code	-8.15989
-1"}],"	-8.16477
global	-8.17429
▁7	-8.182
▁Singapore	-8.18867
N	-8.19189
and	-8.23518
POS	-8.24548
>2</	-8.2496
▁Summary	-8.25276
o	-8.25589
R	-8.26003
▁delivery	-8.26169
▁Set	-8.2795
>1</	-8.28217
REG	-8.28759
ing	-8.28986
▁Co	-8.2951
F	-8.29784
G	-8.30721
▁20	-8.34047
▁C	-8.35067
▁I	-8.35556
Leinster	-8.35802
England	-8.35892
Dublin	-8.36773
13	-8.36998
17	-8.37149
on	-8.37259
▁Australia	-8.38229
▁Service	-8.38329
V	-8.38338
NZ	-8.38352
H	-8.38679
15	-8.3905
K	-8.40135
shop	-8.40757
CA	-8.40949
at	-8.4109
14	-8.41586
▁P	-8.4219
+1	-8.42324
Cork	-8.42637
Munster	-8.42691
▁Store	-8.43321
11	-8.43349
Delivered	-8.43652
▁G	-8.44313
▁and	-8.44429
d	-8.44804
▁B	-8.45405
me	-8.45707
▁&	-8.4595
18	-8.46101
24	-8.46204
▁T	-8.4641
12	-8.47356
▁date	-8.47688
▁M	-8.48395
Bank	-8.48567
▁Pack	-8.48736
J	-8.48851
ty	-8.49039
▁Confirmation	-8.49645
m	-8.50405
19	-8.51279
▁D	-8.51642
▁subtotal	-8.51692
▁Direct	-8.5181
▁L	-8.51875
▁Invoice	-8.52375
▁E	-8.52494
contact	-8.53521
▁Pay	-8.53622
Online	-8.54114
▁no	-8.54257
▁contact	-8.54963
16	-8.55039
▁phone	-8.55067
05	-8.55268
▁O	-8.55388
Total	-8.55503
08	-8.55657
_4_	-8.55978
er	-8.56025
25	-8.56074
09	-8.56663
06	-8.59352
43	-8.59883
,1	-8.60147
21	-8.60455
62	-8.60926
le	-8.61257
29	-8.61562
10	-8.61803
▁email	-8.61896
phone	-8.62193
▁Card	-8.62256
▁South	-8.62454
▁Subscription	-8.62559
checkout	-8.62583
▁Plan	-8.62686
":5	-8.63384
i	-8.64168
field	-8.64437
▁Network	-8.64501
35	-8.64661
At	-8.64871
▁placed	-8.65181
34	-8.65252
CUST	-8.65294
Advance	-8.65413
20	-8.66195
tracking	-8.66196
22	-8.66568
method	-8.66883
Transfer	-8.67319
MEM	-8.67474
BUYER	-8.67525
placed	-8.67531
▁with	-8.68202
▁R	-8.68322
▁is	-8.68737
curr	-8.6879
CLI	-8.6888
al	-8.69063
By	-8.69437
USR	-8.69588
U	-8.69684
▁Customer	-8.69836
"}],"	-8.69937
ello	-8.69984
dateti	-8.70203
Y	-8.70355
W	-8.70407
number	-8.70855
▁You	-8.71299
lines	-8.71336
▁York	-8.71687
▁section	-8.72176
-3"}],"	-8.72438
eller	-8.72475
,2	-8.73141
-5"}],"	-8.73513
▁class	-8.73704
▁K	-8.74233
▁[	-8.74272
01	-8.74435
-4"}],"	-8.74698
▁N	-8.74802
-4"},{"@	-8.7482
56	-8.74924
▁U	-8.75001
23	-8.75107
c	-8.75362
▁F	-8.76322
▁Subject	-8.76925
03	-8.77688
32	-8.77719
▁Central	-8.78179
PO	-8.78694
RCP	-8.78784
87	-8.78786
57	-8.79476
],	-8.7967
▁No	-8.79803
37	-8.79845
41	-8.80187
82	-8.80386
TXN	-8.8041
33	-8.80804
online	-8.81256
53	-8.81342
28	-8.8159
71	-8.81925
83	-8.82441
Cash	-8.82695
RT	-8.82937
X	-8.83447
▁Delhi	-8.84143
▁Items	-8.8432
31	-8.84388
SO	-8.85118
▁11	-8.85154
47	-8.85249
>3</	-8.85295
▁2,	-8.8535
Available	-8.85476
date	-8.86053
59	-8.86176
ORD	-8.86294
02	-8.86996
▁Wellington	-8.87347
Item	-8.87858
78	-8.88122
93	-8.88467
▁Canada	-8.88604
GB	-8.8892
46	-8.8952
51	-8.89638
91	-8.90023
WEB	-8.90556
▁10	-8.90844
38	-8.90906
52	-8.91625
INV	-8.91768
▁1,	-8.91999
u	-8.92062
Transit	-8.92328
55	-8.92798
ish	-8.92815
▁India	-8.92878
Subscription	-8.93033
50	-8.93655
92	-8.93894
▁(2	-8.9421
+353	-8.94779
▁V	-8.95823
+61	-8.96602
▁(1	-8.97257
▁W	-8.97394
▁J	-8.98152
London	-8.98472
▁Y	-8.99062
▁Ireland	-8.99185
44	-8.9921
Queensland	-8.99644
40	-8.99882
86	-8.99888
+91	-9.00017
$	-9.00021
30	-9.00025
64	-9.0019
":6	-9.00723
shipped	-9.01162
77	-9.0193
04	-9.01935
CC	-9.02388
▁Transfer	-9.02516
49	-9.02598
42	-9.02608
0","	-9.02915
Checkout	-9.02981
97	-9.03057
45	-9.03113
g	-9.03119
▁Drive	-9.03179
00	-9.03373
▁15	-9.03393
65	-9.03432
▁12	-9.03875
39	-9.04069
Brisbane	-9.04324
Calgary	-9.04363
group	-9.04824
Alberta	-9.05171
07	-9.05656
79	-9.05838
Edinburgh	-9.05991
▁Ticket	-9.06164
88	-9.06766
58	-9.06901
70	-9.07288
66	-9.07804
63	-9.07852
Remote	-9.08122
+64	-9.08551
67	-9.08906
48	-9.09075
27	-9.09161
▁Wales	-9.09245
+44	-9.09403
Scotland	-9.09462
94	-9.09507
+65	-9.09737
69	-9.10202
Maharashtra	-9.10707
Vancouver	-9.10788
Problem	-9.11114
54	-9.11149
▁14	-9.11333
75	-9.11628
Mumbai	-9.11693
▁England	-9.11832
Manchester	-9.11862
ment	-9.12739
▁Columbia	-9.12776
▁NZ	-9.12964
98	-9.13683
85	-9.13699
Toronto	-9.13783
73	-9.13856
Bengaluru	-9.13981
36	-9.14549
▁17	-9.15082
Birmingham	-9.15143
95	-9.15483
▁(	-9.15499
Sales	-9.1559
an	-9.15598
▁Z	-9.15619
▁Package	-9.15687
Karnataka	-9.16175
product	-9.16205
89	-9.16274
Melbourne	-9.16698
k	-9.16785
▁Kit	-9.17064
led	-9.19055
▁tracking	-9.19244
▁CA	-9.19792
Hyderabad	-9.20413
XP	-9.20494
Quebec	-9.20686
96	-9.20719
Montreal	-9.20957
Telangana	-9.2132
▁Pass	-9.21565
80	-9.21962
.64	-9.22723
▁due	-9.23066
▁provider	-9.23193
▁of	-9.23217
rn	-9.23253
▁X	-9.23353
>4</	-9.23353
▁DATE	-9.23556
61	-9.24464
v	-9.24764
▁Tax	-9.24816
in	-9.25027
▁Renewal	-9.25599
76	-9.26542
▁on	-9.27475
▁13	-9.28035
▁3,	-9.28059
_5_	-9.28202
▁Q	-9.28596
▁Group	-9.28794
74	-9.29126
▁Payment	-9.29446
▁mode	-9.30337
Perth	-9.3035
▁In	-9.30835
81	-9.30907
Shipment	-9.31323
SHIP	-9.3175
▁Place	-9.3178
TRK	-9.32421
PKG	-9.32958
▁Transit	-9.33565
72	-9.33875
MYR	-9.34162
▁+1	-9.34619
9"}],"	-9.3529
":"20	-9.35584
Dispatch	-9.36491
,3	-9.37291
▁amount	-9.37535
▁number	-9.38792
▁ship	-9.39037
Schedu	-9.3931
▁Total	-9.39337
":"10	-9.39596
▁shipped	-9.40573
ebit	-9.41086
merchant	-9.41131
▁16	-9.42001
▁processing	-9.42428
.68	-9.43604
90	-9.44281
▁ordered	-9.44643
mail	-9.4484
$1	-9.45102
▁by	-9.45151
▁Credit	-9.45347
Victoria	-9.45674
84	-9.45915
▁receipt	-9.46674
Brit	-9.46741
Sydney	-9.46865
▁PAYMENT	-9.47164
Texas	-9.4738
register	-9.47499
▁NO	-9.48124
Delhi	-9.48289
▁(3	-9.49661
▁TOTAL	-9.49782
1"}],"	-9.50039
x	-9.50142
▁19	-9.50302
Seattle	-9.50746
Ontario	-9.50856
▁Victoria	-9.51057
:00	-9.51423
-6	-9.51431
0"}],"	-9.51809
▁18	-9.51956
▁Delivery	-9.52277
Wester	-9.53662
60	-9.53699
▁Boulevard	-9.5372
▁to	-9.54101
shipping	-9.54239
>1	-9.54549
7"}],"	-9.54913
8"}],"	-9.55281
68	-9.55388
-0	-9.55398
b	-9.56759
.07	-9.57523
.76	-9.57677
▁Angeles	-9.57831
5"}],"	-9.57923
▁Upgrade	-9.5809
":"14	-9.59703
▁PO	-9.599
Illinois	-9.59991
3"}],"	-9.60708
2"}],"	-9.60743
4"}],"	-9.60948
▁Available	-9.61114
":"25	-9.61668
Boston	-9.62429
w	-9.62733
":"13	-9.63427
▁"1	-9.63853
":"19	-9.64218
▁23	-9.64871
,4	-9.65705
":"11	-9.66048
son	-9.66379
-7	-9.66448
.36	-9.66633
6"}],"	-9.67049
Takeaway	-9.67172
-01	-9.67844
▁TXN	-9.68106
-05	-9.68302
-02	-9.68312
service	-9.6838
.41	-9.6847
▁Quay	-9.68914
et	-9.69189
.48	-9.69208
-66	-9.69425
.27	-9.70062
-03	-9.70154
":"12	-9.70355
▁Essentials	-9.71095
-07	-9.71133
.98	-9.71871
▁Level	-9.72061
99	-9.72134
▁Pickup	-9.72552
-00	-9.7267
▁Bridge	-9.73057
ine	-9.73132
▁Main	-9.73723
-8	-9.73972
-04	-9.74237
▁service	-9.74275
-65	-9.74375
-82	-9.74432
es	-9.74561
>5</	-9.75107
":"31	-9.75226
▁Services	-9.76052
":"23	-9.76059
-97	-9.76471
app	-9.76682
▁SO	-9.769
Dine	-9.76989
▁Membership	-9.77156
▁Fee	-9.77322
market	-9.77929
▁RCP	-9.78096
-86	-9.7835
▁ORDER	-9.78437
▁#	-9.78491
-88	-9.78492
▁Stand	-9.78514
▁purchase	-9.78553
":"18	-9.78811
":"21	-9.79324
-06	-9.79649
$3	-9.79904
-77	-9.80129
":"16	-9.80172
-71	-9.80201
":"27	-9.80402
":"22	-9.80548
supply	-9.80901
f	-9.81135
▁25	-9.81209
▁INV	-9.81417
-09	-9.8144
":"24	-9.81575
Lo	-9.81781
":"15	-9.8179
▁method	-9.82186
$2	-9.82257
-95	-9.82464
▁Rental	-9.82592
▁SHIP	-9.82731
":"30	-9.82786
▁ORD	-9.82875
▁Case	-9.83086
▁Dispatch	-9.83121
Travel	-9.83245
▁+44	-9.83294
Curbside	-9.83584
ll	-9.83805
▁Air	-9.83828
z	-9.83954
▁Problem	-9.8409
-9	-9.84114
-72	-9.84121
Washington	-9.84275
-79	-9.8445
fulfillment	-9.84616
Austin	-9.8462
▁TAX	-9.84799
▁Order	-9.84913
▁WEB	-9.84924
-08	-9.84941
-60	-9.84954
Smart	-9.85069
▁Office	-9.8523
.04	-9.85328
▁Station	-9.85367
-83	-9.85593
▁(4	-9.85648
▁+64	-9.85659
partners	-9.85923
-68	-9.86108
-93	-9.86187
▁08	-9.86491
help	-9.86664
-92	-9.86769
-69	-9.8681
▁Gift	-9.87192
▁REG	-9.8721
Gift	-9.87431
▁4,	-9.87502
-74	-9.87634
":"17	-9.87742
Apple	-9.87789
▁payable	-9.87898
-94	-9.8817
receipts	-9.88535
-75	-9.8854
▁22	-9.88602
services	-9.89329
-85	-9.89614
port	-9.89805
▁North	-9.89832
.74	-9.90479
.31	-9.90587
▁Way	-9.90702
-81	-9.9073
$6	-9.90915
or	-9.91346
3"},{"@	-9.91356
-73	-9.91419
en	-9.91563
▁#:	-9.91886
▁Cash	-9.91892
▁24	-9.92108
▁Bank	-9.92362
-99	-9.92544
-70	-9.92651
-61	-9.92826
California	-9.9292
,5	-9.93046
▁Storage	-9.93321
Visa	-9.93867
io	-9.94012
▁Seat	-9.94143
-87	-9.94396
":"28	-9.94435
▁DUE	-9.94491
.19	-9.94581
MENT	-9.9479
Chicago	-9.95012
▁Shipment	-9.9517
reply	-9.9543
-89	-9.95654
":"29	-9.95742
▁26	-9.95876
5"},{"@	-9.95972
Air	-9.96389
▁gst	-9.96761
▁On	-9.97033
▁Cable	-9.9732
Massachusetts	-9.97541
8"},{"@	-9.97555
6"},{"@	-9.97593
ower	-9.97713
Store	-9.97815
NE	-9.9802
-63	-9.98278
1"},{"@	-9.98376
▁details	-9.98739
-91	-9.98766
":"34	-9.98861
▁Jacket	-9.98862
sales	-9.98922
▁Apt	-9.98954
pay	-9.99585
$5	-9.99662
▁21	-9.9972
▁28	-9.99819
-76	-10.0007
":"37	-10.0046
.81	-10.0099
deals	-10.0136
$4	-10.0182
American	-10.0195
-90	-10.02
":"38	-10.0211
la	-10.0256
$9	-10.029
ow	-10.031
▁created	-10.033
-67	-10.0341
▁support	-10.0384
▁$	-10.0387
▁+	-10.0388
▁Apple	-10.0414
▁Travel	-10.0417
3.6	-10.0418
":"40	-10.0423
▁Lo	-10.0466
▁Checkout	-10.0466
Premium	-10.0469
▁+91	-10.0479
▁Goog	-10.0497
-64	-10.0531
▁OF	-10.0546
▁Visa	-10.0575
▁Shipping	-10.0575
▁Rack	-10.059
-78	-10.0597
-98	-10.0625
▁Starter	-10.0658
care	-10.0665
Portable	-10.0726
7"},{"@	-10.0738
Goog	-10.0748
▁Table	-10.076
▁ON	-10.0787
▁MODE	-10.0792
":"39	-10.0797
▁Logistics	-10.0804
▁09	-10.0809
▁PayPal	-10.0855
NR	-10.0858
Discover	-10.0901
▁30	-10.0956
▁Home	-10.096
▁+353	-10.0963
amp	-10.0981
▁Build	-10.0985
-80	-10.1035
-84	-10.1037
-96	-10.1043
treet	-10.1043
$8	-10.1084
▁POS	-10.1085
▁Of	-10.1089
-62	-10.1121
":"36	-10.118
▁Add	-10.119
4"},{"@	-10.1228
▁41	-10.1261
▁+65	-10.1265
Ring	-10.1274
▁Discover	-10.1305
▁NUMBER	-10.1316
":"35	-10.1324
PayPal	-10.133
solutions	-10.1361
.75","	-10.1367
-50	-10.1367
.84	-10.1382
▁American	-10.139
▁Line	-10.1395
▁To	-10.1419
1,	-10.1423
>6</	-10.1427
="+1	-10.1429
▁03	-10.1433
2"},{"@	-10.1436
Mastercard	-10.1446
▁Suite	-10.1451
no	-10.1458
by	-10.1499
USB	-10.1589
▁Chair	-10.1593
9"},{"@	-10.1628
invoice	-10.1667
▁Terrace	-10.1687
▁+61	-10.1695
-59	-10.1701
ra	-10.1741
ce	-10.1744
te	-10.1787
.65","	-10.1797
▁32	-10.1811
ord	-10.1829
us	-10.1832
▁29	-10.1858
":"33	-10.1888
Grand	-10.1923
▁Freight	-10.1927
":"32	-10.1934
ah	-10.1948
-53	-10.1954
▁invoice	-10.1958
▁Mastercard	-10.1958
man	-10.2016
28"},{"@	-10.2017
▁Mail	-10.2021
▁NAME	-10.2024
ang	-10.2035
re	-10.2039
▁6,	-10.2047
▁Shelf	-10.2047
▁Light	-10.206
▁TRK	-10.2069
narne	-10.2072
account	-10.2081
▁XP	-10.2081
▁bill	-10.2095
▁RECEIPT	-10.2098
.25","	-10.213
29"},{"@	-10.2149
25"},{"@	-10.2155
▁a	-10.2158
▁Fan	-10.2188
▁sales	-10.2208
1.8	-10.2229
1.2	-10.2235
-30	-10.2252
▁Sydney	-10.2259
▁07	-10.2259
▁King	-10.2288
▁34	-10.2329
▁Floor	-10.2337
▁|	-10.2353
▁Washington	-10.2394
warehouse	-10.2399
▁cashier	-10.2405
ship	-10.2414
24"},{"@	-10.2415
▁27	-10.242
world	-10.2424
exchange	-10.2449
▁Pen	-10.253
ED	-10.2534
▁Transport	-10.2535
▁"+1	-10.258
ford	-10.2598
-40	-10.2655
▁38	-10.2698
▁5,	-10.2704
000	-10.2707
el	-10.2708
ne	-10.2712
▁01	-10.2718
▁PKG	-10.2728
-49	-10.2732
▁31	-10.2767
▁Queen	-10.2775
digital	-10.2813
$7	-10.2823
9,	-10.2838
27"},{"@	-10.2839
-52	-10.2853
▁AMOUNT	-10.2857
ad	-10.2877
▁TYPE	-10.2893
-48	-10.2897
-58	-10.2904
▁By	-10.2956
coupon	-10.2965
▁BY	-10.2975
▁Care	-10.299
▁Wester	-10.2998
-27	-10.3003
se	-10.3014
.58	-10.3045
-56	-10.3053
▁Bldg	-10.3055
":"51	-10.3074
-57	-10.3108
▁Due	-10.3111
0"},{"@	-10.3126
web	-10.3142
Fi	-10.3151
":"44	-10.3154
▁Hill	-10.3176
▁paid	-10.3185
.45","	-10.322
,+1	-10.323
▁Mo	-10.3231
▁Cleaner	-10.3246
▁Filter	-10.3246
▁33	-10.326
43"},{"@	-10.327
systems	-10.3277
▁Room	-10.3305
▁04	-10.331
▁Park	-10.3323
▁45	-10.3326
ler	-10.3354
▁St	-10.3355
$11	-10.3376
▁Shoes	-10.3386
ion	-10.3396
▁Bag	-10.3396
26"},{"@	-10.3415
ar	-10.3458
-47	-10.347
-12	-10.349
▁ADDRESS	-10.3499
▁Dept	-10.3499
off	-10.3507
tem	-10.3507
-54	-10.3535
ummary	-10.3549
6,	-10.3555
-55	-10.3569
7.2	-10.3574
business	-10.3584
▁Shirt	-10.3585
7,	-10.3585
▁House	-10.3587
ter	-10.3616
":"74	-10.3617
-29	-10.3644
87"},{"@	-10.3651
Laundry	-10.3657
4.8	-10.3675
ta	-10.3679
":"46	-10.368
Family	-10.3686
itern	-10.3692
23"},{"@	-10.3694
-42	-10.3695
api	-10.3722
▁Trail	-10.3741
▁Support	-10.3747
,6	-10.3747
land	-10.3748
▁cash	-10.3757
▁tender	-10.3773
undle	-10.3776
-10	-10.3784
":"81	-10.3791
▁06	-10.381
RD	-10.3827
▁Brit	-10.383
ic	-10.3848
66"},{"@	-10.3855
62"},{"@	-10.3878
▁Lamp	-10.388
3,	-10.3888
":"41	-10.3901
▁Ontario	-10.3938
>5	-10.3941
ines	-10.395
Tablet	-10.3956
tech	-10.3964
-46	-10.3967
09"},{"@	-10.3973
2,	-10.398
-44	-10.3985
8.5	-10.3987
▁Ste	-10.4031
59"},{"@	-10.4054
5"	-10.4066
network	-10.408
ia	-10.4087
▁40	-10.4089
":"47	-10.4091
6"	-10.4092
▁George	-10.4093
-23	-10.4105
▁Lane	-10.4113
house	-10.4118
▁in	-10.4119
9"	-10.4123
100	-10.4131
67"},{"@	-10.4136
▁Stay	-10.4143
56"},{"@	-10.4157
▁Printer	-10.4159
82"},{"@	-10.4173
▁Highway	-10.4173
.23","	-10.4174
-20	-10.4177
▁Shop	-10.4178
pper	-10.4224
it	-10.4242
7"	-10.4253
▁50	-10.4259
agar	-10.4265
▁Organizer	-10.4266
cashier	-10.4288
▁Charger	-10.4296
▁Monitor	-10.4297
▁Access	-10.4303
05"},{"@	-10.4305
▁49	-10.4306
4,	-10.4331
▁52	-10.434
rong	-10.4361
":"60	-10.4365
-43	-10.4385
▁Flr	-10.4388
▁(5	-10.4397
":"50	-10.4407
-51	-10.4416
2.4	-10.4428
▁Rm	-10.4431
3"	-10.444
member	-10.445
":"45	-10.446
45"},{"@	-10.4465
Starter	-10.448
8,	-10.4481
▁Reservation	-10.4481
▁Mobility	-10.4482
▁Distribution	-10.4482
$13	-10.449
▁Meal	-10.4493
54"},{"@	-10.4496
="1	-10.4511
▁reg	-10.4513
":"77	-10.4515
▁METHOD	-10.4521
ot	-10.4528
▁Apartment	-10.4532
secure	-10.4533
news	-10.4562
57"},{"@	-10.4571
-35	-10.4591
1.6	-10.4593
":"61	-10.4595
▁discount	-10.46
-37	-10.4603
-17	-10.4605
21"},{"@	-10.4607
-33	-10.4608
93"},{"@	-10.4615
▁Partners	-10.4639
-41	-10.4654
34"},{"@	-10.4664
express	-10.4671
▁Protector	-10.4671
▁02	-10.4673
▁39	-10.4691
Coffee	-10.47
Home	-10.47
89"},{"@	-10.4704
200	-10.4704
ent	-10.4725
$12	-10.4725
▁43	-10.4727
▁code	-10.4735
$10	-10.4738
promo	-10.4739
$16	-10.4757
desk	-10.4767
32"},{"@	-10.4785
17"},{"@	-10.4791
97"},{"@	-10.4796
reat	-10.4801
ong	-10.4807
2.8	-10.4811
86"},{"@	-10.4815
▁Han	-10.4818
18"},{"@	-10.4832
64"},{"@	-10.4838
-39	-10.4838
-34	-10.484
8"	-10.485
-24	-10.4863
1.3	-10.4905
":"70	-10.4907
77"},{"@	-10.4928
fore	-10.493
works	-10.4931
▁36	-10.4942
▁Van	-10.4963
▁Coffee	-10.4966
94"},{"@	-10.497
STER	-10.4997
▁07:	-10.4999
▁Re	-10.5008
ur	-10.5016
-22	-10.5016
den	-10.5018
invoices	-10.5048
un	-10.5052
119	-10.5057
0.7	-10.5059
▁Warehousing	-10.5061
▁Chicago	-10.5069
35"},{"@	-10.5074
71"},{"@	-10.508
▁TO	-10.5084
":"68	-10.5088
suppliers	-10.5095
-11	-10.5097
5.8	-10.5107
15"},{"@	-10.511
pos	-10.5115
-19	-10.5118
-31	-10.5121
paynow	-10.5128
▁Cooker	-10.5129
cr	-10.514
":"66	-10.5154
▁Phone	-10.5154
98"},{"@	-10.5156
trading	-10.5161
06"},{"@	-10.5214
165	-10.5215
-38	-10.5215
78"},{"@	-10.5219
auth	-10.5229
track	-10.5231
-45	-10.5234
▁37	-10.5243
58"},{"@	-10.5245
ch	-10.5251
46"},{"@	-10.5254
▁35	-10.5257
lo	-10.5258
▁Pants	-10.5262
▁Supply	-10.5263
Wireless	-10.5264
▁sr	-10.5266
":"42	-10.5292
▁Courier	-10.5293
▁80	-10.5302
91"},{"@	-10.5303
170	-10.5313
79"},{"@	-10.5321
-28	-10.5321
▁Austin	-10.5324
CE	-10.5332
am	-10.5333
▁Fleet	-10.5334
net	-10.5343
:00",	-10.5343
-36	-10.5349
▁Mouse	-10.5356
▁42	-10.5359
22"},{"@	-10.5366
j	-10.5367
▁USR	-10.5376
14"},{"@	-10.5391
▁Carrier	-10.5398
▁c	-10.5416
▁05	-10.542
GD	-10.5424
de	-10.5427
ON	-10.5438
":"48	-10.5439
▁Marg	-10.544
▁billing	-10.5451
-25	-10.5463
▁19:	-10.5464
01"},{"@	-10.5465
▁Adapter	-10.5468
returns	-10.547
5,	-10.5473
11"},{"@	-10.5476
33"},{"@	-10.548
▁Cargo	-10.5486
▁61	-10.5498
55"},{"@	-10.5501
energy	-10.5502
▁Fulfillment	-10.5509
air	-10.5517
▁Trucking	-10.5537
▁12:	-10.554
16"},{"@	-10.554
▁orders	-10.5543
1.9	-10.5546
-32	-10.5551
863	-10.5552
":"95	-10.5559
08"},{"@	-10.5562
members	-10.5572
0.3	-10.5573
▁CUST	-10.5577
92"},{"@	-10.5577
48"},{"@	-10.5577
49"},{"@	-10.5581
83"},{"@	-10.5594
▁Camera	-10.5595
NV	-10.5601
▁Systems	-10.5616
▁44	-10.5628
▁MEM	-10.5633
▁16:	-10.5643
sale	-10.5658
ro	-10.567
51"},{"@	-10.567
41"},{"@	-10.5676
▁Payable	-10.5679
portal	-10.568
gar	-10.5685
38"},{"@	-10.569
▁transaction	-10.5693
▁Bowl	-10.5713
▁Tray	-10.572
ina	-10.5723
136	-10.5729
2.9	-10.5731
-26	-10.5742
110	-10.5762
829	-10.5764
73"},{"@	-10.5764
▁63	-10.5776
▁Box	-10.5779
47"},{"@	-10.578
5.7	-10.5784
163	-10.5787
▁License	-10.5791
2.3	-10.5799
-18	-10.5802
":"52	-10.5803
ri	-10.581
ee	-10.5817
▁3"},"	-10.5817
19"},{"@	-10.5819
Phone	-10.5827
▁18:	-10.583
mo	-10.5832
:00"	-10.5832
.79","	-10.5833
▁REGI	-10.5836
accounts	-10.5839
88"},{"@	-10.5848
75"},{"@	-10.585
96"},{"@	-10.5852
partner	-10.5863
65"},{"@	-10.5864
Storage	-10.5871
▁10:	-10.5875
mart	-10.5891
▁Parade	-10.5891
▁Front	-10.5891
07"},{"@	-10.5891
1</	-10.5892
-13	-10.5893
52"},{"@	-10.5898
0.1	-10.5918
12"},{"@	-10.593
128	-10.5931
175	-10.5947
95"},{"@	-10.5949
4"	-10.5963
791	-10.5969
":"65	-10.5972
$15	-10.5973
▁Cabin	-10.5984
112	-10.5989
▁51	-10.5995
▁69	-10.6003
▁Massachusetts	-10.6003
Office	-10.6011
2"	-10.6021
85"},{"@	-10.6028
▁Tender	-10.6036
▁b	-10.6039
":"90	-10.6046
199	-10.6049
53"},{"@	-10.6055
▁Lines	-10.6066
6.4	-10.6067
173	-10.607
▁Registration	-10.6074
goods	-10.608
▁Point	-10.6083
▁46	-10.611
rder	-10.6118
▁09:	-10.6128
club	-10.6146
▁Ground	-10.6152
▁Provider	-10.6153
rewards	-10.6162
ho	-10.6164
174	-10.617
5.4	-10.6174
CS	-10.6182
updates	-10.6183
discounts	-10.6183
02"},{"@	-10.6192
loyalty	-10.6195
coupons	-10.6196
$17	-10.6196
▁13:	-10.6198
ton	-10.6199
▁14:	-10.621
▁6"},"	-10.6215
1"	-10.6216
▁17:	-10.622
▁60	-10.6252
":"58	-10.6257
vendor	-10.6258
▁72	-10.626
chard	-10.6278
152	-10.6285
37"},{"@	-10.6287
dashboard	-10.6295
30"},{"@	-10.6327
":"49	-10.633
capital	-10.6333
84"},{"@	-10.6355
44"},{"@	-10.6356
▁Dock	-10.637
▁Jalan	-10.6371
login	-10.6371
42"},{"@	-10.6375
▁Link	-10.6379
tota	-10.6381
":"54	-10.6388
69"},{"@	-10.6388
":"75	-10.6395
105	-10.6403
▁De	-10.6407
notify	-10.6409
▁via	-10.6409
▁Setup	-10.6411
▁Oxf	-10.6414
▁Protection	-10.6434
▁BUYER	-10.6436
▁be	-10.6437
▁Pizza	-10.6447
▁SERVICE	-10.6447
4.7	-10.6447
noreply	-10.6448
1",	-10.6458
203	-10.6458
mobile	-10.6461
99"},{"@	-10.6463
":"72	-10.6466
ena	-10.647
alerts	-10.6485
▁Parne	-10.6485
992	-10.6486
CK	-10.6496
961	-10.6518
194	-10.6518
31"},{"@	-10.6519
":"87	-10.6521
notifications	-10.6523
storefront	-10.6523
167	-10.6524
117	-10.6531
-16	-10.6533
vip	-10.6533
travel	-10.6565
up	-10.6572
563	-10.6584
76"},{"@	-10.6585
3</	-10.6589
8.8	-10.66
▁53	-10.6603
be	-10.6604
3",	-10.6609
Blue	-10.6617
ers	-10.6638
▁pickup	-10.6644
5</	-10.665
61"},{"@	-10.667
04"},{"@	-10.6676
$19	-10.6683
370	-10.6687
133	-10.669
aint	-10.6694
Dress	-10.6698
39"},{"@	-10.6705
187	-10.6709
4.2	-10.6723
698	-10.6739
-21	-10.6746
1.7	-10.6749
cafe	-10.6756
181	-10.6756
121	-10.6758
920	-10.6759
>2	-10.6763
00"},{"@	-10.6767
5.1	-10.6767
03"},{"@	-10.677
▁CLI	-10.6777
184	-10.6791
280	-10.6791
975	-10.68
81"},{"@	-10.6806
hello	-10.6808
13"},{"@	-10.6824
▁Water	-10.6825
▁Id	-10.683
refunds	-10.6835
644	-10.6836
-14	-10.6845
▁93	-10.6847
▁+6	-10.6853
693	-10.6863
▁Bulb	-10.6875
kau	-10.6877
im	-10.6877
ln	-10.6878
▁0.	-10.6903
reland	-10.6907
▁PAYABLE	-10.6915
▁Email	-10.6915
▁Cover	-10.6919
▁delivered	-10.6922
550	-10.6923
▁Parcel	-10.6924
":"79	-10.693
ve	-10.6931
608	-10.694
▁at	-10.6941
":"57	-10.6948
▁served	-10.6955
▁Hub	-10.696
▁e	-10.6962
CW	-10.6969
36"},{"@	-10.6984
▁67	-10.6988
▁Space	-10.6991
388	-10.7016
139	-10.7029
ateway	-10.7032
694	-10.7036
0"	-10.7039
▁Hosting	-10.7042
144	-10.7055
▁Screen	-10.7073
logistics	-10.7075
":"43	-10.7086
":"63	-10.7098
▁Bar	-10.7103
131	-10.7107
758	-10.7114
5.2	-10.7129
CN	-10.7153
▁Edition	-10.7169
4",	-10.7172
Business	-10.7181
▁65	-10.7207
733	-10.7214
859	-10.7216
lle	-10.7217
793	-10.7231
9.6	-10.7235
154	-10.7242
LED	-10.7263
785	-10.7296
studio	-10.73
▁"2	-10.73
Laptop	-10.7305
220	-10.7309
500	-10.731
627	-10.7314
260	-10.7314
":"55	-10.7315
marketplace	-10.7322
6.6	-10.7325
302	-10.7351
▁available	-10.7364
202	-10.7377
▁transit	-10.7393
273	-10.7393
6.1	-10.7395
594	-10.7399
264	-10.74
889	-10.7403
72"},{"@	-10.7407
▁Streaming	-10.7409
498	-10.741
2.2	-10.7418
722	-10.7429
9",	-10.7435
54","	-10.7444
company	-10.7447
CD	-10.7452
ORDER	-10.746
▁74	-10.7461
883	-10.7468
":"69	-10.7475
▁West	-10.7476
891	-10.7477
ero	-10.7478
":"73	-10.7492
▁Bottle	-10.7494
63"},{"@	-10.7501
wa	-10.7527
178	-10.7538
":"67	-10.754
▁Mall	-10.7545
666	-10.7545
-15	-10.7548
CI	-10.756
enterprises	-10.7576
993	-10.7579
ventures	-10.76
▁Created	-10.7601
161	-10.7604
▁Mc	-10.7615
74"},{"@	-10.7615
":"59	-10.762
>8	-10.7627
":"80	-10.7629
▁Collection	-10.763
CT	-10.7631
":"86	-10.7633
309	-10.7634
657	-10.7659
town	-10.7661
▁Old	-10.7672
ham	-10.7675
▁Ben	-10.7676
▁Desk	-10.7689
Gül	-10.7689
135	-10.7701
":"53	-10.7707
8",	-10.7739
216	-10.7744
hicken	-10.7746
exarnple	-10.7747
▁12"},"	-10.777
151	-10.7775
207	-10.7782
149	-10.779
▁Trading	-10.779
▁Messenger	-10.779
▁66	-10.7801
7",	-10.7802
site	-10.7818
▁Software	-10.7821
▁CREATED	-10.7827
213	-10.7837
900	-10.7838
▁PROVIDER	-10.7838
/2024	-10.784
":"93	-10.7842
197	-10.7842
room	-10.7849
▁5"},"	-10.7849
ware	-10.7878
▁tel	-10.7878
▁Can	-10.7895
":"96	-10.7898
lock	-10.7905
▁High	-10.7911
283	-10.7911
350	-10.7913
":"84	-10.7914
290	-10.7915
566	-10.7923
8.88	-10.7926
▁79	-10.7928
CH	-10.7929
116	-10.7933
68"},{"@	-10.7934
▁59	-10.795
▁58	-10.7959
▁Shent	-10.7966
▁River	-10.797
799	-10.7977
$14	-10.7986
797	-10.7986
Garden	-10.8
436	-10.8002
▁Maison	-10.801
biz	-10.8011
ress	-10.8015
▁101	-10.8021
▁99	-10.8038
360	-10.8041
665	-10.8043
857	-10.8045
old	-10.8049
▁95	-10.8052
▁pre	-10.8055
▁EMAIL	-10.8056
▁Baggage	-10.8072
SALES	-10.8083
▁(6	-10.8084
813	-10.8088
634	-10.809
▁Basket	-10.81
3.1	-10.8101
231	-10.8103
▁Digital	-10.8107
8.6	-10.8114
▁Tea	-10.812
430	-10.8132
301	-10.8132
ance	-10.8134
media	-10.8145
721	-10.815
639	-10.8153
":"98	-10.8154
▁47	-10.8172
385	-10.8175
189	-10.8183
="+64	-10.819
750	-10.8195
434	-10.821
150	-10.8213
▁Paper	-10.8224
543	-10.8224
233	-10.8228
▁73	-10.8246
▁sale	-10.8256
▁Wi	-10.8257
427	-10.8263
▁Albert	-10.8263
552	-10.8265
559	-10.8275
▁Session	-10.8282
▁Stop	-10.8284
▁Keyboard	-10.8287
CF	-10.8288
217	-10.8296
329	-10.83
115	-10.8309
707	-10.8313
0,	-10.8316
CB	-10.8319
PAYMENT	-10.832
na	-10.832
827	-10.832
="+44	-10.8326
point	-10.8327
▁Airlift	-10.8327
959	-10.8331
996	-10.8347
227	-10.8347
9.7	-10.8358
em	-10.8363
ai	-10.8367
":"76	-10.8367
808	-10.8368
734	-10.8389
▁Or	-10.8393
344	-10.8412
894	-10.8427
002	-10.8429
686	-10.8432
Power	-10.8437
ag	-10.8442
510	-10.8443
$22	-10.8455
931	-10.8462
CY	-10.8463
▁Scanner	-10.8466
592	-10.8469
884	-10.8469
▁85	-10.8471
991	-10.8473
4.88	-10.8475
1"},"	-10.8483
547	-10.8488
6",	-10.8488
▁76	-10.849
682	-10.8495
755	-10.8496
▁82	-10.8498
consulting	-10.8512
cloud	-10.8513
ut	-10.8517
$21	-10.8527
541	-10.853
out	-10.8533
7.5	-10.8533
805	-10.8536
770	-10.8539
9.2	-10.854
▁Media	-10.8548
238	-10.8549
ana	-10.8554
8</	-10.8554
="+61	-10.8573
835	-10.8584
ex	-10.8585
933	-10.8596
il	-10.8598
Gaming	-10.8601
international	-10.8607
7</	-10.8608
454	-10.861
363	-10.8614
ba	-10.8614
746	-10.8622
615	-10.8629
538	-10.8638
CV	-10.8643
130	-10.8648
Streaming	-10.865
297	-10.8652
6.88	-10.8653
▁Reg	-10.8655
▁Court	-10.8655
nner	-10.8657
248	-10.866
▁"+44	-10.8665
967	-10.8675
765	-10.8678
ge	-10.8686
249	-10.8688
▁48	-10.8692
TOTAL	-10.8698
373	-10.8699
685	-10.8699
50"},{"@	-10.8701
773	-10.8703
4</	-10.8706
342	-10.8706
▁54	-10.8709
848	-10.8715
▁91	-10.8717
ette	-10.8719
487	-10.8722
833	-10.8723
147	-10.8728
▁Ba	-10.8731
oh	-10.8732
393	-10.8732
5.44	-10.8736
983	-10.8742
ridge	-10.8745
783	-10.8748
▁Heater	-10.875
680	-10.8752
040	-10.8754
▁Princes	-10.8757
172	-10.8763
457	-10.8772
529	-10.8772
▁87	-10.8773
549	-10.8774
406	-10.8782
8.28	-10.8788
Monitor	-10.8795
158	-10.8795
395	-10.8796
Mechanica	-10.8798
▁Flight	-10.8798
169	-10.8807
074	-10.881
bakery	-10.8817
242	-10.8817
823	-10.882
▁"5	-10.8828
580	-10.8828
olen	-10.8828
141	-10.8828
▁Method	-10.8829
950	-10.8831
898	-10.8833
872	-10.8834
836	-10.8842
940	-10.8843
▁88	-10.8845
157	-10.8852
7.1	-10.8859
2",	-10.8866
ick	-10.8875
460	-10.8876
▁mail	-10.8877
392	-10.8877
252	-10.8877
▁Towel	-10.888
▁11"},"	-10.8881
to	-10.8883
942	-10.8897
423	-10.8908
185	-10.8911
801	-10.8912
$23	-10.8913
able	-10.8914
191	-10.8919
945	-10.892
904	-10.8921
589	-10.894
960	-10.894
basket	-10.8945
▁Nelson	-10.8949
▁90	-10.8949
984	-10.8949
658	-10.8951
380	-10.8951
2</	-10.8953
902	-10.8955
730	-10.8961
▁Business	-10.8965
5.56	-10.8967
cy	-10.897
bo	-10.8971
▁92	-10.8984
collective	-10.8992
▁Serango	-10.8992
867	-10.8993
▁amt	-10.8993
648	-10.8993
ail	-10.8994
":"71	-10.9
90"},{"@	-10.9002
nder	-10.9007
▁Maintenance	-10.9014
▁Side	-10.9017
,+65	-10.9019
633	-10.9028
kitchenware	-10.9042
labs	-10.9042
Re	-10.9044
480	-10.9047
rash	-10.9053
▁103	-10.9057
der	-10.9059
▁"+64	-10.9062
4.24	-10.9068
8.2	-10.9071
▁shipper	-10.9071
TV	-10.9074
196	-10.9081
▁57	-10.9086
▁The	-10.9088
retail	-10.9091
▁International	-10.9091
Extra	-10.9091
176	-10.9104
mer	-10.9109
706	-10.912
9.72	-10.913
6.9	-10.913
▁d	-10.9131
LE	-10.9134
103	-10.914
outlet	-10.9141
li	-10.9149
978	-10.9155
CQ	-10.9157
276	-10.9161
st	-10.9164
all	-10.9168
690	-10.9172
▁21"},"	-10.9181
544	-10.9185
739	-10.9193
▁2"},"	-10.9194
▁La	-10.9196
WE	-10.9207
":"64	-10.9212
701	-10.9214
80"},{"@	-10.9215
974	-10.9227
145	-10.9227
,+64	-10.9229
632	-10.9234
▁Castle	-10.9241
bill	-10.9241
▁Dame	-10.9243
2.88	-10.9243
9</	-10.9252
601	-10.9256
672	-10.9256
028	-10.9256
CZ	-10.9269
474	-10.9283
225	-10.9285
Curtain	-10.9289
▁SupplyChain	-10.9292
="+91	-10.93
926	-10.9305
564	-10.9309
▁products	-10.9309
ard	-10.931
612	-10.9316
▁Energy	-10.9316
832	-10.9319
148	-10.932
585	-10.9323
▁dispatch	-10.9329
244	-10.933
▁84	-10.9336
▁Microphone	-10.9342
536	-10.9344
Vacuum	-10.9345
GST	-10.9345
732	-10.9345
997	-10.935
275	-10.9351
▁Valley	-10.9354
849	-10.9355
data	-10.9357
om	-10.9362
781	-10.9364
910	-10.9369
8.3	-10.9372
▁70	-10.9372
▁ORDERED	-10.9373
6.96	-10.9375
▁36"},"	-10.9392
purchase	-10.9393
grocer	-10.9393
Work	-10.9394
VR	-10.9394
995	-10.9397
108	-10.9398
120	-10.9406
007	-10.9408
5.46	-10.942
6.72	-10.9428
$24	-10.9438
▁net	-10.9441
655	-10.9441
▁staff	-10.9442
▁Forwarding	-10.9445
077	-10.9447
Desktop	-10.9447
349	-10.9455
▁for	-10.9456
DELIVERY	-10.9459
60"},{"@	-10.9459
6.86	-10.946
517	-10.947
114	-10.9475
748	-10.9478
792	-10.9478
▁25"},"	-10.948
▁Kitchen	-10.9482
▁Market	-10.9494
6.44	-10.9496
935	-10.9499
Bathroom	-10.95
046	-10.9502
▁97	-10.9503
972	-10.9503
236	-10.9505
629	-10.9507
▁"+65	-10.9509
0.56	-10.9513
▁Raffl	-10.9515
796	-10.9518
384	-10.9521
699	-10.9522
557	-10.9524
▁Plant	-10.9525
20"},{"@	-10.9528
646	-10.9538
572	-10.9539
tall	-10.9547
'	-10.9548
▁Adela	-10.9549
925	-10.9549
▁Tracking	-10.9551
▁62	-10.9559
726	-10.9562
489	-10.9562
foods	-10.957
ICE	-10.9573
681	-10.9575
,+44	-10.9579
$29	-10.9581
560	-10.9583
562	-10.9586
▁f	-10.959
397	-10.959
ransaction	-10.9598
▁Cartridge	-10.96
459	-10.9601
669	-10.9604
455	-10.9608
417	-10.9615
▁California	-10.9618
7.96	-10.9623
923	-10.9628
▁Door	-10.963
729	-10.9632
ie	-10.9633
▁Shuttle	-10.9634
▁Transportation	-10.9634
367	-10.9638
▁Ang	-10.964
▁0.00	-10.9646
▁Se	-10.9648
examp	-10.9652
188	-10.9652
394	-10.9657
Beauty	-10.9658
$18	-10.966
943	-10.9662
▁94	-10.9671
▁Ju	-10.9672
668	-10.9672
":"56	-10.9694
7.52	-10.9706
,+61	-10.9714
▁Bin	-10.9717
209	-10.9721
▁Thomas	-10.9725
826	-10.973
▁Tablet	-10.9735
▁Watch	-10.9739
Ca	-10.9744
246	-10.9757
319	-10.9761
338	-10.9776
593	-10.9781
964	-10.9781
Ice	-10.9785
050	-10.9787
▁19"},"	-10.979
ac	-10.9794
277	-10.9802
wholesale	-10.9811
804	-10.9813
-8"},{"@	-10.9815
399	-10.9816
934	-10.9827
760	-10.9831
343	-10.9839
597	-10.9842
723	-10.9845
ING	-10.985
162	-10.986
kitchen	-10.9864
▁Sleeve	-10.9865
▁Wrap	-10.9865
274	-10.9867
="+65	-10.9871
▁Combo	-10.9874
3.38	-10.9876
="+353	-10.988
0.00	-10.988
▁75	-10.9881
586	-10.9887
234	-10.9892
2"},"	-10.9894
":"94	-10.9896
7.92	-10.9898
▁Cleaning	-10.9903
528	-10.9904
271	-10.9905
6</	-10.9911
568	-10.9912
sort	-10.9919
885	-10.9921
13:	-10.9923
3.52	-10.9923
trade	-10.9927
27-	-10.9936
▁100	-10.9938
▁Bill	-10.9954
":"91	-10.9955
▁102	-10.9957
▁Lake	-10.9963
▁10"},"	-10.9963
▁1"},"	-10.9966
▁32"},"	-10.9969
":"85	-10.9972
663	-10.9973
ire	-10.9982
Wall	-10.9983
790	-10.9986
198	-10.9988
602	-10.999
478	-10.9991
905	-10.9991
404	-10.9993
5.26	-10.9995
dev	-11.0002
389	-11.0002
012	-11.0009
8.24	-11.0009
92","	-11.0021
▁Grocer	-11.0027
▁Module	-11.0027
▁Moving	-11.0027
285	-11.0029
127	-11.003
638	-11.0049
226	-11.0054
▁Camp	-11.0056
rd	-11.0058
205	-11.0072
ection	-11.0081
commerce	-11.0081
bar	-11.0084
269	-11.0087
CXT	-11.0088
▁34"},"	-11.0091
448	-11.0092
084	-11.0092
Network	-11.0092
168	-11.012
409	-11.0123
692	-11.0136
374	-11.0136
▁83	-11.0137
6.7	-11.0147
▁"+91	-11.015
6.78	-11.0154
472	-11.0163
998	-11.0166
▁Ro	-11.0168
268	-11.0168
rne	-11.017
076	-11.0172
▁27"},"	-11.0174
824	-11.0174
▁Labs	-11.018
9.4	-11.0182
892	-11.019
351	-11.0191
center	-11.0192
▁30"},"	-11.0196
530	-11.0197
376	-11.0198
795	-11.0198
07:	-11.0203
774	-11.0204
▁24"},"	-11.0213
768	-11.0217
230	-11.0218
▁TRACKING	-11.022
049	-11.0227
683	-11.0228
907	-11.0236
224	-11.0241
830	-11.0245
364	-11.0247
▁LastMile	-11.0247
▁Haveloc	-11.0247
5",	-11.0248
ol	-11.0248
▁Church	-11.025
Priorit	-11.0259
0.28	-11.0266
-6"},{"@	-11.0269
928	-11.0273
524	-11.0273
pe	-11.0282
station	-11.0284
10"},{"@	-11.0295
7.9	-11.03
diner	-11.0303
▁Anderson	-11.0303
▁Linehaul	-11.0303
▁Mart	-11.0303
086	-11.031
348	-11.0315
952	-11.0316
Post	-11.0318
▁Power	-11.0318
2.92	-11.0321
475	-11.0325
Cor	-11.0332
642	-11.0342
029	-11.0344
▁Socks	-11.0347
▁Extender	-11.0359
▁Retail	-11.0359
▁Ventures	-11.036
3.44	-11.0364
897	-11.0365
060	-11.0365
284	-11.0367
▁Ordered	-11.0369
986	-11.0375
▁40"},"	-11.0376
466	-11.0376
▁"10	-11.0379
922	-11.0387
030	-11.0388
▁BILL	-11.0395
379	-11.0396
▁o	-11.04
▁PA	-11.0403
600	-11.0406
070	-11.0406
789	-11.0406
461	-11.0408
ash	-11.0411
pharmacy	-11.0416
▁Platform	-11.0416
831	-11.042
531	-11.0423
228	-11.0425
3.92	-11.0426
4.96	-11.0428
paid	-11.0429
Wellness	-11.043
840	-11.0431
wood	-11.0433
957	-11.0433
679	-11.0436
9.96	-11.0442
8.12	-11.0445
▁18"},"	-11.0446
027	-11.0453
5.28	-11.0454
403	-11.0458
9.08	-11.0459
9.92	-11.0466
903	-11.0468
0.4	-11.0471
industries	-11.0473
▁Ceci	-11.0473
522	-11.0477
845	-11.0478
hub	-11.0479
278	-11.0482
▁2026-	-11.0487
Water	-11.0487
":"99	-11.049
thouse	-11.0494
▁Gloves	-11.0502
471	-11.0505
381	-11.0514
One	-11.0514
▁Toa	-11.0518
237	-11.052
▁Refill	-11.0521
714	-11.0521
561	-11.0522
861	-11.0526
8.72	-11.0527
6.92	-11.0533
":"78	-11.0542
Kitchen	-11.0545
vas	-11.0565
868	-11.0574
▁134	-11.0576
3.22	-11.0578
822	-11.0579
229	-11.058
838	-11.058
377	-11.0581
▁Lot	-11.0581
763	-11.0585
Trust	-11.0587
▁Lob	-11.0587
9.32	-11.0595
CUT	-11.0597
204	-11.0604
846	-11.0606
402	-11.0606
251	-11.0609
503	-11.0617
065	-11.0624
▁68	-11.0626
3.12	-11.0626
494	-11.0643
▁78	-11.0645
2.28	-11.0661
ill	-11.0664
▁Wing	-11.0666
8.38	-11.0667
976	-11.0683
▁22"},"	-11.0683
▁14"},"	-11.0685
240	-11.0687
▁Bas	-11.0687
▁Paid	-11.0692
▁Rice	-11.0695
6.56	-11.0695
OR	-11.0697
▁Studio	-11.0698
717	-11.0699
118	-11.07
4.16	-11.07
Weekend	-11.0703
Ba	-11.0704
647	-11.0705
026	-11.0712
Draw	-11.072
▁product	-11.0725
924	-11.0727
▁Cap	-11.0729
505	-11.0731
▁SALE	-11.0737
453	-11.074
906	-11.0741
ct	-11.0742
909	-11.0743
ington	-11.0744
rest	-11.0748
▁Parcels	-11.0754
383	-11.076
▁problem	-11.0762
736	-11.0766
2.72	-11.0767
954	-11.0769
LL	-11.0769
▁Riverside	-11.0771
0.44	-11.0775
9.88	-11.0777
raphics	-11.078
Cleaning	-11.078
8.1	-11.0782
":"88	-11.0783
RK	-11.0787
▁35"},"	-11.0791
,+353	-11.0792
▁Ca	-11.0795
▁Works	-11.08
221	-11.081
investments	-11.0811
837	-11.0818
distributors	-11.082
▁Camb	-11.0821
▁37"},"	-11.0823
4.62	-11.0826
70"},{"@	-11.0837
428	-11.0857
▁Comple	-11.086
3.56	-11.0863
565	-11.0863
968	-11.0875
518	-11.0876
299	-11.0879
central	-11.088
▁SUBTOTAL	-11.088
garden	-11.088
415	-11.0885
5.12	-11.0893
9.15	-11.0899
Desk	-11.0899
101	-11.09
9.24	-11.0901
999	-11.0903
.64</	-11.091
▁Booking	-11.0915
310	-11.0916
779	-11.0918
327	-11.0919
866	-11.0921
8.84	-11.0923
▁17"},"	-11.093
worth	-11.0939
▁Flat	-11.0939
584	-11.0947
047	-11.0948
024	-11.095
8.86	-11.0961
676	-11.0976
▁Analytics	-11.0979
rentals	-11.098
272	-11.0982
▁71	-11.0983
ley	-11.0986
852	-11.0988
433	-11.0989
ACT	-11.099
▁Tanj	-11.0993
provisions	-11.0999
Wi	-11.1
office	-11.1
2.02	-11.1003
8.16	-11.1006
CMT	-11.1009
▁Ship	-11.1012
413	-11.1014
223	-11.1016
Winter	-11.102
Fast	-11.102
agency	-11.1024
1.16	-11.1026
847	-11.1026
140	-11.1029
716	-11.103
▁120	-11.1032
9.66	-11.1039
033	-11.1046
4.6	-11.1051
0",	-11.1054
eliable	-11.1056
-9"},{"@	-11.1057
5.92	-11.1059
factory	-11.1059
Creator	-11.1059
▁Routing	-11.1059
▁Manu	-11.106
▁Beach	-11.106
paper	-11.1061
9.86	-11.1067
8.66	-11.1067
▁31"},"	-11.107
▁Garden	-11.1074
953	-11.1076
636	-11.1078
2.96	-11.1083
020	-11.1102
7.16	-11.1104
356	-11.1112
0.22	-11.1113
358	-11.1116
,8	-11.112
▁Insurance	-11.112
1.44	-11.112
ank	-11.1121
▁Ris	-11.1122
6.32	-11.1123
7.72	-11.1123
6.24	-11.1134
-7"},{"@	-11.1136
;00	-11.114
9.18	-11.1141
513	-11.1142
BB	-11.1143
366	-11.1144
548	-11.1145
496	-11.1147
443	-11.1151
497	-11.1156
▁Links	-11.1161
▁39"},"	-11.118
management	-11.1181
hardware	-11.1181
▁Wholesale	-11.1181
▁Haulage	-11.1181
▁outstanding	-11.1181
▁Cub	-11.1183
214	-11.1184
▁38"},"	-11.1185
":"89	-11.1188
4.28	-11.1197
▁26"},"	-11.1199
Back	-11.1201
▁13"},"	-11.1206
▁Cancell	-11.1207
1.12	-11.1208
▁Data	-11.1214
766	-11.1216
484	-11.1221
609	-11.1225
2.08	-11.1234
1.72	-11.1234
7.62	-11.1234
8.18	-11.1236
DE	-11.1239
886	-11.1239
’	-11.1242
▁Goods	-11.1242
▁Lave	-11.1244
728	-11.125
4.72	-11.1256
893	-11.1258
753	-11.1258
270	-11.1258
NG	-11.1261
one	-11.1262
IO	-11.1266
756	-11.1271
396	-11.1275
288	-11.1277
071	-11.1281
677	-11.1281
▁$1	-11.1285
432	-11.1296
709	-11.1298
▁29"},"	-11.1302
▁81	-11.1302
beauty	-11.1304
▁Deliveries	-11.1304
▁Broadway	-11.1304
▁Cafe	-11.1305
372	-11.1307
$27	-11.1308
9.12	-11.1309
tems	-11.1309
▁Capital	-11.1312
▁rn	-11.1314
697	-11.1316
962	-11.1319
▁2024-0	-11.132
eam	-11.1323
810	-11.1328
888	-11.1328
created	-11.1329
ide	-11.1341
esh	-11.1343
618	-11.1347
▁Wellness	-11.1351
2.26	-11.1352
320	-11.1359
5.38	-11.1363
0.11	-11.1367
▁89	-11.1372
946	-11.1381
lab	-11.1391
Port	-11.1392
0.18	-11.1393
Plant	-11.1394
2.56	-11.1403
553	-11.1404
he	-11.1413
▁23"},"	-11.1415
687	-11.1416
Pro	-11.1418
9.78	-11.142
542	-11.1427
▁33"},"	-11.1428
▁Collective	-11.1429
▁Smith	-11.1429
lar	-11.1432
6.08	-11.1432
4.66	-11.1444
▁Sandwich	-11.1449
examplereceipts	-11.1454
Cabin	-11.1455
Breakfast	-11.1455
0.15	-11.1458
989	-11.146
▁64	-11.146
281	-11.1472
▁TENDER	-11.1473
899	-11.1476
6.16	-11.1477
5.84	-11.1489
mobility	-11.1491
depot	-11.1491
▁SSD	-11.1492
▁Cond	-11.1493
▁16"},"	-11.1502
CPT	-11.1505
2.66	-11.1508
per	-11.1508
776	-11.1512
670	-11.1513
490	-11.1515
7.08	-11.1517
examplesupport	-11.1526
3.11	-11.1526
654	-11.1532
467	-11.1535
1.06	-11.1536
▁Couriers	-11.1546
mi	-11.1547
4.82	-11.1548
▁Wireless	-11.1551
ontact	-11.1553
CAT	-11.1564
3"},"	-11.1573
▁Baker	-11.1578
ig	-11.1581
473	-11.1593
green	-11.1599
40"},{"@	-11.1603
326	-11.1605
674	-11.1607
king	-11.1607
▁Roy	-11.1608
045	-11.161
▁owing	-11.1619
▁Depart	-11.1619
610	-11.1625
CJT	-11.1626
495	-11.1626
235	-11.1633
990	-11.1642
TO	-11.1643
591	-11.1646
Park	-11.1647
tender	-11.1648
7.05	-11.1653
4.12	-11.1654
rew	-11.166
865	-11.166
▁Ra	-11.1664
▁Carriers	-11.1673
516	-11.1676
757	-11.1677
5.52	-11.1678
ek	-11.168
7.94	-11.168
▁Blanket	-11.1683
quipment	-11.1683
▁Enterprises	-11.1683
▁Interior	-11.1684
073	-11.1684
8.92	-11.1686
ey	-11.1689
▁21.	-11.1691
▁115	-11.1691
▁Consulting	-11.1693
895	-11.1694
604	-11.1697
5.24	-11.1697
096	-11.1698
▁Shipments	-11.1707
7.24	-11.1707
▁96	-11.1709
Wind	-11.1712
IB	-11.1724
od	-11.1727
590	-11.1729
994	-11.1729
PU	-11.1733
":"103	-11.1734
583	-11.1744
photo	-11.1747
▁Option	-11.1747
106	-11.1752
8.32	-11.1753
CGT	-11.1754
▁Holder	-11.1754
6.22	-11.1756
":8	-11.1756
0.06	-11.1759
▁55	-11.1762
exampledeals	-11.1763
Cargo	-11.1778
5.43	-11.1781
▁9"},"	-11.1782
press	-11.1788
▁Kall	-11.1792
cn	-11.1798
353	-11.18
▁202	-11.1806
▁Beauty	-11.1807
5.22	-11.181
239	-11.181
software	-11.1812
451	-11.1817
603	-11.1818
206	-11.1822
dynamics	-11.183
125	-11.1833
▁Dry	-11.1833
ier	-11.184
▁129	-11.1842
5.96	-11.1855
7.04	-11.1857
441	-11.1857
Care	-11.1858
090	-11.1864
1.94	-11.1873
Pet	-11.1875
tools	-11.1877
clothing	-11.1877
▁employee	-11.1877
realty	-11.1878
▁28"},"	-11.188
▁Tamp	-11.1884
networks	-11.1884
▁56	-11.1888
main	-11.189
877	-11.1901
ZT	-11.1902
0.82	-11.1904
678	-11.1907
1.08	-11.1909
Clou	-11.1909
▁Breakfast	-11.1916
$30	-11.1918
6.85	-11.192
876	-11.1926
738	-11.1928
936	-11.193
1.32	-11.1941
design	-11.1943
▁Kitchenware	-11.1944
8.82	-11.1962
365	-11.1965
1.95	-11.1974
937	-11.1976
q	-11.1977
2.86	-11.1977
▁7"},"	-11.1979
307	-11.198
286	-11.1989
267	-11.1991
9.28	-11.1992
0.78	-11.1999
Con	-11.2
314	-11.2
PC	-11.2003
ry	-11.2006
0.46	-11.2007
exampleshipping	-11.2008
298	-11.2009
ir	-11.2017
OO	-11.2021
8.08	-11.2024
742	-11.2025
111	-11.2027
▁108	-11.2035
447	-11.2042
Therm	-11.2043
US	-11.2044
820	-11.2064
596	-11.2065
218	-11.2069
6.06	-11.2074
588	-11.2075
brands	-11.2076
▁Series	-11.2076
▁Commerce	-11.2076
▁Management	-11.2076
corner	-11.2079
973	-11.208
470	-11.208
215	-11.2081
1.63	-11.2085
623	-11.2086
0.16	-11.2089
OB	-11.2089
ca	-11.2103
819	-11.2104
6.18	-11.2104
0.48	-11.2104
340	-11.2106
▁Olive	-11.2109
▁15"},"	-11.2113
219	-11.2113
.16</	-11.2125
3.84	-11.2132
Dish	-11.2143
759	-11.2144
rm	-11.2144
599	-11.2145
▁Secur	-11.2145
318	-11.215
▁View	-11.2154
4.06	-11.2158
6.62	-11.2159
mega	-11.2159
696	-11.2172
345	-11.2174
ZM	-11.2175
361	-11.2177
Indoor	-11.2179
Photo	-11.2179
eak	-11.2179
398	-11.218
va	-11.2183
486	-11.2186
▁sub	-11.2188
exampleloyalty	-11.2189
OFF	-11.2192
Tea	-11.2192
8.85	-11.2193
8.44	-11.2197
Under	-11.2199
8.78	-11.22
▁132	-11.22
pizza	-11.2211
▁Alexandr	-11.2211
▁CONT	-11.2211
▁Hougan	-11.2211
▁Plate	-11.2211
oise	-11.2215
446	-11.2215
unning	-11.2219
LK	-11.2224
North	-11.2225
BI	-11.2237
9.62	-11.2239
745	-11.224
727	-11.2243
▁consign	-11.2243
Express	-11.2248
3.18	-11.2248
914	-11.2254
9.42	-11.2266
":"2026-07-1	-11.2267
catering	-11.2279
▁Headphones	-11.2279
643	-11.2282
081	-11.2283
098	-11.2284
9.02	-11.2287
282	-11.2288
671	-11.2288
▁77	-11.2292
ly	-11.2293
ball	-11.2294
▁113	-11.2296
660	-11.2302
dge	-11.232
▁World	-11.2325
GR	-11.2326
OS	-11.2326
5.34	-11.2337
7.66	-11.2342
examplecheckout	-11.2345
technology	-11.2347
tooth	-11.2347
▁Hose	-11.2349
▁12,	-11.2349
1.99	-11.2351
▁112	-11.2352
782	-11.2352
4.84	-11.2357
7.02	-11.2357
CP	-11.2364
4.44	-11.2367
":"107	-11.2367
1.76	-11.2371
home	-11.2377
da	-11.2378
4.26	-11.2387
062	-11.2388
5.82	-11.239
$31	-11.2397
transaction	-11.2398
bu	-11.2406
7.44	-11.2407
print	-11.2414
Quick	-11.2417
LD	-11.2417
esar	-11.2418
▁Kent	-11.242
9.06	-11.2422
pub	-11.2427
089	-11.2436
examplemail	-11.2438
▁4"},"	-11.2441
":"97	-11.2449
Maintenance	-11.2456
8.04	-11.2456
TI	-11.2456
Metr	-11.2457
▁mobile	-11.2459
8.34	-11.2462
are	-11.2462
$28	-11.2463
408	-11.2465
▁86	-11.2469
":"101	-11.2474
▁111	-11.2482
097	-11.2484
462	-11.2485
tours	-11.2485
▁118	-11.2486
▁Drill	-11.2486
▁Clark	-11.2487
▁Purchase	-11.2488
880	-11.2488
▁Curtain	-11.2489
▁122	-11.2494
▁+3	-11.2495
▁Schedu	-11.2496
4.04	-11.2498
5.85	-11.2498
▁Rear	-11.2499
3.78	-11.2501
exampleorders	-11.2517
359	-11.2521
Developer	-11.2525
amount	-11.2526
499	-11.2527
324	-11.2529
044	-11.253
▁121	-11.2532
▁se	-11.2534
▁Food	-11.2545
458	-11.2545
7.18	-11.255
▁140	-11.2551
332	-11.2552
▁Solutions	-11.2556
outfitters	-11.2556
▁Shorts	-11.2556
COT	-11.2561
obson	-11.2562
ore	-11.2564
869	-11.2566
▁98	-11.2567
8.26	-11.2568
4.94	-11.2573
6.42	-11.2576
power	-11.258
023	-11.259
039	-11.2596
414	-11.2599
520	-11.2603
▁153	-11.2607
.48</	-11.261
ng	-11.2615
3.43	-11.2621
556	-11.2624
9.34	-11.2625
▁Depot	-11.2626
sports	-11.2627
ás	-11.2643
▁139	-11.2648
▁144	-11.2656
▁143	-11.2667
":"2024-01-2	-11.2689
8.46	-11.2698
ukasz	-11.2698
▁Ayer	-11.2698
SB	-11.27
255	-11.2706
marketing	-11.2708
":"201	-11.2709
,2026-0	-11.2721
▁Be	-11.2722
0.66	-11.2725
6.52	-11.2733
ZW	-11.2735
Training	-11.2743
7.47	-11.2747
422	-11.275
5.35	-11.2753
930	-11.276
855	-11.2767
▁170	-11.2768
shoes	-11.2768
▁Provisions	-11.2768
custorner	-11.2768
▁Domin	-11.2769
▁Talbot	-11.2769
649	-11.2769
483	-11.2773
322	-11.2789
772	-11.279
▁At	-11.279
▁Char	-11.2793
place	-11.2796
595	-11.2802
387	-11.2803
444	-11.2806
QT	-11.2812
pets	-11.2825
nd	-11.2832
▁v	-11.2833
space	-11.284
joint	-11.284
restaurant	-11.284
Prime	-11.284
▁Outlet	-11.2841
zone	-11.2841
828	-11.2842
▁123	-11.2844
8.36	-11.285
1.28	-11.2853
620	-11.2853
▁Selection	-11.2854
927	-11.2858
":"2024-03-0	-11.2859
7.99	-11.286
▁Charging	-11.2864
ZE	-11.2864
▁128	-11.2874
816	-11.2875
▁Top	-11.2879
3.32	-11.2884
969	-11.2887
Table	-11.289
ver	-11.2891
nket	-11.2894
122	-11.2894
LU	-11.2909
4.97	-11.2909
▁130	-11.2911
8.96	-11.2912
▁Hardware	-11.2913
908	-11.2914
452	-11.2916
5.89	-11.2921
▁2025-	-11.2923
can	-11.2925
▁Entr	-11.2927
7.58	-11.2928
449	-11.2929
0.94	-11.2933
2.12	-11.2935
4.37	-11.294
1.02	-11.2944
lim	-11.2946
▁g	-11.2949
5.16	-11.295
5.98	-11.2951
4.14	-11.2954
lina	-11.2957
Meal	-11.2959
IC	-11.2964
037	-11.2969
▁Bras	-11.297
6.38	-11.2971
6.99	-11.2972
058	-11.2973
708	-11.2974
375	-11.2977
5.9	-11.2978
▁Collins	-11.2986
Server	-11.2986
▁"12	-11.2986
ZG	-11.2989
▁142	-11.2991
All	-11.2991
3.42	-11.2993
CLT	-11.2998
cho	-11.3
9.04	-11.3
673	-11.3001
tab	-11.3004
574	-11.3007
3.85	-11.3008
354	-11.3013
8.48	-11.3019
age	-11.3021
▁l	-11.3023
5.05	-11.3033
4.57	-11.3037
▁125	-11.3043
tion	-11.3045
6.28	-11.3053
689	-11.3055
br	-11.3055
merchandise	-11.3059
salon	-11.3059
▁Square	-11.3059
Flex	-11.3059
coffee	-11.306
engineering	-11.306
$40	-11.3062
713	-11.3065
▁127	-11.3065
9.01	-11.3072
▁Trip	-11.3074
2.42	-11.3075
767	-11.3076
5"},"	-11.3084
7.11	-11.309
▁126	-11.3108
Road	-11.3115
2.35	-11.3129
ocument	-11.3131
3.95	-11.3131
ZL	-11.3131
freight	-11.3133
fashion	-11.3133
foundry	-11.3133
6.02	-11.3135
▁151	-11.3158
▁Cheese	-11.3159
▁i	-11.316
$20	-11.3167
Replacement	-11.3183
6.04	-11.3185
Side	-11.3186
463	-11.3191
7.42	-11.3196
4.67	-11.3198
606	-11.32
523	-11.3202
eacon	-11.3205
▁147	-11.3207
":"2026-03-2	-11.3208
▁Purifier	-11.3208
004	-11.321
▁Besar	-11.3211
8.42	-11.3218
613	-11.3224
▁waybill	-11.3226
8.02	-11.3237
551	-11.3246
429	-11.3247
dless	-11.3247
2.49	-11.3251
▁20"},"	-11.3255
Charging	-11.3259
616	-11.326
080	-11.326
▁27.	-11.3269
▁Entry	-11.3269
hi	-11.3273
▁Event	-11.3276
328	-11.3277
▁PURCHASE	-11.3281
▁you	-11.3281
0.34	-11.3285
elena	-11.3285
9.89	-11.329
9.99	-11.3294
investment	-11.3296
▁Bagg	-11.331
0.54	-11.3312
.26</	-11.3317
4.54	-11.3318
▁CUSTOMER	-11.3323
OI	-11.3325
,12	-11.334
▁119	-11.3341
east	-11.3346
ckup	-11.3347
9.84	-11.3348
orthstar	-11.3348
finance	-11.3359
craft	-11.3359
▁Factory	-11.3359
blue	-11.3359
astern	-11.336
":"100	-11.3365
/2026	-11.3368
0.86	-11.3371
▁Charles	-11.3385
313	-11.3385
mar	-11.3387
6.58	-11.34
▁Thom	-11.3406
7.86	-11.341
.92</	-11.3412
7.37	-11.3413
477	-11.3414
7.55	-11.3416
▁Bakery	-11.3429
3.13	-11.3435
pictures	-11.3435
repair	-11.3435
transport	-11.3435
monds	-11.3435
▁Centre	-11.3435
▁destination	-11.3435
▁Tool	-11.3436
Speed	-11.3436
imah	-11.3438
4.46	-11.3439
6.98	-11.3444
630	-11.345
▁109	-11.3463
5.87	-11.3463
":"2026-05-1	-11.3469
614	-11.3474
▁k	-11.3475
ga	-11.3485
▁cart	-11.349
333	-11.3508
$25	-11.3509
▁"2024-	-11.3511
▁settle	-11.3512
iti	-11.3515
asir	-11.3518
▁Changi	-11.3519
EQ	-11.3521
HJ	-11.3524
▁Du	-11.3524
inch	-11.3529
health	-11.3531
ies	-11.3534
9.76	-11.3541
▁Kings	-11.3552
8.22	-11.356
873	-11.3561
0.37	-11.3563
5.76	-11.3564
buyer	-11.3568
DATE	-11.3568
099	-11.3571
5.32	-11.3579
▁Lounge	-11.3587
526	-11.3592
sent	-11.3593
368	-11.3599
▁Via	-11.36
TT	-11.3601
▁Sale	-11.3604
256	-11.3607
514	-11.361
569	-11.3624
":"2024-12-1	-11.3625
studios	-11.363
▁Port	-11.3634
6.64	-11.3637
▁tota	-11.3638
675	-11.364
$33	-11.3643
client	-11.3646
.76</	-11.3647
is	-11.3648
neta	-11.3651
7.38	-11.3657
662	-11.3662
0.74	-11.3665
Rechargeab	-11.3668
▁Accessories	-11.3668
▁Center	-11.3668
▁Cross	-11.3669
Kamil	-11.3671
gifts	-11.3672
611	-11.3672
6.68	-11.3679
6.82	-11.3688
2.52	-11.3688
6.51	-11.3689
▁buyer	-11.369
8-	-11.37
481	-11.3702
▁Tank	-11.3702
431	-11.3704
3.24	-11.3713
go	-11.3718
examplerewards	-11.3721
▁Green	-11.3727
8.54	-11.3727
711	-11.3727
7.09	-11.3731
Can	-11.3731
":"108	-11.3738
Part	-11.3741
3.88	-11.3744
▁Dynamics	-11.3747
adison	-11.3747
▁133	-11.3753
916	-11.3754
accounting	-11.3755
6.14	-11.3755
7.13	-11.3756
▁East	-11.3759
PA	-11.3772
UT	-11.3775
SH	-11.3781
$32	-11.3785
▁Buk	-11.3786
9.37	-11.3788
ern	-11.3788
419	-11.379
RO	-11.3792
II	-11.3792
Swift	-11.3808
ertex	-11.3824
bra	-11.3824
▁Distributors	-11.3826
Early	-11.3826
style	-11.3827
▁Bourk	-11.3827
9.36	-11.383
▁Hard	-11.3831
ld	-11.3843
▁8"},"	-11.3844
kin	-11.3846
6.54	-11.3847
.04</	-11.3849
2.99	-11.385
Change	-11.3853
▁Lab	-11.3854
▁Marketing	-11.3855
adia	-11.3856
▁107	-11.3861
vr	-11.3863
546	-11.3864
▁Speaker	-11.3864
ZR	-11.3869
inc	-11.3872
":"2024-03-1	-11.3873
EB	-11.3879
Cook	-11.3879
ti	-11.388
052	-11.3883
exampleservice	-11.3884
>$	-11.3886
▁146	-11.3886
":"2026-04-1	-11.3892
ł	-11.3896
576	-11.3896
▁Repair	-11.3898
cean	-11.3904
ZY	-11.3905
apparel	-11.3906
appliances	-11.3906
▁PHONE	-11.3906
▁jala	-11.3908
▁187	-11.391
932	-11.3913
wine	-11.3914
▁"8	-11.3914
":"2026-07-2	-11.3918
5.21	-11.3922
391	-11.3924
":"124	-11.3924
▁154	-11.3933
ade	-11.3935
▁Ti	-11.3938
ORE	-11.394
4.93	-11.3948
8.59	-11.3954
8.58	-11.3959
BO	-11.3959
acific	-11.396
▁Sh	-11.3968
817	-11.397
6.09	-11.3971
▁Mat	-11.3971
▁28.	-11.3974
ubject	-11.3984
508	-11.3985
platform	-11.3987
▁CASHIER	-11.3987
▁Brands	-11.3987
wear	-11.3987
▁148	-11.3988
▁186	-11.3988
5.62	-11.3994
BS	-11.3999
$26	-11.4006
2.91	-11.4009
VE	-11.4014
▁Workshop	-11.4022
":"2026-05-2	-11.4023
6.77	-11.4031
EF	-11.4038
2.85	-11.404
0.76	-11.4041
ioneer	-11.4042
5.94	-11.4042
rrow	-11.4043
AC	-11.4048
,10	-11.4048
9.48	-11.4049
777	-11.4052
COUNT	-11.4052
939	-11.4055
2.84	-11.4065
builders	-11.4068
515	-11.4069
teama	-11.407
068	-11.4071
619	-11.4072
Itern	-11.4072
▁24.	-11.4072
735	-11.4075
RE	-11.4076
.12</	-11.4081
TLE	-11.4083
573	-11.4085
▁104	-11.4086
$38	-11.4093
uter	-11.4096
3.99	-11.4099
▁141	-11.4102
▁w	-11.4102
2.74	-11.4105
pet	-11.4105
4.09	-11.4106
ke	-11.4109
725	-11.4112
":"2024-09-2	-11.4114
7.78	-11.4115
5.99	-11.4127
879	-11.4128
9.95	-11.4128
091	-11.4129
examplepromo	-11.4132
.58</	-11.4136
▁179	-11.4138
▁Corner	-11.4141
living	-11.415
junction	-11.415
▁Circu	-11.415
eljko	-11.415
▁Patrick	-11.415
▁Outfitters	-11.415
Motherboard	-11.4152
7.46	-11.4155
3.55	-11.4155
aki	-11.4155
Battery	-11.4156
▁m	-11.4162
▁Bed	-11.4164
2.25	-11.4169
lum	-11.4171
át	-11.4176
>10	-11.4184
▁Plu	-11.4184
3.86	-11.4187
7.77	-11.419
ZK	-11.4192
tanding	-11.4195
.32</	-11.4195
6.13	-11.4196
2.47	-11.4201
4.38	-11.4203
▁"11	-11.4211
Grill	-11.4215
.72</	-11.4215
Black	-11.4217
Secur	-11.4217
▁Bra	-11.4219
9.26	-11.4223
ontinental	-11.4228
insurance	-11.4232
▁Telok	-11.4233
0.49	-11.4235
Nikola	-11.4236
0.68	-11.4236
5.42	-11.4242
":"2024-12-0	-11.4251
▁Pit	-11.4252
334	-11.4255
▁James	-11.4256
engineers	-11.4256
3.34	-11.4259
West	-11.4265
8.17	-11.4274
8.95	-11.4277
FT	-11.4279
sel	-11.4279
▁final	-11.4279
berg	-11.4294
3.04	-11.4294
KG	-11.4295
IN	-11.4295
607	-11.4297
▁Pre	-11.4297
010	-11.4298
7.12	-11.43
Direct	-11.43
8.55	-11.4302
":"2026-04-2	-11.4303
▁114	-11.4304
▁Sa	-11.4304
":"2026-09-0	-11.4306
exampleoffers	-11.4311
hI	-11.4311
/12/2024	-11.4312
Mus	-11.4313
reserve	-11.4316
▁Visit	-11.4316
▁Reader	-11.4316
▁Kensingto	-11.4316
▁grand	-11.4316
▁handle	-11.4316
Pressure	-11.4317
Rap	-11.4319
products	-11.4319
844	-11.4322
▁Cord	-11.4323
335	-11.4327
7.15	-11.4329
pro	-11.4331
▁+9	-11.4332
7.82	-11.4333
▁Town	-11.4334
LAC	-11.4334
9.46	-11.4336
ker	-11.4341
rnet	-11.4341
3.81	-11.4344
330	-11.4349
7.69	-11.4349
4.22	-11.4349
Mini	-11.4353
":"2024-05-2	-11.4353
5.66	-11.436
788	-11.4362
025	-11.4368
▁150	-11.4369
094	-11.4371
▁145	-11.4371
▁Backpack	-11.4372
AP	-11.4375
▁136	-11.4381
9.33	-11.4382
heet	-11.4388
▁Lee	-11.4389
":"113	-11.4392
▁Foods	-11.4392
▁Mount	-11.4399
▁Consultation	-11.44
!	-11.44
Annual	-11.44
plus	-11.44
▁Sports	-11.4401
▁Rug	-11.4401
059	-11.4403
KT	-11.4406
":"2024-01-0	-11.4407
.98</	-11.4408
▁SHIPP	-11.4408
▁Headset	-11.4412
.02</	-11.4414
thank	-11.442
ummit	-11.4421
ZX	-11.4422
▁117	-11.4426
="10	-11.4426
IT	-11.4444
061	-11.4448
4.59	-11.445
▁Spring	-11.4451
2.55	-11.4451
539	-11.4454
das	-11.4455
9.85	-11.4455
▁Premium	-11.4464
ZU	-11.4469
4.15	-11.4471
che	-11.4479
▁Vacuum	-11.4481
ov	-11.4482
Area	-11.4483
boutique	-11.4484
manufacturing	-11.4484
silver	-11.4484
technologies	-11.4485
analytics	-11.4485
▁Warehouse	-11.4485
▁226	-11.4485
SI	-11.4489
2.21	-11.4494
054	-11.4495
art	-11.4499
ant	-11.45
▁Carter	-11.4502
ZV	-11.4502
8.94	-11.4508
su	-11.451
761	-11.4523
038	-11.4524
▁Tara	-11.4527
Hand	-11.4528
▁Pon	-11.4539
6.47	-11.4539
▁Portable	-11.454
Launch	-11.4555
(	-11.4555
Digital	-11.4556
5.73	-11.456
":"104	-11.4562
5.71	-11.4562
Game	-11.4566
425	-11.4566
624	-11.4569
7.83	-11.457
Electric	-11.457
streaming	-11.457
▁Terminal	-11.457
-6"}],"	-11.4573
712	-11.4574
▁Row	-11.4578
7.21	-11.458
▁Dun	-11.4581
017	-11.4582
8.83	-11.4586
8.98	-11.4586
TE	-11.46
orthwest	-11.4611
6.35	-11.4611
.42</	-11.4613
ling	-11.4613
="2	-11.4617
um	-11.462
ck	-11.4621
9.13	-11.4622
.36</	-11.4624
Comp	-11.4629
426	-11.4631
0.04	-11.4634
XN	-11.4642
Ground	-11.4644
6.03	-11.4648
1.37	-11.4648
examplewarehouse	-11.4655
wireless	-11.4656
▁Controller	-11.4656
▁Pharmacy	-11.4656
/04/2026	-11.4656
▁Plug	-11.4658
▁Buck	-11.4659
":"2026-03-1	-11.4659
.74</	-11.466
▁Mix	-11.4663
ice	-11.4669
3.83	-11.4671
4.48	-11.4672
▁us	-11.4677
2018	-11.4681
915	-11.4682
":"2026-10-2	-11.4682
7.97	-11.4683
5.83	-11.4684
5.51	-11.4684
7.51	-11.47
agh	-11.4706
▁TRANSACTI	-11.4707
Car	-11.4707
MY	-11.4712
":"2026-08-2	-11.4716
▁Lambt	-11.4717
5.55	-11.4717
6.91	-11.4729
Urban	-11.473
Webcam	-11.4732
":"126	-11.4733
8.33	-11.4735
desserts	-11.4743
remedies	-11.4743
/08/2026	-11.4743
First	-11.4743
▁SERVED	-11.4743
/01/2024	-11.4746
▁Rod	-11.4752
72@	-11.4754
▁Roll	-11.4758
Pillow	-11.4763
pur	-11.4765
8.21	-11.4766
62@	-11.4768
":"2024-03-2	-11.4769
6.95	-11.4774
3.58	-11.4774
hu	-11.4774
":"2026-01-2	-11.4774
▁191	-11.4775
ron	-11.4776
IS	-11.4777
AY	-11.4782
36@	-11.479
":"114	-11.4796
688	-11.4797
":"109	-11.4801
XZ	-11.4801
2.98	-11.4805
2.61	-11.4807
way	-11.4812
TX	-11.4813
▁Patio	-11.4814
254	-11.482
HM	-11.4825
▁MAIL	-11.4826
2.69	-11.4827
.22</	-11.4828
Seasonal	-11.4829
093	-11.483
▁Switch	-11.4831
▁Priva	-11.4838
ud	-11.4844
▁Voucher	-11.4845
▁Comfort	-11.485
án	-11.4853
▁152	-11.4854
▁client	-11.4855
essentials	-11.4858
examplebilling	-11.4859
4.51	-11.4872
":"2026-02-0	-11.4873
987	-11.4875
0.84	-11.4877
2.73	-11.488
66-	-11.4881
▁105	-11.4884
Vide	-11.4887
.52</	-11.4889
02"	-11.4889
▁149	-11.489
5.63	-11.4891
di	-11.4894
7.48	-11.4901
8.74	-11.4904
▁Mop	-11.4907
1.64	-11.4908
03-	-11.4908
OY	-11.4915
alcon	-11.4918
3.03	-11.4918
clinic	-11.4919
cycles	-11.4919
optics	-11.4919
showroom	-11.4919
▁Dawson	-11.492
/06/2024	-11.492
":"2024-08-0	-11.492
▁INVO	-11.4921
Dehumidifier	-11.4922
rose	-11.4922
7.61	-11.4925
.96</	-11.4926
TAL	-11.4927
▁Weste	-11.4927
3.25	-11.4936
▁Cook	-11.4947
▁106	-11.4947
▁135	-11.4949
4.74	-11.495
LY	-11.4953
.14</	-11.4953
RA	-11.4956
$35	-11.4963
882	-11.4965
3.29	-11.4965
7.85	-11.4966
.06</	-11.4972
.84</	-11.4973
":"127	-11.4975
Du	-11.4976
7.68	-11.4979
paint	-11.4979
QJ	-11.498
23"	-11.498
/02/2026	-11.4981
SET	-11.4985
▁166	-11.4991
3.91	-11.4997
lassic	-11.4997
Fleet	-11.5003
olding	-11.5006
rue	-11.5007
Long	-11.5008
jewelry	-11.5009
drinks	-11.5009
white	-11.5009
▁Guard	-11.5009
Espresso	-11.5009
NB	-11.5011
9.61	-11.5012
7.01	-11.5015
05-	-11.5027
5.04	-11.5029
949	-11.503
inner	-11.5031
LT	-11.5032
ZH	-11.5033
▁Te	-11.5037
5.13	-11.5037
hipment	-11.5041
BBQ	-11.5054
Nur	-11.5055
52-	-11.5057
8.49	-11.506
▁"$	-11.506
0.47	-11.5064
South	-11.5066
07-	-11.5067
▁Fast	-11.5068
":"122	-11.5069
cl	-11.507
":"2024-04-1	-11.507
eo	-11.5071
elm	-11.5073
":"2026-01-1	-11.5076
TR	-11.5078
":"140	-11.5079
UI	-11.5079
Co	-11.5086
UY	-11.5086
Room	-11.509
ET	-11.5091
9.63	-11.5091
ZZ	-11.5093
042	-11.5094
fitness	-11.5099
▁Kettle	-11.5099
▁Willis	-11.5099
/04/2024	-11.5099
/03/2024	-11.5099
ayla	-11.5103
8.93	-11.5104
▁36,	-11.5107
Thr	-11.5109
2.95	-11.512
▁167	-11.5121
8.68	-11.5121
6.84	-11.5125
Eagl	-11.5132
4.85	-11.5137
9.38	-11.5145
26-	-11.5145
DT	-11.5145
▁Wood	-11.5158
0.02	-11.5159
LJ	-11.5166
▁rm	-11.5175
Monthly	-11.518
Dry	-11.5187
trucking	-11.519
devices	-11.519
▁Materials	-11.519
workshop	-11.519
▁Glanmir	-11.519
▁STAFF	-11.519
▁Juice	-11.519
Reusab	-11.5192
9.55	-11.5193
5.36	-11.5195
ens	-11.5196
Processor	-11.5197
465	-11.5204
5.48	-11.5215
9.23	-11.5216
7.67	-11.5217
East	-11.522
rental	-11.522
▁Da	-11.5227
▁Host	-11.5229
2.03	-11.523
▁Family	-11.5231
▁sold	-11.5236
018	-11.5237
DVD	-11.5241
4.55	-11.5244
IV	-11.5248
lc	-11.5248
79-	-11.5248
Khal	-11.525
ZJ	-11.5252
77-	-11.5254
▁pos	-11.5258
Purchase	-11.527
BD	-11.5274
▁Man	-11.5275
Tool	-11.5277
YT	-11.5277
Day	-11.5277
▁Karangahap	-11.5282
▁Served	-11.5282
▁Brough	-11.5282
nahan	-11.5282
▁change	-11.5283
▁Gar	-11.5286
1.29	-11.5288
UK	-11.5313
▁184	-11.5317
075	-11.5325
▁124	-11.5325
▁110	-11.533
bi	-11.5339
2.29	-11.5341
Uni	-11.5357
NET	-11.536
urge	-11.5362
.18</	-11.5363
48"	-11.5367
Holiday	-11.5367
Mix	-11.5367
ster	-11.5368
lake	-11.5369
.46</	-11.5372
44"	-11.5373
▁AT	-11.5373
KX	-11.5374
developers	-11.5374
warehousing	-11.5374
▁Ladder	-11.5374
/07/2026	-11.5374
Anchor	-11.5374
Virtua	-11.5374
▁Liverpoo	-11.5374
▁Broad	-11.5375
Meet	-11.5376
reader	-11.5378
▁Camd	-11.538
ction	-11.538
":"120	-11.538
▁Colle	-11.5381
▁Pot	-11.5381
LN	-11.5381
▁181	-11.5382
▁Harris	-11.5385
LB	-11.5394
.86</	-11.5396
events	-11.5398
live	-11.5399
NT	-11.5402
▁Boots	-11.5402
437	-11.5405
1.74	-11.5411
7.64	-11.5413
":"2026-10-1	-11.5415
▁163	-11.5415
▁Photo	-11.5419
Bar	-11.5421
33@	-11.5422
4.47	-11.5429
5.15	-11.5434
AND	-11.5438
▁School	-11.5441
WJ	-11.5442
NF	-11.5447
YK	-11.5453
4.42	-11.5455
Sh	-11.5458
9.98	-11.5459
▁payrnent	-11.546
▁25,	-11.5467
gallery	-11.5467
/10/2026	-11.5468
▁VIA	-11.5469
▁BEF	-11.547
corn	-11.5472
▁Studios	-11.5476
9.74	-11.5481
6.83	-11.5482
▁193	-11.5488
6.63	-11.549
▁Sy	-11.5491
5.53	-11.5492
":"134	-11.5495
09-	-11.5497
NW	-11.55
▁138	-11.5506
tre	-11.5512
KE	-11.5512
9.77	-11.5515
.24</	-11.5519
9.58	-11.5525
.08</	-11.5533
":"2024-05-0	-11.5536
JK	-11.5539
":"2025-02-1	-11.5544
90@	-11.5546
source	-11.5554
ervice	-11.5554
DX	-11.5558
financial	-11.5562
4.68	-11.5562
▁Fryer	-11.5562
Microwav	-11.5562
▁Graft	-11.5562
▁Bracket	-11.5562
Barcode	-11.5562
▁Agency	-11.5562
2.79	-11.5564
▁Expressway	-11.5565
hospitality	-11.5569
88-	-11.5573
645	-11.5576
ara	-11.5584
11-	-11.559
7.59	-11.5591
-5"},{"@	-11.5593
01-	-11.5601
1.09	-11.5603
625	-11.5604
▁223	-11.5605
8.61	-11.5609
6.39	-11.5611
5.64	-11.5613
RY	-11.5614
$37	-11.5616
tting	-11.5617
ZB	-11.5619
▁Hoodie	-11.5621
7.63	-11.5625
62-	-11.563
.62</	-11.5632
":"118	-11.5633
.34</	-11.5639
4.17	-11.5643
WB	-11.5643
8.76	-11.5646
GU	-11.5648
1.71	-11.5649
EN	-11.5651
Outdoor	-11.5654
▁clerk	-11.5657
▁Pa	-11.566
vertex	-11.566
9.67	-11.5665
park	-11.5667
424	-11.567
8.13	-11.5679
.82</	-11.5679
7.95	-11.568
ZP	-11.5683
492	-11.5685
rt	-11.5685
Seat	-11.5686
▁Towels	-11.5686
▁Henry	-11.5689
du	-11.5696
802	-11.5699
lan	-11.57
▁Products	-11.5702
/12/2026	-11.5703
▁Brown	-11.5706
":"2024-10-2	-11.5713
VM	-11.5717
5.37	-11.5717
GE	-11.5719
TH	-11.5721
0.36	-11.5725
8.29	-11.5726
Petr	-11.5727
nee	-11.5745
supplies	-11.5753
ountain	-11.5753
▁Joint	-11.5753
Toner	-11.5754
Shoe	-11.5758
ZN	-11.576
":"2024-09-1	-11.5761
XI	-11.5762
60-	-11.5765
8.35	-11.5769
6.89	-11.5771
XM	-11.5788
XF	-11.5789
MX	-11.5797
5.93	-11.5803
0.75	-11.5813
EE	-11.5817
▁249	-11.5821
LX	-11.5822
0.85	-11.5824
▁Rentals	-11.5827
JM	-11.5833
7.57	-11.5836
ni	-11.5836
":"111	-11.5846
▁Pro	-11.5846
617	-11.5847
Hotel	-11.5848
elocity	-11.5849
4.77	-11.5849
▁Player	-11.585
▁Apparel	-11.585
atarina	-11.585
/10/2024	-11.5851
▁Aungi	-11.5851
▁CASH	-11.5852
ZA	-11.5853
▁AMT	-11.5857
Fatima	-11.5857
316	-11.586
▁Flash	-11.5864
▁Tie	-11.5867
perator	-11.587
HD	-11.5871
="0	-11.5874
MM	-11.588
▁Research	-11.588
DY	-11.5885
▁Trade	-11.5892
do	-11.5894
092	-11.5895
▁Laundry	-11.5896
Bo	-11.5898
▁Accounting	-11.5901
6.17	-11.5904
":"2026-02-1	-11.5904
ci	-11.5906
ite	-11.5908
-8"}],"	-11.591
":"129	-11.5912
JG	-11.5916
▁27,	-11.5917
▁Label	-11.5919
6.74	-11.5923
143	-11.593
5.95	-11.5931
SE	-11.5937
8.75	-11.5939
▁32,	-11.594
44@	-11.5942
Shipper	-11.5947
Global	-11.5948
eatery	-11.5948
architects	-11.5948
theater	-11.5948
electrics	-11.5948
surplus	-11.5948
mmercial	-11.5948
▁Engineers	-11.5948
▁Technology	-11.5948
▁Doorbell	-11.5949
flight	-11.5949
Display	-11.5949
Sports	-11.5949
Cross	-11.5949
▁Desserts	-11.5949
▁Jaya	-11.5949
▁Cabinet	-11.595
Doormat	-11.5952
ita	-11.5957
Ethe	-11.5959
0.53	-11.596
ND	-11.596
nterstate	-11.5965
/11/2024	-11.5965
▁Decor	-11.5966
14@	-11.5973
Belt	-11.5981
ü	-11.5983
GW	-11.5987
electronics	-11.5993
ecure	-11.6004
ZQ	-11.6011
014	-11.6012
aving	-11.6012
04-	-11.6012
-7"}],"	-11.6013
▁156	-11.603
ZO	-11.6031
Sk	-11.6031
":"2025-07-1	-11.6031
4.11	-11.6035
▁Curbside	-11.6036
64@	-11.604
JD	-11.6042
439	-11.6046
▁White	-11.6046
▁Merri	-11.6046
Snack	-11.6047
medical	-11.6047
Camping	-11.6047
Blanket	-11.6047
Soft	-11.6047
▁Strategy	-11.6048
/03/2025	-11.6048
/05/2025	-11.6048
▁Bowen	-11.6048
host	-11.6048
6.73	-11.6049
grand	-11.605
PURCHASE	-11.6051
strategies	-11.6051
Router	-11.6051
3.48	-11.6058
2.71	-11.6059
HH	-11.6059
▁30,	-11.6063
Basic	-11.6064
▁Ma	-11.6066
RI	-11.6068
RL	-11.6073
▁Hat	-11.6075
RAM	-11.6077
▁Dine	-11.6085
▁137	-11.6085
▁158	-11.609
.38</	-11.6093
71@	-11.6096
▁172	-11.6105
ZD	-11.6109
.54</	-11.6112
vi	-11.613
lt	-11.6135
EU	-11.6135
917	-11.614
▁00	-11.6141
over	-11.6141
wellness	-11.6147
skincare	-11.6147
/04/2025	-11.6148
Custorner	-11.6148
▁CODE	-11.6148
▁Showroom	-11.6148
lu	-11.6148
settle	-11.6148
Main	-11.6149
20@	-11.6149
▁Zone	-11.6149
▁Murphy	-11.6153
▁San	-11.6153
;00"	-11.6157
6.97	-11.6157
":"2025-09-1	-11.6159
FN	-11.6166
za	-11.6168
iv	-11.617
912	-11.6177
1.13	-11.6178
1.87	-11.6183
TA	-11.6185
XB	-11.6187
QM	-11.6191
.44</	-11.6197
37@	-11.6201
NN	-11.6202
NY	-11.6202
901	-11.6203
Southern	-11.6203
41@	-11.6203
▁Arm	-11.621
5.01	-11.621
ark	-11.6212
.99</	-11.6215
LQ	-11.6216
.46"	-11.6217
08"	-11.6222
39@	-11.6228
ture	-11.6231
▁Track	-11.6231
4.25	-11.6231
5.69	-11.6232
▁de	-11.6239
9.21	-11.6242
▁DISCOUNT	-11.6248
materials	-11.6248
▁Stylus	-11.6248
▁Strcet	-11.6249
Upgrade	-11.6251
▁PRE	-11.6253
34@	-11.6258
GF	-11.6261
6.49	-11.6261
3.49	-11.6261
YV	-11.6264
91@	-11.6269
tore	-11.627
":"106	-11.6271
WX	-11.6273
YM	-11.6279
3.01	-11.6282
8.53	-11.6284
8.45	-11.6286
peak	-11.6288
▁Tr	-11.629
09"	-11.6291
6.21	-11.6293
6.67	-11.6296
8.39	-11.6299
QW	-11.6301
ino	-11.6307
eiko	-11.6307
YZ	-11.6308
8.71	-11.6315
.66</	-11.6324
14"	-11.6329
FU	-11.6329
2.65	-11.6333
▁218	-11.6335
UJ	-11.634
86@	-11.634
69-	-11.6344
ras	-11.6349
WR	-11.6349
furniture	-11.635
lounge	-11.635
Excel	-11.6351
Vector	-11.6351
/07/2025	-11.6351
Pasta	-11.6351
▁Industries	-11.6351
Close	-11.6351
GC	-11.6351
06-	-11.6352
▁Oven	-11.6352
Unifor	-11.6352
printing	-11.6354
":"2026-03-0	-11.6355
gold	-11.6355
FC	-11.6356
.92"	-11.6357
":"2024-06-1	-11.6363
west	-11.6363
0.73	-11.6365
CU	-11.6365
7.79	-11.6367
▁Hu	-11.6367
▁Den	-11.6373
VK	-11.6374
75-	-11.6374
▁Bou	-11.6379
7.89	-11.6381
8.65	-11.6382
UC	-11.6383
2@	-11.6393
▁Pad	-11.6395
EL	-11.6396
XW	-11.6399
/02/2025	-11.6404
98@	-11.6406
9.59	-11.6408
▁Investments	-11.6412
KY	-11.6415
YW	-11.6416
▁192	-11.6419
ZF	-11.6421
6.15	-11.6423
6.69	-11.6424
UU	-11.6427
RC	-11.6428
IE	-11.6432
aisa	-11.6434
":"2024-01-1	-11.6438
AG	-11.6441
VB	-11.6446
orthern	-11.6448
WI	-11.6448
insights	-11.645
district	-11.6453
sciences	-11.6453
brook	-11.6454
tlantic	-11.6454
/05/2024	-11.6454
open	-11.6454
▁Creek	-11.6454
▁240	-11.6454
▁Pak	-11.6458
Lounge	-11.6458
▁Pu	-11.6459
/11/2026	-11.6463
▁Cong	-11.6466
":"2026-11-0	-11.6467
ZC	-11.647
NX	-11.6477
61@	-11.6484
OX	-11.6486
5.54	-11.6486
JB	-11.6487
":"2024-02-1	-11.6488
ass	-11.649
page	-11.6491
Amir	-11.6492
25"	-11.6494
TW	-11.6496
▁175	-11.6503
16"	-11.6504
842	-11.651
MK	-11.651
24-	-11.6511
WO	-11.6514
VW	-11.6514
UF	-11.6516
68@	-11.6526
7.87	-11.6529
.54"	-11.653
▁Projector	-11.6532
▁168	-11.6533
UX	-11.654
▁"0	-11.6541
="12	-11.6543
▁Device	-11.6543
arcel	-11.6545
Slow	-11.6545
▁He	-11.6545
BQ	-11.6547
6.33	-11.6549
MCC	-11.6549
ZS	-11.6551
▁24,	-11.6551
▁till	-11.6553
▁Board	-11.6555
▁process	-11.6555
maintenance	-11.6558
▁Development	-11.6558
▁Eliza	-11.6558
š	-11.6558
▁Mosley	-11.6558
Round	-11.6558
packaging	-11.6558
▁Staff	-11.6559
▁Pub	-11.656
▁Granvi	-11.6563
Tender	-11.6563
XG	-11.6563
▁39,	-11.6564
und	-11.6564
▁Cruz	-11.6569
ura	-11.6571
▁Foundry	-11.6572
Toaster	-11.658
0.01	-11.6581
umi	-11.6581
18"	-11.6582
VIP	-11.6584
▁Little	-11.6586
DB	-11.6591
UR	-11.6592
0.58	-11.6598
▁MG	-11.66
▁Investment	-11.66
venture	-11.66
ell	-11.6603
25-	-11.6605
sley	-11.6608
87@	-11.6616
JE	-11.6619
2.36	-11.6626
FY	-11.6627
Productivi	-11.6628
uhani	-11.6629
":"2024-10-1	-11.6632
▁doc	-11.6638
0000	-11.6641
4.13	-11.6647
▁216	-11.6647
LO	-11.6648
40@	-11.6648
8.73	-11.6653
UM	-11.6656
1.11	-11.6659
XK	-11.666
":"2026-05-0	-11.6661
strategy	-11.6663
▁Jackson	-11.6663
Next	-11.6663
▁charged	-11.6663
MAIL	-11.6667
ANCE	-11.6668
Glass	-11.6668
▁Amt	-11.6672
BT	-11.6676
Shelf	-11.6676
Screen	-11.6677
UO	-11.6683
motors	-11.6684
FR	-11.6686
RX	-11.6688
▁William	-11.6695
▁balance	-11.6699
GM	-11.67
▁21,	-11.6701
▁Settle	-11.6708
FJ	-11.6708
books	-11.6712
89@	-11.6713
54@	-11.6732
▁124.	-11.6732
▁Corn	-11.6734
▁Restaurant	-11.6735
MH	-11.6736
outhwest	-11.6746
▁WE	-11.675
akari	-11.675
▁199	-11.6751
RV	-11.6752
.65</	-11.6754
if	-11.6755
XH	-11.6755
▁2017	-11.6758
GA	-11.6762
JX	-11.6762
▁Hills	-11.6762
OD	-11.6764
SIM	-11.6769
QQ	-11.6769
AD	-11.6769
limited	-11.6769
creative	-11.6769
/07/2024	-11.6769
ivery	-11.677
▁Cooler	-11.677
Empir	-11.677
patio	-11.677
▁Lens	-11.6772
Fresh	-11.6773
YB	-11.6774
Orange	-11.6776
White	-11.6777
yber	-11.6778
0.19	-11.6779
BW	-11.678
MR	-11.6781
7.03	-11.6784
5.61	-11.6785
81@	-11.6786
▁Bath	-11.6787
.68"	-11.6788
3.71	-11.6793
▁Design	-11.6793
9.83	-11.6793
0.69	-11.6793
JY	-11.6795
▁207	-11.6796
78@	-11.6797
▁Theater	-11.6799
car	-11.6801
▁An	-11.6804
FQ	-11.681
28"	-11.681
13@	-11.6821
XY	-11.6822
HY	-11.6824
▁Drinks	-11.6827
2.77	-11.6828
VQ	-11.6842
bs	-11.6844
MA	-11.6848
ECC	-11.6852
lia	-11.6853
8.63	-11.6856
32@	-11.6857
iko	-11.6862
":"2025-05-2	-11.6863
30@	-11.6865
▁Curtains	-11.6868
ZI	-11.6869
▁10,	-11.6869
▁303	-11.6873
99-	-11.6874
holiday	-11.6877
dining	-11.6877
operations	-11.6877
telecom	-11.6877
decor	-11.6877
UA	-11.6877
▁counter	-11.6877
▁Douglas	-11.6877
▁Soap	-11.6877
▁Bund	-11.6877
▁Hamper	-11.6877
7.53	-11.688
north	-11.688
▁Press	-11.6882
payrnent	-11.6886
1.49	-11.6892
.78</	-11.6898
38@	-11.6899
▁Developers	-11.6906
resources	-11.6909
45</	-11.691
WG	-11.6914
▁LB	-11.6915
PH	-11.692
EO	-11.6921
Essential	-11.6922
":"2025-01-1	-11.6923
nt	-11.6929
.89</	-11.6931
57-	-11.6931
73@	-11.6935
▁Blue	-11.694
RW	-11.6941
":"2024-04-0	-11.6941
9.45	-11.6942
FA	-11.6946
venue	-11.6949
ENT	-11.6952
BU	-11.6954
rit	-11.6957
▁Living	-11.6958
JF	-11.6959
OU	-11.696
▁230	-11.6963
QY	-11.6963
▁"14	-11.6966
77@	-11.6968
▁2024-	-11.6971
$42	-11.6973
UB	-11.6977
HA	-11.698
UE	-11.6981
EJ	-11.6984
fresh	-11.6985
textiles	-11.6985
cargo	-11.6986
Venture	-11.6986
▁Container	-11.6986
▁Clothing	-11.6986
/02/2024	-11.6986
Soundbar	-11.6988
Humidifier	-11.6988
":"160	-11.6989
crown	-11.6989
":"2026-12-2	-11.6992
ory	-11.6994
mode	-11.6996
JI	-11.6998
gr	-11.6999
RM	-11.7002
▁Health	-11.7006
new	-11.7006
nova	-11.7007
▁178	-11.7009
Atla	-11.701
LI	-11.7011
Mop	-11.7011
8.03	-11.7011
VA	-11.7012
▁Hospitality	-11.7013
oo	-11.7013
▁Networks	-11.7016
Lars	-11.7017
iman	-11.7018
80@	-11.7019
JR	-11.702
▁189	-11.7023
KJ	-11.7024
▁301	-11.7024
UG	-11.7027
▁Cons	-11.7032
MO	-11.7035
83@	-11.7037
0.39	-11.7038
▁11,	-11.704
9.69	-11.7047
ingapore	-11.705
Ja	-11.7055
iao	-11.7058
QH	-11.706
LH	-11.7062
XD	-11.7066
1.93	-11.7067
.2024	-11.7069
57"	-11.7074
Line	-11.7079
▁34,	-11.7082
":"166	-11.7083
21-	-11.7085
▁268	-11.7086
":"123	-11.7086
Privat	-11.7087
JC	-11.7088
act	-11.7089
9.05	-11.709
9.57	-11.7093
▁116	-11.7093
NS	-11.7095
brewing	-11.7095
distribution	-11.7095
research	-11.7095
trends	-11.7095
/03/2026	-11.7096
▁Paint	-11.7103
94-	-11.7105
nc	-11.7106
4.95	-11.7106
Repair	-11.7106
▁Junction	-11.711
9.79	-11.7114
74@	-11.7115
4@	-11.7119
Space	-11.712
▁Bags	-11.7124
":"2025-10-2	-11.7124
▁165	-11.7129
▁40,	-11.7134
":"2026-06-2	-11.7142
0.67	-11.7144
▁18,	-11.7144
The	-11.7146
04"	-11.7149
VT	-11.7156
8.23	-11.7156
BL	-11.7159
EM	-11.716
.69</	-11.716
9.93	-11.7163
WT	-11.7164
AX	-11.7164
YL	-11.7165
▁ref	-11.7171
QZ	-11.7173
VL	-11.7175
/12/2025	-11.7177
WQ	-11.7178
ortheast	-11.7178
▁SH	-11.7181
":"2024-08-2	-11.7183
▁155	-11.7192
▁19,	-11.7193
FD	-11.7197
3.37	-11.7202
06",	-11.7203
="2025-	-11.7203
vision	-11.7205
▁Wipes	-11.7207
▁Architects	-11.7207
▁Frame	-11.7207
UH	-11.7207
▁Strategies	-11.7207
▁22,	-11.7214
advisors	-11.7215
LA	-11.7215
28</	-11.7217
▁Kam	-11.7218
Harbor	-11.7218
Gold	-11.7224
▁Mile	-11.7228
cs	-11.723
gal	-11.7233
821	-11.7236
6.27	-11.7238
":"2026-08-1	-11.7238
Shar	-11.7243
▁Reserve	-11.7244
▁Fashion	-11.7247
DF	-11.7247
red	-11.725
HQ	-11.7252
▁38,	-11.7257
OW	-11.7258
Ash	-11.7261
":"125	-11.7262
LV	-11.7268
▁Na	-11.7271
▁26,	-11.7272
▁Tier	-11.7273
49"	-11.7275
02-	-11.7277
9.47	-11.7279
KM	-11.7285
FV	-11.7288
.67"	-11.7293
▁37,	-11.7297
organ	-11.7299
7.45	-11.7301
26@	-11.7303
WL	-11.7304
TCC	-11.7305
FF	-11.7305
sive	-11.7312
":"164	-11.7312
RG	-11.7312
4.63	-11.7318
▁160	-11.7318
concepts	-11.7319
innovations	-11.7319
▁Technologies	-11.7319
▁Pope	-11.7319
/08/2024	-11.7319
harlotte	-11.7319
▁copy	-11.7319
47-	-11.7319
▁Lyon	-11.7319
39-	-11.7322
FH	-11.7323
.04.2025	-11.7323
IF	-11.7328
▁Machine	-11.7329
53-	-11.7329
":"2024-11-2	-11.733
▁Merchandise	-11.7332
gst	-11.7335
ME	-11.7335
▁as	-11.7336
YE	-11.7337
%	-11.7339
.05</	-11.7341
inoa	-11.7341
▁Catering	-11.7345
84-	-11.7345
EX	-11.735
DN	-11.7352
4.39	-11.7352
29",	-11.7353
▁196	-11.7353
urn	-11.7354
▁Hol	-11.7356
YY	-11.7357
▁164	-11.7357
gi	-11.7361
12-	-11.7364
CR	-11.7364
QL	-11.7364
3.39	-11.7365
RZ	-11.7367
31@	-11.7369
="8	-11.7369
UQ	-11.737
4.61	-11.737
▁Metr	-11.7371
LC	-11.7371
8.69	-11.7371
Step	-11.7377
/09/2025	-11.7388
$41	-11.7401
▁Fre	-11.7402
▁Wall	-11.7403
▁Kildar	-11.7403
$36	-11.7404
IZ	-11.7405
▁Marin	-11.7406
":"2026-11-2	-11.741
45@	-11.7412
rc	-11.7419
▁64.	-11.7421
YC	-11.7425
PT	-11.7425
▁Rain	-11.7427
EY	-11.7428
,23	-11.7429
/01/2025	-11.743
24@	-11.7431
bistro	-11.7432
footwear	-11.7433
▁Hooks	-11.7433
▁MERCHAN	-11.7433
▁District	-11.7433
▁Eatery	-11.7433
▁Remedies	-11.7433
Knif	-11.7433
/10/2025	-11.7433
borough	-11.7433
▁Appliances	-11.7433
▁Harc	-11.7435
Sunglasses	-11.7435
game	-11.7435
▁180	-11.7436
▁Node	-11.7438
IG	-11.7438
":"2024-11-0	-11.7442
GI	-11.7443
XT	-11.7444
NU	-11.7445
7.36	-11.7446
Golden	-11.7447
Silver	-11.7448
XE	-11.7448
Box	-11.7448
▁100.	-11.7449
LP	-11.745
LZ	-11.7452
9.29	-11.7453
/11/2025	-11.7454
▁city	-11.7461
▁Am	-11.7463
="07	-11.7464
-31"},{"@	-11.7469
5.81	-11.7472
96@	-11.7473
Compute	-11.7473
▁DISPATCH	-11.7474
ko	-11.7474
BF	-11.7475
▁000	-11.7475
Sun	-11.7477
NAS	-11.7477
▁290	-11.7478
3.79	-11.7479
15@	-11.7479
ES	-11.7483
1.79	-11.7488
ML	-11.7489
▁Worldwide	-11.7489
view	-11.749
XV	-11.7492
3.17	-11.7503
▁Coat	-11.7504
":"2025-07-0	-11.7504
FW	-11.7509
To	-11.7513
tal	-11.7513
7.73	-11.7514
▁177	-11.7517
KL	-11.7519
SU	-11.7521
UN	-11.7525
ref	-11.7525
42@	-11.7528
08",	-11.7528
GT	-11.753
06"	-11.7532
▁306	-11.7534
VU	-11.7537
roasters	-11.7547
utilities	-11.7547
refreshments	-11.7547
Samuel	-11.7548
▁Richmond	-11.7548
Final	-11.7548
petcare	-11.7548
Open	-11.7549
ataka	-11.7549
PB	-11.7551
aple	-11.7553
-49"},{"@	-11.7553
EW	-11.756
Compress	-11.7563
1.58	-11.7566
93@	-11.7568
51@	-11.7569
VH	-11.7572
IY	-11.7574
Ch	-11.7575
mir	-11.7578
▁Electronics	-11.7578
":"162	-11.7578
▁Mary	-11.7579
4.03	-11.7581
▁Young	-11.7591
AW	-11.7593
▁Rock	-11.7594
Bath	-11.7594
4.65	-11.7596
22"	-11.7603
5.75	-11.7604
9.35	-11.7605
▁Print	-11.7605
▁John	-11.7605
▁35,	-11.7607
85@	-11.7611
▁Check	-11.7612
Ra	-11.7614
AU	-11.7616
▁248	-11.7617
94@	-11.7623
66@	-11.7624
9.25	-11.7627
="5	-11.7632
▁131	-11.7643
sea	-11.7649
EP	-11.7659
MT	-11.7659
obal	-11.766
5.39	-11.766
▁Productivi	-11.7661
FK	-11.7662
-10"},{"@	-11.7663
automotive	-11.7664
clear	-11.7664
▁Skincare	-11.7664
▁Batteries	-11.7664
▁Corporation	-11.7664
/08/2025	-11.7664
External	-11.7664
▁Fitzwillia	-11.7664
ló	-11.7664
▁Style	-11.7664
▁Fanshaw	-11.7664
▁Salon	-11.7664
Croissant	-11.7665
▁Fare	-11.7667
76@	-11.7669
8.77	-11.7671
.77</	-11.7672
professionals	-11.7672
▁Net	-11.7677
aO	-11.768
Refill	-11.7681
CREATED	-11.7682
ali	-11.7686
DJ	-11.7688
▁Salad	-11.7693
GV	-11.7695
ala	-11.7696
59@	-11.7701
mc	-11.7702
RR	-11.771
▁225	-11.7712
GK	-11.7717
67@	-11.7718
que	-11.7719
4.99	-11.772
":"2024-10-0	-11.7721
0.95	-11.7721
25@	-11.7723
WV	-11.7726
▁Drink	-11.7727
▁Per	-11.7728
▁Tel	-11.7729
":"182	-11.7732
▁211	-11.7736
WA	-11.7737
▁195	-11.7749
LW	-11.775
.93</	-11.775
▁29,	-11.7755
TC	-11.7755
37"	-11.7756
▁Tech	-11.7757
58-	-11.7758
river	-11.776
65@	-11.776
VF	-11.7764
5.74	-11.7765
WC	-11.7766
6.87	-11.7767
NCC	-11.7767
":"241	-11.777
▁Ami	-11.7778
sole	-11.7778
MI	-11.7781
burgers	-11.7781
▁Flores	-11.7781
pantry	-11.7781
Commu	-11.7781
▁Packaging	-11.7782
FINAL	-11.7782
MJ	-11.7783
▁Hotel	-11.7784
Anja	-11.7785
ourt	-11.7786
":"2026-07-0	-11.7787
":"303	-11.7795
NO	-11.7795
9.51	-11.7798
moon	-11.7799
YH	-11.7799
Horizon	-11.78
▁SHIPPED	-11.7801
Track	-11.7803
Rice	-11.7804
0.97	-11.7805
2.83	-11.7805
OM	-11.7806
Mail	-11.7809
IQ	-11.7809
QX	-11.7814
HB	-11.7814
XO	-11.7815
68-	-11.7816
09</	-11.7817
Paid	-11.7818
9@	-11.7826
▁Kh	-11.7826
Cu	-11.7826
.29</	-11.7827
▁Fitness	-11.7835
FG	-11.7836
▁Merchant	-11.7837
PY	-11.7837
44-	-11.784
17@	-11.7845
EZ	-11.7848
CL	-11.7854
etu	-11.7855
ubscription	-11.7855
vt	-11.7857
IM	-11.786
Rob	-11.7862
Bus	-11.7862
MF	-11.7863
▁Custom	-11.7864
RU	-11.7867
3.57	-11.787
6.01	-11.7871
":"2024-05-1	-11.7879
JU	-11.7881
ndar	-11.7883
84@	-11.7884
36"	-11.7892
rich	-11.7893
▁Melbou	-11.7896
AH	-11.7896
.47</	-11.7899
FE	-11.7899
ference	-11.79
Picture	-11.79
specialists	-11.79
development	-11.79
metro	-11.79
▁Causeway	-11.7901
▁Concepts	-11.7901
▁Trends	-11.7901
▁Dixon	-11.7901
/06/2025	-11.7901
▁bhd	-11.7901
Clerk	-11.7901
itamin	-11.7901
5.58	-11.7901
▁Pictures	-11.7901
prime	-11.7901
birch	-11.7902
▁182	-11.7903
QB	-11.7904
YR	-11.7904
oak	-11.7905
akumi	-11.7905
XA	-11.7906
▁Wash	-11.7906
-34"},{"@	-11.7908
AK	-11.7908
stone	-11.7912
7.25	-11.7913
JH	-11.7915
▁Evans	-11.7916
ji	-11.7918
Carrier	-11.7921
0.98	-11.7921
-26"},{"@	-11.7923
":"2024-02-2	-11.7924
12"	-11.7925
ini	-11.7925
8.99	-11.7925
VX	-11.7926
▁Emm	-11.7927
9.81	-11.7932
ug	-11.7935
YP	-11.7938
RB	-11.7939
GQ	-11.794
Adh	-11.7941
UD	-11.7942
Email	-11.7953
JN	-11.7953
95@	-11.7957
LR	-11.7959
":"2024-08-1	-11.7961
UCC	-11.7962
▁Merchants	-11.7964
":"180	-11.7965
BR	-11.7966
NK	-11.7968
":"183	-11.7971
75@	-11.7971
-64"},{"@	-11.7974
▁Devices	-11.7974
KK	-11.7976
exampledelivery	-11.7981
YJ	-11.7981
70@	-11.7982
60@	-11.7982
0.55	-11.7985
58@	-11.7987
FX	-11.7987
▁243	-11.7989
▁Dining	-11.799
▁Cre	-11.7993
7@	-11.7997
BG	-11.8007
▁FULFILL	-11.8009
industria	-11.8009
▁Hel	-11.8014
HE	-11.8018
arolina	-11.802
▁Thermostat	-11.8021
informatics	-11.8021
furnishings	-11.8021
concierge	-11.8021
plaza	-11.8021
publishing	-11.8021
first	-11.8021
/05/2026	-11.8021
▁Operations	-11.8021
▁Moles	-11.8021
Rush	-11.8021
▁OConnel	-11.8022
Elite	-11.8022
$63	-11.8023
▁Linco	-11.8023
WN	-11.8024
Loyalty	-11.8025
1.65	-11.8026
▁Fit	-11.8028
22@	-11.8031
MQ	-11.8032
HN	-11.8033
GY	-11.8033
":"159	-11.8035
0.65	-11.8037
▁Roma	-11.8038
11@	-11.8038
QG	-11.8039
35@	-11.8039
Plus	-11.8042
Green	-11.8044
iterns	-11.8044
HK	-11.8046
▁31,	-11.805
Ia	-11.805
LF	-11.8051
6.65	-11.8051
MG	-11.8054
▁USB	-11.8056
.43</	-11.806
eng	-11.8066
▁Soup	-11.8073
HG	-11.8073
▁15,	-11.8075
1.31	-11.8077
side	-11.8079
WZ	-11.8079
5.27	-11.808
BE	-11.8081
/2025	-11.8083
KH	-11.8086
57@	-11.8086
pex	-11.809
KB	-11.809
50-	-11.8091
2.63	-11.8094
":"2024-02-0	-11.8095
9.11	-11.8097
ever	-11.8103
.97</	-11.8106
27@	-11.8107
▁254	-11.8108
▁309	-11.8112
FL	-11.8119
":"2024-11-1	-11.812
anja	-11.8121
.61</	-11.8125
GL	-11.8127
VO	-11.8128
UV	-11.8132
eritage	-11.8138
growers	-11.8143
nutrition	-11.8143
▁Maker	-11.8143
▁Medical	-11.8143
▁Nutrition	-11.8143
▁Venue	-11.8143
Disinfectin	-11.8143
Zoltá	-11.8143
▁Rathm	-11.8143
ugen	-11.8144
▁Purpose	-11.8144
QU	-11.8144
▁Electrics	-11.8144
harbor	-11.8144
▁Canal	-11.8147
angi	-11.8149
▁Le	-11.8151
2.31	-11.8152
▁Rem	-11.8155
▁"20	-11.8158
-38"},{"@	-11.8162
-93"},{"@	-11.8166
Univers	-11.8166
Patio	-11.8166
organics	-11.8167
MN	-11.8167
AV	-11.8168
AF	-11.8169
bal	-11.8172
▁253	-11.8174
29@	-11.8174
KD	-11.8177
-46"},{"@	-11.8185
▁252	-11.8185
ja	-11.8188
▁198	-11.8189
Front	-11.819
FB	-11.8195
":"2024-12-2	-11.8197
KF	-11.8197
":"2025-12-1	-11.8198
Prun	-11.8202
CX	-11.8203
53@	-11.8203
32"	-11.8203
▁Company	-11.8206
4.45	-11.8208
▁209	-11.8208
)</	-11.8209
doc	-11.8217
kiko	-11.8217
▁280	-11.8218
▁Martin	-11.8219
.21</	-11.8221
IW	-11.8222
tandard	-11.8222
Zi	-11.8226
KQ	-11.8228
":"2025-03-0	-11.8231
▁117.	-11.8232
8.27	-11.8234
▁Ridd	-11.8241
▁183	-11.8241
XL	-11.8242
ivi	-11.8244
lin	-11.8247
5.79	-11.8249
.19"	-11.8252
XJ	-11.8255
Carry	-11.8257
33"	-11.8263
4.53	-11.8264
mont	-11.8264
produce	-11.8266
fuels	-11.8266
cuisine	-11.8266
▁Piccadilly	-11.8266
011	-11.8266
▁Sciences	-11.8266
▁Cleveland	-11.8266
▁Clanbrassi	-11.8267
▁sdn	-11.8267
▁Shears	-11.8267
▁Chape	-11.8269
-95"},{"@	-11.8269
FZ	-11.827
-89"},{"@	-11.8271
▁263	-11.8271
swift	-11.8272
WM	-11.8276
52"	-11.8276
QCC	-11.828
9.97	-11.8283
▁Turner	-11.8283
CO	-11.8284
KA	-11.8284
Do	-11.8288
rk	-11.829
BX	-11.8294
PX	-11.8298
ike	-11.83
IH	-11.8304
21@	-11.8306
BK	-11.8311
▁Boarding	-11.8313
lara	-11.8313
MU	-11.8319
.07</	-11.8321
="11	-11.8327
28@	-11.8327
BC	-11.8329
ILL	-11.8331
long	-11.8336
73-	-11.8337
-22"},{"@	-11.8338
ace	-11.8347
▁169	-11.8356
ger	-11.8356
lston	-11.8356
4.01	-11.8357
bil	-11.836
▁Tamak	-11.8362
ue	-11.8364
45"	-11.8366
OE	-11.8367
5.25	-11.8367
City	-11.8369
▁2018	-11.8373
▁235	-11.8375
YF	-11.8381
2.45	-11.8386
08-	-11.8387
eneral	-11.8389
ruise	-11.8391
▁Supplies	-11.8391
Forward	-11.8391
▁Refreshments	-11.8391
▁Surplus	-11.8391
aleria	-11.8392
▁Resources	-11.8392
cedar	-11.8394
antas	-11.8395
▁Diner	-11.8397
▁fulfil	-11.8397
YQ	-11.8401
92@	-11.8402
top	-11.8408
▁Bennett	-11.8414
IL	-11.8414
Tech	-11.8418
7.91	-11.842
Nationa	-11.8421
of	-11.8423
6.79	-11.8425
▁239	-11.8425
HW	-11.8426
▁393	-11.8429
▁country	-11.8432
TL	-11.8437
82-	-11.8439
▁City	-11.8441
6@	-11.8447
▁Creative	-11.8448
6.41	-11.845
OF	-11.8451
49-	-11.8451
▁28,	-11.8451
-18"},{"@	-11.8453
NQ	-11.8457
vl	-11.8465
CM	-11.8467
ars	-11.8467
JZ	-11.8469
QF	-11.8469
Rui	-11.8473
48@	-11.8474
-48"},{"@	-11.8476
rno	-11.8483
88@	-11.8483
79@	-11.8483
RJ	-11.8483
.17</	-11.849
▁176	-11.8491
11"	-11.8496
Blender	-11.8501
▁Universit	-11.8502
$43	-11.8507
XX	-11.8512
▁Charge	-11.8512
-83"},{"@	-11.8515
▁220	-11.8517
Magaz	-11.8518
▁Specialists	-11.8518
▁Realty	-11.8518
Employee	-11.8518
amazan	-11.8518
Fruit	-11.8518
▁Glasses	-11.8518
earning	-11.8519
▁Phi	-11.8522
-84"},{"@	-11.8524
FM	-11.8527
▁81.	-11.8532
▁promo	-11.8532
▁Morris	-11.8536
TZ	-11.8541
Courier	-11.8546
▁Bay	-11.8549
HR	-11.8549
$39	-11.8551
▁Liber	-11.8551
17"	-11.8551
JJ	-11.8552
ak	-11.8555
DH	-11.8557
FO	-11.8562
QV	-11.8562
▁224	-11.8564
07"	-11.8569
,03	-11.857
22-	-11.857
WP	-11.8574
99@	-11.8575
VN	-11.858
WF	-11.8584
▁per	-11.8586
Sea	-11.8589
EC	-11.859
▁Mad	-11.8592
▁241	-11.8594
.03</	-11.8596
KZ	-11.8599
Roy	-11.8601
LM	-11.8611
":"2026-12-0	-11.8615
-76"},{"@	-11.8618
JW	-11.8618
▁Pears	-11.8621
49@	-11.8622
▁40.	-11.8622
▁68.	-11.8626
6.23	-11.8629
iz	-11.8634
PJ	-11.8636
54-	-11.8639
propert	-11.8646
tavern	-11.8646
▁Watson	-11.8646
▁Optics	-11.8646
▁Vision	-11.8646
onstantin	-11.8646
▁Books	-11.8647
▁Bread	-11.8649
50@	-11.865
97-	-11.8651
sky	-11.8652
▁297	-11.8653
▁282	-11.8654
Student	-11.8657
▁Jones	-11.866
ial	-11.866
7.17	-11.8664
":"143	-11.8666
▁"21	-11.8668
Ka	-11.8669
2.39	-11.8669
-37"},{"@	-11.867
aI	-11.8679
":"625	-11.868
8.47	-11.8682
south	-11.8683
No	-11.8686
irn	-11.8688
pioneer	-11.8688
sage	-11.8692
TQ	-11.8693
▁Tours	-11.8698
ior	-11.8699
":"2025-04-1	-11.8703
val	-11.8704
QR	-11.8706
jun	-11.8709
san	-11.8714
avel	-11.8715
▁232	-11.8716
WW	-11.8716
9.53	-11.8719
ran	-11.8722
EI	-11.8722
▁Swanst	-11.8722
OCC	-11.8722
GG	-11.8726
▁Class	-11.8727
Matt	-11.8727
ari	-11.874
56@	-11.8742
OV	-11.8743
lpha	-11.8744
LG	-11.8745
▁Speakers	-11.8749
-42"},{"@	-11.8753
▁region	-11.8754
ure	-11.8761
996,	-11.8766
newa	-11.8768
▁Beau	-11.8772
atelier	-11.8776
artisans	-11.8776
little	-11.8776
▁Numpad	-11.8776
▁Textiles	-11.8776
▁Engineering	-11.8776
▁Jewelry	-11.8776
▁Source	-11.8776
▁Telecom	-11.8776
Mohammed	-11.8776
Veggie	-11.8776
uigi	-11.8776
▁Insights	-11.8776
▁Cream	-11.8776
":"132	-11.8778
northstar	-11.8783
QC	-11.8783
-54"},{"@	-11.8784
▁Macleod	-11.8785
▁212	-11.8788
55@	-11.8791
="04	-11.8796
6.45	-11.8801
XU	-11.8802
▁214	-11.8803
shirt	-11.8804
estates	-11.8805
▁236	-11.8806
LINE	-11.8807
▁7,	-11.8807
Media	-11.8808
Amount	-11.8808
Yun	-11.8809
Be	-11.8814
Tü	-11.8814
$45	-11.8816
2.53	-11.8819
Star	-11.8819
-36"},{"@	-11.8824
HZ	-11.8828
":"263	-11.8831
.75</	-11.8833
21"	-11.8837
KS	-11.8837
WK	-11.884
":"261	-11.884
HL	-11.8841
FI	-11.8843
GZ	-11.8846
KI	-11.885
▁how	-11.8853
TF	-11.8856
▁213	-11.8859
end	-11.886
IU	-11.8861
▁ta	-11.8864
.71</	-11.8865
▁$2	-11.8867
merchants	-11.8869
23@	-11.8869
ami	-11.8871
40-	-11.8875
▁Jac	-11.8876
3.33	-11.8878
DV	-11.8878
BZ	-11.888
MV	-11.8881
$46	-11.8882
urang	-11.8883
anis	-11.8885
$57	-11.889
9.75	-11.8896
▁GST	-11.8904
VD	-11.8906
treasures	-11.8907
metals	-11.8908
▁Hangers	-11.8908
▁Footwear	-11.8908
▁Manufacturing	-11.8908
▁Motors	-11.8908
Child	-11.8908
hadija	-11.8908
ustafa	-11.8908
▁Nehr	-11.8908
▁Pantry	-11.8908
atoshi	-11.8908
omasz	-11.8908
Cloth	-11.8908
young	-11.8909
aija	-11.8912
real	-11.8912
-65"},{"@	-11.8914
HIP	-11.8916
Maaik	-11.8918
▁14,	-11.8924
▁Furniture	-11.8924
rown	-11.8925
argarida	-11.8926
▁re	-11.8926
ive	-11.8928
▁276	-11.893
43",	-11.8931
398,	-11.8934
EH	-11.894
Living	-11.8941
Projector	-11.8941
Event	-11.8941
Food	-11.8941
Paper	-11.8941
▁188	-11.8941
.95</	-11.8942
Jeans	-11.8943
DO	-11.8947
est	-11.8947
▁203	-11.8953
7.65	-11.8953
.83</	-11.8962
5.91	-11.8964
96-	-11.8966
":"2024-06-2	-11.8966
▁Ferry	-11.8969
anjay	-11.8972
BH	-11.898
KV	-11.8986
RH	-11.8992
▁312	-11.8993
16@	-11.8994
▁sa	-11.9002
RN	-11.9002
05",	-11.9005
AN	-11.9006
▁291	-11.9006
KC	-11.9007
RF	-11.9012
97@	-11.9015
19@	-11.9016
-85"},{"@	-11.902
HF	-11.9021
▁Pasi	-11.9022
teri	-11.9026
▁17,	-11.9026
ikolina	-11.903
oko	-11.9032
UP	-11.9035
liona	-11.9035
-73"},{"@	-11.9035
$44	-11.9038
EK	-11.9038
MB	-11.9039
auto	-11.9041
royal	-11.9041
9.39	-11.9041
ehdi	-11.9042
iviu	-11.9043
riol	-11.9043
.07.2026	-11.9043
QN	-11.9045
chocolates	-11.9046
SZ	-11.9048
.39</	-11.9049
Hoda	-11.905
DU	-11.9053
▁Stanley	-11.9057
Deni	-11.9057
GX	-11.906
Key	-11.9062
KW	-11.9065
VJ	-11.9067
":"2026-02-2	-11.9068
CJ	-11.9068
46@	-11.9069
▁71.	-11.9071
21",	-11.9072
oran	-11.9074
courier	-11.9075
Dining	-11.9076
dispatch	-11.9076
Mouse	-11.9076
WS	-11.9081
-60"},{"@	-11.9082
far	-11.9084
-80"},{"@	-11.9087
▁Scott	-11.9088
Inter	-11.9092
3.41	-11.9096
":"2024-04-2	-11.9099
YG	-11.9107
ACC	-11.9112
VC	-11.9115
Bill	-11.9119
▁157	-11.9121
EA	-11.9122
YCC	-11.9126
-848	-11.9127
-61"},{"@	-11.9132
▁300	-11.9135
,2026-03-	-11.9136
IJ	-11.914
▁256	-11.914
7.98	-11.9143
BJ	-11.9144
":"2026-04-0	-11.9144
GH	-11.9145
8.07	-11.9153
VP	-11.9164
Kwa	-11.9168
UW	-11.9172
watch	-11.9176
hotel	-11.9176
cinema	-11.9176
▁Petcare	-11.9176
▁Tinakori	-11.9176
gnieszka	-11.9176
hijs	-11.9176
Auto	-11.9176
▁Irir	-11.9176
▁Carton	-11.9177
03"	-11.9177
uera	-11.9178
Ever	-11.9178
▁Printing	-11.9179
DG	-11.9181
Grano	-11.9182
19-	-11.9184
$51	-11.9185
":"2024-07-0	-11.9186
kko	-11.9187
Aisha	-11.9187
245,	-11.9187
▁Wine	-11.9189
▁Lewis	-11.9191
-33"},{"@	-11.9191
▁219	-11.9191
LS	-11.9196
Wallet	-11.9199
DW	-11.9199
PW	-11.9201
OC	-11.9204
25"},"	-11.9205
72-	-11.9209
▁Club	-11.9211
HU	-11.9212
-29"},{"@	-11.9214
="+	-11.9215
▁Stephen	-11.9219
YI	-11.9226
KR	-11.9228
▁Hand	-11.9231
olf	-11.9231
":"2025-04-2	-11.9232
.73</	-11.9234
Ro	-11.9234
,2026-1	-11.9234
CG	-11.9236
risbane	-11.9244
TG	-11.9245
5.67	-11.9246
DR	-11.9249
book	-11.9253
Minh	-11.9254
EV	-11.9254
-32"},{"@	-11.9261
XQ	-11.9262
ink	-11.9262
ki	-11.9263
iona	-11.9263
.23</	-11.9264
-79"},{"@	-11.9264
▁CLIENT	-11.9264
-92"},{"@	-11.9266
63@	-11.9268
▁104.	-11.927
vn	-11.9271
▁106.	-11.9272
447,	-11.9276
/202	-11.9281
HP	-11.9281
▁33,	-11.9284
7.27	-11.9288
JV	-11.929
HC	-11.9291
":"2025-05-1	-11.9291
rec	-11.9296
▁Ltd	-11.9297
TB	-11.9298
MW	-11.9299
▁Univers	-11.9304
PG	-11.931
inventory	-11.9313
franklin	-11.9313
Johor	-11.9313
Františ	-11.9313
rzysztof	-11.9313
▁Majoribank	-11.9313
▁Manners	-11.9313
Ultra	-11.9313
joy	-11.9313
Marij	-11.9313
▁Outstanding	-11.9313
▁Organics	-11.9314
arkar	-11.9314
▁Vivi	-11.9315
▁Builders	-11.9315
box	-11.9315
▁TEL	-11.9317
.03.2024	-11.9318
.03.2026	-11.9319
Nikol	-11.932
JT	-11.9324
56</	-11.9326
▁171	-11.9329
82"	-11.933
-96"},{"@	-11.9333
▁353	-11.9336
fi	-11.9337
aresh	-11.9337
PK	-11.934
gan	-11.9342
▁261	-11.9344
modern	-11.9345
Book	-11.9345
JL	-11.9346
▁Consign	-11.9346
3.65	-11.9347
Accessory	-11.9351
Memor	-11.9351
School	-11.9352
Nav	-11.9353
Sneakers	-11.9353
▁Shand	-11.9354
De	-11.9362
▁Laptop	-11.937
-69"},{"@	-11.9374
ax	-11.9376
▁air	-11.9377
uki	-11.9377
-55"},{"@	-11.9382
KO	-11.9388
Elm	-11.939
.08.2026	-11.9392
▁Gifts	-11.9401
":"2024-06-0	-11.9404
5.03	-11.9406
day	-11.9414
-71"},{"@	-11.9416
SW	-11.9417
Dimitri	-11.9419
$76	-11.9419
="01	-11.9421
WH	-11.9424
▁Chocolate	-11.9426
Essentials	-11.9433
ven	-11.9436
▁339	-11.9443
eco	-11.9443
tates	-11.9445
▁23,	-11.9446
YX	-11.9448
▁270	-11.945
architecture	-11.9452
▁Beans	-11.9452
Extende	-11.9452
▁Exchange	-11.9452
▁Roasters	-11.9452
▁Cuisine	-11.9452
▁Murray	-11.9452
bdelaziz	-11.9452
itsuki	-11.9452
Enz	-11.9452
▁Refresh	-11.9452
golden	-11.9453
▁Strat	-11.9453
-12"},{"@	-11.9454
Bookcase	-11.9455
▁"+	-11.9455
OZ	-11.9455
EG	-11.9456
▁Napk	-11.9456
SJ	-11.9456
YD	-11.9468
Bab	-11.9472
QA	-11.9476
":"291	-11.9482
":"193	-11.9485
NL	-11.9489
Custom	-11.9491
TENDER	-11.9493
▁77.	-11.9495
UZ	-11.9497
▁16,	-11.9498
Tour	-11.9501
▁Welle	-11.9502
5@	-11.9502
▁Cox	-11.9505
uz	-11.9505
Cable	-11.9505
▁159	-11.9506
WY	-11.9507
/01/2	-11.9507
VY	-11.9508
▁Mobile	-11.9517
-11"},{"@	-11.952
▁Clou	-11.9526
▁901	-11.9526
07",	-11.9528
electronic	-11.953
302,	-11.9536
":"179	-11.9537
Bell	-11.9538
onald	-11.9539
Viktori	-11.954
TJ	-11.9542
DCC	-11.9546
0.25	-11.9548
▁267	-11.9548
rjun	-11.9549
-43"},{"@	-11.9551
▁Crow	-11.9554
aced	-11.9556
summit	-11.9557
":"138	-11.9561
18-	-11.9562
KCC	-11.9566
-99"},{"@	-11.9567
786,	-11.9572
HT	-11.9576
.55</	-11.9577
▁Ban	-11.958
.19</	-11.9585
-17"},{"@	-11.9589
18@	-11.959
Victor	-11.9593
emporium	-11.9593
wild	-11.9593
trusted	-11.9593
▁Utilities	-11.9593
▁Atelier	-11.9593
Mathieu	-11.9593
rszula	-11.9593
yunwoo	-11.9593
▁Featherston	-11.9593
▁Wright	-11.9593
▁Stool	-11.9593
lessia	-11.9593
unset	-11.9595
$82	-11.9598
-35"},{"@	-11.9599
-57"},{"@	-11.96
hota	-11.9603
XS	-11.9603
ahdi	-11.9606
59-	-11.9609
uran	-11.961
YN	-11.9614
▁Torres	-11.9615
GJ	-11.9617
▁197	-11.962
▁Bel	-11.9622
▁655	-11.9622
PD	-11.9626
2.51	-11.9627
▁Work	-11.9633
974,	-11.9633
GN	-11.9635
43@	-11.9635
transit	-11.9636
Software	-11.9636
AA	-11.9636
▁Craft	-11.9637
part	-11.9637
-75"},{"@	-11.9637
run	-11.9639
▁107.	-11.9647
Del	-11.9648
6.07	-11.9652
6.75	-11.9654
DA	-11.9655
":"2025-06-2	-11.9665
eum	-11.967
▁07;	-11.9673
51"	-11.968
▁463	-11.9688
HX	-11.9688
SC	-11.9696
aB	-11.9699
JS	-11.9699
▁504	-11.9702
▁13,	-11.9705
369,	-11.9708
scent	-11.9711
lham	-11.9715
NC	-11.9718
.57</	-11.9718
▁313	-11.9719
8.81	-11.972
nvoice	-11.9723
harter	-11.9723
,19	-11.9726
▁Bailey	-11.9736
Malik	-11.9736
▁Concierge	-11.9736
▁Produce	-11.9736
higeru	-11.9736
▁Brunsw	-11.9736
▁Barlow	-11.9736
Adjust	-11.9736
▁Iterns	-11.9737
Eggs	-11.9737
Docurnent	-11.9738
▁Ward	-11.974
KN	-11.9741
PM	-11.9742
-88"},{"@	-11.9745
,05	-11.9746
XC	-11.9748
King	-11.9748
AB	-11.9749
27"	-11.9752
ilena	-11.9752
▁Wilson	-11.9753
52@	-11.9756
Raf	-11.9756
QD	-11.9758
10@	-11.9764
IA	-11.9764
0.63	-11.9766
▁217	-11.9772
DS	-11.9773
plc	-11.9777
leh	-11.978
Deluxe	-11.978
Label	-11.978
":"2026-10-0	-11.9791
▁260	-11.9797
616,	-11.9797
4.31	-11.9808
3.19	-11.9818
baker	-11.9822
69@	-11.9826
="05	-11.9832
":"195	-11.9835
▁277	-11.9835
NJ	-11.9836
-15"},{"@	-11.9837
▁335	-11.9837
":"177	-11.9838
Spark	-11.9839
":"243	-11.9841
▁sel	-11.9841
▁courier	-11.9843
outheast	-11.9845
áv	-11.9846
TN	-11.9848
MZ	-11.9849
▁283	-11.9851
▁332	-11.9851
ndra	-11.9855
.87</	-11.9856
TD	-11.9861
":"153	-11.9864
QP	-11.9868
▁340	-11.9871
85,	-11.9872
34-	-11.9873
▁Ga	-11.9874
DK	-11.9876
PF	-11.9878
communications	-11.9881
▁Automotive	-11.9881
bright	-11.9881
▁Bhd	-11.9881
Robert	-11.9882
Sweater	-11.9883
Priy	-11.9883
OH	-11.9884
rna	-11.9887
GO	-11.9891
▁161	-11.9891
▁Ped	-11.9891
iorgi	-11.9891
SF	-11.9894
▁MacCurta	-11.9894
FP	-11.9894
▁272	-11.9896
▁Thompson	-11.9896
▁Kelly	-11.9896
▁Richardson	-11.9897
big	-11.9897
51-	-11.99
Season	-11.9901
HV	-11.9901
53</	-11.9901
ental	-11.9902
▁again	-11.9905
▁fulfill	-11.9905
WU	-11.9906
▁389	-11.9908
RS	-11.9908
GNE	-11.9912
94"	-11.9913
▁323	-11.9915
▁Kilda	-11.9919
▁SV	-11.992
oter	-11.9922
RDER	-11.9923
Extension	-11.9927
Cutler	-11.9927
sun	-11.9927
Restaurant	-11.9927
Baak	-11.9929
,02	-11.9932
▁Edwards	-11.9935
":"2026-11-1	-11.9936
▁Burgers	-11.9939
AM	-11.994
FS	-11.9947
$53	-11.9951
▁Hop	-11.9954
▁215	-11.9955
▁Cama	-11.9956
-21"},{"@	-11.9958
8@	-11.9959
ield	-11.9964
Clear	-11.9965
▁614	-11.9965
food	-11.9965
":"2026-12-1	-11.997
4.75	-11.9976
JO	-11.998
-41"},{"@	-11.9982
tern	-11.9985
eva	-11.9986
OG	-11.9989
bell	-11.9991
MD	-11.9992
TK	-11.9992
-44"},{"@	-12
16-	-12.0001
AI	-12.0006
▁Prep	-12.0006
▁Compute	-12.001
272,	-12.0011
rin	-12.0013
▁Che	-12.0022
-25"},{"@	-12.0027
▁Mirror	-12.0028
anchor	-12.0028
▁Sauce	-12.0028
▁Cycles	-12.0028
▁Finance	-12.0028
▁Gupta	-12.0028
ebsite	-12.0028
▁Innovations	-12.0028
▁Brewing	-12.0028
Mariya	-12.0028
adeusz	-12.0028
afsa	-12.0028
himamanda	-12.0028
Ł	-12.0028
▁Assistan	-12.0028
▁OUTSTANDING	-12.0028
▁officia	-12.0028
▁Karor	-12.0028
oussa	-12.0028
Ehsan	-12.0028
▁Bandon	-12.0028
Welcome	-12.0028
black	-12.0029
▁Leach	-12.003
Beanie	-12.003
Windbreaker	-12.003
ngo	-12.0031
.04.2026	-12.0031
YA	-12.0038
":"2025-01-2	-12.0038
▁Advisors	-12.0042
▁Garcia	-12.0045
arry	-12.0048
":"2025-10-1	-12.005
37.3	-12.0055
▁Professionals	-12.0059
VI	-12.006
Stone	-12.0061
imitrios	-12.0064
7.31	-12.0072
recipient	-12.0076
World	-12.0077
Analytics	-12.0077
▁266	-12.0077
IX	-12.0078
Backpack	-12.008
rnent	-12.0086
Rani	-12.0088
8.79	-12.0092
OJ	-12.0094
="06	-12.0094
▁Chocolates	-12.0096
-19"},{"@	-12.0098
,$	-12.0101
JWB	-12.0105
▁Nguyen	-12.0105
-13"},{"@	-12.0106
HDM	-12.0106
JA	-12.0109
-59"},{"@	-12.011
BN	-12.011
▁Train	-12.0112
PN	-12.0113
Na	-12.0115
-98"},{"@	-12.0116
YS	-12.0116
$47	-12.0119
Pass	-12.0121
▁56.	-12.0121
▁Ka	-12.0127
mran	-12.0127
Audio	-12.0127
▁recipient	-12.0128
ighland	-12.0129
PE	-12.0132
dam	-12.0135
2.75	-12.0135
yman	-12.0136
sand	-12.0144
26",	-12.0144
":"171	-12.0146
▁259	-12.0158
BM	-12.016
AR	-12.0161
▁Process	-12.0166
eepak	-12.0174
Stream	-12.0175
mperial	-12.0177
▁Boutique	-12.0177
skari	-12.0177
ofija	-12.0177
oubacar	-12.0177
▁Sdn	-12.0177
erenc	-12.0177
Hirok	-12.0177
12@	-12.0177
▁Strand	-12.0177
hidinma	-12.0177
▁Fuels	-12.0177
zhar	-12.0178
.02.2026	-12.0179
▁Pike	-12.018
OA	-12.0183
atias	-12.0185
▁Berr	-12.0185
desert	-12.0186
▁Morales	-12.0187
▁Randolph	-12.0187
mill	-12.0189
Haruk	-12.0189
aka	-12.0189
Wild	-12.0193
Shah	-12.0198
▁Abb	-12.0199
QO	-12.0202
-66"},{"@	-12.0204
6.19	-12.0205
-30"},{"@	-12.0209
▁Williams	-12.0211
▁227	-12.0211
WD	-12.0214
Dock	-12.0217
>$1	-12.0223
="09	-12.0224
523,	-12.0226
$52	-12.0227
▁Replacement	-12.0228
Protection	-12.0229
AMOUNT	-12.0229
▁Everyday	-12.023
47@	-12.0231
Camera	-12.0231
lask	-12.0231
":"2024-07-2	-12.024
▁400	-12.0242
▁247	-12.0243
edro	-12.0248
onia	-12.0249
standard	-12.0254
PR	-12.0255
PV	-12.0259
▁281	-12.026
▁237	-12.026
-45"},{"@	-12.0261
222.	-12.0262
SN	-12.0263
":"2025-09-0	-12.0269
ess	-12.0276
$56	-12.028
-51"},{"@	-12.028
1="	-12.0283
our	-12.0289
455,	-12.0291
▁185	-12.0293
▁355	-12.0297
ois	-12.03
56"	-12.0301
-47"},{"@	-12.0301
VS	-12.0301
Ad	-12.0302
162,	-12.0304
ob	-12.0305
593,	-12.0307
eat	-12.0315
-62"},{"@	-12.0318
oaa	-12.0319
▁553	-12.032
":"2026-01-0	-12.0321
Zain	-12.0327
HNE	-12.0327
Enterprise	-12.0328
▁Stewart	-12.0328
ristian	-12.0328
Onboarding	-12.0329
▁Bistro	-12.0329
▁Growers	-12.0329
▁Clinic	-12.0329
▁Treasures	-12.0329
▁Estates	-12.0329
Mika	-12.0329
arohi	-12.0329
ieuwertje	-12.0329
iroshi	-12.0329
▁Nassa	-12.0329
Ceilin	-12.0329
Javi	-12.0329
linton	-12.0329
.03.2025	-12.0329
Roast	-12.0329
ozen	-12.033
mina	-12.0331
HI	-12.0332
Tripod	-12.0334
maple	-12.0336
rv	-12.0336
forge	-12.0336
era	-12.0341
Lin	-12.0344
▁Wakefield	-12.0345
UL	-12.0349
":"2026-08-0	-12.035
":"901	-12.0352
▁Cinema	-12.0353
977,	-12.0353
▁Reyes	-12.0356
37"},"	-12.0361
AT	-12.0362
-72"},{"@	-12.0363
nni	-12.0365
▁88.	-12.0368
hahin	-12.037
850,	-12.0371
BV	-12.0373
0.31	-12.0374
QWB	-12.0375
202,	-12.0377
Yasi	-12.0381
Trip	-12.0381
Wood	-12.0382
20-	-12.0386
purchaser	-12.0393
oi	-12.0398
Bridge	-12.0399
-50"},{"@	-12.04
VV	-12.0402
":"670	-12.0409
ommunity	-12.041
GP	-12.0416
▁Sea	-12.0416
▁Client	-12.0422
-70"},{"@	-12.0428
":"210	-12.0431
▁Winter	-12.0431
-68"},{"@	-12.0433
":"2025-11-1	-12.0443
-90"},{"@	-12.045
▁Wa	-12.0453
▁346	-12.0453
43.9	-12.0459
,04	-12.046
8.11	-12.0461
DI	-12.0466
ffice	-12.047
":"2025-01-0	-12.0471
▁Bathroom	-12.0473
ario	-12.0476
Steam	-12.0479
entury	-12.0479
autumn	-12.0482
Recipient	-12.0482
issatou	-12.0482
laudia	-12.0482
ndrzej	-12.0482
▁Roosevelt	-12.0482
atsuki	-12.0482
hinwe	-12.0483
igrid	-12.0483
greenwood	-12.0483
▁Logan	-12.0483
corp	-12.0483
▁landline	-12.0483
▁Johnson	-12.0483
bagh	-12.0484
esrin	-12.0484
1@	-12.0485
.06.2025	-12.0485
-67"},{"@	-12.0485
.05.2026	-12.0486
WNE	-12.049
reliable	-12.0492
▁WAYBILL	-12.0493
▁Dru	-12.0493
Marcela	-12.0499
.02.2024	-12.0499
▁State	-12.05
168,	-12.0503
▁316	-12.0506
-916	-12.0511
33-	-12.0512
":"186	-12.0513
ahar	-12.0517
▁320	-12.0522
vanna	-12.0523
611,	-12.0525
-53"},{"@	-12.0527
▁900	-12.0528
Alma	-12.053
.09.2025	-12.0531
BY	-12.0531
":"2026-09-1	-12.0536
Shuttle	-12.0539
Watch	-12.0539
Socks	-12.0539
mple	-12.054
CLIENT	-12.0541
330,	-12.0545
.41"	-12.0547
6.00	-12.0549
="02	-12.0552
▁Andrew	-12.0554
▁Honey	-12.0556
NH	-12.0557
rner	-12.0559
Arman	-12.0562
41.5	-12.0564
$71	-12.0566
▁372	-12.0573
229,	-12.0575
-27"},{"@	-12.0575
969,	-12.0578
▁SR	-12.0582
944,	-12.0583
Ebr	-12.0584
":"463	-12.0585
383,	-12.0588
▁159.	-12.0589
$61	-12.059
ski	-12.0593
SY	-12.0594
▁Memor	-12.0595
788,	-12.0598
▁Tools	-12.0613
803,	-12.0614
YU	-12.0618
▁purchaser	-12.0621
8.41	-12.0633
ition	-12.0634
Sample	-12.0636
foot	-12.0638
accessories	-12.0638
interiors	-12.0638
▁Financial	-12.0639
▁Owing	-12.0639
rí	-12.0639
▁Parlia	-12.0639
tzel	-12.0639
▁Metals	-12.0639
▁Informatics	-12.0639
Picn	-12.0639
Jacob	-12.064
lighting	-12.064
▁la	-12.064
urban	-12.064
build	-12.064
▁Pets	-12.064
Apron	-12.0641
Bracelet	-12.0641
Naoko	-12.0642
ontent	-12.0642
3@	-12.0643
mco	-12.0644
abor	-12.0644
arek	-12.0645
▁Parker	-12.065
kane	-12.065
ston	-12.0651
4.79	-12.0652
▁Phillips	-12.0652
sra	-12.0653
▁Lighting	-12.0655
emur	-12.0657
SNE	-12.066
681,	-12.0663
▁487	-12.0663
▁Waybill	-12.0665
Jun	-12.0669
eight	-12.0672
.08.2024	-12.0673
eiji	-12.0673
▁378	-12.0675
▁325	-12.0676
Ng	-12.0689
▁714	-12.069
▁161.	-12.0693
nez	-12.0693
XR	-12.0695
Turbo	-12.0696
Created	-12.0697
64"},"	-12.0697
ernail	-12.0698
Jacket	-12.07
enata	-12.07
QE	-12.0704
▁Swan	-12.0704
lark	-12.0711
88"	-12.0721
SR	-12.0721
Mode	-12.0724
▁Tour	-12.073
AE	-12.0733
▁Burger	-12.0734
▁Dress	-12.0735
ZCC	-12.0738
spark	-12.0744
NP	-12.0744
iotr	-12.0746
▁242	-12.0754
71"	-12.0758
253.	-12.0759
oriko	-12.0761
▁bi	-12.0765
465,	-12.0766
,07	-12.077
828,	-12.0771
-86"},{"@	-12.0772
▁Events	-12.0773
410,	-12.0773
▁278	-12.0779
ence	-12.0789
isle	-12.0789
0.43	-12.0797
CWB	-12.0797
▁We	-12.0797
lifestyle	-12.0797
▁Ramos	-12.0797
▁Plaza	-12.0797
▁Strap	-12.0797
Ondřej	-12.0797
▁Furnishings	-12.0797
iobh	-12.0797
eodoro	-12.0797
iddharth	-12.0797
▁facebook	-12.0797
Kacper	-12.0797
▁Dudley	-12.0797
ndre	-12.0798
ameer	-12.0798
8.19	-12.0798
oxana	-12.08
.02.2025	-12.08
▁Morgan	-12.08
▁190	-12.0801
Lee	-12.0802
.12.2025	-12.0802
▁397	-12.0803
35",	-12.0805
.05.2024	-12.0808
▁Hall	-12.081
▁204	-12.0815
pinnacle	-12.0815
▁Pitt	-12.0815
35</	-12.0817
":"2025-06-0	-12.0819
radi	-12.0821
holdings	-12.0822
>8</	-12.0823
ub	-12.083
▁Robinson	-12.0832
64"	-12.0835
▁Hudson	-12.0836
udio	-12.0851
273,	-12.0851
▁401	-12.0854
Bedroom	-12.0857
ten	-12.0859
":"400	-12.086
Hoodie	-12.0861
4.19	-12.0861
▁105.	-12.0864
Neda	-12.0868
BILL	-12.0868
HO	-12.0872
rock	-12.0874
3.00	-12.0876
▁Part	-12.0881
Fli	-12.0882
Support	-12.0883
82@	-12.0885
ics	-12.0889
▁Inc	-12.0891
RQ	-12.0892
TM	-12.0901
▁285	-12.0904
▁j	-12.0905
TU	-12.0907
744,	-12.0914
JQ	-12.0915
15",	-12.0916
▁Day	-12.0918
▁841	-12.0919
3.27	-12.0919
ung	-12.092
▁208	-12.0922
▁Thorn	-12.094
▁886	-12.0943
783,	-12.0954
irch	-12.0957
-607	-12.0957
112,	-12.0958
▁Tavern	-12.0959
nsumer	-12.0959
iroslav	-12.0959
ojciech	-12.0959
▁Chips	-12.0959
▁OWING	-12.0959
azuki	-12.0959
▁Greet	-12.0959
lireza	-12.0959
.10.2024	-12.0959
umiya	-12.0959
anilo	-12.0959
accountant	-12.0959
▁Knight	-12.096
▁Manager	-12.096
Daily	-12.096
ele	-12.096
Handbag	-12.0961
Loafers	-12.0962
dale	-12.0966
cd	-12.0968
▁Taylor	-12.0969
Fr	-12.0969
oris	-12.097
use	-12.0971
▁come	-12.0972
▁GR	-12.0976
5)	-12.0977
>7</	-12.0979
.12.2024	-12.0983
33.9	-12.0985
IK	-12.0985
early	-12.0987
":"2024-09-0	-12.0991
jan	-12.0993
▁awb	-12.0994
FNE	-12.0995
lon	-12.1
TY	-12.1001
▁Gh	-12.1005
767,	-12.101
.01"	-12.1014
-82"},{"@	-12.1015
▁295	-12.1017
Client	-12.1022
-56"},{"@	-12.1022
▁271	-12.1026
▁Pr	-12.1028
.08.2025	-12.1028
Brown	-12.1029
▁257	-12.1029
▁182.	-12.1032
40.2	-12.1034
Aary	-12.1035
":"2025-03-2	-12.1035
Tota	-12.1036
-16"},{"@	-12.1038
SG	-12.1044
="20	-12.1045
-63"},{"@	-12.1048
▁Wang	-12.1048
IWB	-12.105
NI	-12.1052
352,	-12.1057
▁483	-12.1058
":"702	-12.1058
Ga	-12.1061
▁330	-12.1075
▁362	-12.1083
eef	-12.1083
send	-12.1086
▁405	-12.1086
Guid	-12.1091
911,	-12.1092
nton	-12.1093
▁And	-12.1094
don	-12.1097
min	-12.1103
alu	-12.1106
▁206	-12.1107
":"2026-06-0	-12.1109
▁420	-12.111
OLD	-12.1111
VG	-12.1117
▁190.	-12.1117
▁Boy	-12.112
537,	-12.112
Kumar	-12.1121
$58	-12.1122
▁749	-12.1122
horizon	-12.1122
bennett	-12.1122
Valentin	-12.1123
▁Publishing	-12.1123
Mostafa	-12.1123
asemin	-12.1123
ranziska	-12.1123
urope	-12.1123
Alexander	-12.1123
neau	-12.1123
.10.2025	-12.1123
▁Flops	-12.1123
▁Amend	-12.1123
▁Brooks	-12.1123
▁Coverage	-12.1123
▁Adams	-12.1123
Dmytr	-12.1123
.07.2025	-12.1124
irela	-12.1124
Yuri	-12.1124
▁Karol	-12.1124
▁Moore	-12.1126
tsushi	-12.1129
UNT	-12.113
.01.2024	-12.113
▁246	-12.1131
NCE	-12.1135
UYER	-12.1135
▁Walker	-12.1138
339,	-12.114
▁Aro	-12.114
▁374	-12.1143
▁383	-12.1145
VZ	-12.1145
OK	-12.1147
.09.2026	-12.1152
▁840	-12.1152
72"	-12.1157
▁255	-12.1159
▁Gutierrez	-12.116
Trans	-12.1162
Luc	-12.1167
▁410	-12.117
ashir	-12.1173
SV	-12.1176
▁262	-12.1176
▁878	-12.1177
237,	-12.1178
▁13;	-12.1179
hill	-12.1182
▁Huber	-12.1183
Buyer	-12.1189
6.57	-12.119
Jack	-12.1192
▁299	-12.1193
878,	-12.1201
Cho	-12.1202
acek	-12.1204
493,	-12.1212
243,	-12.1213
$48	-12.122
Nik	-12.1222
752,	-12.1223
798,	-12.1231
508,	-12.1235
314,	-12.1235
aught	-12.1242
enu	-12.1243
-39"},{"@	-12.125
rben	-12.1253
▁633	-12.1254
▁396	-12.1255
▁307	-12.1257
Nova	-12.1261
":"259	-12.1266
▁793	-12.1266
-97"},{"@	-12.1268
lp	-12.1271
Arda	-12.1273
":"305	-12.1276
▁381	-12.1277
ndia	-12.1282
334,	-12.1286
undberg	-12.1287
centre	-12.1289
special	-12.1289
ú	-12.1289
Mohammad	-12.1289
Antivirus	-12.1289
Luggage	-12.1289
Marika	-12.1289
▁Inventory	-12.1289
noushka	-12.1289
ranav	-12.1289
Fabio	-12.1289
ladimir	-12.1289
western	-12.1289
Study	-12.1289
ereza	-12.1289
Hakan	-12.129
enji	-12.129
urst	-12.1291
Chinos	-12.1291
Swimwear	-12.1292
strong	-12.1292
.01.2026	-12.1293
Vlad	-12.1294
▁498	-12.1295
Gize	-12.1295
▁Lon	-12.1296
.11.2024	-12.1297
Ryan	-12.1298
lv	-12.1299
.06.2026	-12.1299
Aki	-12.1299
▁Conn	-12.13
▁Gate	-12.13
▁Getaway	-12.13
▁narne	-12.1301
kash	-12.1305
11.5	-12.1306
29"},"	-12.1306
lng	-12.1308
amla	-12.1316
▁328	-12.1318
▁359	-12.132
▁Davis	-12.1326
192,	-12.1326
":"304	-12.1331
urcan	-12.1337
▁001	-12.1338
vez	-12.1343
▁657	-12.1346
Base	-12.1346
-673	-12.1347
▁Destination	-12.1348
Sander	-12.1349
188,	-12.135
":"2025-08-1	-12.1351
Ilon	-12.1353
Recovery	-12.1358
Door	-12.1359
Chika	-12.136
830,	-12.1361
,2026-	-12.1361
Booking	-12.1362
▁465	-12.1362
-572	-12.1364
▁479	-12.1365
Gre	-12.1376
939,	-12.1379
5.31	-12.138
-04"},{"@	-12.1383
284,	-12.1388
ight	-12.1394
▁706	-12.1403
947,	-12.1406
vs	-12.1413
40"},"	-12.1413
▁2026-03-	-12.1413
TWB	-12.1415
smart	-12.1419
5.19	-12.1421
▁425	-12.1423
▁751	-12.1425
▁"2024-01-	-12.1425
▁530	-12.1427
":"279	-12.1427
-05"},{"@	-12.1427
tten	-12.1434
654,	-12.1441
DM	-12.1441
▁201.	-12.1442
shore	-12.1445
▁Dal	-12.1452
▁Edward	-12.1455
Joaqui	-12.1455
Luka	-12.1455
▁238	-12.1457
▁Roberts	-12.1457
alaysia	-12.1459
wich	-12.1459
Izabela	-12.1459
vetlana	-12.1459
▁VALUE	-12.1459
Ahmad	-12.1459
nanya	-12.1459
alome	-12.1459
▁Suitcase	-12.1459
▁Peel	-12.1459
Polo	-12.1459
▁Stirling	-12.146
.01.2025	-12.1462
Lily	-12.1462
▁Race	-12.1462
asmin	-12.1462
▁call	-12.1465
$67	-12.1465
Alim	-12.1467
roll	-12.1468
.12.2026	-12.1473
▁329	-12.1474
axis	-12.1475
":"412	-12.1479
▁333	-12.148
DZ	-12.148
689,	-12.1481
▁johor	-12.1484
awel	-12.1488
▁Holdings	-12.1489
130,	-12.1495
553,	-12.1495
":"2026-06-1	-12.1495
.2026	-12.1497
0.23	-12.1501
SX	-12.1501
law	-12.1502
▁296	-12.1503
▁Swift	-12.1504
":"331	-12.1512
▁171.	-12.1513
cox	-12.1513
-24"},{"@	-12.1514
778,	-12.1515
▁2024-12-	-12.1516
248,	-12.1521
":"2025-08-2	-12.1527
Train	-12.1528
Yi	-12.1529
French	-12.153
Alliance	-12.153
Duffe	-12.153
carrier	-12.1531
TRANSACTI	-12.1533
jara	-12.1536
-77"},{"@	-12.1538
exampl	-12.1539
-87"},{"@	-12.154
988,	-12.1543
KP	-12.1543
692,	-12.1544
Sara	-12.1546
ward	-12.1546
Hug	-12.1546
▁554	-12.1552
urak	-12.1555
373,	-12.1557
▁carrier	-12.1559
843,	-12.156
462,	-12.1562
MC	-12.1565
-23"},{"@	-12.1566
vd	-12.1566
$91	-12.1567
Coll	-12.1567
fu	-12.1574
▁477	-12.1574
▁322	-12.1574
▁686	-12.1577
lebe	-12.1578
578,	-12.1578
DOC	-12.1582
edran	-12.1587
274,	-12.1587
llc	-12.159
▁Sub	-12.159
nja	-12.1594
JP	-12.1594
▁Cha	-12.1594
▁402	-12.16
▁ch	-12.16
▁331	-12.16
▁162.	-12.1602
595,	-12.1603
each	-12.1611
uffer	-12.1611
":"156	-12.1612
▁409	-12.1617
▁Mil	-12.1618
uria	-12.1621
▁Interiors	-12.1629
machinery	-12.1631
▁Artisans	-12.1631
▁Lifestyle	-12.1631
Yusuf	-12.1631
▁Brig	-12.1631
▁Russell	-12.1631
Bikini	-12.1631
inzia	-12.1631
oksana	-12.1631
ê	-12.1631
ė	-12.1631
▁Koramanga	-12.1631
▁Lothian	-12.1631
leksandar	-12.1631
amadou	-12.1631
ohsen	-12.1631
akize	-12.1631
Živi	-12.1631
Janek	-12.1631
eronika	-12.1631
Yuliya	-12.1631
adja	-12.1632
Jovan	-12.1632
ragan	-12.1632
▁Barton	-12.1632
Joggers	-12.1633
Sandals	-12.1634
Yuli	-12.1634
Paja	-12.1634
▁PLC	-12.1635
-802	-12.164
zgi	-12.1641
▁473	-12.1646
ate	-12.1651
▁Economy	-12.1651
▁289	-12.1653
Lead	-12.1654
Deep	-12.1655
$77	-12.1657
▁341	-12.1659
338,	-12.1662
SSL	-12.1662
Diap	-12.1663
akaria	-12.1663
maj	-12.1664
Levent	-12.1666
▁CONSIGN	-12.1669
▁116.	-12.167
umit	-12.1671
hiara	-12.1672
":"2025-12-2	-12.1676
▁568	-12.1677
Mads	-12.1678
▁Law	-12.1696
eather	-12.1696
="14	-12.1697
▁805	-12.1699
978,	-12.1699
▁251	-12.17
▁244.	-12.17
-882	-12.17
Sol	-12.1701
▁131.	-12.1702
subtota	-12.1702
▁899	-12.1704
NA	-12.1705
Ashok	-12.1706
Nicol	-12.1706
724,	-12.1706
Floor	-12.1707
High	-12.171
DC	-12.171
ORDERED	-12.1712
lmar	-12.1717
▁347	-12.172
381,	-12.1721
662,	-12.1723
▁351	-12.1729
▁326	-12.1729
▁358	-12.173
▁702	-12.1733
":"247	-12.1733
705,	-12.1736
▁602	-12.1738
Bundle	-12.1738
860,	-12.1739
.01</	-12.1742
":"711	-12.1742
811,	-12.1743
leksandr	-12.1749
Sana	-12.1749
luma	-12.1751
491,	-12.1752
zs	-12.1754
153,	-12.1759
494,	-12.1762
311,	-12.1765
-799	-12.1769
$69	-12.1771
Pawe	-12.1777
deal	-12.1777
998,	-12.1778
895,	-12.178
2.00	-12.1782
MWB	-12.1786
▁700	-12.1788
":"504	-12.1792
ntario	-12.1797
820,	-12.1799
,+	-12.1803
mitri	-12.1806
Ž	-12.1807
ä	-12.1807
▁Emporium	-12.1807
Björ	-12.1807
atrik	-12.1807
Şul	-12.1807
▁Shaganappi	-12.1807
▁jaya	-12.1807
vista	-12.1807
▁Details	-12.1807
einrich	-12.1807
ossein	-12.1807
Hassan	-12.1807
▁Ashton	-12.1807
▁Colaba	-12.1807
Anssi	-12.1807
nika	-12.1807
.05.2025	-12.1808
3.45	-12.1808
435,	-12.1808
asile	-12.1809
▁Spencer	-12.1809
independent	-12.1809
Tamá	-12.181
anele	-12.181
loyal	-12.1814
ber	-12.182
▁622	-12.1822
▁Bow	-12.1823
890,	-12.1824
UNE	-12.1824
▁324	-12.1826
▁Gaming	-12.1828
-78"},{"@	-12.1828
▁Sel	-12.1829
▁Howard	-12.1831
▁Mitchell	-12.1834
.06.2024	-12.1835
sur	-12.1835
Emr	-12.1838
Mona	-12.1841
▁310	-12.1842
▁Payrnent	-12.1842
":"407	-12.1844
▁Cours	-12.1846
AQ	-12.1847
▁452	-12.1848
315,	-12.1849
138,	-12.1852
YO	-12.1855
DD	-12.1855
760,	-12.1856
▁991	-12.1859
ric	-12.186
":"265	-12.1861
▁"2024-03-	-12.1867
▁167.	-12.1871
520,	-12.1876
Ar	-12.188
len	-12.1882
▁344	-12.1884
Check	-12.1885
final	-12.1885
ltd	-12.1889
Anis	-12.1892
▁342	-12.1895
971,	-12.1895
Invoice	-12.1896
-52"},{"@	-12.1907
-28"},{"@	-12.1911
ZWB	-12.1911
▁Ossi	-12.1912
GWB	-12.1912
89-	-12.1916
▁Lowe	-12.1917
757,	-12.1918
-14"},{"@	-12.1919
▁Al	-12.1922
442,	-12.1923
13.8	-12.1926
376,	-12.1929
▁989	-12.1929
505,	-12.193
$70	-12.1939
▁464	-12.1939
▁Spark	-12.1942
24.4	-12.1943
":"551	-12.1944
,2026-01-	-12.1945
▁Sun	-12.1947
Operator	-12.195
▁228	-12.1959
6.81	-12.1968
BWB	-12.197
32",	-12.1971
="$	-12.1974
":"267.	-12.1975
":"2025-03-1	-12.1975
144,	-12.1975
ennis	-12.1982
▁Rose	-12.1982
atural	-12.1982
":"2026-09-2	-12.1983
records	-12.1985
-057	-12.1985
universal	-12.1985
double	-12.1985
threads	-12.1985
Felipe	-12.1985
Jukka	-12.1985
agdalena	-12.1985
arlotta	-12.1985
lessandro	-12.1985
▁1001000000	-12.1985
iulia	-12.1985
▁Gympi	-12.1985
▁Vegetables	-12.1985
akka	-12.1985
tefan	-12.1985
▁Grant	-12.1985
▁Sherbou	-12.1985
.10.2026	-12.1986
atrien	-12.1986
▁Milk	-12.1986
Multi	-12.1987
▁Night	-12.1987
hinedu	-12.1988
original	-12.1989
▁210.	-12.199
DQ	-12.1991
Master	-12.1992
▁370	-12.1994
▁voucher	-12.1999
platinum	-12.2002
▁des	-12.2002
mford	-12.2007
▁Perez	-12.201
▁Rodriguez	-12.2012
▁873	-12.2015
Cardigan	-12.2015
▁185.	-12.2019
391,	-12.202
▁334	-12.2026
▁Steel	-12.2027
▁173.	-12.2029
704,	-12.203
VPN	-12.2033
Marcel	-12.2035
▁250	-12.204
▁710	-12.205
":"2025-02-0	-12.205
222,	-12.205
▁Snow	-12.205
Camil	-12.2051
itch	-12.2051
▁778	-12.2057
lee	-12.2058
▁862	-12.2059
▁Deni	-12.2064
▁984	-12.2069
Far	-12.2069
onut	-12.2072
▁emai	-12.2074
▁461	-12.2076
-81"},{"@	-12.2078
262,	-12.208
-963	-12.2082
▁321	-12.2083
149,	-12.2083
yumi	-12.2087
697,	-12.209
▁999	-12.2092
▁222	-12.2094
▁718	-12.2094
81200	-12.2099
228,	-12.2105
▁DOC	-12.2106
▁183.	-12.2108
":"502	-12.211
erve	-12.2111
▁229	-12.2111
635,	-12.2118
lari	-12.2118
torage	-12.2121
933,	-12.2122
▁382	-12.2125
▁Pos	-12.2125
208,	-12.2126
":"2025-02-2	-12.213
Jud	-12.2135
-03"},{"@	-12.2145
▁286	-12.2146
147,	-12.2147
":"211	-12.2148
▁244	-12.2151
2/2	-12.2152
324,	-12.2152
▁390	-12.2153
Emin	-12.2153
868,	-12.2156
▁773	-12.2158
-913	-12.2159
▁369	-12.216
▁Brea	-12.216
lympic	-12.2164
81.4	-12.2164
6.29	-12.2165
MNE	-12.2166
▁Grassmarket	-12.2167
▁Deansgate	-12.2167
lmaz	-12.2167
shopping	-12.2167
▁Miya	-12.2167
Rasmus	-12.2167
Zbigniew	-12.2167
ehzad	-12.2167
ozef	-12.2167
Ö	-12.2167
▁Georgia	-12.2167
▁Levesque	-12.2167
newtown	-12.2167
bike	-12.2168
ederica	-12.2169
cosmic	-12.2169
403,	-12.2169
ANE	-12.2169
adim	-12.2169
▁or	-12.217
today	-12.2174
795,	-12.2176
.04.2024	-12.2178
.07.2024	-12.2178
Steven	-12.2179
Hi	-12.2179
Kun	-12.2181
▁671	-12.2181
703,	-12.2186
$79	-12.2186
▁Campbell	-12.2189
▁720	-12.2195
▁Call	-12.2196
▁Certificate	-12.2198
Mil	-12.2198
Filip	-12.2201
true	-12.2205
459,	-12.2206
clusive	-12.2208
47.3	-12.221
▁774	-12.2211
Land	-12.2215
470,	-12.2219
▁Gül	-12.2227
edar	-12.2229
iku	-12.2231
▁Ab	-12.2233
HS	-12.2235
377,	-12.2235
ved	-12.2236
QK	-12.2236
282,	-12.2238
▁603	-12.2241
▁546	-12.2243
RP	-12.2244
balance	-12.225
River	-12.2252
Data	-12.2252
NWB	-12.2252
":"289	-12.2254
Link	-12.2258
431,	-12.226
▁753	-12.2263
▁717	-12.2265
arc	-12.2266
lor	-12.2269
132,	-12.227
488,	-12.227
▁Arn	-12.2271
▁Nicol	-12.2273
▁238.	-12.2276
ju	-12.228
▁Fro	-12.2283
DWB	-12.2288
Cold	-12.2294
▁628	-12.2295
▁160.	-12.2297
":"2025-07-2	-12.2299
888,	-12.231
▁Priorit	-12.2314
▁766	-12.2317
Yog	-12.232
7.81	-12.2321
989,	-12.2327
821,	-12.2327
▁821	-12.233
Tit	-12.2334
▁Nari	-12.2339
▁18;	-12.234
▁Desktop	-12.2343
-841	-12.2345
-40"},{"@	-12.2347
ullen	-12.2347
64.9	-12.2348
▁Walk	-12.235
▁619	-12.2351
-672	-12.2351
ław	-12.2351
jobs	-12.2352
freedom	-12.2352
▁Janpath	-12.2352
▁OPERAT	-12.2352
▁Togh	-12.2352
Uğ	-12.2352
abiba	-12.2352
▁Lawrence	-12.2352
ablo	-12.2352
▁Cunningham	-12.2352
▁Hastings	-12.2352
▁Tampoi	-12.2352
oivo	-12.2352
86",	-12.2352
▁Alam	-12.2352
▁Review	-12.2353
▁680	-12.2353
cius	-12.2353
winter	-12.2353
Meyer	-12.2353
Leggings	-12.2354
Essi	-12.2358
Fuel	-12.2359
858,	-12.2359
▁Carna	-12.2361
▁Cooper	-12.2366
▁Diaz	-12.2369
-600	-12.2369
prestige	-12.2369
popular	-12.2372
ntry	-12.2374
▁648	-12.2375
278,	-12.2379
Vital	-12.238
Movi	-12.2383
226,	-12.2385
915,	-12.2389
-082	-12.2391
Mikk	-12.2391
712,	-12.2394
▁585	-12.2394
917,	-12.2397
nkle	-12.2403
419,	-12.2404
▁742	-12.2405
▁"$1	-12.2407
Lif	-12.2408
506,	-12.2413
▁Ad	-12.2414
ien	-12.2417
▁Down	-12.2417
▁812	-12.2419
36"},"	-12.242
-58"},{"@	-12.242
▁279	-12.2426
Tie	-12.2426
-725	-12.2427
812,	-12.2429
low	-12.2431
gutt	-12.2432
neo	-12.2436
-06"},{"@	-12.2436
233,	-12.2436
Print	-12.2439
597,	-12.2439
William	-12.244
Printer	-12.2443
Cosmi	-12.2448
▁Therm	-12.2448
956,	-12.2449
▁Driver	-12.2449
468,	-12.245
UWB	-12.2454
851,	-12.2454
-02"},{"@	-12.2455
▁908	-12.246
="08	-12.2463
▁Af	-12.2467
exa	-12.247
909,	-12.2473
▁583	-12.2473
▁354	-12.2474
inan	-12.2477
▁350	-12.2479
VNE	-12.2481
▁Duffe	-12.2483
525,	-12.249
$80	-12.249
▁293	-12.2499
▁269.	-12.2499
▁Balance	-12.25
cake	-12.2504
341,	-12.2504
▁456	-12.2507
gon	-12.2508
GPS	-12.252
674,	-12.252
-930	-12.252
252,	-12.2524
▁Con	-12.2529
438,	-12.2534
▁782	-12.2534
63.8	-12.2536
▁Ren	-12.2536
DL	-12.2537
718,	-12.2539
621,	-12.254
bhishek	-12.2541
eynep	-12.2541
Harper	-12.2541
Mikhai	-12.2541
Şahi	-12.2541
Sakura	-12.2541
ë	-12.2541
▁Briefs	-12.2541
Balá	-12.2541
▁Koti	-12.2541
▁McKnight	-12.2541
Maksi	-12.2541
sharp	-12.2541
saba	-12.2542
trans	-12.2542
grave	-12.2542
▁Corp	-12.2542
▁763	-12.2543
▁NUM	-12.2544
▁421	-12.2544
ainab	-12.2544
▁Mose	-12.2546
▁Eng	-12.2547
heritage	-12.2548
fast	-12.2548
Reward	-12.2548
bold	-12.2548
▁832	-12.2549
509,	-12.2551
Mo	-12.2551
-620	-12.2552
Stanis	-12.2552
olive	-12.2552
path	-12.2555
▁594	-12.2557
▁806	-12.2558
▁573	-12.2561
Flee	-12.2566
▁663	-12.2567
Bra	-12.2567
573,	-12.2569
▁361	-12.2569
▁Black	-12.2582
▁15:5	-12.2583
▁799	-12.2587
▁2026-04-	-12.2593
":"390	-12.2597
▁Lees	-12.2599
tv	-12.26
▁592	-12.26
▁365	-12.2603
Isto	-12.2604
SWB	-12.2606
▁318	-12.2613
-789	-12.2613
.2025	-12.2617
AZ	-12.262
-625	-12.262
etter	-12.2622
▁"07	-12.2624
▁Oak	-12.2624
▁691	-12.2624
▁FULFIL	-12.2625
-09"},{"@	-12.2626
":"637	-12.2627
Route	-12.2628
solid	-12.2629
▁664	-12.2629
Mohamed	-12.2632
Nguyen	-12.2633
State	-12.2633
CUSTOMER	-12.2633
957,	-12.2634
Flow	-12.2634
421,	-12.2637
790,	-12.2637
▁414	-12.2639
rick	-12.2642
Cann	-12.2642
261,	-12.2645
▁234.	-12.265
▁298	-12.2651
aw	-12.2652
▁824	-12.2653
AWB	-12.2655
289,	-12.2657
nde	-12.266
engaluru	-12.2664
27"},"	-12.2665
409,	-12.2672
30.9	-12.2672
▁559	-12.2675
415,	-12.2677
▁Draw	-12.2678
591,	-12.2681
AJ	-12.2681
▁08:5	-12.2685
-736	-12.2685
445,	-12.2688
star	-12.2689
481,	-12.269
EWB	-12.2692
▁180.	-12.2697
▁443	-12.2698
173,	-12.2698
ojan	-12.2698
258,	-12.2704
LWB	-12.271
urora	-12.2711
$54	-12.2713
▁708	-12.2713
0%	-12.2714
949,	-12.2715
802,	-12.2716
▁Whit	-12.2717
▁Oil	-12.2719
▁258	-12.2721
Bil	-12.2721
▁704	-12.2724
ez	-12.2729
Jo	-12.2729
▁503	-12.273
down	-12.2733
▁Contract	-12.2733
▁Trunks	-12.2733
Selangor	-12.2733
▁Architecture	-12.2733
▁PROCES	-12.2733
Abdelrahman	-12.2733
Autumn	-12.2733
Zhanna	-12.2733
bdallah	-12.2733
southern	-12.2733
ọ	-12.2733
▁Califomia	-12.2733
▁Records	-12.2733
▁Cuff	-12.2733
Double	-12.2733
Kenne	-12.2733
lmore	-12.2733
Sajjad	-12.2733
livia	-12.2733
Whole	-12.2733
bigail	-12.2733
▁Head	-12.2734
Asami	-12.2734
.11.2025	-12.2734
fairview	-12.2734
focus	-12.2735
responsive	-12.2735
Iwan	-12.2736
Blouse	-12.2736
optimum	-12.2737
▁210	-12.2737
Trial	-12.2737
12</	-12.2738
bowl	-12.2738
":"0.00"}],"	-12.2741
▁Gua	-12.2742
766,	-12.2745
▁SUB	-12.2746
ren	-12.2747
action	-12.2748
ook	-12.2749
▁Ortiz	-12.275
Seo	-12.2762
-94"},{"@	-12.2763
Mait	-12.2763
▁497	-12.2764
76.5	-12.2764
▁606	-12.2765
-676	-12.2766
▁308	-12.2767
Prote	-12.2773
263,	-12.2774
▁st	-12.2776
▁233	-12.2779
374,	-12.2779
melia	-12.2782
▁Threads	-12.2786
PWB	-12.2788
wave	-12.279
▁Vu	-12.2791
Shin	-12.2792
Ava	-12.2792
="22	-12.2793
now	-12.2795
Sale	-12.2798
▁Lama	-12.2799
Amar	-12.28
▁371	-12.2807
XWB	-12.2808
,2026-08-	-12.2809
326,	-12.281
▁Ch	-12.2811
":"2025-12-0	-12.2811
▁488	-12.2811
▁707	-12.2815
▁444	-12.2816
make	-12.2818
67,	-12.2819
▁Rivera	-12.282
eniz	-12.282
▁197.	-12.2822
936,	-12.2822
574,	-12.2823
▁Alba	-12.2823
Kit	-12.2824
emai	-12.2824
Class	-12.2825
▁565	-12.2826
▁ca	-12.2827
Company	-12.2829
TRACKING	-12.2829
Accounting	-12.2831
Necklace	-12.2831
▁892	-12.2832
SED	-12.2832
▁229.	-12.2832
cel	-12.2833
▁11;	-12.2834
ONE	-12.2836
▁721	-12.2837
▁755	-12.2838
LNN	-12.2839
337,	-12.2842
uno	-12.285
KWB	-12.2853
Mate	-12.2855
▁305	-12.2856
146,	-12.2858
odern	-12.2859
indo	-12.2861
="18	-12.2862
vet	-12.2866
618,	-12.2871
-626	-12.2872
116,	-12.2873
570,	-12.2873
90"},"	-12.2875
▁Dev	-12.2875
▁174.	-12.2876
▁485	-12.2877
254,	-12.2883
▁509	-12.2883
772,	-12.2884
atej	-12.2885
iji	-12.2889
119,	-12.2893
ilippa	-12.2893
-796	-12.2897
8)	-12.2897
999,	-12.2897
heri	-12.2903
ngton	-12.2906
":"382	-12.2907
9/2026	-12.2907
▁264	-12.291
17"},"	-12.2917
497,	-12.2917
▁563	-12.2918
ichael	-12.2924
-934	-12.2925
elix	-12.2925
chester	-12.2926
local	-12.2929
▁Communications	-12.2929
▁Gallery	-12.2929
▁tampoi	-12.2929
Instant	-12.2929
rnethod	-12.2929
000656195584	-12.2929
oussef	-12.2929
▁@6%	-12.2929
▁DETAILS	-12.2929
▁selangor	-12.2929
▁Queensway	-12.2929
▁Stret	-12.2929
▁Guy	-12.293
Márt	-12.293
friendly	-12.293
▁Guild	-12.2931
▁Miller	-12.2932
Nazl	-12.2932
▁vat	-12.2932
atja	-12.2933
▁754	-12.2934
Light	-12.2934
600,	-12.2936
300","	-12.2937
▁660	-12.2937
▁Outdoor	-12.2939
ves	-12.2944
▁Holiday	-12.2945
▁221	-12.2946
▁Tro	-12.2946
▁Costa	-12.2948
-727	-12.295
▁417	-12.2953
▁572	-12.2953
▁279.	-12.2953
185,	-12.2954
▁Fr	-12.2954
▁724	-12.2955
▁701	-12.2956
▁Household	-12.2956
152,	-12.2958
735,	-12.2961
▁Corona	-12.2962
NM	-12.2966
▁Reed	-12.2967
▁982	-12.2967
21"},"	-12.2968
Rosa	-12.297
▁Tablets	-12.2974
576,	-12.2974
▁231	-12.2983
":"2025-11-2	-12.2985
-74"},{"@	-12.2988
▁474	-12.2989
safe	-12.299
▁Hi	-12.2991
:26:00	-12.2993
985,	-12.2993
649,	-12.2994
636,	-12.2997
▁589	-12.3007
Em	-12.3007
546,	-12.3009
281,	-12.3009
wall	-12.3011
422,	-12.3014
▁486	-12.3015
rnl	-12.3017
854,	-12.3019
="03	-12.3023
well	-12.3025
869,	-12.3025
▁416	-12.3026
hukwudi	-12.3026
Usman	-12.3028
John	-12.3029
Hop	-12.3029
win	-12.3031
496,	-12.3031
365,	-12.3032
▁deliver	-12.3032
ques	-12.3037
adel	-12.304
▁Alliance	-12.3045
LCN	-12.3046
▁Bars	-12.3046
▁794	-12.3046
▁Buyer	-12.3049
61.8	-12.3051
Pack	-12.3052
▁695	-12.3055
="2025-10-	-12.3059
962,	-12.3061
154,	-12.3065
661,	-12.3067
▁Ver	-12.3069
384,	-12.3069
▁09;	-12.307
▁Sand	-12.3071
▁391	-12.3075
▁475	-12.3078
enic	-12.3079
335,	-12.308
▁233.	-12.3082
646,	-12.3085
▁200	-12.3085
arnp	-12.3086
OWB	-12.3087
266,	-12.309
08</	-12.3092
▁466	-12.3103
▁491	-12.3104
▁Golden	-12.3105
▁%	-12.3106
▁784	-12.3108
235,	-12.3113
257,	-12.3119
dris	-12.3123
road	-12.3124
char	-12.3125
-20"},{"@	-12.3126
child	-12.3127
▁904	-12.3127
▁su	-12.3128
atteo	-12.3128
Heavy	-12.3129
educ	-12.3129
hudson	-12.3129
next	-12.3129
enduring	-12.3129
ticket	-12.3129
▁Bottoms	-12.3129
-949	-12.3129
lewis	-12.3129
Blackfri	-12.3129
ksha	-12.3129
▁Jerv	-12.3129
kseli	-12.3129
▁rounding	-12.3129
▁Machinery	-12.313
ihoon	-12.313
steel	-12.3131
45"},"	-12.3131
▁$5	-12.3131
asim	-12.3131
radiant	-12.3132
downtown	-12.3133
▁Farm	-12.3133
load	-12.3133
Sora	-12.3135
annah	-12.3135
477,	-12.3135
176,	-12.3136
forest	-12.3136
▁Legroo	-12.3136
318,	-12.3138
▁$7	-12.3138
iyu	-12.3139
-546	-12.3141
▁895	-12.3142
▁Residen	-12.3142
135,	-12.3145
:38:00	-12.3145
▁PROMO	-12.3149
":"485	-12.3151
▁*	-12.3152
eastern	-12.3152
▁Booth	-12.3153
mie	-12.3158
-01"},{"@	-12.3161
amber	-12.3166
▁08;	-12.3168
-749	-12.3172
oga	-12.3173
▁205	-12.3178
622,	-12.3183
▁169.	-12.3185
482,	-12.3186
▁651	-12.3187
Adam	-12.3188
carter	-12.3189
lone	-12.3192
":"731	-12.3192
▁Cl	-12.3193
otte	-12.3195
elin	-12.32
234,	-12.3201
897,	-12.3203
877,	-12.3204
511,	-12.3206
▁431	-12.3207
▁438	-12.3207
urke	-12.3207
▁Tal	-12.3209
▁921	-12.321
00"},"	-12.3214
-902	-12.3217
YWB	-12.3218
312,	-12.3229
Zahra	-12.3232
Worldwide	-12.3233
▁Martins	-12.3234
▁703	-12.3235
740,	-12.3238
":"2025-11-0	-12.3238
Rain	-12.324
▁vege	-12.3242
▁800	-12.3245
413,	-12.3249
▁Cann	-12.3251
▁949	-12.3254
▁551	-12.3254
▁451	-12.3254
▁762	-12.3254
-015	-12.3255
545,	-12.3257
-788	-12.3259
▁317	-12.326
▁528	-12.3264
32"},"	-12.3264
▁920	-12.3264
▁743	-12.3268
899,	-12.3269
Timo	-12.3269
":"2025-09-2	-12.3273
ysel	-12.3276
691,	-12.328
Iker	-12.3282
519,	-12.3283
andra	-12.3285
▁468	-12.3288
ohan	-12.3289
71.1	-12.3294
588,	-12.3295
INVO	-12.3296
▁490	-12.3298
85"	-12.3298
QNE	-12.33
▁776	-12.3302
.77",	-12.3302
▁716	-12.3304
-800	-12.3305
leasant	-12.3307
676,	-12.3307
▁Silver	-12.3308
▁500	-12.3311
▁538	-12.3316
spa	-12.3316
148,	-12.3317
sto	-12.3319
sold	-12.332
664,	-12.3324
gate	-12.3324
cations	-12.3327
▁494	-12.3328
▁"04	-12.3331
spring	-12.3331
Tomato	-12.3333
lumbing	-12.3333
liberty	-12.3333
unified	-12.3333
sol	-12.3333
Srinivas	-12.3333
Tatiana	-12.3333
Célin	-12.3333
Raheem	-12.3333
wapnil	-12.3333
adwiga	-12.3333
▁Aurob	-12.3333
valley	-12.3333
610,	-12.3333
Kian	-12.3334
merald	-12.3334
":"222	-12.3334
wind	-12.3335
super	-12.3338
Bathrobe	-12.3339
tta	-12.3339
Suit	-12.334
979,	-12.3342
Cookie	-12.3347
▁Sc	-12.3349
▁Vit	-12.3351
668,	-12.3354
Minima	-12.3354
rian	-12.3356
Sven	-12.3359
▁395	-12.336
▁265.	-12.336
▁Rogers	-12.3362
287,	-12.3362
-08"},{"@	-12.3364
cold	-12.3366
141,	-12.337
677,	-12.3371
▁Davie	-12.3374
▁Long	-12.3374
841,	-12.3375
.33",	-12.3375
sierra	-12.338
="13	-12.3381
-806	-12.3387
="25	-12.3389
funds	-12.3392
▁Bro	-12.3393
327,	-12.3396
42",	-12.3402
303,	-12.3404
mber	-12.3407
359,	-12.3412
24.1	-12.3414
▁14;	-12.3416
353,	-12.3417
-205	-12.3418
▁Respons	-12.342
Hal	-12.342
▁11:3	-12.3422
Said	-12.3424
298,	-12.3428
▁Indoor	-12.3434
886,	-12.3435
584,	-12.3436
":"311	-12.3438
▁957	-12.3438
▁Necklace	-12.3439
afe	-12.344
Hasan	-12.3441
Karim	-12.3441
consign	-12.3441
Energy	-12.3442
▁644	-12.3442
390,	-12.3444
-994	-12.345
-777	-12.3454
Hoste	-12.3455
hika	-12.3455
▁467	-12.3456
▁250.	-12.3458
kur	-12.3459
,2026-02-	-12.3459
▁798	-12.3464
375,	-12.3466
▁683	-12.3466
On	-12.3469
▁869	-12.3469
city	-12.3472
▁430	-12.3474
09:00	-12.3474
▁407	-12.3477
essential	-12.3478
48</	-12.3479
LDN	-12.348
270,	-12.348
nar	-12.3481
599,	-12.3483
▁768	-12.3483
464,	-12.3484
117,	-12.3486
524,	-12.3486
HWB	-12.3489
▁732	-12.3491
958,	-12.3491
▁557	-12.3496
458,	-12.3499
-677	-12.3503
558,	-12.351
-91"},{"@	-12.3512
▁bar	-12.3515
▁903	-12.3515
446,	-12.3517
921,	-12.3518
FWB	-12.3518
▁815	-12.3519
nov	-12.3522
ani	-12.3524
866,	-12.3524
323,	-12.3527
▁200.	-12.3528
180,	-12.3532
rnn	-12.3533
-874	-12.3534
371,	-12.3535
-611	-12.3535
▁947	-12.3539
emont	-12.354
Matthew	-12.3541
money	-12.3541
flowers	-12.3541
flex	-12.3541
integrity	-12.3541
Swim	-12.3542
Thảo	-12.3542
ahmoud	-12.3542
Søren	-12.3542
adislav	-12.3542
oshua	-12.3542
▁CHARGED	-12.3542
ehmet	-12.3542
="$1	-12.3542
helsea	-12.3542
Prosper	-12.3542
Kasia	-12.3542
819,	-12.3542
irill	-12.3542
▁Fitzgerald	-12.3542
Databas	-12.3543
ollow	-12.3543
meka	-12.3543
Garlic	-12.3543
▁Sanchez	-12.3544
Nachos	-12.3544
lux	-12.3544
Earrings	-12.3544
lunar	-12.3544
▁Lei	-12.3545
general	-12.3545
▁LLC	-12.3546
▁Shipper	-12.3546
mour	-12.3547
▁Globa	-12.3548
▁480	-12.3548
317,	-12.3551
▁Parc	-12.3551
▁204.	-12.3553
▁Limited	-12.3553
▁Cordova	-12.3556
473,	-12.3556
▁Mys	-12.356
396,	-12.3561
▁875	-12.3566
▁985	-12.3568
688,	-12.3569
▁952	-12.357
col	-12.357
▁437	-12.3571
Vega	-12.3573
":"2024-07-1	-12.3574
▁571	-12.3574
▁Pine	-12.3576
▁803	-12.358
▁738	-12.3585
":"260.	-12.3585
Ali	-12.3586
99.8	-12.3587
rack	-12.3589
▁Warr	-12.3592
▁433	-12.3595
uari	-12.36
115,	-12.3604
":"2025-10-0	-12.3606
▁427	-12.3606
485,	-12.361
-969	-12.3611
▁699	-12.3613
769,	-12.3617
williams	-12.3617
Vest	-12.3617
▁Queens	-12.3617
:03:00	-12.3618
617,	-12.3618
▁Greenwood	-12.362
▁944	-12.3621
-689	-12.3622
less	-12.3623
346,	-12.3626
▁Veer	-12.3627
807,	-12.3629
▁Training	-12.3632
▁574	-12.3632
":"341	-12.3632
293,	-12.3633
van	-12.3633
450,	-12.3642
-988	-12.3646
▁795	-12.3647
350,	-12.3651
▁770	-12.3652
▁217.	-12.3653
Honey	-12.3654
fax	-12.3654
Device	-12.3654
04</	-12.3658
449,	-12.367
Olive	-12.3673
▁881	-12.3677
840,	-12.3681
626,	-12.3683
68"},"	-12.3684
▁442	-12.3689
="23	-12.369
6/2026	-12.369
723,	-12.3691
963,	-12.3692
resource	-12.3694
159,	-12.3695
▁599	-12.3696
▁879	-12.3702
▁380	-12.3705
87.3	-12.3706
414,	-12.3712
745,	-12.3713
-847	-12.3713
394,	-12.3717
332,	-12.3722
347,	-12.3722
▁441	-12.3723
size	-12.3725
▁2024-01-	-12.3727
14.9	-12.373
▁624	-12.3733
387,	-12.3734
":"691	-12.3734
▁492	-12.3736
Man	-12.3738
575,	-12.3743
448,	-12.3746
582,	-12.3752
▁Columb	-12.3754
vector	-12.3754
frontier	-12.3754
premium	-12.3754
Benjamin	-12.3754
Nicholas	-12.3754
Sophia	-12.3754
Bogdan	-12.3754
enelope	-12.3754
rtjom	-12.3754
urelijus	-12.3754
▁Bristol	-12.3754
▁Sherbrook	-12.3754
oboru	-12.3754
deola	-12.3754
▁7/4,	-12.3755
▁Dalton	-12.3755
lbion	-12.3755
▁Flind	-12.3756
momentum	-12.3756
Umbrella	-12.3756
arav	-12.3757
optimal	-12.3757
Slippers	-12.3757
zero	-12.3757
fluent	-12.3757
harvest	-12.3758
▁526	-12.3759
.11.2026	-12.376
ustyna	-12.376
oho	-12.376
▁723	-12.3761
▁Router	-12.3761
rya	-12.3761
Expo	-12.3761
Andri	-12.3762
313,	-12.3762
▁696	-12.3762
514,	-12.377
▁522	-12.377
rtur	-12.377
($	-12.3771
▁Howe	-12.3773
▁719	-12.3778
▁613	-12.3779
ok	-12.378
▁pleas	-12.3782
▁Gray	-12.3782
▁469	-12.3784
▁Peterson	-12.3786
437,	-12.3786
386,	-12.3786
▁Urban	-12.3787
▁Cup	-12.379
▁245	-12.379
▁373.	-12.3791
69"},"	-12.3795
▁Field	-12.3795
▁265	-12.3795
▁783	-12.3798
577,	-12.38
Set	-12.3803
▁Ann	-12.3805
avenue	-12.3806
64.6	-12.3807
486,	-12.3808
VWB	-12.3808
651,	-12.3808
-07"},{"@	-12.3811
▁507	-12.3812
▁864	-12.3813
855,	-12.3813
nge	-12.3814
196,	-12.3816
912,	-12.3817
▁2024-08-	-12.3819
info	-12.3822
467,	-12.3822
Aleksandr	-12.3825
46.2	-12.3825
:53:00	-12.3826
:21:00	-12.3831
▁847	-12.3837
▁667	-12.3841
104","	-12.3843
▁693	-12.3846
▁Jin	-12.3852
.95",	-12.3853
236,	-12.3856
▁790	-12.3857
>$2	-12.3858
▁367	-12.3859
842,	-12.3865
776,	-12.3866
":"579	-12.3866
Alba	-12.3871
Andrew	-12.3871
Mobile	-12.3871
Ferry	-12.3871
Adamu	-12.3872
▁460	-12.3875
▁387	-12.3877
▁Wind	-12.3877
▁905	-12.3878
191,	-12.3881
466,	-12.3883
cket	-12.3885
ist	-12.3891
cial	-12.3897
aero	-12.3898
640,	-12.39
▁810	-12.3901
▁384	-12.3903
▁Cutler	-12.3903
engineer	-12.3905
▁641	-12.3909
Lu	-12.3911
▁2024-09-	-12.3912
Ane	-12.3915
475,	-12.3916
lles	-12.392
▁868	-12.3921
▁"+6	-12.3921
Un	-12.3923
cons	-12.3925
="17	-12.3926
72,	-12.3926
779,	-12.3927
▁669	-12.3928
-705	-12.3935
▁540	-12.394
Ji	-12.394
521,	-12.3941
Slee	-12.3942
lease	-12.3942
982,	-12.3944
▁424	-12.3945
aga	-12.3948
dela	-12.3948
Juh	-12.395
LYN	-12.3951
-844	-12.3952
▁352	-12.3952
▁987	-12.3954
623,	-12.3955
fund	-12.3956
ooley	-12.3959
Camp	-12.396
495,	-12.3963
▁506	-12.3967
865,	-12.3968
-846	-12.3971
Short	-12.3971
school	-12.3972
quick	-12.3972
▁Manning	-12.3972
▁Fraser	-12.3972
Noé	-12.3972
ibel	-12.3972
rzegorz	-12.3972
atemeh	-12.3972
Connect	-12.3972
▁Macq	-12.3972
Mega	-12.3972
Ioana	-12.3972
▁Hyde	-12.3972
▁Bloo	-12.3972
Brook	-12.3972
Relaxe	-12.3972
▁promotion	-12.3972
omoko	-12.3972
mony	-12.3973
imena	-12.3973
initial	-12.3974
▁Snack	-12.3974
Mouthwash	-12.3974
Skirt	-12.3974
haven	-12.3974
website	-12.3974
▁Cere	-12.3975
century	-12.3976
▁Jeans	-12.3976
-767	-12.3978
▁Rao	-12.3981
▁Till	-12.3981
jet	-12.3981
209,	-12.3983
▁767	-12.3984
▁582	-12.3985
ntti	-12.3986
408,	-12.3988
39"},"	-12.3993
256,	-12.3995
bert	-12.3999
Hat	-12.3999
741,	-12.4
":"2025-06-1	-12.4002
155,	-12.4003
":"295	-12.4009
▁292	-12.4012
160,	-12.4012
-026	-12.4013
426,	-12.402
american	-12.4024
-967	-12.4025
▁Daniel	-12.4027
▁591	-12.4027
81"	-12.4028
483,	-12.403
461,	-12.4033
-944	-12.404
Kin	-12.4041
296,	-12.4042
478,	-12.4042
.27",	-12.4042
▁730	-12.4043
:18:00	-12.4044
▁+4	-12.4046
Over	-12.4046
▁493	-12.4047
Mia	-12.4048
932,	-12.4049
▁858	-12.405
99.5	-12.4051
55.6	-12.4054
▁Yo	-12.4055
Jin	-12.4057
59.9	-12.4059
:02:00	-12.406
▁287	-12.4061
▁375	-12.4063
▁935	-12.4063
▁274	-12.4066
▁15;	-12.4067
474,	-12.4068
343,	-12.4069
:44:00	-12.4072
▁Ame	-12.4079
▁08:1	-12.4085
-763	-12.4086
89"	-12.4091
86.4	-12.4092
Salim	-12.4093
Mason	-12.4093
Fitness	-12.4094
Add	-12.4097
4)	-12.4098
492,	-12.4098
esna	-12.4104
water	-12.4106
741","	-12.4108
outh	-12.4109
$81	-12.4109
158,	-12.4112
▁672	-12.4113
▁337	-12.4114
▁201	-12.4114
▁Tran	-12.4116
▁368	-12.4122
▁Extension	-12.4123
":"825	-12.4127
292,	-12.413
emih	-12.4134
930,	-12.4138
oni	-12.4138
186,	-12.4138
":"2025-04-0	-12.4139
level	-12.414
844,	-12.4147
partments	-12.4148
60.9	-12.4149
515,	-12.4149
▁561	-12.4151
Char	-12.4157
244,	-12.4158
-732	-12.4158
Fan	-12.416
-989	-12.4161
Su	-12.4165
▁547	-12.4167
286,	-12.4168
ock	-12.4172
":"420	-12.4174
▁968	-12.4176
336,	-12.4177
▁315	-12.4178
cab	-12.4182
596,	-12.4182
▁wa	-12.4184
fun	-12.4186
":"652	-12.4188
▁665	-12.4189
-864	-12.419
1.00	-12.4192
▁164.	-12.4192
240,	-12.4192
arrett	-12.4193
morning	-12.4194
morris	-12.4194
432,	-12.4194
show	-12.4194
▁Begum	-12.4194
akahiro	-12.4194
uillermo	-12.4194
uomas	-12.4194
usrat	-12.4194
î	-12.4194
▁MOBILE	-12.4194
▁RECE	-12.4194
▁Fuller	-12.4194
▁Temple	-12.4194
▁Belmont	-12.4194
Cotton	-12.4195
jaf	-12.4195
Nils	-12.4195
Scarf	-12.4196
▁637	-12.4196
back	-12.4196
624,	-12.4199
-093	-12.4201
link	-12.4201
255,	-12.4202
slate	-12.4203
Organic	-12.4204
▁750	-12.4204
northwest	-12.4204
25:00	-12.4215
91.2	-12.4216
aeed	-12.4217
169,	-12.4218
476,	-12.4218
:07:00	-12.4219
▁Doc	-12.4222
▁811	-12.4224
▁Margar	-12.4225
27.3	-12.423
ano	-12.4231
▁673	-12.4234
-898	-12.4235
ready	-12.4236
▁860	-12.4237
":"192	-12.4239
271,	-12.4242
roberts	-12.4244
zac	-12.4244
210,	-12.4245
LXN	-12.4246
":"321	-12.4248
▁314	-12.4248
242,	-12.4248
▁954	-12.4252
▁363	-12.4253
874,	-12.4253
pure	-12.4253
913,	-12.4254
Mac	-12.4255
▁318.	-12.4255
▁288	-12.4258
Tot	-12.4258
28.9	-12.4259
▁Gst	-12.4263
▁713	-12.4264
709,	-12.4265
▁Inspection	-12.4266
▁Reference	-12.4267
▁963	-12.4268
▁435	-12.427
▁399	-12.4271
-855	-12.4273
349,	-12.4274
▁221.	-12.4281
ORT	-12.4282
":"317	-12.4282
▁501	-12.4283
533,	-12.4286
▁604	-12.4286
liance	-12.4287
143,	-12.4288
534,	-12.429
▁640	-12.4294
606,	-12.4301
▁948	-12.4301
":"501	-12.4302
204,	-12.4302
782,	-12.4302
▁Karim	-12.4303
818,	-12.4306
355,	-12.4306
▁419	-12.4307
▁632	-12.4313
583,	-12.4314
▁771	-12.4315
▁275.	-12.4315
apat	-12.4315
51.6	-12.4318
RNE	-12.4319
656,	-12.432
Trail	-12.4321
230,	-12.4324
njali	-12.433
879,	-12.4332
▁345	-12.4333
919,	-12.4335
amille	-12.4341
126,	-12.4343
▁357	-12.4344
948,	-12.4348
215,	-12.4349
Ski	-12.4349
dar	-12.4351
-929	-12.4351
▁048	-12.4352
dynamic	-12.4358
▁623	-12.4358
▁929	-12.4358
Deja	-12.4364
660,	-12.4367
73.1	-12.4367
▁513	-12.4369
-098	-12.437
":"292	-12.4373
▁Promo	-12.4376
":"416	-12.4381
▁432	-12.4382
719,	-12.4384
774,	-12.4385
328,	-12.4388
ather	-12.4391
129","	-12.4393
="16	-12.4397
▁631	-12.4404
157,	-12.4404
150,	-12.4408
▁689	-12.4409
tak	-12.4409
295,	-12.441
440,	-12.4411
Tor	-12.4412
▁519	-12.4414
har	-12.4415
▁600	-12.4416
lr	-12.4419
empire	-12.4421
fleet	-12.4421
wise	-12.4421
growing	-12.4421
▁Slice	-12.4421
▁Rajpath	-12.4421
▁Gomez	-12.4421
mbay	-12.4421
▁SUPP	-12.4421
▁Spad	-12.4421
Hyeji	-12.4422
ayato	-12.4422
wonder	-12.4422
actor	-12.4423
redwood	-12.4424
civic	-12.4425
▁Morrison	-12.4426
▁727	-12.4426
198,	-12.4432
▁Kee	-12.4433
AIR	-12.4438
-008	-12.4441
:50:00	-12.4441
916,	-12.4442
▁429	-12.4444
▁552	-12.4447
Premi	-12.4447
rave	-12.4448
▁10;	-12.4449
Hot	-12.445
":"411	-12.4451
Sławo	-12.4452
▁386	-12.4455
Stjepan	-12.4456
-434	-12.446
":"445	-12.4467
seaside	-12.4467
▁"2024-10-	-12.447
896,	-12.4472
▁688	-12.4474
▁620	-12.4476
-987	-12.4476
▁Burrito	-12.4476
▁the	-12.4477
280,	-12.4477
▁470	-12.4478
Massag	-12.4479
696,	-12.4485
▁"2024-12-	-12.4491
lette	-12.4497
-877	-12.4497
-956	-12.4498
4.56"	-12.4501
rocky	-12.4505
Joy	-12.4506
Han	-12.4509
▁520	-12.4511
▁Mill	-12.4514
▁Pepper	-12.4514
truc	-12.4515
vc	-12.4517
▁916	-12.4518
-614	-12.4521
evin	-12.4522
870,	-12.4522
08"}],"	-12.4523
mor	-12.4524
535,	-12.4535
":"862	-12.4536
965,	-12.4538
▁284.	-12.4538
▁564	-12.454
bone	-12.454
▁Li	-12.4546
▁Ar	-12.455
Jamal	-12.4553
uve	-12.4553
Soup	-12.4553
Trade	-12.4554
-959	-12.4554
Mateo	-12.4555
":"653	-12.4562
▁IZ	-12.4563
451,	-12.4565
-807	-12.4568
▁Turbo	-12.4568
526,	-12.4569
307,	-12.4571
$99	-12.4576
87.7	-12.4576
▁Qu	-12.4578
▁595	-12.4582
-014	-12.4582
▁737	-12.4583
29.5	-12.4584
▁579	-12.4587
-899	-12.4587
927,	-12.4588
▁408	-12.4588
Doc	-12.459
▁Thread	-12.459
▁Par	-12.4593
▁837	-12.4595
▁576	-12.4602
":"2025-08-0	-12.4607
▁586	-12.4616
into	-12.462
250,	-12.4622
333,	-12.4623
404,	-12.4627
innacle	-12.4627
▁584	-12.463
▁796	-12.4632
687,	-12.4633
-979	-12.4635
667,	-12.4637
-814	-12.4638
tand	-12.4639
30"},"	-12.464
▁110.	-12.4641
756,	-12.4642
olar	-12.4646
605,	-12.4647
▁462	-12.465
-084	-12.4651
320,	-12.4652
▁Middleway	-12.4654
social	-12.4654
gutierrez	-12.4654
complete	-12.4654
▁Fountainbridge	-12.4654
daptive	-12.4654
mitchell	-12.4654
▁Fillet	-12.4654
future	-12.4654
▁Roncesva	-12.4654
aavo	-12.4654
ergei	-12.4654
leksi	-12.4654
Sofia	-12.4654
robinson	-12.4654
▁Burnet	-12.4654
midland	-12.4654
grey	-12.4654
▁Bruntsf	-12.4654
elite	-12.4655
▁Tib	-12.4656
orbit	-12.4657
chief	-12.4657
compass	-12.4657
▁629	-12.4658
Boost	-12.4659
better	-12.4659
interstate	-12.4659
-919	-12.466
Aria	-12.4663
Max	-12.4666
case	-12.4666
▁274.	-12.4666
Emil	-12.4669
181,	-12.4671
contr	-12.4671
▁857	-12.4676
▁404	-12.4677
579,	-12.4677
▁Bernard	-12.4679
▁Exhibition	-12.4681
▁not	-12.4681
-086	-12.4682
966,	-12.4684
Salma	-12.4686
":"405	-12.4686
▁922	-12.4688
189,	-12.4689
▁Webcam	-12.469
24.9	-12.4691
▁Free	-12.4692
$75	-12.4692
Kall	-12.4693
581,	-12.4696
▁Math	-12.4704
▁360	-12.4706
418,	-12.4707
▁499	-12.4708
Full	-12.471
▁532	-12.4711
pan	-12.4711
876,	-12.4711
▁780	-12.4711
368,	-12.4715
▁731	-12.4717
▁Car	-12.4717
-968	-12.4718
ndez	-12.4719
754,	-12.4725
265,	-12.4725
354,	-12.4729
Donald	-12.473
-649	-12.4731
▁690	-12.4734
Big	-12.4735
▁Jar	-12.4736
="24	-12.4737
▁792	-12.4737
929,	-12.4737
39.8	-12.474
$109	-12.4742
▁482	-12.4745
▁Morning	-12.4746
imothy	-12.4749
542,	-12.4749
▁317.	-12.475
137,	-12.475
214,	-12.4751
587,	-12.4754
48.2	-12.4755
433,	-12.476
▁481	-12.4762
$97	-12.4765
":"266	-12.4765
ach	-12.4767
▁760	-12.4767
beer	-12.4767
$62	-12.4771
285,	-12.4773
▁Route	-12.4774
Gae	-12.4779
364,	-12.478
":"977	-12.4782
="28	-12.4785
▁544	-12.4788
Rashid	-12.4791
Settle	-12.4792
Cancell	-12.4792
Apartment	-12.4792
MODE	-12.4792
▁2026-11-	-12.4793
443,	-12.4793
▁439	-12.4794
441,	-12.4796
-542	-12.4797
Workshop	-12.4802
▁ernail	-12.4804
Oak	-12.4807
▁Vi	-12.4808
▁974	-12.4808
-035	-12.481
keda	-12.481
Aman	-12.4813
532,	-12.4815
121,	-12.4816
▁818	-12.4816
145,	-12.4817
▁Nam	-12.4817
456,	-12.4819
Live	-12.4824
402,	-12.4825
:16:00	-12.4825
▁Jean	-12.4828
▁Electronic	-12.4828
-905	-12.4832
424,	-12.4832
107,	-12.4833
82"}],"	-12.4834
▁418	-12.4836
61"	-12.4841
640","	-12.4844
444,	-12.4847
981,	-12.4849
-881	-12.4852
853,	-12.4856
708,	-12.4857
36.2	-12.4857
-083	-12.4858
▁972	-12.4861
.58",	-12.4862
="2025-07-	-12.4865
124,	-12.4865
348,	-12.4867
322,	-12.487
xis	-12.4872
.03",	-12.4875
▁542	-12.4877
504,	-12.488
▁385	-12.4881
▁745	-12.4883
392,	-12.4884
▁577	-12.4884
▁476	-12.4886
andhu	-12.4887
ndependent	-12.4889
▁Lombard	-12.489
corporation	-12.4892
cooper	-12.4892
▁Souza	-12.4892
Assembly	-12.4892
▁Partnership	-12.4892
Gustav	-12.4892
eatriz	-12.4892
Shirin	-12.4892
excel	-12.4892
wealth	-12.4892
▁Remova	-12.4892
pears	-12.4892
Fox	-12.4892
ultra	-12.4892
egin	-12.4892
▁Marks	-12.4893
oulevard	-12.4893
ohail	-12.4893
vanguard	-12.4893
onathan	-12.4894
▁time	-12.4894
Blazer	-12.4894
▁728	-12.4895
hillside	-12.4895
matrix	-12.4895
nce	-12.4895
omni	-12.4895
brave	-12.4896
helix	-12.4897
martin	-12.4898
-906	-12.4899
harmony	-12.4904
▁955	-12.4908
tá	-12.4908
556,	-12.4909
▁635	-12.4909
▁608	-12.4911
▁533	-12.4912
▁609	-12.4917
856,	-12.4918
free	-12.4918
":"929	-12.4919
▁611	-12.4925
antosh	-12.4926
lery	-12.4926
ally	-12.4927
▁336	-12.4928
▁Developer	-12.4932
156,	-12.4933
:54:00	-12.4934
679,	-12.4935
▁647	-12.4936
8.20	-12.4939
299,	-12.4939
$66	-12.494
Match	-12.4941
▁855	-12.4943
▁Grill	-12.4944
Loren	-12.4944
838,	-12.4944
▁Mus	-12.4945
988","	-12.495
▁926	-12.4958
251,	-12.4962
761,	-12.4964
-820	-12.4964
▁PV	-12.4965
▁Sarc	-12.4966
▁Account	-12.4969
-450	-12.497
▁747	-12.497
218,	-12.4974
▁Paul	-12.4974
645,	-12.4974
Web	-12.4975
:42:00	-12.4978
882,	-12.498
▁356	-12.4984
▁Riley	-12.4984
▁625	-12.4987
▁Excursion	-12.4989
▁891	-12.499
311","	-12.499
rus	-12.4992
172,	-12.4993
▁302.	-12.5
anna	-12.5006
241,	-12.5008
▁830	-12.5008
▁865	-12.5011
-776	-12.5011
▁736	-12.5012
671,	-12.5014
206,	-12.5016
▁976	-12.5018
20:00	-12.502
306,	-12.5024
-605	-12.5025
619,	-12.5026
$78	-12.5028
▁515	-12.5029
SHIPP	-12.503
▁Gr	-12.5031
-893	-12.5031
▁925	-12.5032
HAND	-12.5032
420,	-12.5033
860","	-12.5034
Joseph	-12.5035
Koen	-12.5035
Tian	-12.5035
Warr	-12.5036
602,	-12.5036
hall	-12.5036
$112	-12.5037
452,	-12.5038
643,	-12.504
▁636	-12.504
REFER	-12.5041
-628	-12.5047
ilet	-12.5049
▁861	-12.505
▁Shah	-12.505
taxi	-12.5053
Tiin	-12.5055
rton	-12.5056
▁079	-12.5057
-081	-12.5058
-675	-12.5059
Ren	-12.5059
609,	-12.506
▁450	-12.5065
-927	-12.5066
-637	-12.5067
539,	-12.5069
247,	-12.5076
-069	-12.5077
586,	-12.5078
76.2	-12.5078
554,	-12.508
Coupon	-12.5087
219,	-12.5088
742,	-12.509
817,	-12.509
1420	-12.509
Spic	-12.5091
SALE	-12.5094
Or	-12.5096
Emer	-12.5097
▁Horizon	-12.5098
565,	-12.5099
405,	-12.51
▁Simon	-12.51
1603	-12.5102
695,	-12.5102
512,	-12.5105
379,	-12.5105
▁995	-12.5105
opular	-12.5109
▁966	-12.5115
771,	-12.5116
▁705	-12.5116
▁(7	-12.5116
nter	-12.5118
▁939	-12.5119
▁508	-12.5121
97.6	-12.5121
":"762	-12.5123
▁634	-12.5126
259,	-12.5128
366,	-12.5133
548,	-12.5134
50.5	-12.5135
▁Bvndle	-12.5136
▁19;	-12.5136
boost	-12.5136
launch	-12.5136
Sullivan	-12.5136
bailey	-12.5136
▁Autom	-12.5136
atlas	-12.5136
ioleta	-12.5136
▁Context	-12.5136
▁COPY	-12.5136
eikko	-12.5136
click	-12.5136
▁Detergent	-12.5136
hiago	-12.5136
▁Permas	-12.5136
▁Rache	-12.5137
Asif	-12.5137
nshaw	-12.5138
partnership	-12.5138
239,	-12.5138
resolute	-12.5138
luxury	-12.514
▁Notting	-12.514
falcon	-12.5141
490,	-12.5142
thrive	-12.5142
288,	-12.5144
asher	-12.5145
noble	-12.5146
anti	-12.5146
▁617	-12.5146
Rahu	-12.5148
":"293	-12.5149
lta	-12.515
630,	-12.515
▁788	-12.5152
chat	-12.5153
Elir	-12.5154
▁801	-12.5155
▁658	-12.5155
99,	-12.5156
▁Jubile	-12.5157
▁030	-12.5158
399,	-12.5161
▁834	-12.5163
five	-12.5164
sland	-12.5165
751,	-12.5172
864,	-12.5173
▁678	-12.5178
ascent	-12.5179
pri	-12.5184
":"800	-12.5184
941,	-12.5187
Ingr	-12.5193
▁775	-12.5193
10.5	-12.5198
Cha	-12.5198
":"941	-12.52
▁950	-12.52
▁932	-12.5202
▁759	-12.5203
▁273.	-12.5207
ble	-12.521
-784	-12.5213
-787	-12.5214
▁so	-12.5221
-771	-12.5221
-068	-12.5223
▁Chand	-12.5223
Fish	-12.5224
▁833	-12.5224
614,	-12.5225
▁Roh	-12.5227
-940	-12.5228
lm	-12.5229
Wise	-12.5232
675,	-12.5233
484,	-12.5238
-018	-12.5239
▁422	-12.5242
▁872	-12.5242
▁711	-12.5242
ouch	-12.5243
223,	-12.5243
221,	-12.5244
416,	-12.5246
429,	-12.5252
Show	-12.5253
▁Hasan	-12.5256
▁923	-12.5262
987,	-12.5262
613,	-12.5263
07"}],"	-12.5263
":"232	-12.5265
6)	-12.5268
▁997	-12.5272
▁subtota	-12.5276
-753	-12.5279
event	-12.5281
":"856	-12.5282
Excursion	-12.5285
Pepper	-12.5285
Veer	-12.5286
▁All	-12.5286
alli	-12.5287
182,	-12.529
PURCHASER	-12.5291
-042	-12.5295
▁Lam	-12.5296
▁927	-12.53
▁980	-12.5302
dir	-12.5303
881,	-12.5304
▁549	-12.5305
WWB	-12.5306
cm	-12.5307
-430	-12.5308
▁Deluxe	-12.5309
-691	-12.5312
Mark	-12.5316
809,	-12.5317
Tank	-12.5322
428,	-12.5322
308,	-12.5323
-688	-12.5324
▁ti	-12.5324
▁804	-12.5328
372,	-12.5333
Nari	-12.5333
yro	-12.534
84.4	-12.5346
":"527	-12.535
▁675	-12.5352
▁Harbor	-12.5362
973,	-12.5368
620,	-12.537
bject	-12.5373
499,	-12.5377
ocus	-12.5383
▁733	-12.5384
jewel	-12.5385
brown	-12.5385
▁Richard	-12.5385
▁Austra	-12.5386
Gábor	-12.5386
dawn	-12.5386
bdoulaye	-12.5386
hristopher	-12.5386
aisuke	-12.5386
/24/2026	-12.5386
▁Counter	-12.5386
/15/2024	-12.5386
Internet	-12.5386
full	-12.5387
willow	-12.5387
robust	-12.5388
246,	-12.5388
mighty	-12.5389
globe	-12.5389
604,	-12.5389
heartland	-12.5389
569,	-12.539
▁756	-12.5391
sheer	-12.5392
1080	-12.5393
Af	-12.5393
charter	-12.5394
937,	-12.5394
253,	-12.5394
▁Cove	-12.5395
▁Elliott	-12.5397
continental	-12.5399
▁446	-12.54
-555	-12.54
▁556	-12.5405
▁Fu	-12.5405
▁052	-12.5408
▁940	-12.5408
Juli	-12.541
#	-12.541
439,	-12.5413
dhi	-12.5413
▁610	-12.5415
fm	-12.5417
7780	-12.5423
▁645	-12.5426
▁Seasonal	-12.5426
880,	-12.5429
-044	-12.5434
▁Bara	-12.5434
core	-12.5438
signal	-12.5439
700","	-12.544
fulfill	-12.544
953,	-12.5442
Hel	-12.5443
▁521	-12.5443
224,	-12.5444
shoreline	-12.5445
▁831	-12.5449
trail	-12.5452
,"+	-12.5452
382,	-12.5458
adha	-12.546
14.4	-12.5461
▁757	-12.5462
▁527	-12.5463
▁Bright	-12.5465
764,	-12.5466
island	-12.5467
951,	-12.547
-715	-12.5471
-646	-12.5471
▁Sus	-12.5474
▁Lunch	-12.5475
-876	-12.5483
▁Salmon	-12.5483
▁ACC	-12.5484
29.6	-12.5485
Roadsid	-12.549
▁Tian	-12.5494
$74	-12.5501
/25/2024	-12.5506
-939	-12.5509
$113	-12.5513
-583	-12.5513
▁882	-12.5514
▁758	-12.5518
425,	-12.5523
▁781	-12.5526
▁AWB	-12.5529
Sharp	-12.5529
upon	-12.553
97",	-12.5533
Yar	-12.5533
41.4	-12.5534
llp	-12.5535
":"533	-12.5536
upport	-12.5536
713,	-12.5538
Late	-12.5538
▁Plus	-12.5539
kham	-12.554
▁cs	-12.5541
Morning	-12.5541
$95	-12.5544
Rock	-12.5545
15.9	-12.5548
▁Lodh	-12.555
▁CLE	-12.5553
26.5	-12.5553
▁874	-12.5555
▁912	-12.5555
▁366	-12.5556
▁994	-12.556
▁vo	-12.5563
104,	-12.5568
$128.	-12.5571
Tara	-12.5573
▁484	-12.5577
▁2026-10-	-12.5577
▁630	-12.5578
▁685	-12.5579
212,	-12.5581
▁Ever	-12.5581
oston	-12.5583
673,	-12.5584
980","	-12.5588
590,	-12.5589
▁ordersa	-12.5591
603,	-12.5596
304,	-12.5597
Top	-12.5603
598,	-12.5617
▁Mich	-12.5618
818","	-12.5619
":"577	-12.5619
652,	-12.5625
759,	-12.5631
54.6	-12.5632
-031	-12.5635
rnan	-12.5637
lau	-12.5637
ntelligent	-12.5639
$173	-12.5639
john	-12.5641
harris	-12.5642
torres	-12.5642
thompson	-12.5642
▁Scarborough	-12.5642
▁Fries	-12.5642
▁Stuart	-12.5642
Chloe	-12.5642
nthony	-12.5642
▁Dils	-12.5642
sterling	-12.5642
▁Bond	-12.5642
▁Kingsway	-12.5642
▁Sarj	-12.5643
▁Small	-12.5643
vital	-12.5643
/14/2024	-12.5643
banner	-12.5643
vila	-12.5643
delta	-12.5643
leading	-12.5644
Shampoo	-12.5645
hawkeye	-12.5645
▁Divisi	-12.5646
mence	-12.5648
add	-12.5649
▁Mara	-12.5649
timber	-12.5651
▁Tum	-12.5651
Gym	-12.5652
▁Show	-12.5653
claims	-12.5654
pati	-12.5655
▁System	-12.5655
-624	-12.5656
▁Rene	-12.5657
":"323	-12.5657
▁712	-12.5663
129,	-12.567
END	-12.5671
▁319	-12.5672
871,	-12.5672
102,	-12.5677
140,	-12.5678
▁581	-12.5679
▁555	-12.5683
":"491	-12.5689
fine	-12.5691
▁942	-12.5693
20:3	-12.5694
":"362	-12.5698
balanced	-12.5698
▁772	-12.5708
▁516	-12.5713
171,	-12.5714
▁nurnber	-12.572
▁2026-02-	-12.5723
▁893	-12.5724
▁472	-12.5728
▁478	-12.5733
á	-12.5734
607,	-12.5735
▁080	-12.5741
etar	-12.5741
cool	-12.5747
:12:00	-12.5749
CEL	-12.575
▁661	-12.575
▁562	-12.5757
▁311.	-12.5761
▁Wel	-12.5764
▁969	-12.5766
Luca	-12.5771
340,	-12.5778
Inc	-12.5778
362,	-12.5781
571,	-12.5782
62.7	-12.5788
▁735	-12.579
lal	-12.5792
▁Ashok	-12.5793
▁TV	-12.5797
128.4	-12.5801
Salmon	-12.5804
Riley	-12.5804
owntown	-12.5809
-633	-12.5813
▁525	-12.5815
650,	-12.5816
▁769	-12.5819
267,	-12.5823
▁Dor	-12.5826
▁di	-12.5827
ack	-12.5832
33.28	-12.5834
▁828	-12.5841
▁449	-12.5842
▁986	-12.5847
310,	-12.5849
873,	-12.585
▁Dish	-12.5851
501,	-12.5852
43.5	-12.5859
▁2024-11-	-12.5862
▁643	-12.5867
87"}],"	-12.587
":"720	-12.587
northern	-12.5871
="27	-12.5878
▁670	-12.5878
▁956	-12.5881
▁we	-12.5882
cad	-12.5886
▁674	-12.5893
rra	-12.5894
361,	-12.5895
▁537	-12.5896
▁Auck	-12.5899
fort	-12.5901
luent	-12.5903
-078	-12.5903
▁Audit	-12.5905
samuel	-12.5905
premier	-12.5905
campbell	-12.5905
richardson	-12.5905
select	-12.5905
companies	-12.5905
▁Parfait	-12.5905
Meadow	-12.5905
Enduring	-12.5905
▁Bannerghat	-12.5905
▁Slaughter	-12.5905
▁~~	-12.5905
ukh	-12.5905
▁rice	-12.5906
smith	-12.5906
fox	-12.5906
LJNE	-12.5907
monarch	-12.5907
▁Cohen	-12.5907
springfield	-12.5908
neighborhood	-12.5908
urple	-12.5908
four	-12.591
amera	-12.591
▁CMH	-12.5912
kind	-12.5914
-738	-12.5915
-786	-12.5915
▁684	-12.5915
presence	-12.5923
prosperity	-12.5925
toy	-12.5927
▁587	-12.5927
cars	-12.5928
▁715	-12.5928
daily	-12.5929
pic	-12.5929
12.2	-12.5931
achi	-12.5933
barr	-12.5935
▁CL	-12.5935
polar	-12.5935
LPN	-12.5937
Helm	-12.5938
-890	-12.5939
▁906	-12.5941
84.9	-12.5946
▁Shield	-12.5948
":"806	-12.5949
▁915	-12.5954
▁534	-12.5959
88.9	-12.596
▁761	-12.596
▁965	-12.5962
123,	-12.5966
166,	-12.5969
-659	-12.5969
▁REF	-12.597
545","	-12.5972
▁Harmon	-12.5972
▁Deal	-12.5974
▁946	-12.5974
232,	-12.5976
▁529	-12.5977
11:00	-12.5984
▁867	-12.5984
▁682	-12.5988
lute	-12.5993
":"567	-12.6
near	-12.6003
-690	-12.6005
voy	-12.6007
rak	-12.6009
111,	-12.6014
▁246.	-12.6014
▁Koen	-12.6016
784,	-12.6016
▁Joseph	-12.6016
411,	-12.6016
LLN	-12.6028
Gran	-12.6029
▁787	-12.6031
▁Cu	-12.6031
uck	-12.6033
▁298.	-12.6035
▁445	-12.6043
:32:00	-12.6043
-803	-12.6046
-630	-12.6047
871","	-12.6051
▁El	-12.6057
-836	-12.6058
LTN	-12.6063
-737	-12.6064
southwest	-12.6066
▁958	-12.6068
Feder	-12.6073
Grace	-12.6074
Greenwood	-12.6075
Thomas	-12.6076
Manage	-12.6079
85"}],"	-12.6079
Baggage	-12.6079
▁779	-12.6081
:47:00	-12.6082
▁941	-12.6086
.45",	-12.6087
bro	-12.6091
vel	-12.6093
llinois	-12.6096
Brand	-12.6097
":"710	-12.6097
315.	-12.6098
10.8	-12.6103
▁536	-12.6103
▁814	-12.6104
815,	-12.6105
Freedo	-12.6118
HOW	-12.612
▁679	-12.612
-973	-12.6122
uir	-12.6124
":"364.	-12.6126
":"839	-12.613
igan	-12.6142
▁825	-12.6152
":"741	-12.6153
700,	-12.6157
▁839	-12.6159
ult	-12.6175
recip	-12.6175
navy	-12.6175
davis	-12.6175
▁Ogden	-12.6176
▁DESTINATION	-12.6176
▁ELECTRON	-12.6176
▁Houston	-12.6176
velyn	-12.6176
/18/2024	-12.6176
▁Atkins	-12.6176
zenith	-12.6176
cruz	-12.6176
▁Kawa	-12.6177
▁Vik	-12.6177
cornerstone	-12.6177
clearwater	-12.618
Qu	-12.6181
rapid	-12.6181
ahim	-12.6181
▁PR	-12.6181
":"970	-12.6183
height	-12.6184
▁AM	-12.6184
▁970	-12.6189
:08:00	-12.619
▁835	-12.6191
Aditya	-12.6191
apollo	-12.6193
305,	-12.6196
iron	-12.6197
▁Sk	-12.6201
:31:00	-12.6202
▁Hos	-12.6207
imona	-12.6215
▁STORE	-12.6216
04"}],"	-12.6218
321","	-12.6221
ody	-12.6221
▁304.	-12.6222
724","	-12.6223
NOW	-12.6223
9124	-12.6234
800,	-12.6236
▁928	-12.624
▁789	-12.6241
45.08	-12.6242
▁Strong	-12.6242
069","	-12.6247
$88	-12.6249
▁Eg	-12.6249
▁990	-12.6253
":"2025-05-0	-12.6254
834,	-12.6255
":"532	-12.6261
▁Purchaser	-12.6265
farm	-12.6266
7.10	-12.6268
Nor	-12.6278
▁Grace	-12.6278
Viktor	-12.6279
▁288.	-12.6281
rina	-12.6281
yaka	-12.6284
-055	-12.6284
Kais	-12.6289
▁902	-12.6293
:19:00	-12.6294
▁569	-12.6294
22.24	-12.63
▁Mason	-12.6302
72.3	-12.6304
▁RC	-12.6305
▁764	-12.631
-703	-12.6317
▁Mini	-12.6319
4.41	-12.6324
▁Fair	-12.6324
lington	-12.6328
502,	-12.6335
Ell	-12.6336
▁French	-12.6337
-878	-12.6339
▁Recovery	-12.634
":"306.	-12.6342
▁May	-12.6344
crn	-12.6348
▁Rap	-12.6349
Ahmed	-12.6352
DISPATCH	-12.6353
Fashion	-12.6353
speed	-12.6353
▁Cer	-12.6356
725,	-12.6364
tan	-12.6365
":"325	-12.6365
321,	-12.637
fer	-12.6372
▁GO	-12.6373
▁Peter	-12.6389
777,	-12.6389
trategic	-12.6389
ierra	-12.6392
skin	-12.6395
-056	-12.6396
▁489	-12.64
▁(8	-12.6403
▁Milt	-12.6413
▁310.	-12.6414
631,	-12.6419
4261	-12.642
▁"2024-08-	-12.6425
latinum	-12.6427
="21	-12.6432
Vill	-12.6434
▁Glass	-12.6439
-025	-12.6442
acc	-12.6442
":"410	-12.6445
Integr	-12.6445
578","	-12.6446
ptimum	-12.6448
▁967	-12.6448
rena	-12.645
▁Centra	-12.645
uxury	-12.6451
riendly	-12.6452
found	-12.6453
whole	-12.6453
▁960	-12.6453
connect	-12.6453
arctic	-12.6453
▁Configuration	-12.6453
Potato	-12.6453
eagle	-12.6453
▁Nuts	-12.6453
\	-12.6453
▁Goodwin	-12.6453
▁Ouest	-12.6453
carlett	-12.6453
▁Lauriston	-12.6453
aewon	-12.6453
▁Narasimha	-12.6453
Technica	-12.6453
active	-12.6454
marble	-12.6454
▁Johnston	-12.6454
jackson	-12.6454
orange	-12.6454
Unifi	-12.6454
atalina	-12.6454
▁PAYA	-12.6454
▁Platter	-12.6454
▁Caruso	-12.6454
▁777	-12.6454
clam	-12.6454
814,	-12.6455
keystone	-12.6455
ziz	-12.6455
volt	-12.6455
Concer	-12.6455
galaxy	-12.6455
Cappuccino	-12.6456
mni	-12.6456
Mocha	-12.6456
exclud	-12.6456
uston	-12.6459
Pay	-12.6459
▁Horn	-12.6461
absolute	-12.6468
▁How	-12.6474
$64.	-12.6481
":"878	-12.6482
527,	-12.6487
▁748	-12.6491
best	-12.6495
▁arnount	-12.6495
tearn	-12.6497
▁314.	-12.6497
▁Luca	-12.6498
737,	-12.6499
":"754	-12.6501
▁Noodle	-12.6504
terra	-12.6505
78.3	-12.6506
seven	-12.6507
▁lo	-12.6509
17.8	-12.6512
▁Bacon	-12.6513
▁951	-12.6513
970,	-12.6514
323","	-12.6517
examplS	-12.6518
▁856	-12.6522
":"296.	-12.6523
▁Admission	-12.6524
79.9	-12.6526
955,	-12.6528
▁907	-12.6534
890","	-12.6535
:40:00	-12.6537
:46:00	-12.6539
▁471	-12.6541
▁739	-12.6544
-980	-12.6544
720,	-12.6545
211,	-12.6555
▁977	-12.656
Four	-12.6563
Mill	-12.6565
$136	-12.6566
▁914	-12.6567
lif	-12.6572
5.00	-12.6573
▁Vide	-12.6575
="202	-12.6577
/27/2025	-12.6585
▁ku	-12.6591
▁517	-12.6592
▁Lucas	-12.6594
▁Usman	-12.6597
ODS	-12.6598
-094	-12.66
$120	-12.66
▁453	-12.6602
":"575	-12.6605
CRM	-12.6609
06"}],"	-12.6611
▁Bur	-12.6613
▁Sav	-12.6614
-982	-12.6617
:33:00	-12.662
▁2026-07-1	-12.6624
▁"2024-04-	-12.6628
PAR	-12.6634
▁269	-12.6637
David	-12.6638
Lunch	-12.6638
Edward	-12.6638
Ossi	-12.6638
Destination	-12.6639
Scott	-12.6639
Boarding	-12.6639
Everyday	-12.6639
Young	-12.6639
Cheese	-12.6639
Gloves	-12.6642
▁844	-12.6643
nega	-12.6645
30.4	-12.6645
▁386.	-12.6648
▁ee	-12.6657
▁846	-12.6663
-645	-12.6667
▁741	-12.6669
▁018	-12.6669
consultant	-12.6674
$108	-12.6677
-742	-12.6683
▁Shin	-12.6686
44.6	-12.6689
▁981	-12.6691
$74.	-12.6693
079","	-12.6696
▁Toast	-12.6697
▁964	-12.6699
ku	-12.6701
▁649	-12.6704
ENE	-12.6708
restige	-12.6713
300,	-12.6717
1201	-12.6722
▁Gold	-12.6724
▁si	-12.6724
raining	-12.6728
▁Thr	-12.6728
/16/2025	-12.6732
97"}],"	-12.6732
918,	-12.6734
Silv	-12.6738
granite	-12.6739
incorporated	-12.6739
family	-12.6739
▁Cheapside	-12.6739
▁METH	-12.6739
jones	-12.6739
▁Laurent	-12.6739
▁Telephone	-12.6739
COURIER	-12.6739
sabella	-12.6739
▁Hoddl	-12.6739
▁Ventura	-12.6739
▁Wharf	-12.6739
exampSe	-12.6739
lighthouse	-12.6739
national	-12.6739
kawa	-12.674
nitial	-12.674
peterson	-12.674
Fried	-12.674
Cucumber	-12.6742
Lemonade	-12.6742
pul	-12.6742
landmark	-12.6743
1010	-12.6743
parker	-12.6745
Ku	-12.6747
morgan	-12.6747
raven	-12.6749
":"985	-12.6749
-908	-12.6749
lorenz	-12.6749
just	-12.6749
▁871	-12.6754
proud	-12.6755
TION	-12.6755
▁566	-12.6756
▁Moon	-12.6757
pearl	-12.676
light	-12.676
▁652	-12.6768
▁Monthly	-12.677
Sxample	-12.6771
aurora	-12.6772
▁6%	-12.6774
▁642	-12.6775
sunrise	-12.6775
▁Fulfill	-12.6779
▁813	-12.6783
91.9	-12.6787
▁Launch	-12.679
▁Officia	-12.6796
79.3	-12.6798
▁Rich	-12.68
Ines	-12.6802
Justi	-12.6821
":"336	-12.6822
▁Franklin	-12.6824
,2026-11-	-12.6826
▁Jam	-12.6826
▁890	-12.6827
▁Bella	-12.6828
▁626	-12.6831
Anu	-12.6836
▁845	-12.6838
81.7	-12.6839
▁010	-12.6844
":"537	-12.6845
▁gu	-12.6848
10:3	-12.6852
▁Rashid	-12.6863
":"784	-12.6863
▁638	-12.6865
92.32	-12.6866
:48:00	-12.6869
67.7	-12.6872
684,	-12.6875
for	-12.6878
solar	-12.6886
01"}],"	-12.6886
▁Cole	-12.6888
90.6	-12.6889
-523	-12.6889
Irin	-12.6891
▁822	-12.6892
887,	-12.6903
RWB	-12.692
Ibrahim	-12.6932
RECIPIENT	-12.6932
Paul	-12.6932
FULFILL	-12.6933
Charles	-12.6933
George	-12.6933
class	-12.6933
12.32	-12.6933
37.6	-12.6934
▁560	-12.694
":"744	-12.6947
64"}],"	-12.6953
asi	-12.6955
Count	-12.6957
72.82	-12.6958
088","	-12.6959
:10:00	-12.697
▁Bv	-12.6971
-842	-12.6972
▁842	-12.6973
142,	-12.6974
estate	-12.6975
56.2	-12.6976
84.78	-12.6988
vaca	-12.6989
12.34	-12.6994
="+6	-12.6994
747,	-12.6999
-022	-12.7002
-751	-12.7003
vnd	-12.701
659,	-12.701
▁752	-12.7011
3/2024	-12.7012
45.72	-12.702
▁802	-12.7021
▁Trob	-12.7025
▁Unifor	-12.7028
arvest	-12.7029
▁Spence	-12.703
ptimal	-12.703
61.96	-12.703
rbit	-12.703
anguard	-12.7032
Dessert	-12.7033
nstitu	-12.7033
ivic	-12.7033
meadow	-12.7033
kingdom	-12.7033
ngelov	-12.7033
reyes	-12.7033
exBmple	-12.7033
morales	-12.7033
▁Bishopsgate	-12.7033
common	-12.7033
euvo	-12.7033
▁returnable	-12.7033
lmond	-12.7033
Sterling	-12.7033
riverside	-12.7033
aavi	-12.7033
▁bahru	-12.7034
herita	-12.7034
lizaveta	-12.7034
▁Hunt	-12.7035
mindful	-12.7035
bury	-12.7035
$121.	-12.7035
Loyal	-12.7035
finest	-12.7035
Omelette	-12.7035
majestic	-12.7036
Mayonnaise	-12.7036
beyond	-12.7036
134","	-12.7036
glow	-12.7036
048","	-12.7037
colonial	-12.7037
▁Beaub	-12.7037
crystal	-12.7038
-648	-12.7038
▁817	-12.704
natural	-12.704
Zoe	-12.704
Boat	-12.7041
thunder	-12.7041
beacon	-12.7045
orest	-12.7047
night	-12.7048
cling	-12.705
▁918	-12.705
▁Pall	-12.705
-762	-12.7053
▁Professional	-12.7053
▁Ford	-12.7053
positive	-12.7053
▁575	-12.7057
357,	-12.7057
▁826	-12.7058
Grow	-12.7059
▁Stack	-12.7059
▁005	-12.7062
1135	-12.7063
lling	-12.7068
KET	-12.7069
":"780	-12.7072
▁Hamp	-12.7077
▁Lever	-12.708
567,	-12.7082
79.4	-12.7083
▁Potatoes	-12.7093
:59:00	-12.7095
▁discounted	-12.7103
Haven	-12.7103
▁JN	-12.7103
▁Butter	-12.7103
40.24	-12.7108
Ben	-12.7108
shah	-12.7109
▁Yogurt	-12.7111
54.5	-12.7111
316,	-12.7114
18.4	-12.7115
":"287	-12.7116
.39",	-12.7118
amara	-12.7122
1265	-12.7128
cale	-12.7135
▁605	-12.7138
▁744	-12.7139
▁Chin	-12.7141
-567	-12.7146
58.41	-12.7146
":"921	-12.7147
▁849	-12.7151
":"769	-12.7152
▁Manage	-12.7153
yield	-12.7154
-744	-12.7155
▁BO	-12.716
743,	-12.7165
747","	-12.7165
/20/2026	-12.7169
▁REFER	-12.7169
▁fax	-12.7176
▁less	-12.7177
▁Westm	-12.7182
$107	-12.7183
05"}],"	-12.7186
ignal	-12.7189
8.91"	-12.7191
-092	-12.7193
6970	-12.7195
469,	-12.7196
▁570	-12.7197
▁Lin	-12.7199
Cocon	-12.72
715,	-12.7203
66.12	-12.7206
,2026	-12.7206
▁659	-12.7209
22.3	-12.721
862,	-12.7213
$135	-12.7219
82.24	-12.722
153","	-12.7223
DMI	-12.7225
":"911	-12.7227
30.6	-12.7229
Lea	-12.7231
Account	-12.7233
Henry	-12.7236
edwood	-12.7238
rnr	-12.724
▁807	-12.7249
Bow	-12.7251
":"571	-12.7266
▁020	-12.7267
good	-12.7273
state	-12.7274
947","	-12.728
▁598	-12.7283
reed	-12.7286
62.24	-12.7287
":"519	-12.7289
Snow	-12.7298
Bottl	-12.7301
▁440	-12.7301
deep	-12.7306
hospital	-12.7311
▁Alber	-12.7317
1050	-12.7322
▁919	-12.7326
294,	-12.7326
/28/2026	-12.7327
atrix	-12.7333
ahru	-12.7336
▁Canongate	-12.7336
▁Alfredo	-12.7336
worldwide	-12.7336
pectrum	-12.7336
phillips	-12.7336
▁Archer	-12.7336
▁Rubio	-12.7336
Kaczmarek	-12.7336
VOUCHER	-12.7336
▁Almeida	-12.7336
▁CONTEXT	-12.7336
Pancake	-12.7336
▁MERCHANDI	-12.7337
▁Doumbia	-12.7337
Lorenz	-12.7337
938","	-12.7337
▁Mizuno	-12.7337
▁OFFIC	-12.7337
brisk	-12.7338
:34:00	-12.7338
marine	-12.7339
champion	-12.7339
ground	-12.7339
▁Cannon	-12.734
lakeside	-12.734
628,	-12.7342
▁558	-12.7344
executive	-12.7344
mountain	-12.7344
meyer	-12.7345
279,	-12.7345
▁Essen	-12.7346
epic	-12.7347
▁Kim	-12.7349
▁Yousef	-12.735
▁pm	-12.7354
lead	-12.7355
ideal	-12.7355
▁Helm	-12.7356
▁Öztürk	-12.7357
preferred	-12.7357
prairie	-12.7359
44.52	-12.7364
ushi	-12.7365
":"357	-12.7366
Kai	-12.7367
18:0	-12.7368
rica	-12.7377
$122	-12.7379
▁Fulfil	-12.738
▁Tuna	-12.7382
spen	-12.7386
778","	-12.7398
▁988	-12.7399
▁CARRIER	-12.7401
▁2026-05-1	-12.7405
938,	-12.7406
strategic	-12.7407
751","	-12.7408
703","	-12.7409
OUNT	-12.7411
▁854	-12.7412
▁Min	-12.7417
▁Dr	-12.7417
106,	-12.7418
31.96	-12.7418
-079	-12.7422
69.4	-12.7436
641","	-12.7439
▁RECIPIENT	-12.7442
▁David	-12.7444
ighty	-12.7447
Sau	-12.7448
evi	-12.7457
gley	-12.746
▁billinga	-12.7466
043","	-12.7468
▁Jamal	-12.7472
":"918	-12.7481
▁Zahra	-12.749
post	-12.7499
▁653	-12.7501
mm	-12.7514
":"581	-12.752
▁897	-12.7524
18:3	-12.753
4210	-12.7531
-769	-12.7535
▁056	-12.7542
Inspection	-12.7548
country	-12.7548
Reference	-12.7548
Stephen	-12.7548
Marketing	-12.7549
Sandwich	-12.7549
&	-12.7549
Package	-12.7549
":"787	-12.756
Ham	-12.756
22.38	-12.7563
Leg	-12.7567
-678	-12.7569
▁088	-12.7577
▁880	-12.758
motor	-12.7585
Wave	-12.7588
1/2	-12.7588
CALL	-12.7589
read	-12.7592
":"651	-12.7599
":"245	-12.76
20.08	-12.7601
":"981	-12.7604
▁Santos	-12.7605
":"640	-12.7608
▁Compress	-12.7608
587","	-12.7614
152.1	-12.7627
stic	-12.7627
tarter	-12.763
▁Orange	-12.7631
▁Cv	-12.7639
Super	-12.7644
ross	-12.7645
hief	-12.7645
12.24	-12.7645
adiant	-12.7645
/19/2025	-12.7646
berry	-12.7646
coat	-12.7648
Summer	-12.7648
expert	-12.7648
discovery	-12.7649
private	-12.7649
▁Lesson	-12.7649
bonus	-12.7649
rogers	-12.7649
▁Pavlov	-12.7649
trickland	-12.7649
scott	-12.7649
▁Majid	-12.7649
▁Kabore	-12.7649
exaBple	-12.7649
exOmple	-12.7649
easy	-12.7649
▁applied	-12.7649
▁Hoch	-12.7649
▁Ennis	-12.7649
storm	-12.7649
Mahoney	-12.7649
▁Bowery	-12.7649
▁Vargas	-12.7649
▁Bautista	-12.7649
chran	-12.7649
▁Parra	-12.7649
torne	-12.765
▁Badge	-12.765
41.35	-12.765
human	-12.765
▁Wickha	-12.765
woodland	-12.765
alaxy	-12.7651
Cheeseburger	-12.7651
alliance	-12.7651
Quesadilla	-12.7652
rural	-12.7652
intelligent	-12.7652
▁tea	-12.7653
▁Gil	-12.7658
▁Ware	-12.7659
▁512	-12.766
▁Denn	-12.7661
gateway	-12.7661
▁Copy	-12.7662
/28/2024	-12.7665
▁Camping	-12.7668
980,	-12.7669
pace	-12.7673
09:3	-12.7673
▁930	-12.7673
▁Conrad	-12.7676
rnail	-12.768
ndustrial	-12.768
easide	-12.7681
":"555	-12.7686
▁Tee	-12.7688
steady	-12.7688
spruce	-12.7689
412,	-12.7692
▁Bl	-12.7693
superior	-12.7693
Eas	-12.7696
346","	-12.7697
tian	-12.7697
Real	-12.7698
▁017	-12.7698
savvy	-12.7701
▁Cone	-12.7702
39.3	-12.7702
$49.	-12.771
▁Lu	-12.771
sted	-12.7714
806,	-12.7715
▁App	-12.7722
:41:00	-12.7724
ession	-12.7725
unt	-12.773
jin	-12.7732
-852	-12.7737
aleb	-12.7741
cotland	-12.7749
Ref	-12.7751
13.98	-12.7752
8.00	-12.7756
331,	-12.7756
▁Feder	-12.7771
151.3	-12.7775
▁Matt	-12.7775
17.2	-12.7789
":"807	-12.7791
vegetable	-12.7792
▁Adamu	-12.7797
:33",	-12.7804
22.7	-12.7816
3364	-12.7821
-702	-12.7824
esponsive	-12.7832
401,	-12.7834
42.13	-12.7835
91.6	-12.7835
▁08:4	-12.7836
30.32	-12.7838
▁Bedroom	-12.7851
▁887	-12.7852
":"843	-12.7857
203.5	-12.7857
94.36	-12.7858
858","	-12.7859
Semi	-12.7865
ff	-12.7865
Bright	-12.787
Craft	-12.7871
Research	-12.7871
Just	-12.7873
keb	-12.788
ount	-12.7881
imber	-12.7882
▁Accessory	-12.7884
Daw	-12.7885
03"}],"	-12.7886
94.8	-12.7889
$141.	-12.7892
":"751	-12.7894
▁america	-12.7894
12.46	-12.7896
":"622	-12.79
▁"2024-02-	-12.7903
0068	-12.7908
-851	-12.7908
organic	-12.7909
0577	-12.792
laced	-12.7924
875,	-12.7934
▁Dia	-12.7936
8187	-12.7939
vm	-12.794
1667	-12.7947
0718	-12.795
966","	-12.7954
0013	-12.7955
5800	-12.7955
uild	-12.7956
41.2	-12.7959
▁VIP	-12.7961
,2026-09-	-12.7965
▁Neig	-12.7968
griffith	-12.7971
associates	-12.7971
nguyen	-12.7971
▁ADDRE	-12.7971
watson	-12.7971
▁McKay	-12.7971
▁Bäckman	-12.7971
▁Amrani	-12.7971
examOle	-12.7971
Lemon	-12.7971
▁Clayton	-12.7971
▁TELEPHONE	-12.7971
▁rnode	-12.7971
/24/2025	-12.7971
/13/2026	-12.7971
▁Hariri	-12.7972
/13/2024	-12.7972
▁Silva	-12.7972
barwangrice	-12.7972
Conroy	-12.7972
▁Digb	-12.7972
▁Osman	-12.7972
▁Ingalls	-12.7972
Ready	-12.7972
▁Moor	-12.7972
▁Baas	-12.7972
▁Elb	-12.7973
flying	-12.7973
▁wang	-12.7973
▁meat	-12.7973
shine	-12.7975
▁Nostr	-12.7976
▁Burr	-12.7976
evergreen	-12.7977
clark	-12.7977
▁Charged	-12.7977
▁Wade	-12.7977
velocity	-12.7977
▁Bayat	-12.7977
160","	-12.7978
710,	-12.7982
▁Hay	-12.7984
athan	-12.7986
parkside	-12.7987
Coast	-12.7987
comfort	-12.7987
▁917	-12.7992
aspen	-12.7998
$114	-12.8005
▁Khan	-12.8009
▁004	-12.8009
adem	-12.801
chu	-12.8012
shadow	-12.8021
0559	-12.8022
▁Common	-12.8023
▁Ali	-12.8024
86.8	-12.8025
577","	-12.804
Lake	-12.8044
98.3	-12.8048
Basi	-12.8049
-754	-12.8053
▁Star	-12.8053
randon	-12.8059
▁Latte	-12.806
641,	-12.8064
Vi	-12.8067
▁Ic	-12.8082
▁896	-12.8085
▁speed	-12.8091
▁Path	-12.8093
▁Su	-12.8106
▁Arb	-12.8121
$133.	-12.8123
hot	-12.8124
":"854	-12.8126
$179.	-12.8129
hen	-12.8142
vin	-12.8142
:01:00	-12.8143
":"525	-12.8148
▁Cho	-12.8149
3.16"	-12.815
-635	-12.8158
edge	-12.816
250","	-12.8162
1488	-12.8163
▁aO	-12.8171
1222	-12.8172
adda	-12.8174
Ten	-12.8182
BAS	-12.8187
osmic	-12.8188
5798	-12.8199
▁Vl	-12.8199
nurnber	-12.8204
Gar	-12.8205
Collection	-12.8205
-843	-12.8206
$148.	-12.8208
43.69	-12.821
Boots	-12.821
16.8	-12.8212
▁Sneakers	-12.8213
23.47	-12.8215
Avocados	-12.8221
vide	-12.8221
":"14.0	-12.8224
healthy	-12.8225
1224	-12.8226
62.46	-12.8227
▁LINE	-12.8227
1336	-12.8229
▁Equ	-12.8232
3800	-12.8235
▁IX	-12.8251
001","	-12.8252
▁Too	-12.8253
386","	-12.8257
-853	-12.826
Low	-12.8271
mcc	-12.8272
prosper	-12.8279
pollo	-12.8283
ncient	-12.8284
▁Qi	-12.8284
7769	-12.829
23.7	-12.8292
RDERED	-12.8296
8660	-12.8296
leaning	-12.8298
esolute	-12.8301
hampion	-12.8302
▁Berg	-12.8302
mut	-12.8303
aiser	-12.8304
alpine	-12.8305
▁Tapia	-12.8305
village	-12.8305
▁McLaughlin	-12.8305
Thao	-12.8305
▁Dlrect	-12.8305
▁Utz	-12.8305
eIample	-12.8305
Niemi	-12.8305
▁Associates	-12.8305
Chiang	-12.8305
▁Sarr	-12.8305
eOample	-12.8305
eanut	-12.8305
exampIe	-12.8305
▁Companies	-12.8305
Bruce	-12.8305
▁Concourse	-12.8305
Lassen	-12.8305
▁Madsen	-12.8305
▁Bui	-12.8305
Kawaguchi	-12.8305
▁Bolton	-12.8305
Festiv	-12.8305
▁Spread	-12.8305
▁Salt	-12.8306
guild	-12.8306
Neal	-12.8307
Mustard	-12.8308
Toothpaste	-12.8308
Ketchup	-12.8308
▁Dennis	-12.8309
$158	-12.8312
▁LLP	-12.8313
13"}],"	-12.8314
Slate	-12.8314
6051	-12.8315
$100	-12.8315
▁938	-12.8315
Bxample	-12.8315
▁Deng	-12.8316
northeast	-12.8317
1929	-12.8319
citi	-12.832
▁~	-12.832
▁Guzmán	-12.832
great	-12.8322
▁Savage	-12.8324
407,	-12.8325
Brownie	-12.8328
Resource	-12.8328
$129	-12.8329
▁Phiri	-12.8332
onder	-12.8338
▁Cic	-12.8344
177,	-12.8348
pleasant	-12.8351
▁Awb	-12.8355
System	-12.8369
scale	-12.8377
quity	-12.8378
0665	-12.838
3083	-12.838
Lock	-12.8383
7.00	-12.8395
656","	-12.8395
195,	-12.8397
wn	-12.8407
42.7	-12.8414
720","	-12.8423
classic	-12.8424
57.39	-12.8426
▁Ahmed	-12.8429
":"809	-12.8432
0949	-12.8433
bash	-12.8435
1574	-12.8435
921","	-12.8436
ompass	-12.8438
507,	-12.8446
7057	-12.8451
▁Mateo	-12.8453
southeast	-12.8455
▁Salim	-12.846
master	-12.8463
8177	-12.8469
558","	-12.8471
▁Clai	-12.8473
/19/2024	-12.8475
535","	-12.8476
59.52	-12.8481
▁Mohamed	-12.8485
20.83	-12.8489
807","	-12.8491
earl	-12.8501
▁083	-12.8501
$250.	-12.8504
▁Ani	-12.8508
▁Tota	-12.8518
▁"+3	-12.8521
▁Chang	-12.8526
del	-12.8528
="2025-02-1	-12.853
918","	-12.853
ool	-12.8534
12:5	-12.8535
13.16	-12.8537
":"26.6	-12.8538
atsu	-12.854
$140.	-12.854
1631	-12.8542
2179	-12.8544
Franklin	-12.8548
Edition	-12.855
▁075	-12.8555
0138	-12.8558
14.32	-12.8564
oah	-12.8564
Baker	-12.8565
Shipping	-12.8566
013","	-12.8577
▁Griffith	-12.8585
":"719	-12.8588
66.53	-12.8589
":"641	-12.8589
▁376.	-12.8593
2.80	-12.8596
24-05-2	-12.8605
83.28	-12.8611
hrive	-12.8614
183,	-12.8615
▁uni	-12.8618
":"418	-12.8619
19.73	-12.8632
36"}],"	-12.864
Hill	-12.864
aire	-12.8641
usiness	-12.8641
round	-12.8642
450","	-12.8643
130.4	-12.8646
omentum	-12.8647
advance	-12.8647
▁Editi	-12.8648
eartland	-12.8648
Good	-12.8649
walker	-12.8649
adamu	-12.8649
Yamamoto	-12.8649
flores	-12.8649
wilson	-12.8649
rodriguez	-12.8649
97.9	-12.8649
▁Castro	-12.8649
Shepherd	-12.8649
▁Jaffar	-12.8649
▁Jeong	-12.865
▁Travis	-12.865
▁Cabrera	-12.865
▁Irving	-12.865
Kawakami	-12.865
exaIple	-12.865
examBle	-12.865
▁Lopez	-12.865
Figueroa	-12.865
Mittal	-12.865
Saito	-12.865
Scrambl	-12.865
▁McFarland	-12.865
▁Murdock	-12.865
▁LANDLINE	-12.865
▁Ladypoo	-12.865
/22/2025	-12.865
/18/2025	-12.865
costa	-12.865
▁Vogel	-12.865
ć	-12.865
giant	-12.865
Henley	-12.865
▁Petrov	-12.865
▁Otis	-12.865
Motsepe	-12.865
▁Hoffman	-12.865
▁Maeda	-12.865
▁Carlt	-12.865
▁Bowman	-12.865
▁Decar	-12.865
▁Olsen	-12.8651
eandro	-12.8651
▁Sharma	-12.8651
ermany	-12.8652
circle	-12.8652
Tomatoes	-12.8653
▁VAT	-12.8653
▁Boyer	-12.8654
channel	-12.8654
7922	-12.8657
Hara	-12.8658
15.88	-12.8659
uide	-12.8659
Sugar	-12.8664
4003	-12.8665
ville	-12.8666
2/09/202	-12.8666
▁Jarvis	-12.8669
ancient	-12.8671
979","	-12.8672
948","	-12.8674
5405	-12.8679
0225	-12.8682
▁Traveler	-12.8682
125,	-12.8684
SAVE	-12.8684
xamp	-12.8685
2401	-12.8687
14.64	-12.8688
spirit	-12.8694
▁SHIPPER	-12.8695
Holly	-12.8695
315","	-12.8699
26.4	-12.87
▁Choi	-12.8702
▁Thibault	-12.8702
2025-11-10	-12.8706
rivera	-12.8708
55"}],"	-12.8709
Ban	-12.871
Bagels	-12.8711
0876	-12.8715
18.87	-12.8715
73.9	-12.8718
$103.	-12.8719
Che	-12.8728
16.12	-12.873
▁Installation	-12.873
inter	-12.8731
28.56	-12.8732
Hash	-12.8733
479,	-12.8735
▁Vist	-12.8748
▁Lang	-12.8755
tary	-12.8755
8919	-12.876
787","	-12.8765
snow	-12.8766
Balance	-12.8768
▁Von	-12.877
▁Ibrahim	-12.8771
839,	-12.8775
":"582	-12.8778
17:3	-12.8782
Operat	-12.8785
$208.	-12.8787
":"718	-12.8794
70.7	-12.8796
▁Dm	-12.8803
98.15	-12.8803
4562	-12.8804
16.2	-12.8808
579","	-12.881
":"339	-12.881
1372	-12.8816
180","	-12.8818
9659	-12.8825
dia	-12.8829
9881	-12.883
Futur	-12.8837
▁Flow	-12.8839
linear	-12.8844
21.3	-12.8847
▁087	-12.8852
89.22	-12.8861
Reserv	-12.8863
5873	-12.8865
llard	-12.8865
":"103.8	-12.8865
$102	-12.8866
67.14	-12.8866
":"12.5	-12.8867
91.24	-12.8875
":"10.4	-12.888
":"948	-12.8888
▁Chee	-12.8888
51.78	-12.8889
13.72	-12.8894
":"438	-12.8901
Spring	-12.8905
Professional	-12.8905
Theater	-12.8906
James	-12.8907
Point	-12.8907
▁lot	-12.891
Ridg	-12.8916
Law	-12.892
xample	-12.8922
35.9	-12.8923
inclusiv	-12.8926
▁Ref	-12.8926
2232	-12.8931
25.08	-12.8932
6310	-12.8933
▁Signa	-12.8935
hirt	-12.8937
":"511.	-12.8938
▁621	-12.894
":"18.0	-12.8942
ales	-12.8949
▁066	-12.8951
44.29	-12.8952
▁Holding	-12.8957
":"858	-12.8958
90.4	-12.896
▁13:5	-12.8965
9294	-12.8974
lue	-12.8977
421","	-12.8978
▁851	-12.8979
rairie	-12.898
65.97	-12.8982
chi	-12.8996
":"605	-12.8996
28.15	-12.8997
hunder	-12.8998
rystal	-12.9001
eighborhood	-12.9003
andmark	-12.9003
ajestic	-12.9004
onarch	-12.9005
▁Carr	-12.9006
Dynamic	-12.9006
▁Multivitamin	-12.9006
jacob	-12.9007
▁Naylor	-12.9007
▁Syrup	-12.9007
▁Randall	-12.9007
▁Beltrán	-12.9007
▁Ingram	-12.9007
▁McMahon	-12.9007
▁Crane	-12.9007
Hodges	-12.9007
Turnbull	-12.9007
▁Norris	-12.9007
▁Montgomery	-12.9007
evans	-12.9007
instant	-12.9007
▁Incorporated	-12.9007
▁Kozlov	-12.9007
▁Baldwin	-12.9007
▁Ferreira	-12.9007
Foreman	-12.9007
▁Elbaz	-12.9007
eBample	-12.9007
exampOe	-12.9007
Assortment	-12.9007
REDEEM	-12.9007
▁Jørgensen	-12.9007
eacock	-12.9007
▁redeem	-12.9007
Arctic	-12.9007
Member	-12.9007
▁Bundlc	-12.9007
▁Napean	-12.9007
▁Judd	-12.9007
▁Botan	-12.9007
▁Hood	-12.9007
▁Kokkonen	-12.9007
▁André	-12.9007
▁Mbogo	-12.9007
▁Powder	-12.9007
Sudhir	-12.9007
Pickett	-12.9007
▁Braithwaite	-12.9007
▁Herbert	-12.9007
Buchanan	-12.9007
▁Hinton	-12.9007
▁Burton	-12.9007
▁Freeman	-12.9007
cinder	-12.9007
▁Coleman	-12.9007
▁Kast	-12.9007
Boulos	-12.9007
johnson	-12.9008
essen	-12.9008
Coleslaw	-12.9009
distinct	-12.9009
advanced	-12.9009
busy	-12.9009
▁Surnmary	-12.9009
▁Hunter	-12.9009
genuine	-12.9009
maximum	-12.9009
▁Pender	-12.9009
Compet	-12.9009
Bananas	-12.901
Gilbert	-12.901
▁Levin	-12.901
lumen	-12.9012
▁006	-12.9014
52.7	-12.9014
eSample	-12.9019
atomic	-12.9021
▁Pie	-12.9025
Lux	-12.9027
patriot	-12.9027
perfect	-12.9027
oving	-12.9028
532","	-12.9029
principal	-12.9029
▁Asadi	-12.9031
▁Kang	-12.9032
":"656	-12.9032
▁Glove	-12.9032
81.68	-12.9041
LBN	-12.9043
high	-12.9047
825,	-12.9047
15.29	-12.905
like	-12.9054
82.48	-12.9064
31.03	-12.9068
355","	-12.9077
1950	-12.9078
11.78	-12.9082
12.04	-12.9089
7618	-12.9096
575","	-12.9097
4918	-12.9101
ttle	-12.9105
":"535	-12.9109
8870	-12.9111
roof	-12.9117
▁Lamb	-12.9117
6357	-12.912
ompton	-12.9125
749,	-12.9125
1106	-12.9133
1715	-12.914
Tün	-12.914
93.28	-12.9146
2025-02-05	-12.9149
2710	-12.9156
▁Bee	-12.9157
learwater	-12.9157
:15:00	-12.9157
2882	-12.916
":"133.3	-12.9162
▁PURCHASER	-12.9167
▁Ger	-12.9178
88.4	-12.9183
45.42	-12.9183
78.2	-12.9184
airview	-12.9187
even	-12.9188
58.6	-12.9189
":"864	-12.9205
":"764	-12.9207
":"509	-12.9209
suppo	-12.9216
9493	-12.9219
▁Repla	-12.9219
362","	-12.922
":"534	-12.9221
▁Hal	-12.9226
3970	-12.9233
122,	-12.9235
9386	-12.9244
unar	-12.9247
91.62	-12.9248
":"715	-12.9248
":"152.0	-12.9275
Chocolate	-12.9277
Little	-12.9277
Speaker	-12.9277
Mary	-12.9277
METHOD	-12.9277
rag	-12.9279
Latte	-12.9279
Vist	-12.9281
Build	-12.9283
Purchaser	-12.9291
96.34	-12.9292
8212	-12.9293
109,	-12.9296
762,	-12.9296
92"}],"	-12.9299
0850	-12.93
29.43	-12.9306
36.26	-12.931
641"},{"@	-12.9315
1324	-12.9326
$153.	-12.9336
33.16	-12.9343
780","	-12.9351
":"626	-12.9351
akeside	-12.936
Lucas	-12.9368
▁America	-12.9368
riginal	-12.9369
aggage	-12.937
Select	-12.9377
▁Svbscription	-12.9377
excellence	-12.9377
priority	-12.9377
▁Poirier	-12.9377
Espinosa	-12.9377
Ferrara	-12.9377
Natarajan	-12.9377
▁Eriksson	-12.9377
stewart	-12.9377
▁Bradley	-12.9377
▁Winchester	-12.9377
▁Persson	-12.9377
▁Hansen	-12.9377
▁Alvarado	-12.9377
▁Tyagi	-12.9377
▁Ralph	-12.9377
▁Hahn	-12.9377
▁Kingdorn	-12.9377
/23/2025	-12.9377
Storm	-12.9377
▁Ganesh	-12.9377
▁Avai	-12.9377
clever	-12.9377
▁Grover	-12.9377
▁Naranjo	-12.9377
▁Rozario	-12.9377
▁Haines	-12.9377
▁Segal	-12.9378
▁Garay	-12.9378
▁Adler	-12.9378
concord	-12.9378
**	-12.9378
▁Range	-12.9378
31.56	-12.9379
▁Pusa	-12.9385
browne	-12.9385
Oxample	-12.9386
":"850	-12.9387
":"102.4	-12.9387
63.96	-12.939
lira	-12.939
▁Page	-12.9391
rez	-12.9391
":"803	-12.9392
Ixample	-12.94
▁Chauhan	-12.9403
ural	-12.9403
":"896	-12.9405
18.06	-12.9405
▁Musa	-12.9409
57.5	-12.941
▁Ire	-12.9415
exampe	-12.9417
▁Lac	-12.9418
▁Cobb	-12.9422
simple	-12.9425
1232	-12.9432
41.54	-12.9433
easonal	-12.9435
Globe	-12.9436
1469	-12.9438
1098	-12.9438
5289	-12.9439
bio	-12.9439
Herb	-12.944
312","	-12.9441
$149	-12.9443
▁federal	-12.9449
32.14	-12.9453
romotion	-12.9453
▁Griffiths	-12.9457
4156	-12.9464
88"}],"	-12.9465
Banner	-12.9466
94.1	-12.9468
62.9	-12.9469
034-	-12.9471
20.24	-12.9472
70.96	-12.9475
5033	-12.9476
400","	-12.9476
":"890	-12.9476
512","	-12.9479
63.36	-12.9481
09:4	-12.9483
8724	-12.9484
30.92	-12.9484
7946	-12.9486
27.74	-12.9488
164,	-12.9489
3371	-12.9491
1862	-12.9491
ben	-12.9496
2024-01-19	-12.9497
pacific	-12.9502
5.68</	-12.9503
Rub	-12.9504
":"122.1	-12.9509
32.01	-12.951
/16/2026	-12.9511
1776	-12.9512
5090	-12.9517
3067	-12.9517
="2025-05-2	-12.9523
":"30.3	-12.9527
Award	-12.9529
54.78	-12.9531
482","	-12.9537
75.49	-12.9543
/27/2024	-12.9546
":"492.	-12.9555
Bagel	-12.9558
12.16	-12.9563
59.54	-12.9565
30.62	-12.9567
":"115.8	-12.9575
78.7	-12.9575
Shore	-12.9577
/21/2025	-12.9601
29.76	-12.9602
$134	-12.9607
▁Roman	-12.9618
":"45.9	-12.9622
Vanj	-12.9623
0658	-12.9627
Springfield	-12.9637
34.56	-12.9645
ket	-12.9646
aven	-12.9656
Ship	-12.9657
235.8	-12.9657
▁398.	-12.9659
Marg	-12.966
Yogurt	-12.966
Club	-12.9661
Liber	-12.9661
Steel	-12.9662
illside	-12.9664
97.88	-12.9672
2339	-12.9673
1298	-12.9674
REF	-12.9675
89.44	-12.9681
eystone	-12.9681
Avenue	-12.9687
":"21.0	-12.9692
9389	-12.9694
avvy	-12.9703
":"006	-12.9705
fie	-12.9706
13.96	-12.9709
33.66	-12.9709
48.62	-12.9709
81.92	-12.9723
13.02	-12.9726
26.76	-12.9728
8503	-12.9734
28.7	-12.9734
31.86	-12.9735
referred	-12.9735
ositive	-12.9735
resence	-12.9738
650","	-12.9738
1695	-12.9744
5193	-12.9748
uan	-12.975
xecutive	-12.9752
113,	-12.9752
":"20.5	-12.9754
hirazi	-12.9755
▁Ven	-12.9756
olonial	-12.9756
awkeye	-12.9757
urba	-12.976
egacy	-12.976
LZN	-12.9761
obust	-12.9762
shield	-12.9762
cobb	-12.9762
ruby	-12.9762
▁Reese	-12.9762
thomas	-12.9762
turner	-12.9762
▁Westerlund	-12.9762
david	-12.9762
▁Brandão	-12.9762
▁Crackers	-12.9762
hurley	-12.9762
Huerta	-12.9762
▁Duarte	-12.9762
tillwater	-12.9762
▁Kibet	-12.9762
▁Lindsay	-12.9762
Njeri	-12.9762
▁Sherman	-12.9762
▁Foley	-12.9762
Nwosu	-12.9762
Whittaker	-12.9762
▁Sweet	-12.9762
▁Winkler	-12.9762
▁Pasha	-12.9762
Matsumoto	-12.9762
exImple	-12.9762
▁Jamison	-12.9762
▁Oliveira	-12.9762
▁Yıldız	-12.9762
Aparicio	-12.9762
Goswami	-12.9762
Harrington	-12.9762
McCray	-12.9762
james	-12.9762
Fawcett	-12.9762
▁Graves	-12.9762
▁Tanner	-12.9762
▁(867388	-12.9762
Excellence	-12.9762
Palacios	-12.9762
▁Kukatpal	-12.9762
▁Bhatia	-12.9762
Kuroda	-12.9762
Leafy	-12.9762
▁Billings	-12.9762
/16/2024	-12.9762
▁Sidibe	-12.9762
▁Brantley	-12.9762
▁Hicks	-12.9762
▁Willard	-12.9762
▁Shaw	-12.9762
▁Svensson	-12.9762
▁Strasser	-12.9762
▁Boer	-12.9762
Accurat	-12.9762
▁Odom	-12.9762
▁Garza	-12.9762
exampBe	-12.9762
erican	-12.9762
Volt	-12.9762
▁Silverman	-12.9762
▁Marsh	-12.9763
▁Sato	-12.9763
▁Coyle	-12.9763
▁Jacobs	-12.9763
infinity	-12.9764
integrated	-12.9764
▁Merrill	-12.9764
Deodorant	-12.9764
Smoothie	-12.9764
▁Gala	-12.9766
▁Jung	-12.9766
▁Madu	-12.9766
legacy	-12.9766
Bhat	-12.9767
Branch	-12.9768
▁Benson	-12.9768
Rosenberg	-12.9768
nting	-12.9769
":"17.1	-12.9771
1424	-12.9771
▁Gill	-12.9772
chang	-12.9773
examplB	-12.9774
▁Jero	-12.9774
▁Hsu	-12.9778
58.64	-12.9779
72.94	-12.9779
▁Caldeira	-12.978
▁Malmström	-12.978
agile	-12.978
1802	-12.9781
▁COUPON	-12.9784
▁Hale	-12.9786
▁Ashraf	-12.9788
794,	-12.979
23.9	-12.9791
▁Lai	-12.9794
undr	-12.9797
Holmes	-12.9797
utton	-12.9799
32.87	-12.98
1652	-12.98
ude	-12.9802
▁003	-12.9804
16.46	-12.9808
8171	-12.9809
▁Abe	-12.981
50.38	-12.9813
27.4	-12.9816
8346	-12.9818
▁009	-12.982
$110	-12.9824
regional	-12.9839
944","	-12.9841
3577	-12.9845
consultants	-12.9849
▁Peters	-12.9849
0874	-12.9851
90.92	-12.9856
/14/2025	-12.9857
6878	-12.9862
9554	-12.9873
3.08"	-12.9877
65.18	-12.988
▁18.0	-12.9881
0785	-12.9886
townline	-12.9886
exam	-12.989
owl	-12.99
Raz	-12.9916
10.51	-12.992
48.15	-12.992
5222	-12.9921
Best	-12.9922
1560	-12.9929
87.34	-12.9929
555,	-12.993
▁Gan	-12.9941
94.35	-12.9952
76.36	-12.9953
rnin	-12.9958
Renew	-12.9959
5450	-12.9961
70.05	-12.9962
3066	-12.9968
99.52	-12.997
1465	-12.9979
80.8	-12.9982
11.66	-12.9988
/14/2026	-12.999
4401	-12.9995
79.52	-12.9999
Frontie	-13.0007
5061	-13.0009
22.33	-13.0012
97.22	-13.0019
":"851	-13.0019
":"14.5	-13.0021
811","	-13.0026
62.05	-13.0027
8651	-13.0039
5649	-13.0041
7417	-13.0056
63"}],"	-13.0058
Admission	-13.0061
Daniel	-13.0061
Harmon	-13.0061
52.44	-13.0061
Hospitality	-13.0061
Salad	-13.0061
Access	-13.0062
875","	-13.0062
bla	-13.0064
6794	-13.0065
":"173.9	-13.0068
4798	-13.0073
.37"}],"	-13.0077
":"151.2	-13.0078
":"155.0	-13.008
87.26	-13.0083
0456	-13.0085
16:3	-13.0086
Gst	-13.0088
55.88	-13.0095
="2025-12-1	-13.0097
von	-13.0099
Old	-13.0104
everling	-13.0105
787,	-13.0106
378,	-13.0107
Oil	-13.0112
30.08	-13.0115
ydney	-13.0116
4153	-13.0118
holding	-13.0119
▁072	-13.0123
28.79	-13.0129
4185	-13.0132
2581	-13.0133
":"887	-13.0134
25.18	-13.0139
144.3	-13.014
ehman	-13.0144
52.76	-13.0146
="2025-10-2	-13.0149
▁Villa	-13.0152
156.5	-13.0152
3864	-13.0154
cente	-13.0158
iggins	-13.0158
▁packag	-13.0159
campo	-13.016
$204.	-13.016
illow	-13.016
Portab	-13.016
▁Control	-13.0161
accurate	-13.0161
▁Goel	-13.0162
▁Mahajan	-13.0162
Neill	-13.0162
owalczyk	-13.0162
▁Nickerson	-13.0162
▁Serra	-13.0162
Zubair	-13.0162
county	-13.0162
▁Nyström	-13.0162
▁Acheampong	-13.0162
▁Hidalgo	-13.0162
▁Nagata	-13.0162
▁Clement	-13.0162
▁Mortensen	-13.0162
▁Windsor	-13.0162
Müller	-13.0162
▁Alonso	-13.0162
▁Babić	-13.0162
▁Carpenter	-13.0162
Sargent	-13.0162
Valladares	-13.0162
▁Johannessen	-13.0162
▁Lemieux	-13.0162
▁Tench	-13.0162
Papadopoulos	-13.0162
—	-13.0162
welcome	-13.0162
▁Mercer	-13.0162
Schiller	-13.0162
▁Kashyap	-13.0162
/23/2026	-13.0162
aign	-13.0162
▁Carney	-13.0162
Miranda	-13.0162
Zúñiga	-13.0162
▁Rahman	-13.0162
Moreno	-13.0162
Dalgaard	-13.0162
▁Livingston	-13.0162
chmitt	-13.0162
▁Hayden	-13.0162
▁LeBlanc	-13.0162
▁Peeters	-13.0162
▁Rocha	-13.0162
▁Radhakrishnan	-13.0162
Agha	-13.0162
▁Nolaní	-13.0162
▁Pei	-13.0162
▁Lesage	-13.0162
▁Rios	-13.0162
umpur	-13.0162
▁Buren	-13.0162
Joyce	-13.0162
▁Chong	-13.0162
holm	-13.0162
ivered	-13.0163
▁Watkins	-13.0163
▁Dub	-13.0163
▁Lehman	-13.0164
▁Martel	-13.0164
▁Serrano	-13.0165
disc	-13.0165
▁Gross	-13.0165
stout	-13.0166
":"30.1	-13.0166
shir	-13.0167
Compani	-13.0167
51.18	-13.017
▁Horne	-13.017
target	-13.017
▁Finch	-13.0171
5955	-13.0175
▁Panda	-13.0175
nest	-13.0176
▁Upadhyay	-13.0176
uther	-13.0178
twin	-13.0181
11.83	-13.0182
cook	-13.0182
1067	-13.0183
▁Valdez	-13.0185
▁Furukawa	-13.0185
▁McNeil	-13.0185
▁Guerrero	-13.0185
▁Aarons	-13.0189
▁Schwartz	-13.0189
4809	-13.0194
fall	-13.0195
4109	-13.02
kumar	-13.02
teak	-13.0201
325,	-13.0201
fair	-13.0201
▁Raymond	-13.0201
lucas	-13.0208
8580	-13.0211
2024-04-20	-13.0212
6295	-13.0214
":"42.9	-13.0223
1267	-13.0225
-839	-13.0226
291,	-13.0236
116.2	-13.0237
32.2	-13.0237
6093	-13.0257
alpha	-13.0261
3/2	-13.0262
82.64	-13.0262
179,	-13.0264
":"26.1	-13.0264
:35:00	-13.0264
/20/2025	-13.0272
hale	-13.0274
17:0	-13.0274
14.78	-13.0275
109.4	-13.0276
arrow	-13.0284
▁Zand	-13.0295
47.54	-13.0297
42.22	-13.0298
5659	-13.0299
6439	-13.0301
$146.	-13.0305
":"834	-13.0309
▁Cav	-13.0311
horeline	-13.0313
":"067	-13.0317
":"58.9	-13.032
":"673.	-13.0325
▁Carn	-13.0326
7058	-13.0327
27.12	-13.0329
":"22.0	-13.0332
19.43	-13.0333
4824	-13.0335
2025-08-17	-13.0346
63.62	-13.0346
51.51	-13.0348
Fine	-13.0348
▁"2024-07-	-13.035
9269	-13.0353
142-	-13.0357
0360	-13.0358
3339	-13.036
67.06	-13.0363
SEO	-13.0367
15.77	-13.0367
3323	-13.0368
0010	-13.0373
78.6	-13.0375
4018	-13.0379
9977	-13.0379
2024-12-20	-13.038
▁con	-13.038
5153	-13.0388
9325	-13.0389
1250	-13.0395
▁ae	-13.0395
8053	-13.0397
4052	-13.0403
$159	-13.0406
7284	-13.0411
1476	-13.0415
":"10.0	-13.0417
75.72	-13.0423
30.88	-13.0427
570","	-13.0431
77.26	-13.0431
$137.	-13.0432
7008	-13.0434
25.17	-13.0436
1237	-13.0439
":"545	-13.0447
":"175.1	-13.0451
2.09"	-13.0452
Barr	-13.0456
inest	-13.0457
965","	-13.0458
2024-02-20	-13.046
46.76	-13.0462
74.52	-13.0467
32.16	-13.0477
Burrito	-13.0477
Hudson	-13.0478
Consign	-13.0478
Ticket	-13.0478
waybill	-13.0479
Americano	-13.0479
="2025-09-1	-13.0482
Way	-13.0487
19.91	-13.0493
20.96	-13.0497
6177	-13.0499
0355	-13.0507
72.18	-13.0511
54.71	-13.0511
hadow	-13.0514
29.22	-13.0515
Moon	-13.0516
19.56	-13.0518
":"032	-13.0518
3072	-13.052
11.41	-13.052
6546	-13.0524
155.9	-13.0527
4056	-13.0529
775,	-13.0529
andar	-13.0532
1055	-13.0539
":"49.8	-13.054
190,	-13.0543
7101	-13.0549
rincipal	-13.0552
Near	-13.0553
8509	-13.0554
7675	-13.0555
bsolute	-13.0556
lind	-13.0559
0910	-13.056
32.22	-13.056
7072	-13.0574
aximum	-13.0575
indful	-13.0576
urpose	-13.0576
ranchise	-13.0576
enuine	-13.0577
Project	-13.0578
enith	-13.0578
rgensen	-13.0578
▁Floss	-13.0578
garcia	-13.0578
ortiz	-13.0578
wright	-13.0578
motsepe	-13.0578
▁Cvetković	-13.0578
▁Iversen	-13.0578
taylor	-13.0578
▁Aydin	-13.0578
▁Pollard	-13.0578
Celik	-13.0578
▁Mikami	-13.0578
Okamoto	-13.0578
mohammed	-13.0578
agner	-13.0578
Belkacem	-13.0578
endricks	-13.0578
▁Trinh	-13.0578
Bernier	-13.0578
▁Ahuja	-13.0578
▁Bruijn	-13.0578
Castillo	-13.0578
Crawford	-13.0578
▁Dijk	-13.0578
▁Forster	-13.0578
▁Gabbard	-13.0578
▁Novotný	-13.0578
chaefer	-13.0578
quiet	-13.0578
▁Hooper	-13.0578
▁Vincent	-13.0578
▁Lopes	-13.0578
kelly	-13.0578
▁Lebrun	-13.0578
▁Medina	-13.0578
▁Program	-13.0578
▁Hurley	-13.0578
▁Nicolau	-13.0578
Active	-13.0578
Jefferson	-13.0578
avolio	-13.0578
▁Malmberg	-13.0578
▁Ritchie	-13.0578
▁Wilshir	-13.0578
Stanford	-13.0578
Walton	-13.0578
Social	-13.0578
keep	-13.0578
Whitaker	-13.0578
▁Perera	-13.0579
▁Tyler	-13.0579
▁Weeks	-13.0579
▁Solís	-13.0579
McConnell	-13.0579
▁Siqueira	-13.0579
▁Zamora	-13.0579
▁Lacey	-13.0579
▁Fournier	-13.0579
Neck	-13.0579
▁Gilmore	-13.0579
▁Jennings	-13.0579
Pugh	-13.0579
▁Ekberg	-13.0579
▁Faulkner	-13.0579
Utility	-13.0579
▁Lentils	-13.0579
▁Amari	-13.0579
diaz	-13.0579
oncord	-13.0579
exaple	-13.0579
▁Summers	-13.0579
▁Kaur	-13.0579
benchmark	-13.058
▁Stevenson	-13.058
mission	-13.058
5896	-13.058
franchise	-13.058
▁Swanson	-13.058
▁Deol	-13.058
▁Herring	-13.058
Vinegar	-13.0581
vintage	-13.0581
Terra	-13.0581
▁Cheng	-13.0581
▁Kolar	-13.0581
▁Lind	-13.0582
forward	-13.0582
▁Higgins	-13.0582
▁Bloom	-13.0582
▁Pinto	-13.0583
▁Love	-13.0583
howard	-13.0584
":"19.0	-13.0586
▁Hour	-13.0588
Rounding	-13.0589
Village	-13.0589
▁Christensen	-13.0589
▁Heikkinen	-13.0589
▁Willoughby	-13.0589
9429	-13.059
5685	-13.0593
▁McGregor	-13.0594
▁Aguilar	-13.0594
71.88	-13.0594
▁Hart	-13.0595
kara	-13.0595
▁Askarov	-13.0598
▁Kjellberg	-13.0602
▁Robbins	-13.0602
McDonald	-13.0605
18.52	-13.0606
":"130.1	-13.0606
":"148.0	-13.061
ocean	-13.0611
HOT	-13.0611
2025-09-05	-13.0613
ircle	-13.0616
24.07	-13.0617
Michel	-13.0618
11.36	-13.0619
39.44	-13.0621
▁Bae	-13.0627
8387	-13.0631
/21/2026	-13.0632
2549	-13.0633
":"106.5	-13.0634
0862	-13.0635
ottle	-13.0638
rdalan	-13.0639
▁403.	-13.064
$241.	-13.0643
":"124.9	-13.0644
206.3	-13.0646
0803	-13.0649
2485	-13.0653
65.1	-13.0659
12.06	-13.066
9533	-13.0662
0574	-13.0664
▁Mili	-13.0665
1102	-13.0667
8812	-13.0669
2025-08-07	-13.0681
":"684	-13.0682
22.22	-13.0686
108.6	-13.0687
2411	-13.0693
":"119.5	-13.0694
6422	-13.0698
":"101.8	-13.0698
2024-12-10	-13.0699
▁19.0	-13.0699
61.6	-13.07
47.14	-13.0703
9710	-13.0703
elance	-13.0709
36.46	-13.0715
53.54	-13.0719
61.88	-13.0721
0508	-13.0723
43.64	-13.0723
/27/2026	-13.0726
4493	-13.0727
91.52	-13.0727
8282	-13.0731
▁294.	-13.0735
":"140.5	-13.0736
$201.	-13.074
99.22	-13.0748
":"749	-13.0751
Alpin	-13.0755
134,	-13.0755
50.00	-13.0762
ience	-13.0765
6613	-13.0768
1.60	-13.0771
":"135.4	-13.0774
▁511.	-13.0776
3928	-13.0779
7063	-13.078
27.84	-13.0786
62.44	-13.0793
cat	-13.0795
32.59	-13.0799
6096	-13.0803
410"},{"@	-13.0804
3468	-13.0808
2026-08-07	-13.081
0357	-13.0811
▁Chan	-13.0811
0157	-13.0821
nch	-13.0821
3537	-13.0823
1691	-13.0824
8.9"	-13.0828
":"13.0	-13.084
64.34	-13.0841
23.56	-13.0844
3789	-13.085
3347	-13.0852
25.02	-13.0853
6316	-13.0859
13.62	-13.0865
71.86	-13.0866
9148	-13.0867
9853	-13.0868
take	-13.0871
9916	-13.0871
":"38.3	-13.0873
="2025-03-2	-13.0886
▁Tama	-13.0887
0855	-13.0888
10.92	-13.089
":"121.4	-13.0891
38.14	-13.0894
540,	-13.0896
23.76	-13.0897
4107	-13.0901
5906	-13.0905
3405	-13.091
lion	-13.0911
Installation	-13.0912
Gutierrez	-13.0913
Catering	-13.0913
Valley	-13.0913
Strong	-13.0913
":"966	-13.0915
69.94	-13.0917
":"12.0	-13.0918
Butter	-13.0919
4330	-13.0924
12.68	-13.0924
$225.	-13.094
0.60	-13.0944
53.93	-13.0944
13.77	-13.0946
74.08	-13.0947
":"965	-13.0947
43.36	-13.0949
▁Prince	-13.095
43800	-13.0952
24.32	-13.0963
72.93	-13.0967
2025-05-17	-13.0972
201,	-13.0974
2025-08-09	-13.0975
7442	-13.0975
19.55	-13.0976
Lang	-13.0983
":"127.2	-13.0984
20.72	-13.0984
54.18	-13.0989
26.93	-13.0995
5192	-13.0996
":"26.2	-13.0998
anfor	-13.0998
5129	-13.1
43.35	-13.1002
":"10.6	-13.1004
37.35	-13.1004
71.56	-13.1005
glob	-13.1006
eifert	-13.1006
bbott	-13.1009
orowski	-13.1011
thibault	-13.1013
Musonda	-13.1013
▁Correia	-13.1013
osthuizen	-13.1013
▁Nkomo	-13.1013
▁Begay	-13.1013
Veloso	-13.1013
Hammond	-13.1013
▁Everett	-13.1013
▁Hirsch	-13.1013
▁Thakur	-13.1013
Spiers	-13.1013
▁Lennon	-13.1013
▁Morse	-13.1013
▁Szabó	-13.1013
examSle	-13.1013
Fernandes	-13.1013
Fitzpatrick	-13.1013
Karađorđević	-13.1013
▁Briggs	-13.1013
▁Dhillon	-13.1013
▁Kennedy	-13.1013
▁Wahab	-13.1013
▁Woolf	-13.1013
Finnegan	-13.1013
Gilliam	-13.1013
Sweeney	-13.1013
▁Glenn	-13.1013
▁Hendrix	-13.1013
▁Rasmussen	-13.1013
▁Rathore	-13.1013
Nixon	-13.1013
▁Afonso	-13.1013
▁Dorsey	-13.1013
▁Frimpong	-13.1013
▁Villanueva	-13.1013
Reynolds	-13.1013
onnier	-13.1013
▁Dominguez	-13.1013
Chibueze	-13.1013
▁Ozawa	-13.1013
▁salesperson	-13.1013
effrey	-13.1013
/15/2025	-13.1013
▁Suárez	-13.1013
Carreira	-13.1013
▁Lugo	-13.1013
▁Adelakun	-13.1013
Boudaoud	-13.1013
▁Crespo	-13.1013
▁Tylor	-13.1013
▁Shoji	-13.1013
▁Frank	-13.1013
ndreassen	-13.1013
▁Romero	-13.1013
▁Potts	-13.1013
▁Graham	-13.1013
▁Farah	-13.1013
▁Islam	-13.1013
adams	-13.1013
Masood	-13.1013
Vernon	-13.1013
Godfrey	-13.1013
▁Uribe	-13.1013
Bingham	-13.1013
hodes	-13.1014
exmple	-13.1014
Faye	-13.1014
0090	-13.1014
▁Alexandrov	-13.1014
▁Tillman	-13.1014
▁Sears	-13.1014
▁Arora	-13.1014
perez	-13.1014
▁Carson	-13.1014
▁Liberman	-13.1014
dependable	-13.1015
▁Rosen	-13.1015
▁Andrieu	-13.1015
lated	-13.1016
renew	-13.1016
▁Norton	-13.1016
▁Stark	-13.1016
Merritt	-13.1016
":"479	-13.1017
larson	-13.1018
Fairchild	-13.1018
foreman	-13.1018
19.14	-13.1018
▁Appleton	-13.1019
▁Lundberg	-13.1019
dennis	-13.1021
51.46	-13.1021
Marbl	-13.1021
▁Leon	-13.1022
▁EMA	-13.1022
reach	-13.1025
▁Koh	-13.1025
7943	-13.1025
dbu	-13.1029
▁Crowe	-13.1032
77.88	-13.1033
6055	-13.1036
▁Lobo	-13.1038
30.72	-13.1039
▁Yin	-13.104
▁Baron	-13.104
▁Greene	-13.1044
▁Mel	-13.1047
1190	-13.1047
33.96	-13.105
▁Gho	-13.105
1180	-13.1056
69.22	-13.1057
87.28	-13.1058
0.32"	-13.1058
2026-02-23	-13.106
92.7	-13.1062
2025-03-27	-13.1062
13.93	-13.1064
3008	-13.1064
5457	-13.1069
9653	-13.1082
2025-12-08	-13.1089
36.76	-13.109
0755	-13.1103
032-	-13.1105
$236.	-13.1106
3065	-13.1109
8819	-13.111
89.56	-13.1115
56.34	-13.1117
2864	-13.1117
43.14	-13.1119
63.72	-13.1119
54.45	-13.112
Flo	-13.1124
":"853	-13.1131
390","	-13.1132
2025-11-05	-13.1133
▁Guide	-13.1136
vergreen	-13.1137
70.38	-13.1138
73.72	-13.1142
42.76	-13.1143
":"64.4	-13.1144
194.6	-13.1145
61.54	-13.115
8.4</	-13.1155
190","	-13.1155
cano	-13.1158
30.26	-13.1158
1473	-13.1162
4.00	-13.1162
7986	-13.1163
0606	-13.1165
153.8	-13.1171
4483	-13.1175
9650	-13.1178
39.56	-13.1182
$104.	-13.1185
Mines	-13.1188
4167	-13.1193
":"17.0	-13.1195
fg	-13.12
99.33	-13.12
90.24	-13.1207
570"},{"@	-13.1209
49.94	-13.121
▁fo	-13.1212
49.49	-13.1212
1477	-13.1221
41.84	-13.1225
5980	-13.1227
2025-04-25	-13.1228
2025-06-19	-13.1228
2025-03-07	-13.1231
13.33	-13.1232
bai	-13.1247
":"737	-13.1247
.25"}],"	-13.1249
108.1	-13.125
":"11.9	-13.1257
29.14	-13.1262
7316	-13.1267
6611	-13.1275
11.68	-13.1277
":"139.9	-13.1277
2024-11-27	-13.1279
540","	-13.128
7006	-13.1283
7977	-13.129
":"114.3	-13.1291
53.16	-13.1301
affle	-13.1304
/17/2026	-13.1307
▁455.	-13.131
":"88.7	-13.1311
2024-03-20	-13.1312
26.38	-13.1319
9188	-13.132
":"23.3	-13.1322
":"98.4	-13.1326
0410	-13.1326
28.52	-13.1328
61.34	-13.1328
3082	-13.1329
51.61	-13.1335
4138	-13.1337
=	-13.1337
▁DELIVER	-13.1341
22.17	-13.1341
5815	-13.1341
8604	-13.1347
7682	-13.136
22.32	-13.1361
2026-08-14	-13.1361
9229	-13.1363
CONSIGN	-13.1367
Davis	-13.1367
Robinson	-13.1367
Design	-13.1367
Comfort	-13.1367
Town	-13.1368
License	-13.1368
Cours	-13.1368
awb	-13.1369
":"171.9	-13.1372
24.64	-13.1374
6010	-13.1375
":"947	-13.1376
2025-06-09	-13.1377
20.6	-13.1378
8081	-13.1384
51.82	-13.1386
":"104.4	-13.1391
0924	-13.1394
":"15.5	-13.1395
30.52	-13.1396
1502	-13.1405
TAX	-13.1412
2026-05-03	-13.1415
uperior	-13.1418
82.44	-13.142
▁Sock	-13.1421
71.68	-13.1422
42.16	-13.1424
":"70.5	-13.1424
26.46	-13.1428
":"25.2	-13.1438
19.83	-13.1438
erfect	-13.1441
atriot	-13.1441
90.88	-13.1442
▁2026-07-2	-13.1448
15.06	-13.1448
rate	-13.1448
8169	-13.1454
":"130.8	-13.1455
get	-13.1456
arget	-13.1458
ERVICE	-13.1461
hannel	-13.1462
2024-12-25	-13.1464
atkins	-13.1464
4289	-13.1465
ealth	-13.1465
intage	-13.1465
7376	-13.1466
▁Wolf	-13.1467
raymond	-13.1467
▁Enrollment	-13.1467
witt	-13.1467
jubilee	-13.1467
kawakami	-13.1468
stanton	-13.1468
swanson	-13.1468
summer	-13.1468
▁Hughes	-13.1468
▁Kusi	-13.1468
▁Leslie	-13.1468
▁Masuda	-13.1468
▁Retainer	-13.1468
Iglesias	-13.1468
▁Abramov	-13.1468
▁Pacheco	-13.1468
espinosa	-13.1468
haikh	-13.1468
victory	-13.1468
▁Benítez	-13.1468
Martínez	-13.1468
▁Lloyd	-13.1468
▁Salisbury	-13.1468
▁Sørensen	-13.1468
▁Weiss	-13.1468
Sheikh	-13.1468
▁Jordan	-13.1468
Skoglund	-13.1468
Zinchenko	-13.1468
▁Hancock	-13.1468
▁Pearce	-13.1468
▁Soto	-13.1468
▁Aranda	-13.1468
▁Mathews	-13.1468
▁McLean	-13.1468
▁Severin	-13.1468
examIle	-13.1468
nelson	-13.1468
▁Ellis	-13.1468
▁Geary	-13.1468
▁McMillan	-13.1468
▁Avenve	-13.1468
▁Behrens	-13.1468
▁Consultants	-13.1468
▁Gallego	-13.1468
▁Mendoza	-13.1468
Baudin	-13.1468
khtar	-13.1468
▁Curtis	-13.1468
▁Donaldson	-13.1468
Sinclair	-13.1468
Beasley	-13.1468
▁Akiyama	-13.1468
▁Efe	-13.1468
▁Morand	-13.1468
NIGHT	-13.1468
Sebastian	-13.1468
flash	-13.1468
§	-13.1468
▁Confirrnation	-13.1468
▁Wilmsl	-13.1468
▁Schulz	-13.1468
▁Spray	-13.1468
▁Harada	-13.1468
▁Brandt	-13.1468
▁Tissues	-13.1468
Chapman	-13.1468
▁Ajma	-13.1468
▁Walczak	-13.1468
▁Gardner	-13.1468
Gonzales	-13.1468
▁Alencar	-13.1468
▁Bush	-13.1468
▁SERV	-13.1468
▁Cardenas	-13.1468
Bonus	-13.1468
▁Tao	-13.1468
▁Tsai	-13.1468
▁Puig	-13.1468
▁Yamazaki	-13.1469
▁Teixeira	-13.1469
▁Arias	-13.1469
glass	-13.1469
▁Rajan	-13.1469
VIDER	-13.1469
▁Reis	-13.147
description	-13.147
▁Melo	-13.1471
▁Hamid	-13.1471
▁Yao	-13.1471
▁Rosales	-13.1472
TRIP	-13.1472
Arnount	-13.1472
Kumari	-13.1473
▁Wolfe	-13.1473
":"2018-04-1	-13.1473
ibb	-13.1474
▁Tate	-13.1474
12.52	-13.1474
hetti	-13.1474
Comme	-13.1474
▁Bach	-13.1475
$171.	-13.1475
endless	-13.1476
0586	-13.1476
olympic	-13.1476
reina	-13.1477
Keegan	-13.1477
▁Vail	-13.148
rtis	-13.1481
pted	-13.1481
▁Dobson	-13.1482
="2025-01-2	-13.1482
anel	-13.1483
▁Fall	-13.1483
,2025	-13.1483
9940	-13.1488
horne	-13.1488
2026-06-12	-13.1488
progress	-13.1489
attle	-13.149
kande	-13.149
Preston	-13.149
▁Browne	-13.1494
02.6	-13.1497
storeaexample	-13.1499
8959	-13.1502
▁Goff	-13.1504
▁Cano	-13.1505
Radu	-13.1507
khan	-13.1507
▁War	-13.1508
":"105.6	-13.1509
0177	-13.151
12.82	-13.1511
2.62"	-13.1514
union	-13.1514
37.43	-13.1516
92.37	-13.1517
$145.	-13.1519
umen	-13.1519
0.12"	-13.152
="2025-04-2	-13.1529
3287	-13.153
5876	-13.153
vail	-13.1532
60.72	-13.1533
2026-09-04	-13.1533
159.4	-13.1533
7363	-13.1534
181.23	-13.1537
4359	-13.1549
":"18.1	-13.1551
7208	-13.1553
9.2024	-13.1555
98.67	-13.1555
25.49	-13.1557
6.61"	-13.1557
":"32.6	-13.1558
":"117.9	-13.1559
Last	-13.1562
2026-10-04	-13.1565
9714	-13.1566
151.9	-13.1568
3903	-13.1569
4653	-13.157
3.68</	-13.1572
":"17.4	-13.1575
15.49	-13.1575
8537	-13.1579
":"17.5	-13.1581
":"112.2	-13.1587
31.84	-13.1587
27.46	-13.159
43.63	-13.1602
39.46	-13.1604
":"58.1	-13.1607
34.08	-13.1609
10.21	-13.1613
20.00	-13.1614
2024-06-23	-13.1615
0016	-13.1616
":"119.4	-13.1617
Donut	-13.1619
2025-08-18	-13.1628
":"36.3	-13.1632
22.44	-13.1633
▁502.	-13.1633
7782	-13.1635
8923	-13.1637
2.34"	-13.1639
5449	-13.164
21.73	-13.1641
58.52	-13.1641
supp	-13.1647
12.78	-13.1647
18.51	-13.1648
87.48	-13.1651
71.78	-13.1653
":"108.2	-13.1655
70.88	-13.1657
2025-08-11	-13.1657
270.2	-13.1665
4702	-13.1665
37.54	-13.1669
63.74	-13.167
3471	-13.1673
9904	-13.1676
":"34.3	-13.1676
4038	-13.1676
":"465.	-13.1679
70.09	-13.1687
54.05	-13.1689
Sign	-13.1691
71.05	-13.1691
67.83	-13.1692
75.17	-13.1693
14.81	-13.1695
13.76	-13.1695
hung	-13.1697
":"112.7	-13.17
31.28	-13.1702
":"107.8	-13.1703
":"18.7	-13.1706
8304	-13.1708
44.85	-13.1709
":"194.4	-13.1711
9810	-13.1715
54.35	-13.1721
92.78	-13.1723
":"33.3	-13.1725
31.61	-13.1728
82.78	-13.1734
":"121.5	-13.1735
29.03	-13.1735
pons	-13.1744
▁2026-08-2	-13.1746
8427	-13.1748
29.7	-13.1753
26.48	-13.1753
29.44	-13.1757
irus	-13.1761
/21/2024	-13.1761
6390	-13.1762
App	-13.1763
":"139.0	-13.1765
":"133.8	-13.1766
33.24	-13.1769
2025-06-12	-13.1769
0890	-13.1772
3640	-13.1775
Trav	-13.1777
9909	-13.1779
8695	-13.1786
":"150.9	-13.1788
0854	-13.1788
34.29	-13.1793
70.12	-13.1793
47.43	-13.1797
32.18	-13.1802
8096	-13.1803
8183	-13.1803
8122	-13.181
$174.	-13.1815
":"27.0	-13.1815
":"178.7	-13.1818
0179	-13.1818
19.16	-13.1823
215.7	-13.1827
Glover	-13.1828
▁2026-05-2	-13.183
reek	-13.183
":"142.3	-13.1834
27.26	-13.1838
152.45	-13.1838
60.88	-13.1839
0019	-13.1841
":"129.0	-13.1841
CARRIER	-13.1843
Bacon	-13.1843
Tray	-13.1845
0972	-13.1845
21.89	-13.1846
Deal	-13.1849
29.52	-13.185
2.89"	-13.1854
13.23	-13.1855
2025-12-02	-13.1856
75.04	-13.1858
36.05	-13.1861
Franc	-13.1862
6085	-13.1862
mell	-13.1869
7206	-13.1871
80.83	-13.1875
4200	-13.1882
13.09	-13.1889
Path	-13.189
95.72	-13.1891
":"80.7	-13.1896
6595	-13.1896
chan	-13.1896
68.51	-13.1897
11.34	-13.1898
▁tt	-13.1902
Rich	-13.1905
2.70	-13.1909
Less	-13.191
97.34	-13.1911
2025-05-15	-13.1924
gile	-13.1929
12.63	-13.1931
,+6	-13.1932
2449	-13.194
▁Subscripti	-13.1941
rouwer	-13.1941
ission	-13.1942
▁payab	-13.1942
6968	-13.1943
▁Robin	-13.1943
pavlov	-13.1944
bruce	-13.1944
niemi	-13.1944
udwig	-13.1944
stanley	-13.1944
ereira	-13.1944
hooper	-13.1944
Nakagawa	-13.1944
▁Breen	-13.1944
▁Kunz	-13.1944
▁Friedman	-13.1944
▁Neumann	-13.1944
▁Walsh	-13.1944
▁Zarate	-13.1944
Escobar	-13.1944
Sandström	-13.1944
▁Dahl	-13.1944
▁Dickerson	-13.1944
▁Sacco	-13.1944
▁Afolayan	-13.1944
▁Edmonds	-13.1944
▁Alvarez	-13.1944
▁Whitehall	-13.1944
cotton	-13.1944
▁Balde	-13.1944
Zawadzki	-13.1944
exSmple	-13.1944
▁Mueller	-13.1944
▁Chaudhary	-13.1944
▁Gibson	-13.1944
▁Wells	-13.1944
▁Baláž	-13.1944
▁Rendón	-13.1944
Azimi	-13.1944
Mbaye	-13.1944
▁Blažević	-13.1944
▁Sandoval	-13.1944
McBride	-13.1944
▁Cortez	-13.1944
▁Gerber	-13.1944
▁Parsons	-13.1944
▁Schroeder	-13.1944
Bessette	-13.1944
▁Rollins	-13.1944
McClain	-13.1944
▁Mohammadi	-13.1944
Copeland	-13.1944
▁Doss	-13.1944
▁Hartley	-13.1944
▁Mendes	-13.1944
▁Hopkins	-13.1944
▁Zavala	-13.1944
▁Harvey	-13.1944
▁Hebert	-13.1944
▁Armstrong	-13.1944
▁lumpur	-13.1944
▁Gillespie	-13.1944
▁Kemp	-13.1944
▁Caputo	-13.1944
▁Terry	-13.1944
▁Corbett	-13.1944
▁Eisenberg	-13.1944
Appliance	-13.1944
▁Hartman	-13.1944
▁Eaton	-13.1944
▁Kagawa	-13.1944
▁Fazio	-13.1944
▁Leonard	-13.1944
▁Avery	-13.1944
▁Hester	-13.1944
▁Bergman	-13.1944
gray	-13.1944
cozy	-13.1945
▁Abdullah	-13.1945
▁Khanna	-13.1945
▁Mkhize	-13.1945
▁Bonilla	-13.1945
2295	-13.1945
▁Barclay	-13.1945
9520	-13.1945
▁Howell	-13.1945
▁Matthews	-13.1945
▁Chiesa	-13.1945
▁Calvo	-13.1946
▁Dunne	-13.1946
▁Bruno	-13.1946
▁Dane	-13.1946
Prerni	-13.1946
▁Stephenson	-13.1946
▁Battle	-13.1946
▁Schultz	-13.1946
▁Ponce	-13.1946
▁Baba	-13.1947
▁Stout	-13.1948
":"109.8	-13.1948
cohen	-13.195
240.6	-13.195
▁Cullen	-13.195
6622	-13.195
":"122.9	-13.1951
▁Dantas	-13.1952
▁Hanson	-13.1954
▁Ngo	-13.1954
":"29.9	-13.1955
▁Pace	-13.1956
▁Kone	-13.1957
asaki	-13.196
▁Whitehead	-13.1961
▁Sethi	-13.1961
insight	-13.1961
,2024	-13.1964
▁Wong	-13.1964
61.45	-13.1965
kang	-13.1965
8576	-13.1966
precision	-13.1967
":"111.3	-13.1967
examplO	-13.1967
5846	-13.197
▁Sami	-13.197
▁Rundle	-13.1974
cheng	-13.1975
▁Peng	-13.1977
2025-06-22	-13.1979
32.15	-13.1986
33.53	-13.1986
▁Vang	-13.1989
2024-07-20	-13.1995
2026-01-13	-13.1995
▁Pang	-13.1996
":"69.8	-13.1998
▁14.0	-13.2001
2024-11-28	-13.2002
640"},{"@	-13.2005
7027	-13.2005
42.05	-13.201
4057	-13.201
98.51	-13.2014
":"50.6	-13.2015
17.98	-13.202
52.94	-13.2026
240.3	-13.2029
2025-10-10	-13.2036
/10/2	-13.2038
61.22	-13.2038
8526	-13.2047
23.62	-13.2051
3.94"	-13.2062
0391	-13.2063
2276	-13.2066
51.87	-13.207
9150	-13.2072
Cinde	-13.2081
":"30.5	-13.2081
":"150.4	-13.2081
":"65.6	-13.2084
":"216.3	-13.2084
45.3	-13.2087
":"149.6	-13.2088
51.49	-13.209
/28/2025	-13.209
39.51	-13.209
64.32	-13.2092
":"158.8	-13.2096
2025-02-21	-13.2097
Nobl	-13.2099
0807	-13.21
27.86	-13.2104
84"}],"	-13.2104
$252.	-13.2105
$231.	-13.2106
":"100.3	-13.2108
36.28	-13.2112
7647	-13.2115
33.76	-13.2115
14.19	-13.2122
6908	-13.2123
2025-02-13	-13.2124
7094	-13.2126
76"}],"	-13.2128
4337	-13.2129
2024-11-20	-13.2132
":"118.5	-13.2132
="+3	-13.2142
24.52	-13.2143
9771	-13.2147
57.18	-13.215
77.34	-13.2162
40.4	-13.2162
88.89	-13.2163
24.46	-13.2169
11.54	-13.2172
110.1	-13.2178
ght	-13.2178
":"128.6	-13.218
33.35	-13.2181
52.32	-13.2188
50.96	-13.219
48.32	-13.2198
66.62	-13.22
5.50	-13.2203
37.56	-13.2205
9466	-13.2207
79.22	-13.2207
":"41.6	-13.221
8903	-13.2211
100.8	-13.2212
1.55"	-13.2217
54.92	-13.2219
56.76	-13.2221
78.09	-13.2222
2025-09-16	-13.2222
29.82	-13.2226
7355	-13.2227
7342	-13.2228
23.35	-13.2229
31.47	-13.224
3.80	-13.224
77.76	-13.224
2026-05-05	-13.2242
roud	-13.2244
":"33.5	-13.2248
illing	-13.2249
2025-05-14	-13.2252
$217.	-13.2254
0573	-13.2256
7714	-13.2256
11.03	-13.2258
$123.	-13.2259
16.53	-13.226
":"141.2	-13.2264
106.3	-13.2266
":"115.9	-13.2267
8.90	-13.2268
7161	-13.2269
18.56	-13.227
5456	-13.2272
":"112.6	-13.2284
1.14"	-13.2286
▁"2024-09-2	-13.2287
64.33	-13.2288
9796	-13.2288
":"100.0	-13.2292
39.52	-13.2293
36.04	-13.2297
ndless	-13.2298
$157.	-13.2298
6425	-13.2298
":"46.8	-13.2299
5122	-13.23
21.14	-13.2304
2026-08-01	-13.2311
33.06	-13.2311
20.33	-13.2313
6540	-13.2316
9000	-13.232
":"24.5	-13.2321
12;4	-13.2325
▁2026-12-2	-13.2326
71.85	-13.2326
19.07	-13.2329
arce	-13.233
4356	-13.2331
2025-02-27	-13.2335
9556	-13.2337
omic	-13.2338
Free	-13.2344
|	-13.2344
▁fil	-13.2344
Selection	-13.2344
2025-04-07	-13.2346
Carter	-13.2346
Potatoes	-13.2346
7197	-13.2346
6355	-13.2348
":"15.6	-13.2354
4529	-13.2356
4259	-13.236
85.72	-13.2362
2026-04-14	-13.2365
2025-11-07	-13.2367
="2025-07-1	-13.2367
/2017	-13.237
$139	-13.2371
32.78	-13.2377
pirit	-13.238
pruce	-13.238
unrise	-13.238
2025-11-14	-13.2385
imple	-13.2385
75.57	-13.2391
53.15	-13.2393
7949	-13.2394
9558	-13.2395
$254.	-13.2399
84.98	-13.24
teady	-13.2401
87.84	-13.2403
2025-07-10	-13.2403
2026-03-11	-13.2404
":"493.	-13.2406
rganizer	-13.2407
41.75	-13.2407
22.06	-13.2412
44.16	-13.2413
2025-06-10	-13.2413
esert	-13.2414
15.76	-13.2416
":"124.4	-13.2419
56.36	-13.2422
8531	-13.2424
66.92	-13.2432
41.18	-13.2433
2568	-13.2433
":"115.2	-13.2433
2025-07-01	-13.2434
11.82	-13.2437
59.71	-13.2438
outer	-13.2438
onnell	-13.244
risk	-13.2441
nfinity	-13.2441
39.94	-13.2442
enchmark	-13.2442
peters	-13.2443
2025-03-21	-13.2443
▁Catalog	-13.2444
Exhibit	-13.2444
church	-13.2444
belkacem	-13.2444
valladares	-13.2444
pickett	-13.2444
bernard	-13.2444
wakefield	-13.2444
▁Kadirov	-13.2444
ehtinen	-13.2444
kaczmarek	-13.2444
▁Rotation	-13.2444
03-87686092	-13.2444
▁Bajwa	-13.2444
Bruneau	-13.2444
phiri	-13.2444
busch	-13.2444
▁Neely	-13.2444
Siddiqui	-13.2444
▁Shrestha	-13.2444
▁Lindström	-13.2444
▁Kowalski	-13.2444
Thurman	-13.2444
▁Cantú	-13.2444
▁Edelman	-13.2444
▁Francis	-13.2444
▁Shepard	-13.2444
▁Yoshida	-13.2444
Murillo	-13.2444
▁Beckmann	-13.2444
▁Maxwell	-13.2444
▁McCarthy	-13.2444
▁Palladino	-13.2444
▁Sykes	-13.2444
▁Takeda	-13.2444
▁Tudor	-13.2444
Hussein	-13.2444
▁Bourgeois	-13.2444
▁Galindo	-13.2444
McGee	-13.2444
Ubando	-13.2444
▁Aigner	-13.2444
▁Bayram	-13.2444
▁Hagan	-13.2444
▁Lindholm	-13.2444
▁Zafar	-13.2444
▁Ashby	-13.2444
▁Pandey	-13.2444
exaOple	-13.2444
▁Avcnue	-13.2444
▁Bangura	-13.2444
▁Kaplan	-13.2444
irmingha	-13.2444
▁Villalobos	-13.2444
Engström	-13.2444
Marchand	-13.2444
▁Anwar	-13.2444
▁margar	-13.2444
▁Nasr	-13.2444
Large	-13.2444
Major	-13.2444
▁Levy	-13.2444
Falafel	-13.2444
Kramer	-13.2444
▁Dodds	-13.2444
▁Shea	-13.2444
▁Emerson	-13.2444
▁Calhoun	-13.2444
▁Skinner	-13.2444
Hamilton	-13.2444
Merch	-13.2444
▁Flowers	-13.2444
Bernal	-13.2444
▁Ahn	-13.2444
▁Grewal	-13.2444
▁Pratt	-13.2444
▁Tibbs	-13.2444
rikat	-13.2444
mooney	-13.2444
choice	-13.2444
▁Langley	-13.2444
▁Peck	-13.2445
▁Boukari	-13.2445
Tariq	-13.2445
▁Verhoeven	-13.2445
▁Amos	-13.2445
▁Salvi	-13.2445
▁Bartunik	-13.2445
▁Raj	-13.2445
▁Kostov	-13.2445
▁Vila	-13.2445
dube	-13.2445
▁Burkhardt	-13.2445
▁Emery	-13.2445
▁Buckley	-13.2445
▁Ambrose	-13.2446
▁Agarwal	-13.2446
Conditioner	-13.2446
board	-13.2446
▁Jacoby	-13.2446
▁Stafford	-13.2446
6501	-13.2446
▁Morrow	-13.2446
2024-10-04	-13.2446
▁Dexte	-13.2446
▁Ocampo	-13.2446
▁Liu	-13.2447
lamb	-13.2447
Onions	-13.2447
uiet	-13.2448
▁Lombardi	-13.2448
▁Ross	-13.2448
▁Cereal	-13.2448
Cleve	-13.2448
buck	-13.2448
martel	-13.2449
▁Shiprnent	-13.2449
▁Burke	-13.245
▁Koo	-13.2452
▁Tub	-13.2452
23.75	-13.2453
▁ttt	-13.2454
":"145.5	-13.2454
17.39	-13.2455
Gillis	-13.2456
":"159.5	-13.2456
ntegrated	-13.2457
▁Basu	-13.2457
LESS	-13.2458
955-	-13.246
7054	-13.2462
2024-02-24	-13.2464
29.24	-13.2465
30.45	-13.2465
50.52	-13.2466
otto	-13.2468
99.44	-13.2469
78.15	-13.2469
log	-13.2469
":"179.8	-13.2471
current	-13.2471
▁Weston	-13.2473
heng	-13.2478
109.5	-13.248
lying	-13.2484
tack	-13.2486
45.02	-13.2486
2026-11-28	-13.2486
7202	-13.2488
7610	-13.2491
41.33	-13.2495
":"174.4	-13.2497
44.76	-13.2497
0232	-13.2499
":"132.5	-13.2504
77.33	-13.2507
":"37.4	-13.251
37.68	-13.251
":"175.6	-13.2513
":"109.2	-13.2513
12.18	-13.2514
ornerstone	-13.2518
":"182.9	-13.2524
37.14	-13.2525
":"111.2	-13.2528
9772	-13.2529
8528	-13.2529
":"64.1	-13.253
Carpe	-13.2531
▁349.	-13.2535
2025-01-26	-13.2535
11.39	-13.2539
0784	-13.2542
75.15	-13.2545
":"143.5	-13.2553
1075	-13.2553
27.88	-13.2555
72.46	-13.2556
7265	-13.2562
":"38.0	-13.2564
5072	-13.2566
":"68.5	-13.2569
":"143.1	-13.2569
/25/2025	-13.2572
9098	-13.2573
":"116.4	-13.2573
93.53	-13.2575
52.62	-13.2576
8153	-13.2576
▁Avocado	-13.2576
":"117.8	-13.2577
5839	-13.2579
9704	-13.2579
58.7	-13.258
2025-05-07	-13.2583
126.5	-13.2584
8469	-13.2584
$272.	-13.259
309.4	-13.2592
▁10.0	-13.2597
8429	-13.2598
▁Slau	-13.2602
":"158.1	-13.2605
61.24	-13.2606
12.95	-13.2607
2024-09-05	-13.2609
7799	-13.2612
$345.	-13.2612
":"151.5	-13.2615
19.64	-13.2618
42.45	-13.2627
":"52.4	-13.2628
6039	-13.2629
50.42	-13.2629
":"109.7	-13.263
11.53	-13.263
32.03	-13.2632
54.22	-13.2633
22.94	-13.2637
8928	-13.2637
55.32	-13.2639
144.9	-13.2642
2025-04-17	-13.265
":"156.1	-13.2659
11.96	-13.2666
$206.	-13.267
6647	-13.2671
52.93	-13.2674
2026-06-04	-13.2676
2025-09-25	-13.2679
":"102.5	-13.268
":"151.8	-13.2681
":"48.9	-13.2688
":"27.5	-13.2694
92.48	-13.2701
57.28	-13.2704
[...]
