<unk>	0
<s>	0
</s>	0
":"	-2.44381
","	-2.62433
type	-3.56087
id	-4.04258
":{"@	-4.04456
":"#	-4.07423
.	-4.11591
,	-4.12772
price	-4.14748
item	-4.16379
name	-4.16808
value	-4.29677
Value	-4.30768
▁	-4.47666
Quantit	-4.56876
address	-4.60678
","@	-4.62659
Property	-4.68317
>	-4.76526
▁"	-4.82079
"},{"@	-4.83915
"},"	-4.85826
-	-4.91167
unit	-4.96904
s	-4.97007
ency	-5.06234
Offer	-5.08042
Curr	-5.08864
Speci	-5.09145
fication	-5.09178
y	-5.11776
order	-5.14616
><	-5.21738
offer	-5.2425
Price	-5.24396
Text	-5.25438
ative	-5.26024
Address	-5.26922
http	-5.31508
://	-5.31508
:	-5.32467
":	-5.34494
</	-5.45428
seller	-5.46442
S	-5.47007
ma	-5.48667
org	-5.52639
sche	-5.53564
ed	-5.56225
customer	-5.61573
-1	-5.65133
td	-5.67522
Unit	-5.69087
"	-5.73744
/	-5.74491
P	-5.75025
},{"@	-5.79554
":[{"@	-5.81183
▁<	-5.84541
p	-5.88217
-2	-5.92558
@	-5.93178
ible	-5.94513
elig	-5.94836
reference	-5.95696
":1}}	-5.96283
sku	-5.9693
example	-6.00928
_	-6.01934
ity	-6.02033
",	-6.03608
Code	-6.037
payment	-6.04377
ostal	-6.04654
Local	-6.0472
Region	-6.04757
street	-6.04886
postal	-6.04922
Country	-6.05069
a	-6.05151
Payment	-6.065
email	-6.07321
total	-6.1039
Order	-6.15126
Product	-6.18383
tatus	-6.22704
▁=	-6.25447
},"	-6.28934
-3	-6.32713
="	-6.37681
▁line	-6.39094
Service	-6.42111
ation	-6.42933
></	-6.43092
Organiz	-6.4577
▁-	-6.49232
GBP	-6.51058
1	-6.51138
EUR	-6.51477
Due	-6.53451
▁Number	-6.54171
th	-6.54346
delivery	-6.54404
INR	-6.56134
▁Street	-6.57691
tax	-6.62515
line	-6.63652
SGD	-6.64112
NZD	-6.64414
▁Amount	-6.64675
tr	-6.66315
USD	-6.66575
AUD	-6.66792
CAD	-6.67181
-4	-6.67473
com	-6.70952
Method	-6.7421
telephone	-6.77065
▁ID	-6.77174
▁{	-6.77409
▁}	-6.77708
Tax	-6.77798
T	-6.78585
▁order	-6.81623
t	-6.82458
Date	-6.83489
ER	-6.87135
ID	-6.88566
Delivery	-6.88851
▁Mode	-6.88932
▁Name	-6.89325
accepted	-6.89377
▁Road	-6.89708
▁Type	-6.89876
Number	-6.90127
{"@	-6.90302
graph	-6.90318
I	-6.90362
context	-6.90578
ident	-6.90616
Customer	-6.90679
dditional	-6.90757
ifier	-6.90898
]	-6.90954
Register	-6.91031
]}	-6.91208
,"	-6.91319
O	-6.91401
Subtotal	-6.91495
Receipt	-6.91531
Cashier	-6.91583
0	-6.91685
[	-6.91775
"}}	-6.92784
url	-6.92858
ROR	-6.92938
A	-6.99746
quantity	-7.04745
▁1	-7.04956
qty	-7.06149
▁x	-7.06183
shipper	-7.12304
Person	-7.14278
B	-7.16251
":2	-7.16986
":1}	-7.17674
-5	-7.17949
e	-7.18129
▁2	-7.18139
8	-7.18379
5	-7.21321
▁S	-7.22877
3	-7.2414
-1"},{"@	-7.24712
Processing	-7.26287
-------------	-7.28253
▁5	-7.28801
2	-7.28947
4	-7.29473
7	-7.30927
▁</	-7.34047
_1_	-7.36047
h	-7.39167
6	-7.41558
Discount	-7.4315
Card	-7.44378
▁8	-7.44749
Singapore	-7.44966
Credit	-7.45931
9	-7.47425
New	-7.48006
Complete	-7.49494
)	-7.49613
C	-7.53198
r	-7.53304
l	-7.53899
n	-7.54038
provider	-7.56107
M	-7.56485
AL	-7.57532
▁GBP	-7.5801
▁EUR	-7.59427
UNC	-7.5959
AIN	-7.59594
ERT	-7.59995
In	-7.60354
status	-7.60401
▁9	-7.60787
D	-7.61346
▁4	-7.62506
L	-7.63807
Q	-7.63945
▁INR	-7.6437
FAT	-7.64839
Z	-7.64873
▁totals	-7.65103
_2_	-7.65333
"}	-7.66236
▁3	-7.67349
co	-7.68329
store	-7.68779
Auckland	-7.70379
Pickup	-7.70851
▁Bundle	-7.71051
▁Kingdom	-7.71464
▁Zealand	-7.73183
-2"},{"@	-7.73557
o	-7.74219
▁A	-7.74917
▁Date	-7.75563
▁States	-7.77344
":3	-7.78202
▁NZD	-7.78275
E	-7.7865
Parcel	-7.79868
billing	-7.80084
N	-7.80708
Tracking	-7.82245
26	-7.83291
▁CAD	-7.83422
▁AUD	-7.8376
▁USD	-7.83857
▁SGD	-7.84381
▁6	-7.8475
V	-7.8487
▁H	-7.84969
direct	-7.86725
H	-7.86809
F	-7.88419
KU	-7.88748
▁7	-7.89317
K	-7.90354
G	-7.90901
▁0	-7.91825
orders	-7.9188
Shipped	-7.92476
;	-7.93485
▁total	-7.93741
14	-7.94129
PRD	-7.94278
m	-7.95894
table	-7.96576
R	-7.96869
▁Global	-7.97445
12	-7.97747
er	-7.99019
Document	-7.99442
body	-8.01775
and	-8.0217
section	-8.02292
17	-8.02314
J	-8.02352
head	-8.02631
09	-8.02843
18	-8.03065
05	-8.03437
subtotal	-8.03793
i	-8.03909
11	-8.0448
on	-8.05964
15	-8.06664
▁B	-8.07527
team	-8.08406
totals	-8.08675
24	-8.09315
▁New	-8.10159
support	-8.10275
al	-8.10794
Ireland	-8.1083
1>	-8.10991
▁C	-8.11226
▁Notice	-8.11788
ing	-8.11801
Central	-8.11864
16	-8.11884
▁Avenue	-8.12176
06	-8.12363
08	-8.1262
Australia	-8.13257
":4	-8.13384
▁/	-8.13569
▁Receipt	-8.13576
items	-8.13579
21	-8.13596
d	-8.13622
Canada	-8.13624
-3"},{"@	-8.13759
-2"}],"	-8.14046
Wellington	-8.14452
India	-8.14453
c	-8.14628
_3_	-8.14771
--------------	-8.15431
13	-8.15737
56	-8.15974
▁Unit	-8.16333
62	-8.16431
2","	-8.16659
▁20	-8.16772
at	-8.172
▁payment	-8.17528
▁Express	-8.18082
▁T	-8.18379
▁tax	-8.1891
6","	-8.191
-1"}],"	-8.19127
25	-8.19368
34	-8.19792
▁Code	-8.19822
global	-8.2001
10	-8.20512
▁Singapore	-8.21762
▁P	-8.22016
▁G	-8.22618
8","	-8.23119
19	-8.2328
▁Co	-8.24044
4","	-8.24179
u	-8.24856
le	-8.25333
29	-8.25446
35	-8.26029
59	-8.263
POS	-8.26986
43	-8.27429
>2</	-8.2751
3","	-8.27681
▁Summary	-8.27855
22	-8.28684
20	-8.28958
03	-8.29186
57	-8.29233
52	-8.29335
▁Set	-8.29501
▁delivery	-8.29616
▁L	-8.29642
▁M	-8.29808
▁I	-8.30218
32	-8.30317
53	-8.30667
7","	-8.3078
>1</	-8.30781
REG	-8.31189
an	-8.31711
82	-8.32174
▁D	-8.32188
01	-8.33129
78	-8.33613
88	-8.33966
5","	-8.35533
51	-8.35846
23	-8.36569
87	-8.3665
93	-8.37993
71	-8.38135
me	-8.3815
England	-8.38323
Leinster	-8.38379
▁E	-8.38481
02	-8.39061
Dublin	-8.39353
28	-8.39813
▁O	-8.40219
NZ	-8.40633
shop	-8.40971
▁Australia	-8.41001
33	-8.41312
37	-8.41365
9","	-8.41529
▁Service	-8.41907
W	-8.42548
Y	-8.42722
CA	-8.4292
▁K	-8.43666
+1	-8.44609
50	-8.45153
Cork	-8.45219
Munster	-8.4527
92	-8.4543
"}],"	-8.45485
07	-8.4565
94	-8.45715
▁Store	-8.45931
Delivered	-8.46215
83	-8.47207
55	-8.47256
▁and	-8.47338
46	-8.47509
47	-8.47627
89	-8.48243
▁&	-8.4853
ty	-8.48758
97	-8.49183
79	-8.4936
k	-8.49685
04	-8.49861
▁date	-8.50367
▁Pack	-8.50768
Bank	-8.5098
41	-8.51263
1","	-8.51628
▁Confirmation	-8.52223
U	-8.52573
▁Pay	-8.52848
91	-8.5319
▁F	-8.5319
77	-8.53826
42	-8.54187
▁Direct	-8.54397
▁subtotal	-8.54513
▁Invoice	-8.54957
▁no	-8.55015
▁R	-8.55023
40	-8.55088
49	-8.55231
38	-8.55245
v	-8.55483
contact	-8.55953
Online	-8.56646
00	-8.57068
▁contact	-8.57691
▁phone	-8.57783
Total	-8.57935
96	-8.58235
_4_	-8.58556
66	-8.60139
31	-8.60487
g	-8.6056
44	-8.61156
field	-8.61682
▁Network	-8.62471
69	-8.62842
45	-8.63024
in	-8.63323
▁Card	-8.64231
phone	-8.64624
checkout	-8.65168
▁Subscription	-8.65248
▁Plan	-8.65291
▁South	-8.65295
86	-8.65313
":5	-8.66136
39	-8.66316
▁email	-8.66379
▁N	-8.66576
,1	-8.66667
▁V	-8.66706
b	-8.66912
58	-8.66961
At	-8.67085
70	-8.67512
CUST	-8.67726
80	-8.67815
▁placed	-8.67904
1,	-8.67935
Advance	-8.67964
65	-8.68466
tracking	-8.68628
▁11	-8.68634
method	-8.69314
Transfer	-8.69721
MEM	-8.69908
placed	-8.69958
BUYER	-8.69958
curr	-8.703
▁with	-8.7078
64	-8.7088
X	-8.7095
54	-8.71036
▁is	-8.71045
CLI	-8.71314
▁W	-8.71354
USR	-8.7202
72	-8.72023
▁No	-8.72508
▁10	-8.72755
dateti	-8.72784
By	-8.72852
eller	-8.73033
▁U	-8.73119
ello	-8.73165
30	-8.73182
67	-8.73209
number	-8.73286
▁Customer	-8.73317
▁You	-8.73776
75	-8.73804
▁York	-8.74266
lines	-8.74488
48	-8.75028
▁section	-8.75058
-3"}],"	-8.75097
85	-8.75197
63	-8.76124
-5"}],"	-8.76157
▁class	-8.76175
95	-8.77174
-4"}],"	-8.77344
-4"},{"@	-8.77723
▁[	-8.77783
,2	-8.78212
son	-8.79066
73	-8.795
▁Subject	-8.79504
PO	-8.79763
RT	-8.80809
▁Central	-8.81051
RCP	-8.81227
▁15	-8.81231
▁J	-8.82703
TXN	-8.82835
27	-8.83047
],	-8.83167
61	-8.83791
online	-8.83913
Cash	-8.85114
ra	-8.85526
rn	-8.86684
▁Delhi	-8.86799
▁Items	-8.869
SO	-8.87119
>3</	-8.87852
Available	-8.87886
▁Y	-8.88034
en	-8.88214
4,	-8.88372
98	-8.88388
date	-8.88487
ORD	-8.88726
ish	-8.9005
▁17	-8.901
▁Wellington	-8.90238
▁2,	-8.90278
Item	-8.90435
▁12	-8.90639
":"10	-8.90794
INV	-8.90921
GB	-8.91471
▁Canada	-8.91502
z	-8.9167
81	-8.917
":"14	-8.92427
WEB	-8.92984
36	-8.94116
Transit	-8.94732
6,	-8.94966
Subscription	-8.95465
▁1,	-8.95514
or	-8.95539
▁India	-8.95787
CC	-8.96267
9,	-8.9673
▁(2	-8.96793
+353	-8.97056
90	-8.97102
7,	-8.97386
":"11	-8.97547
f	-8.97617
+61	-8.98815
▁(1	-8.99426
":"13	-8.99568
London	-9.01049
▁14	-9.01172
2,	-9.01557
▁Drive	-9.01964
▁Ireland	-9.0213
Queensland	-9.02214
+91	-9.02455
▁16	-9.03103
5,	-9.03325
":6	-9.03505
0","	-9.03523
74	-9.03569
shipped	-9.03593
x	-9.03788
.64	-9.04345
76	-9.04403
▁Z	-9.04752
▁Transfer	-9.05305
w	-9.05366
Checkout	-9.05413
":"15	-9.06163
Brisbane	-9.06913
Calgary	-9.06942
group	-9.07404
Alberta	-9.07813
":"12	-9.08312
Edinburgh	-9.08569
▁Ticket	-9.08746
ment	-9.09558
▁18	-9.10281
":"20	-9.10656
▁13	-9.10669
Remote	-9.107
+64	-9.10777
+44	-9.11694
▁Wales	-9.11823
▁(	-9.11869
+65	-9.12029
Scotland	-9.12042
ar	-9.13013
Maharashtra	-9.13284
Vancouver	-9.13367
Problem	-9.13523
▁19	-9.14172
Mumbai	-9.14271
led	-9.14297
.68	-9.14351
Manchester	-9.1444
▁England	-9.14725
84	-9.14773
.76	-9.14847
▁Columbia	-9.15354
▁23	-9.15469
▁NZ	-9.15867
Toronto	-9.16361
ch	-9.16412
Bengaluru	-9.16568
Sales	-9.16812
60	-9.17242
Birmingham	-9.17721
▁Package	-9.18272
product	-9.18557
Karnataka	-9.18752
Melbourne	-9.19276
▁25	-9.193
▁Kit	-9.19568
":"25	-9.19699
▁CA	-9.20132
▁tracking	-9.22074
68	-9.22205
re	-9.22221
es	-9.22385
XP	-9.22547
man	-9.22838
Hyderabad	-9.22991
Quebec	-9.23265
▁In	-9.23384
Montreal	-9.23536
.36	-9.23764
Telangana	-9.23898
▁Pass	-9.2409
▁X	-9.24208
▁of	-9.25577
▁due	-9.25645
>4</	-9.25943
▁DATE	-9.26152
.07	-9.26346
$1	-9.26435
▁provider	-9.26571
▁Q	-9.26707
▁22	-9.26718
SHIP	-9.27282
0,	-9.27974
":"30	-9.28007
▁Renewal	-9.28177
:00	-9.2874
▁28	-9.29078
▁Tax	-9.29161
et	-9.29543
8,	-9.29865
▁24	-9.30131
_5_	-9.30781
▁Group	-9.31363
▁on	-9.31573
":"17	-9.32426
▁mode	-9.32901
▁3,	-9.33028
$	-9.33154
el	-9.33186
ne	-9.333
Perth	-9.33478
Shipment	-9.33758
▁Place	-9.34147
":"31	-9.34239
TRK	-9.34855
▁26	-9.35208
PKG	-9.35388
merchant	-9.35567
▁Payment	-9.35748
▁Transit	-9.36366
MYR	-9.36709
ro	-9.37405
▁+1	-9.37585
3,	-9.37784
-05	-9.38124
":"21	-9.38538
ri	-9.38795
-6	-9.38906
Dispatch	-9.38922
st	-9.39082
9"}],"	-9.39392
":"19	-9.39582
-01	-9.39619
":"23	-9.39664
":"16	-9.39745
▁31	-9.39754
7"}],"	-9.39975
▁amount	-9.40136
-0	-9.41536
▁number	-9.41661
Schedu	-9.41742
8"}],"	-9.41848
▁ship	-9.41985
.41	-9.42006
▁Total	-9.42255
-03	-9.42534
,3	-9.42561
ine	-9.42572
":"22	-9.42602
▁30	-9.4292
":"24	-9.43075
▁shipped	-9.4337
▁32	-9.43613
ebit	-9.43668
-08	-9.44206
▁processing	-9.45007
▁27	-9.45034
-02	-9.45366
▁29	-9.45429
ow	-9.45691
":"29	-9.45752
▁21	-9.4647
▁ordered	-9.47224
99	-9.47293
mail	-9.4744
▁by	-9.47978
ur	-9.48034
Victoria	-9.48103
-04	-9.48114
la	-9.48147
-07	-9.483
-09	-9.48379
▁Credit	-9.4903
Brit	-9.49179
▁receipt	-9.49252
Sydney	-9.49298
▁PAYMENT	-9.4978
-84	-9.49813
ad	-9.49874
Texas	-9.49959
register	-9.50077
-88	-9.5063
▁NO	-9.50668
Delhi	-9.50721
-85	-9.51157
ll	-9.51177
-97	-9.5154
-7	-9.52179
▁(3	-9.52268
ang	-9.52269
▁TOTAL	-9.52398
.48	-9.52888
Ontario	-9.53287
Seattle	-9.53323
-95	-9.536
▁Victoria	-9.53791
▁34	-9.54185
5"}],"	-9.54475
0"}],"	-9.54671
-89	-9.54748
j	-9.54819
1"}],"	-9.54927
-82	-9.55345
-06	-9.55507
▁38	-9.55548
-80	-9.56012
-93	-9.56135
Wester	-9.56211
-60	-9.5628
▁Boulevard	-9.56297
▁33	-9.56555
shipping	-9.56849
▁to	-9.56875
▁Delivery	-9.56923
-86	-9.57055
-87	-9.57329
-77	-9.57338
.19	-9.57457
.27	-9.5748
-92	-9.57504
-94	-9.57707
▁08	-9.5833
▁40	-9.58397
-91	-9.58511
":"28	-9.58835
2"}],"	-9.58859
>1	-9.589
-83	-9.58922
.98	-9.5946
-98	-9.59826
▁35	-9.60317
4"}],"	-9.6036
▁Angeles	-9.60409
▁Upgrade	-9.60688
-65	-9.61347
3"}],"	-9.61352
-73	-9.61557
6"},{"@	-9.61816
-67	-9.61987
-70	-9.62092
-79	-9.62443
Illinois	-9.62568
▁PO	-9.62885
":"27	-9.63208
.04	-9.63399
-66	-9.63483
6"}],"	-9.63753
":"18	-9.63967
▁Available	-9.64007
-74	-9.64038
-72	-9.64549
-81	-9.6466
-90	-9.64806
Boston	-9.65019
▁"1	-9.65104
Dine	-9.65138
io	-9.65288
$6	-9.65297
-96	-9.65929
-00	-9.66414
-78	-9.66692
.31	-9.66726
-75	-9.66968
-71	-9.66997
-69	-9.67166
3"},{"@	-9.67324
-63	-9.6771
▁39	-9.67997
1.8	-9.68018
8"},{"@	-9.68074
-76	-9.68108
":"34	-9.68135
-99	-9.68161
ill	-9.68163
▁37	-9.68209
am	-9.68782
-68	-9.69058
▁36	-9.6955
Takeaway	-9.6975
3.6	-9.69902
":"32	-9.70009
,4	-9.70046
Curbside	-9.70327
":"33	-9.70478
service	-9.70766
▁TXN	-9.71042
se	-9.71455
-64	-9.7149
▁Quay	-9.71493
us	-9.71572
5"},{"@	-9.71693
$9	-9.71716
-62	-9.71994
▁41	-9.72197
port	-9.72784
lo	-9.72866
▁Essentials	-9.73568
.74	-9.74002
un	-9.74081
2"},{"@	-9.74231
":"38	-9.74308
ton	-9.74364
ta	-9.74438
-61	-9.74561
▁Level	-9.74619
ol	-9.74953
te	-9.75491
4"},{"@	-9.75518
no	-9.75632
▁Bridge	-9.75654
1"},{"@	-9.76007
▁Pickup	-9.7626
app	-9.76306
▁Main	-9.76341
ce	-9.76788
$7	-9.77139
▁service	-9.77192
to	-9.77502
1.2	-9.77527
>5</	-9.77736
▁Gift	-9.77919
$8	-9.78223
▁Fee	-9.78806
▁Services	-9.78911
.84	-9.78965
▁purchase	-9.78968
WB	-9.79024
":"40	-9.79072
il	-9.79284
▁Membership	-9.79735
ho	-9.80252
ve	-9.80258
▁SO	-9.80263
market	-9.80504
▁RCP	-9.81055
▁ORDER	-9.81071
▁Stand	-9.81077
▁#	-9.81085
7"},{"@	-9.81269
":"36	-9.81331
":"41	-9.81772
ic	-9.81818
ah	-9.83334
Lo	-9.83437
supply	-9.83464
$2	-9.83492
":"35	-9.8351
$3	-9.83572
$5	-9.83841
▁INV	-9.84438
ter	-9.84521
":"37	-9.8484
▁Rental	-9.85106
▁method	-9.85231
ia	-9.85471
▁Case	-9.85638
Travel	-9.85676
▁SHIP	-9.85676
▁ORD	-9.85846
▁Dispatch	-9.85935
9"},{"@	-9.85982
ee	-9.86108
▁+44	-9.86185
amp	-9.86376
help	-9.86482
▁Air	-9.86546
Washington	-9.86706
▁Station	-9.86795
7.2	-9.868
▁Problem	-9.86975
Austin	-9.87051
fulfillment	-9.87166
▁TAX	-9.87342
":"50	-9.87577
▁Office	-9.87878
▁WEB	-9.87891
Smart	-9.88049
is	-9.88089
ke	-9.88173
▁(4	-9.88235
partners	-9.88534
▁+64	-9.88591
▁49	-9.88676
2.3	-9.88818
▁a	-9.88991
":"39	-9.89214
Gift	-9.89862
ler	-9.90094
▁50	-9.90184
Apple	-9.90218
▁46	-9.90371
▁payable	-9.90477
▁REG	-9.90481
":"51	-9.90635
receipts	-9.91119
▁Lo	-9.91434
":"65	-9.91493
1.3	-9.91563
services	-9.91768
ot	-9.92069
▁45	-9.92369
ba	-9.92686
air	-9.93136
▁Way	-9.93171
be	-9.93216
▁North	-9.9323
▁43	-9.93234
.58	-9.93316
▁Order	-9.93317
land	-9.93664
1.6	-9.93851
▁Ba	-9.94315
.81	-9.94411
▁#:	-9.94455
2.4	-9.94599
▁Mo	-9.94774
▁Cash	-9.94921
ower	-9.95025
":"74	-9.95119
ir	-9.95326
California	-9.95351
▁Bank	-9.95573
ion	-9.95971
▁Storage	-9.95977
▁4,	-9.96202
Visa	-9.96298
▁On	-9.9634
by	-9.96447
▁Seat	-9.96743
sales	-9.97056
▁DUE	-9.9707
▁+	-9.97102
ED	-9.97147
▁42	-9.97184
MENT	-9.97391
Chicago	-9.97442
up	-9.97624
▁09	-9.97772
100	-9.97918
▁Shipment	-9.97964
reply	-9.98005
ard	-9.98328
ord	-9.98333
000	-9.98547
▁Re	-9.98828
Air	-9.98901
▁gst	-9.99374
▁52	-9.99514
▁St	-9.9972
▁Cable	-9.99922
Massachusetts	-9.99973
American	-10.0017
Store	-10.0025
USB	-10.0057
$11	-10.0072
▁63	-10.009
5.1	-10.0105
8.5	-10.0107
▁Travel	-10.0107
▁details	-10.0132
-30	-10.0142
ry	-10.0142
▁Jacket	-10.0146
▁To	-10.0151
▁Apt	-10.0152
▁71	-10.0173
pay	-10.0219
▁Apple	-10.022
▁44	-10.0239
0.3	-10.0286
-50	-10.0291
all	-10.0303
$13	-10.032
.75","	-10.0326
,5	-10.0331
▁80	-10.0343
$10	-10.035
▁03	-10.0366
deals	-10.0397
ie	-10.0427
.25","	-10.0435
ers	-10.0509
▁60	-10.0519
54","	-10.055
1.9	-10.0554
▁47	-10.0559
▁created	-10.0593
▁07	-10.0634
":"42	-10.0662
NE	-10.0693
Premium	-10.0712
ford	-10.072
":"80	-10.0724
":"44	-10.0725
202	-10.0729
▁support	-10.0742
▁70	-10.0745
bo	-10.0746
▁48	-10.0764
▁Checkout	-10.0765
▁Goog	-10.077
▁+91	-10.0781
▁OF	-10.0788
treet	-10.0813
▁Shipping	-10.0827
ex	-10.0832
ent	-10.0845
▁Rack	-10.0849
▁Visa	-10.0849
$4	-10.0873
de	-10.0875
-54	-10.0899
care	-10.0902
▁Starter	-10.0926
narne	-10.0955
▁73	-10.096
Portable	-10.0969
▁Of	-10.0972
wa	-10.0978
Goog	-10.0991
▁Table	-10.1022
▁c	-10.103
old	-10.1046
.65","	-10.1049
▁MODE	-10.1051
▁Logistics	-10.1062
/2026	-10.1063
▁ON	-10.11
NR	-10.1114
▁PayPal	-10.1127
Discover	-10.1144
▁61	-10.1175
.45","	-10.1198
▁53	-10.1205
2.2	-10.1209
▁Home	-10.1228
▁Build	-10.1237
4.8	-10.1247
▁79	-10.1252
ines	-10.1268
▁+353	-10.1268
▁77	-10.1279
-58	-10.1288
▁76	-10.1296
▁Bar	-10.1302
▁67	-10.131
▁65	-10.1318
ON	-10.1319
":"58	-10.1324
▁69	-10.1334
5.8	-10.1337
-57	-10.134
-59	-10.134
▁51	-10.1373
cr	-10.1377
ley	-10.1382
▁75	-10.1391
▁Bag	-10.1393
-12	-10.1427
▁POS	-10.1442
▁Add	-10.145
▁01	-10.1478
":"81	-10.1486
":"46	-10.1491
$12	-10.1521
-40	-10.1524
it	-10.1545
-20	-10.155
ong	-10.1559
ham	-10.1562
▁+65	-10.1564
0.7	-10.1566
PayPal	-10.1573
▁NUMBER	-10.1573
0.1	-10.1577
▁Discover	-10.1578
▁64	-10.158
-27	-10.1593
▁American	-10.1594
undle	-10.1594
":"70	-10.1608
▁Ro	-10.1609
solutions	-10.1619
-49	-10.1625
0"},{"@	-10.163
":"57	-10.1635
▁Line	-10.1647
-53	-10.1667
vi	-10.1671
ni	-10.1674
▁72	-10.1676
▁68	-10.1685
>6</	-10.1687
Mastercard	-10.1689
▁Suite	-10.1693
="+1	-10.1696
Ring	-10.17
25"},{"@	-10.1728
29"},{"@	-10.1739
2.8	-10.175
":"53	-10.1755
.23","	-10.1776
":"48	-10.1785
itern	-10.1805
-48	-10.1814
-55	-10.1837
▁Queen	-10.1851
▁Chair	-10.1851
invoice	-10.1904
▁57	-10.1914
▁74	-10.192
-56	-10.1929
▁58	-10.1935
▁Terrace	-10.1945
-29	-10.1958
ov	-10.1965
":"47	-10.1972
112	-10.1984
-10	-10.199
▁04	-10.1996
119	-10.1997
▁+61	-10.2009
▁66	-10.2027
/2024	-10.2063
mo	-10.2067
▁De	-10.2078
▁92	-10.2092
▁62	-10.211
":"52	-10.2118
":"85	-10.2121
da	-10.2133
nd	-10.2145
Grand	-10.2161
▁90	-10.2163
▁Freight	-10.2185
":"68	-10.2192
per	-10.2213
5.7	-10.223
▁invoice	-10.2231
▁Mastercard	-10.2232
":"71	-10.2237
173	-10.2248
▁Light	-10.2256
▁81	-10.2269
▁bill	-10.2274
▁NAME	-10.2282
▁Mail	-10.2284
":"61	-10.2291
▁Shelf	-10.2309
":"45	-10.2317
24"},{"@	-10.2323
account	-10.2332
":"75	-10.2333
6.4	-10.2342
▁RECEIPT	-10.2356
-52	-10.2362
▁TRK	-10.2362
-28	-10.2371
▁King	-10.2384
▁XP	-10.2386
bu	-10.2392
ti	-10.2404
mart	-10.2429
$17	-10.244
▁Fan	-10.2443
2.9	-10.2445
▁House	-10.248
▁sales	-10.2494
":"76	-10.2494
Fi	-10.2516
▁59	-10.2526
▁94	-10.2541
▁$	-10.2543
▁Pen	-10.2543
▁Sydney	-10.2548
ut	-10.2564
$15	-10.258
▁Floor	-10.2597
":"60	-10.2611
▁|	-10.2611
="1	-10.2613
off	-10.2619
den	-10.2644
43"},{"@	-10.2649
▁87	-10.2654
warehouse	-10.2657
ara	-10.2658
152	-10.266
ship	-10.2666
▁Washington	-10.2674
▁cashier	-10.2675
▁84	-10.2677
world	-10.2682
-23	-10.2696
28"},{"@	-10.2701
exchange	-10.2707
59"},{"@	-10.2726
ero	-10.273
promo	-10.2734
1.7	-10.2734
ina	-10.2768
▁95	-10.2791
▁Transport	-10.2794
▁54	-10.2794
5.4	-10.281
im	-10.2813
-46	-10.2814
-43	-10.2827
9.4	-10.2828
▁"+1	-10.2833
-47	-10.2835
ai	-10.2858
-51	-10.2866
05"},{"@	-10.2873
":"54	-10.2894
":"73	-10.2938
▁99	-10.2941
162	-10.2967
▁Ra	-10.2989
▁6,	-10.299
":"69	-10.2992
ier	-10.3016
ge	-10.3022
▁PKG	-10.3024
27"},{"@	-10.3027
om	-10.3051
4"	-10.3062
14"},{"@	-10.3068
digital	-10.3071
ash	-10.3078
▁By	-10.3081
144	-10.309
ak	-10.3113
-17	-10.3115
▁AMOUNT	-10.3118
em	-10.3124
tem	-10.3129
-11	-10.3148
▁TYPE	-10.3151
":"87	-10.3162
":"98	-10.3162
2"	-10.3182
▁06	-10.3182
-42	-10.3204
-25	-10.3212
-22	-10.3215
coupon	-10.3216
26"},{"@	-10.3219
163	-10.3222
▁BY	-10.3226
▁Care	-10.3259
▁Hill	-10.3276
$16	-10.3285
ud	-10.3304
▁Bldg	-10.3313
cl	-10.3316
▁Ste	-10.3316
34"},{"@	-10.3322
bar	-10.3334
▁98	-10.3344
87"},{"@	-10.3364
mi	-10.3373
api	-10.3378
":"55	-10.3382
▁78	-10.3388
":"91	-10.339
web	-10.3394
4.7	-10.3397
-41	-10.3403
▁Ch	-10.3407
▁Wester	-10.3417
pos	-10.3419
273	-10.3426
-45	-10.3437
-19	-10.3438
4.2	-10.3445
▁paid	-10.345
na	-10.347
▁in	-10.3481
147	-10.3492
▁Filter	-10.3504
▁Cleaner	-10.3504
ig	-10.3505
▁Park	-10.3517
hi	-10.3521
systems	-10.3532
62"},{"@	-10.3533
-26	-10.3544
":"77	-10.3549
:00",	-10.3552
":"49	-10.3565
net	-10.3565
▁2025-	-10.3567
▁Room	-10.3568
▁Han	-10.3577
,+1	-10.3581
-24	-10.3582
▁56	-10.3584
ca	-10.36
54"},{"@	-10.3608
di	-10.3609
106	-10.3609
-35	-10.3624
bi	-10.364
3.1	-10.3644
▁Shoes	-10.3644
▁2026-	-10.3652
":"72	-10.3654
▁05	-10.3669
lle	-10.3677
":"66	-10.368
157	-10.3682
RD	-10.3692
-44	-10.3701
154	-10.3731
57"},{"@	-10.3737
-31	-10.3741
ran	-10.3747
":"63	-10.375
▁ADDRESS	-10.3756
▁Dept	-10.3756
▁93	-10.376
▁82	-10.3763
130	-10.3767
li	-10.3773
23"},{"@	-10.3783
89"},{"@	-10.3784
0.4	-10.3788
ummary	-10.3806
>5	-10.3809
Blue	-10.3813
▁88	-10.3822
va	-10.3822
8.6	-10.384
▁discount	-10.3842
▁Shirt	-10.3842
business	-10.3842
67"},{"@	-10.3844
▁Se	-10.3856
09"},{"@	-10.3866
82"},{"@	-10.3875
ick	-10.3885
-33	-10.3888
35"},{"@	-10.389
170	-10.3891
Laundry	-10.39
▁02	-10.3905
gar	-10.3912
▁5,	-10.3924
▁85	-10.3929
Family	-10.3929
kin	-10.393
165	-10.3948
▁89	-10.3964
117	-10.3976
▁86	-10.3981
▁Support	-10.3986
6.6	-10.399
-37	-10.3994
▁Trail	-10.4001
▁Due	-10.4001
su	-10.4001
120	-10.4011
▁cash	-10.4015
house	-10.403
▁tender	-10.4038
56"},{"@	-10.4058
▁91	-10.4059
200	-10.4076
":"95	-10.4084
248	-10.4086
233	-10.4089
-39	-10.4089
reat	-10.4098
8"	-10.4108
▁55	-10.4116
32"},{"@	-10.4121
9.7	-10.4121
46"},{"@	-10.4123
▁Brit	-10.4126
110	-10.4136
":"84	-10.4142
▁Lamp	-10.4148
213	-10.4164
-13	-10.4166
185	-10.4181
":"64	-10.4184
9.2	-10.4196
▁83	-10.4199
Tablet	-10.42
6"	-10.4205
▁Ontario	-10.4231
66"},{"@	-10.424
":"96	-10.4271
229	-10.4274
52"},{"@	-10.4279
od	-10.4292
175	-10.4314
6.1	-10.4315
network	-10.4331
tech	-10.4339
8.8	-10.4349
▁George	-10.4352
203	-10.4354
105	-10.4359
="2025-	-10.4367
▁Lane	-10.4372
108	-10.4375
181	-10.4386
▁Stay	-10.4401
71"},{"@	-10.4412
▁Printer	-10.442
18"},{"@	-10.443
▁Shop	-10.4431
▁Highway	-10.4431
nder	-10.4437
ena	-10.4437
135	-10.4445
fore	-10.4466
pper	-10.4467
▁96	-10.4485
93"},{"@	-10.4493
15"},{"@	-10.4499
8.2	-10.4499
ga	-10.4501
244	-10.4516
▁Organizer	-10.4525
cashier	-10.4531
ail	-10.4541
94"},{"@	-10.4541
136	-10.4542
out	-10.4543
ana	-10.4549
CE	-10.455
▁Charger	-10.4555
-21	-10.4559
Work	-10.456
▁Access	-10.4562
▁Monitor	-10.4565
174	-10.458
141	-10.4581
um	-10.4589
rong	-10.4604
161	-10.4605
158	-10.4607
22"},{"@	-10.4618
▁Mc	-10.462
168	-10.4625
▁97	-10.4628
agar	-10.4636
▁Flr	-10.4646
133	-10.465
mer	-10.4654
131	-10.466
ington	-10.4663
▁(5	-10.4663
-34	-10.4669
▁reg	-10.4677
1"	-10.4697
▁Rm	-10.4701
member	-10.4702
-16	-10.471
":"43	-10.4715
21"},{"@	-10.4716
49"},{"@	-10.4723
7.5	-10.4723
Starter	-10.4723
chard	-10.4732
-18	-10.4737
▁Reservation	-10.4739
▁Mobility	-10.4739
▁Distribution	-10.4739
":"90	-10.4743
▁Meal	-10.4757
Dress	-10.4773
▁07:	-10.4774
▁METHOD	-10.478
199	-10.4781
45"},{"@	-10.4785
149	-10.4786
8.3	-10.4789
secure	-10.4792
▁Apartment	-10.4798
▁f	-10.4799
news	-10.4839
151	-10.4839
169	-10.4841
.79","	-10.4845
-36	-10.485
280	-10.4853
88"},{"@	-10.4855
33"},{"@	-10.4863
7"	-10.4863
220	-10.4867
78"},{"@	-10.4877
nner	-10.4877
":"94	-10.4881
▁billing	-10.4883
▁Partners	-10.4897
06"},{"@	-10.4899
116	-10.4916
-38	-10.492
9.6	-10.4928
Laptop	-10.4929
▁Protector	-10.4929
express	-10.4929
ell	-10.4932
▁orders	-10.4939
51"},{"@	-10.4941
Coffee	-10.4943
Home	-10.4943
ag	-10.4967
:00"	-10.4975
150	-10.4976
97"},{"@	-10.4979
128	-10.4984
▁La	-10.4985
77"},{"@	-10.4988
▁code	-10.4993
196	-10.5002
121	-10.501
▁Van	-10.5012
▁13:	-10.5013
desk	-10.5025
,6	-10.5026
STER	-10.5027
▁Ca	-10.5036
41"},{"@	-10.5044
17"},{"@	-10.5047
252	-10.5048
":"86	-10.5056
96"},{"@	-10.5059
$14	-10.5068
9"	-10.5068
272	-10.5101
5.2	-10.5106
127	-10.5118
▁18:	-10.5122
":"67	-10.5123
auth	-10.5124
176	-10.5127
▁b	-10.5136
▁12:	-10.514
CH	-10.5145
86"},{"@	-10.5156
230	-10.5159
side	-10.5163
▁19:	-10.5173
73"},{"@	-10.5182
works	-10.5187
ack	-10.5225
hu	-10.5235
▁Coffee	-10.5239
974	-10.5242
236	-10.5245
64"},{"@	-10.5263
08"},{"@	-10.5267
996	-10.5309
invoices	-10.5314
188	-10.5318
▁Warehousing	-10.5319
242	-10.5327
148	-10.5328
rne	-10.5334
▁16:	-10.5348
suppliers	-10.5353
▁Chicago	-10.5353
91"},{"@	-10.5366
-32	-10.5369
47"},{"@	-10.5385
38"},{"@	-10.5386
paynow	-10.5386
▁Cooker	-10.5387
16"},{"@	-10.5398
▁17:	-10.5402
302	-10.5406
trading	-10.5419
53"},{"@	-10.5423
▁TO	-10.5423
▁Phone	-10.5426
783	-10.5446
$19	-10.5452
oh	-10.546
75"},{"@	-10.5485
▁10:	-10.5486
830	-10.549
track	-10.5497
221	-10.5501
7.1	-10.5503
pe	-10.5505
350	-10.5505
Wireless	-10.5507
274	-10.5511
8.1	-10.5514
CK	-10.5517
Re	-10.5517
92"},{"@	-10.5519
▁Pants	-10.552
▁Supply	-10.552
231	-10.5526
ver	-10.5539
CT	-10.5547
▁Courier	-10.5549
GD	-10.5551
▁sr	-10.5554
5"	-10.5565
der	-10.5577
3"	-10.559
189	-10.5593
▁14:	-10.5593
▁Fleet	-10.5598
-14	-10.5603
▁Austin	-10.5611
37"},{"@	-10.5617
▁Mouse	-10.5617
30"},{"@	-10.5629
one	-10.5642
▁Carrier	-10.5654
5</	-10.5663
ck	-10.5673
8</	-10.5675
143	-10.5677
▁Marg	-10.5703
11"},{"@	-10.5705
returns	-10.5725
▁Adapter	-10.5725
▁USR	-10.5727
237	-10.5733
83"},{"@	-10.5747
270	-10.5748
▁Cargo	-10.5752
240	-10.5754
energy	-10.576
▁Fulfillment	-10.576
115	-10.5768
▁09:	-10.5792
▁Trucking	-10.5795
CI	-10.5807
▁Wi	-10.5813
194	-10.5819
4.6	-10.5823
118	-10.5827
Gül	-10.583
6.9	-10.5831
members	-10.5838
NV	-10.5838
01"},{"@	-10.584
381	-10.5844
▁2024-0	-10.5848
▁Camera	-10.5856
▁Systems	-10.5865
lu	-10.5868
370	-10.5887
799	-10.589
sale	-10.5897
▁Ben	-10.5913
98"},{"@	-10.5915
▁CUST	-10.5933
▁Payable	-10.5936
portal	-10.5942
42"},{"@	-10.595
▁transaction	-10.5958
260	-10.5958
178	-10.5962
▁Be	-10.5962
▁Tray	-10.597
▁Bowl	-10.5972
▁MEM	-10.5988
55"},{"@	-10.5994
▁Link	-10.5995
383	-10.6008
00"},{"@	-10.6012
▁be	-10.6013
CS	-10.6014
CW	-10.6024
CN	-10.6029
145	-10.603
▁Box	-10.6041
125	-10.6048
▁License	-10.605
CD	-10.6065
Phone	-10.607
48"},{"@	-10.6071
760	-10.6077
776	-10.6079
▁Front	-10.6084
217	-10.6094
▁REGI	-10.6098
accounts	-10.6107
$23	-10.6113
Storage	-10.6115
partner	-10.6115
374	-10.6119
330	-10.6123
02"},{"@	-10.6126
ateway	-10.6136
▁Parade	-10.6149
563	-10.6155
31"},{"@	-10.6161
139	-10.6162
ker	-10.6177
▁River	-10.6177
q	-10.621
69"},{"@	-10.6212
▁3"},"	-10.6223
79"},{"@	-10.6237
167	-10.6239
224	-10.6243
▁Cabin	-10.625
Office	-10.6255
795	-10.6257
$21	-10.6275
61"},{"@	-10.6279
▁Massachusetts	-10.6289
384	-10.6289
603	-10.6294
▁Tender	-10.6298
lan	-10.6308
-15	-10.631
204	-10.6317
▁Registration	-10.6331
863	-10.6334
▁Lines	-10.6336
ari	-10.6338
282	-10.6339
goods	-10.6342
▁Point	-10.6342
GST	-10.6344
933	-10.6349
72"},{"@	-10.6359
58"},{"@	-10.6378
608	-10.6382
rder	-10.6384
65"},{"@	-10.6385
309	-10.6392
44"},{"@	-10.6394
club	-10.6404
▁Provider	-10.6412
228	-10.6413
▁Ground	-10.6416
rewards	-10.6417
he	-10.6421
172	-10.6426
900	-10.6433
discounts	-10.6441
updates	-10.6441
loyalty	-10.6449
187	-10.645
372	-10.6452
do	-10.6454
733	-10.646
coupons	-10.6463
290	-10.6466
184	-10.6471
Gaming	-10.6478
364	-10.6487
840	-10.6501
39"},{"@	-10.6502
>8	-10.6506
vendor	-10.6516
198	-10.6516
829	-10.6527
aw	-10.6527
299	-10.6533
wood	-10.6546
790	-10.6548
dashboard	-10.6553
2018	-10.6556
ight	-10.6557
197	-10.6559
868	-10.6566
19"},{"@	-10.657
251	-10.6571
$22	-10.6574
594	-10.6585
go	-10.6591
capital	-10.6591
age	-10.6604
353	-10.6614
ass	-10.6617
▁Sh	-10.6617
tota	-10.6619
▁Dock	-10.662
▁Jalan	-10.6629
login	-10.6629
920	-10.6632
758	-10.6635
▁West	-10.6636
▁Can	-10.666
271	-10.6661
ance	-10.6661
berg	-10.6666
notify	-10.6666
246	-10.6667
▁via	-10.6667
▁Setup	-10.6671
▁100	-10.6674
474	-10.6675
▁Oxf	-10.6677
949	-10.6685
283	-10.669
▁Protection	-10.6695
▁SERVICE	-10.6704
mobile	-10.6704
▁Pizza	-10.6705
noreply	-10.6707
br	-10.6719
▁6"},"	-10.6721
gr	-10.6727
264	-10.6728
alerts	-10.6743
▁Parne	-10.6745
226	-10.6746
har	-10.6747
600	-10.6747
85"},{"@	-10.6753
298	-10.6761
681	-10.6767
7</	-10.678
storefront	-10.6781
notifications	-10.6781
▁BUYER	-10.68
ate	-10.6801
▁Ma	-10.6805
12"},{"@	-10.681
989	-10.6811
ank	-10.6817
travel	-10.6823
vip	-10.6827
284	-10.6842
999	-10.6855
▁e	-10.6857
373	-10.6858
Bathroom	-10.686
191	-10.6862
town	-10.6878
▁+6	-10.6878
LE	-10.6886
791	-10.6892
76"},{"@	-10.6892
▁pickup	-10.6897
07"},{"@	-10.6925
584	-10.6928
586	-10.6939
84"},{"@	-10.6944
206	-10.6945
aint	-10.6946
899	-10.6947
857	-10.6949
633	-10.695
CF	-10.6959
969	-10.6962
ster	-10.6969
CY	-10.6973
235	-10.6975
891	-10.6976
227	-10.698
763	-10.6984
ac	-10.6984
CB	-10.6992
644	-10.6993
693	-10.6997
95"},{"@	-10.6998
657	-10.7003
Ba	-10.7008
cafe	-10.7015
ja	-10.7039
774	-10.7041
546	-10.7043
427	-10.7047
433	-10.7047
":"99	-10.7048
597	-10.7053
392	-10.7056
3",	-10.7073
310	-10.7075
876	-10.708
466	-10.7084
209	-10.7089
refunds	-10.7093
▁Water	-10.7093
hello	-10.7096
▁Id	-10.7098
494	-10.7098
▁Mall	-10.7099
559	-10.7102
99"},{"@	-10.7105
723	-10.7106
ant	-10.7108
500	-10.7109
498	-10.7117
▁Bulb	-10.7132
▁CLI	-10.7134
kau	-10.7137
ez	-10.7137
413	-10.7142
895	-10.7147
234	-10.716
03"},{"@	-10.7163
593	-10.7168
▁PAYABLE	-10.7172
281	-10.7173
reland	-10.7176
▁Cover	-10.7177
▁Email	-10.7178
455	-10.7178
▁Ka	-10.7179
▁delivered	-10.718
$20	-10.7185
465	-10.7201
957	-10.7206
▁served	-10.7212
▁Hub	-10.7213
1</	-10.7227
301	-10.7231
81"},{"@	-10.7236
278	-10.7237
461	-10.7239
$18	-10.7244
595	-10.7245
ct	-10.725
Desktop	-10.7253
▁Space	-10.7254
430	-10.7264
674	-10.7275
▁Ju	-10.7281
399	-10.7287
▁Hosting	-10.7294
568	-10.7295
766	-10.7319
logistics	-10.7333
hicken	-10.7333
▁Screen	-10.7337
991	-10.7344
497	-10.7347
992	-10.7347
393	-10.7349
869	-10.7351
360	-10.7354
6.88	-10.7355
▁"2024-	-10.7369
333	-10.7374
way	-10.7375
ette	-10.7377
314	-10.7378
793	-10.738
254	-10.7384
lar	-10.7392
654	-10.7394
36"},{"@	-10.7398
380	-10.7401
636	-10.7406
473	-10.7406
Business	-10.7424
▁Edition	-10.7429
448	-10.7433
978	-10.7436
207	-10.7436
599	-10.7436
676	-10.7443
▁Parcel	-10.7443
$25	-10.7444
483	-10.7447
room	-10.7453
338	-10.7462
examp	-10.7462
ln	-10.7465
car	-10.7468
672	-10.7471
▁He	-10.748
CV	-10.7486
▁Per	-10.7487
463	-10.7491
409	-10.7496
770	-10.7507
670	-10.752
394	-10.7529
796	-10.7531
591	-10.7549
363	-10.755
studio	-10.7552
602	-10.7554
026	-10.7561
376	-10.7567
bill	-10.7568
679	-10.7569
767	-10.757
686	-10.7573
%	-10.758
marketplace	-10.758
park	-10.7586
276	-10.7589
332	-10.7597
553	-10.7603
3.56	-10.7604
648	-10.761
▁available	-10.7621
886	-10.7622
0.00	-10.7625
343	-10.7626
▁Tablet	-10.7636
665	-10.7646
eng	-10.7646
13"},{"@	-10.7647
▁transit	-10.7655
286	-10.7657
▁Or	-10.7662
475	-10.7667
285	-10.7674
▁Du	-10.7677
897	-10.7678
▁Streaming	-10.768
467	-10.7684
630	-10.7694
sel	-10.7696
668	-10.7701
ORDER	-10.7704
company	-10.7705
750	-10.7706
63"},{"@	-10.7707
755	-10.7707
▁at	-10.7709
698	-10.771
673	-10.7712
904	-10.7712
478	-10.7716
452	-10.7724
520	-10.7728
542	-10.7732
998	-10.7737
449	-10.7741
297	-10.7745
344	-10.7747
646	-10.775
lock	-10.7751
432	-10.7751
▁Bottle	-10.7751
690	-10.7754
TV	-10.776
550	-10.7767
able	-10.777
est	-10.7776
end	-10.7779
566	-10.7781
8.28	-10.7786
za	-10.7788
225	-10.7789
398	-10.7794
239	-10.7797
660	-10.7797
583	-10.7808
5.9	-10.7817
enterprises	-10.7832
LED	-10.7834
443	-10.7842
0.56	-10.7842
403	-10.7849
396	-10.7853
589	-10.7853
320	-10.7854
ventures	-10.7861
▁Created	-10.7863
592	-10.7864
477	-10.7865
▁101	-10.7866
ire	-10.7866
574	-10.7871
$24	-10.7872
Priorit	-10.7875
▁Collection	-10.7875
611	-10.788
329	-10.7881
50"},{"@	-10.7884
697	-10.7888
930	-10.7895
rest	-10.7912
865	-10.7915
▁Old	-10.792
565	-10.792
694	-10.7921
685	-10.7923
573	-10.7932
ever	-10.7932
994	-10.7939
340	-10.794
620	-10.7942
▁d	-10.7942
Ca	-10.7946
223	-10.7947
902	-10.7949
950	-10.7954
▁Desk	-10.7958
Winter	-10.7963
267	-10.7964
5.56	-10.7965
8.88	-10.7971
397	-10.7977
984	-10.7979
our	-10.798
site	-10.7992
785	-10.7992
490	-10.7993
Metr	-10.7996
▁103	-10.7998
exarnple	-10.8004
773	-10.8011
417	-10.8026
549	-10.8027
967	-10.8029
939	-10.8034
404	-10.8044
470	-10.8046
460	-10.8046
▁Trading	-10.8048
▁Messenger	-10.8048
402	-10.8049
649	-10.8053
625	-10.8059
961	-10.806
olen	-10.8061
909	-10.8078
▁(6	-10.8081
▁Software	-10.8083
▁pre	-10.809
▁CREATED	-10.8091
▁PROVIDER	-10.8092
▁12"},"	-10.8093
692	-10.8105
215	-10.8106
307	-10.8107
▁High	-10.8111
349	-10.8118
940	-10.8118
pro	-10.8118
610	-10.8121
422	-10.8123
10"},{"@	-10.8127
313	-10.8129
ridge	-10.8131
722	-10.8131
▁tel	-10.8136
647	-10.8137
ware	-10.8138
ly	-10.8145
696	-10.8145
238	-10.8158
385	-10.8159
gan	-10.816
721	-10.8167
459	-10.8169
707	-10.817
3.52	-10.8174
5.44	-10.8176
447	-10.8183
658	-10.8183
318	-10.8183
855	-10.8189
486	-10.8189
90"},{"@	-10.8194
und	-10.8205
451	-10.8213
ron	-10.8215
ci	-10.8217
▁Shent	-10.8225
585	-10.8225
▁Tea	-10.8227
du	-10.8231
732	-10.8235
572	-10.8236
342	-10.8239
ward	-10.8239
SALES	-10.8243
Garden	-10.8243
219	-10.8246
3</	-10.8249
419	-10.8251
▁Reg	-10.826
838	-10.8262
4</	-10.8264
▁Maison	-10.8268
487	-10.8271
biz	-10.8272
377	-10.8278
326	-10.8281
214	-10.8283
792	-10.8284
LL	-10.8287
4.16	-10.8287
art	-10.8292
389	-10.8294
997	-10.8296
7",	-10.8298
781	-10.8304
639	-10.8305
873	-10.8307
730	-10.8313
Draw	-10.8313
▁Baggage	-10.8314
▁EMAIL	-10.8314
1",	-10.8316
446	-10.832
6.86	-10.832
▁w	-10.8332
ress	-10.8334
bra	-10.8334
813	-10.8334
Clou	-10.8343
▁l	-10.8351
643	-10.8352
256	-10.8355
ug	-10.8357
urn	-10.8357
▁Basket	-10.8358
706	-10.8361
7.96	-10.8363
395	-10.8364
▁Digital	-10.8373
680	-10.8373
634	-10.8375
249	-10.8375
699	-10.8377
288	-10.8381
975	-10.8381
359	-10.8381
6.7	-10.8395
media	-10.8403
7.9	-10.8406
▁5"},"	-10.8409
564	-10.8417
936	-10.8417
365	-10.8419
682	-10.8423
848	-10.8434
745	-10.8434
789	-10.8435
663	-10.8436
677	-10.8437
324	-10.8442
889	-10.8444
666	-10.8449
="+64	-10.8455
671	-10.8465
4.88	-10.847
444	-10.8477
▁Albert	-10.8485
▁Paper	-10.8487
2",	-10.849
04"},{"@	-10.85
218	-10.8502
462	-10.8506
441	-10.851
▁Sa	-10.8511
614	-10.8512
993	-10.8518
▁sale	-10.8526
761	-10.8526
268	-10.8529
828	-10.8537
▁Session	-10.8539
▁Keyboard	-10.8539
▁Stop	-10.8539
832	-10.8542
544	-10.8545
551	-10.8546
388	-10.8546
68"},{"@	-10.8547
552	-10.8551
604	-10.8552
9.72	-10.8553
927	-10.8554
797	-10.8558
PAYMENT	-10.8563
742	-10.8565
60"},{"@	-10.8566
7.72	-10.8576
point	-10.8585
▁Airlift	-10.8585
833	-10.8587
739	-10.8588
="+44	-10.8591
689	-10.8596
609	-10.8596
gi	-10.8598
932	-10.8599
779	-10.8609
▁"2	-10.8613
836	-10.8615
277	-10.8617
74"},{"@	-10.862
627	-10.862
772	-10.8622
538	-10.8622
436	-10.8625
782	-10.8629
484	-10.8638
536	-10.8643
922	-10.8647
805	-10.8647
002	-10.8648
872	-10.8651
216	-10.8652
,2026-0	-10.8657
366	-10.8666
348	-10.867
708	-10.8679
820	-10.8688
Power	-10.8689
562	-10.8692
6.44	-10.8699
883	-10.8722
80"},{"@	-10.8722
▁Scanner	-10.8724
472	-10.8739
ern	-10.8748
959	-10.8751
547	-10.8751
457	-10.8755
8.16	-10.8759
415	-10.8769
consulting	-10.877
cloud	-10.8771
▁Interior	-10.8771
4.24	-10.8778
866	-10.8778
529	-10.8779
788	-10.8782
5.46	-10.8789
3.38	-10.8798
ICE	-10.8804
▁Media	-10.8812
0.28	-10.8812
387	-10.8814
768	-10.882
524	-10.8834
368	-10.8836
="+61	-10.8838
103	-10.8839
701	-10.884
835	-10.8849
613	-10.8849
923	-10.8852
international	-10.8865
898	-10.8866
▁Bill	-10.8869
RE	-10.8879
687	-10.8879
892	-10.8888
▁Le	-10.8889
580	-10.8889
▁Bas	-10.8892
Streaming	-10.8894
Pet	-10.8897
6.28	-10.89
916	-10.8901
379	-10.8905
ection	-10.8908
824	-10.8909
green	-10.8912
6.92	-10.8913
▁Court	-10.8913
972	-10.8917
▁"+44	-10.8917
618	-10.8917
669	-10.8918
mc	-10.8918
557	-10.8921
425	-10.8926
328	-10.8929
623	-10.8929
ub	-10.8935
903	-10.8935
$29	-10.8936
454	-10.894
TOTAL	-10.8941
655	-10.8943
9.08	-10.8955
6.72	-10.8956
are	-10.8959
dge	-10.8961
030	-10.8963
ice	-10.8965
▁Toa	-10.8965
986	-10.8966
736	-10.8973
6.24	-10.8974
CQ	-10.8981
619	-10.8982
eo	-10.8983
334	-10.8984
711	-10.8987
iz	-10.9003
▁Heater	-10.9008
953	-10.9008
▁Princes	-10.9015
960	-10.9017
6.32	-10.902
327	-10.9024
ling	-10.9024
434	-10.9028
675	-10.9029
867	-10.9029
962	-10.903
9.86	-10.9031
560	-10.9034
Monitor	-10.9038
255	-10.9051
408	-10.9052
>$	-10.9053
429	-10.9055
▁Flight	-10.9056
Mechanica	-10.9056
588	-10.9056
Black	-10.9056
629	-10.9058
503	-10.906
606	-10.906
882	-10.9063
489	-10.9063
612	-10.9074
bakery	-10.9076
431	-10.9078
846	-10.908
7.52	-10.9083
973	-10.9083
040	-10.9094
757	-10.9096
548	-10.9097
0.06	-10.9102
ko	-10.9102
3.44	-10.9103
319	-10.9107
616	-10.9108
086	-10.9109
che	-10.9109
361	-10.9119
756	-10.913
▁Towel	-10.9131
cho	-10.9132
2.88	-10.9137
819	-10.9138
1.32	-10.9139
70"},{"@	-10.9139
428	-10.9139
8.72	-10.914
▁Li	-10.914
391	-10.9146
632	-10.9155
vas	-10.9155
4",	-10.9162
423	-10.9171
3.92	-10.9174
508	-10.9175
888	-10.9179
▁"5	-10.9187
859	-10.9188
884	-10.9193
Bo	-10.9196
▁mail	-10.9198
basket	-10.9201
▁Nelson	-10.9201
802	-10.9202
6.96	-10.9204
20"},{"@	-10.9205
▁Pa	-10.9212
umi	-10.9213
931	-10.9227
Mini	-10.9228
879	-10.9234
688	-10.9235
▁Business	-10.924
rd	-10.9243
collective	-10.925
▁Serango	-10.925
▁amt	-10.9251
▁Mart	-10.9252
CZ	-10.9256
8",	-10.9257
Therm	-10.9259
847	-10.9265
▁11"},"	-10.9265
rash	-10.9267
808	-10.927
495	-10.9272
9",	-10.9282
▁Maintenance	-10.9282
▁Side	-10.9282
367	-10.9285
753	-10.9289
for	-10.9293
ek	-10.9294
480	-10.9297
▁Speaker	-10.9299
kitchenware	-10.93
labs	-10.9305
WE	-10.9307
8.24	-10.9308
▁"+64	-10.931
530	-10.9313
ger	-10.9315
734	-10.9316
596	-10.9316
642	-10.9316
505	-10.9336
499	-10.9341
877	-10.9342
▁The	-10.9348
▁International	-10.9349
Extra	-10.9349
retail	-10.9349
,+65	-10.936
8.12	-10.9361
934	-10.9366
590	-10.9369
Wind	-10.9375
523	-10.938
Con	-10.9387
954	-10.9396
Replacement	-10.9399
outlet	-10.9399
925	-10.94
oo	-10.9407
$27	-10.9412
375	-10.9413
714	-10.942
2.72	-10.942
▁Thom	-10.942
9.92	-10.9427
968	-10.9428
827	-10.9431
7.08	-10.9436
322	-10.9436
713	-10.9439
906	-10.9441
414	-10.9445
":"103	-10.9446
▁PA	-10.9456
7.92	-10.9457
905	-10.9457
3.22	-10.9467
528	-10.9472
990	-10.9483
uz	-10.9484
471	-10.9493
▁Castle	-10.9499
▁Dame	-10.9502
9.32	-10.9509
ven	-10.9511
926	-10.9515
453	-10.9516
6.78	-10.9517
759	-10.9523
821	-10.9524
GR	-10.9529
Curtain	-10.9531
894	-10.9536
964	-10.9543
849	-10.9546
837	-10.9546
844	-10.9549
▁SupplyChain	-10.955
▁21"},"	-10.9553
541	-10.9559
765	-10.9559
335	-10.9565
2.56	-10.9565
543	-10.9566
="+91	-10.9567
9.24	-10.9569
,+64	-10.9574
":"101	-10.9575
6.56	-10.9575
496	-10.9575
▁Energy	-10.9577
▁$1	-10.9582
▁products	-10.9582
ade	-10.9583
ld	-10.9585
492	-10.9587
683	-10.9587
Vacuum	-10.9588
▁dispatch	-10.9593
Indoor	-10.96
▁Valley	-10.96
▁Microphone	-10.96
1.72	-10.9601
269	-10.9603
942	-10.9605
OO	-10.9607
▁for	-10.961
1.44	-10.9616
6</	-10.9617
0.22	-10.9618
5.28	-10.9625
9.96	-10.9626
data	-10.963
▁ORDERED	-10.9635
8.32	-10.9636
purchase	-10.9637
▁v	-10.964
▁g	-10.964
122	-10.964
$26	-10.9644
▁Event	-10.9644
801	-10.965
275	-10.965
522	-10.9651
▁staff	-10.9651
grocer	-10.9651
576	-10.966
▁Camp	-10.9661
910	-10.9662
5.26	-10.9673
831	-10.9678
569	-10.9679
817	-10.968
205	-10.968
531	-10.9681
358	-10.9693
4.12	-10.9699
4.96	-10.9701
▁Forwarding	-10.9703
928	-10.9707
510	-10.9711
354	-10.9715
DELIVERY	-10.9719
ace	-10.9719
Comp	-10.9727
935	-10.9728
▁2"},"	-10.973
dev	-10.9742
▁Market	-10.9751
VR	-10.9754
▁Kitchen	-10.9754
▁Raffl	-10.9754
2.96	-10.9755
5.24	-10.9756
▁"+65	-10.9758
▁net	-10.9762
▁36"},"	-10.9765
101	-10.9767
458	-10.9767
735	-10.9767
2.02	-10.9769
▁Plant	-10.9772
0.44	-10.9772
Cor	-10.9776
439	-10.9783
station	-10.9786
▁102	-10.9786
777	-10.9794
▁1"},"	-10.9797
748	-10.9806
'	-10.9806
▁Adela	-10.9807
915	-10.9826
foods	-10.9831
$28	-10.9845
ransaction	-10.9847
OW	-10.9853
481	-10.9854
406	-10.9858
▁Cartridge	-10.9858
ue	-10.9863
▁Lob	-10.987
▁Ang	-10.9872
6.38	-10.9872
615	-10.9875
-8"},{"@	-10.9878
995	-10.9878
▁121	-10.9879
▁Transportation	-10.9891
▁Door	-10.9893
ens	-10.9895
▁Shuttle	-10.9896
▁25"},"	-10.9899
Beauty	-10.9901
810	-10.9905
624	-10.9907
TI	-10.9912
▁California	-10.9918
426	-10.9926
,+44	-10.9926
907	-10.9927
2.92	-10.9935
rew	-10.9938
ies	-10.9938
662	-10.994
9.02	-10.9941
▁0.00	-10.995
40"},{"@	-10.9953
▁Tool	-10.9955
4.62	-10.996
5.12	-10.996
ummit	-10.9963
▁shipper	-10.9963
▁Bin	-10.997
RO	-10.9976
▁Thomas	-10.9986
983	-10.9987
893	-10.9992
351	-10.9995
▁Watch	-11.0002
8.38	-11.0011
050	-11.0019
3.24	-11.0022
8.84	-11.003
9.88	-11.0033
842	-11.0034
2.28	-11.005
27-	-11.0066
":"111	-11.0066
880	-11.0067
wholesale	-11.0069
Hotel	-11.0069
ki	-11.0069
7.86	-11.007
9.12	-11.0072
,+61	-11.0074
rt	-11.0077
2.08	-11.0081
lum	-11.0082
Training	-11.0085
074	-11.0089
8.96	-11.0096
823	-11.01
952	-11.0105
7.62	-11.0106
Ice	-11.0107
709	-11.012
kitchen	-11.0122
▁Combo	-11.0122
▁Sleeve	-11.0123
▁Wrap	-11.0123
aki	-11.0124
ING	-11.0126
556	-11.0128
945	-11.0128
5.92	-11.013
No	-11.013
="+65	-11.0131
7.04	-11.0142
Post	-11.0143
="+353	-11.0147
IN	-11.0147
728	-11.0147
▁Tracking	-11.0149
976	-11.0149
5.38	-11.0152
6.16	-11.0161
6.22	-11.0167
▁Mat	-11.0169
▁Cleaning	-11.0174
sort	-11.0178
":"122	-11.0179
726	-11.0179
1.16	-11.0179
":"109	-11.0182
trade	-11.019
▁104	-11.0192
6",	-11.0193
▁Lake	-11.0196
$31	-11.0203
▁19"},"	-11.0204
937	-11.0218
9.15	-11.022
ult	-11.0223
2.26	-11.0226
140	-11.0228
601	-11.0228
Developer	-11.023
316	-11.023
561	-11.023
Wall	-11.023
Swift	-11.023
13:	-11.0233
▁130	-11.0234
▁134	-11.0235
8.18	-11.0247
6.08	-11.0252
▁"10	-11.0262
084	-11.0265
7.05	-11.0266
▁107	-11.0282
▁Grocer	-11.0285
▁Module	-11.0285
▁Moving	-11.0285
▁Da	-11.0288
4.46	-11.0289
4.66	-11.0292
526	-11.0294
111	-11.0298
1.12	-11.0299
987	-11.0315
DE	-11.0319
515	-11.032
9.28	-11.0321
0.78	-11.0328
EF	-11.033
8.08	-11.033
TO	-11.0331
Network	-11.0335
9</	-11.0336
4.06	-11.0338
2.12	-11.0338
8.92	-11.0339
commerce	-11.0339
020	-11.0348
CXT	-11.0348
2.52	-11.0351
All	-11.0366
8.66	-11.0367
ng	-11.0368
▁10"},"	-11.0371
Mus	-11.0375
":"124	-11.038
8.78	-11.0382
Back	-11.0385
worth	-11.0394
▁"+91	-11.0399
▁32"},"	-11.0401
OR	-11.0425
852	-11.0434
0.66	-11.0441
Dish	-11.0442
▁Labs	-11.0442
astern	-11.0448
center	-11.045
▁Manu	-11.0451
607	-11.0454
5.52	-11.0456
pur	-11.0459
804	-11.0461
617	-11.0462
4.28	-11.0477
▁TRACKING	-11.0482
007	-11.0498
ber	-11.0503
▁Church	-11.0505
▁LastMile	-11.0505
▁Haveloc	-11.0505
746	-11.0506
cy	-11.0514
901	-11.0515
9.06	-11.0519
Ch	-11.052
▁34"},"	-11.0527
eak	-11.0533
908	-11.0534
OB	-11.0542
727	-11.0542
738	-11.0547
5.32	-11.0554
712	-11.0554
▁Anderson	-11.0561
▁Linehaul	-11.0561
diner	-11.0561
7.16	-11.0571
6.62	-11.0576
4.44	-11.0577
3.12	-11.0587
9.18	-11.059
tall	-11.0594
▁129	-11.0594
▁27"},"	-11.0594
▁se	-11.0595
▁Power	-11.0596
▁Socks	-11.0602
▁30"},"	-11.0606
▁Extender	-11.0617
▁Retail	-11.0617
▁Ventures	-11.0618
5.22	-11.0618
paid	-11.0626
ction	-11.0626
▁Ordered	-11.0628
8.86	-11.0633
861	-11.0642
717	-11.0649
▁111	-11.0651
▁Den	-11.0654
":"113	-11.0657
▁BILL	-11.0663
8.26	-11.0667
▁24"},"	-11.0671
Wellness	-11.0673
▁Platform	-11.0674
pharmacy	-11.0674
▁132	-11.0676
826	-11.0676
▁Bra	-11.0689
lc	-11.0692
>2	-11.0694
-6"},{"@	-11.07
tems	-11.0701
7.18	-11.0711
can	-11.0717
07:	-11.0721
Water	-11.073
industries	-11.0731
▁Ceci	-11.0731
1.28	-11.0733
7.47	-11.0737
▁120	-11.0742
6.85	-11.0744
9.66	-11.0746
0.18	-11.0747
822	-11.0749
9.78	-11.075
IO	-11.0756
6.14	-11.0756
thouse	-11.0759
513	-11.0766
▁Gloves	-11.077
8.44	-11.077
638	-11.0775
1.08	-11.078
114	-11.0782
049	-11.0785
hub	-11.0786
▁Refill	-11.0786
Pro	-11.0787
845	-11.0787
Kitchen	-11.0788
Road	-11.0789
/2025	-11.079
PA	-11.079
▁40"},"	-11.0793
▁o	-11.0795
▁Car	-11.0797
Car	-11.0802
▁Lot	-11.0813
9.33	-11.0819
4.94	-11.0822
0.11	-11.0823
098	-11.0824
rnent	-11.0831
▁Cap	-11.0839
517	-11.0844
Trust	-11.0845
716	-11.0846
▁113	-11.0856
CUT	-11.0859
dless	-11.0859
065	-11.0871
▁21.	-11.0878
live	-11.0879
6.06	-11.0883
One	-11.0893
▁18"},"	-11.0894
0.15	-11.0895
2.66	-11.0901
946	-11.0906
":"140	-11.0908
BB	-11.0912
CP	-11.0923
▁142	-11.0929
012	-11.0932
▁Wing	-11.0936
▁Studio	-11.095
Weekend	-11.0961
▁Rice	-11.0962
▁Comple	-11.0963
ACT	-11.0972
5",	-11.0972
0.94	-11.0981
Part	-11.0983
4.72	-11.0988
5.96	-11.0994
0.46	-11.0997
Park	-11.1002
437	-11.1004
060	-11.1009
▁problem	-11.102
▁Alexandr	-11.102
▁Riverside	-11.102
Cleaning	-11.1024
▁Parcels	-11.1024
▁14"},"	-11.1027
0.04	-11.1028
1.06	-11.103
0.82	-11.1033
RC	-11.1035
▁Ship	-11.1039
IB	-11.104
943	-11.104
raphics	-11.1042
▁Lee	-11.1049
033	-11.1049
":"107	-11.105
pet	-11.1062
▁Paid	-11.1067
▁rn	-11.1069
8.48	-11.1073
investments	-11.1074
885	-11.1074
▁product	-11.1075
distributors	-11.1078
▁Camb	-11.1078
new	-11.108
028	-11.108
7.12	-11.1083
7.48	-11.109
▁106	-11.1092
ark	-11.1092
VE	-11.1093
645	-11.1094
Wi	-11.1097
.64</	-11.1106
Nur	-11.1108
-9"},{"@	-11.111
3.18	-11.1119
4.04	-11.1121
345	-11.1121
▁Works	-11.1126
▁SALE	-11.1127
729	-11.1131
356	-11.1134
▁Fre	-11.1135
central	-11.1138
▁SUBTOTAL	-11.1138
garden	-11.1138
Desk	-11.1142
ami	-11.1145
4.82	-11.1148
To	-11.115
5.34	-11.1155
6.04	-11.1157
▁22"},"	-11.1158
080	-11.1159
027	-11.1164
▁112	-11.1166
,+353	-11.1167
▁Booking	-11.1178
▁126	-11.1188
▁Flat	-11.1197
rrow	-11.1197
eacon	-11.1198
4.14	-11.12
424	-11.121
inch	-11.1216
010	-11.1218
▁37"},"	-11.1233
7.44	-11.124
077	-11.1241
▁115	-11.1242
rentals	-11.1243
▁Analytics	-11.1243
":"104	-11.1253
9.42	-11.1255
CMT	-11.1257
▁122	-11.1257
provisions	-11.1257
Chocolate	-11.1257
mber	-11.1259
office	-11.1259
▁Tanj	-11.126
▁Pu	-11.126
4.48	-11.1261
▁35"},"	-11.1262
Fast	-11.1263
▁117	-11.1263
3.32	-11.1264
6.18	-11.127
5.04	-11.1281
▁Na	-11.1281
":"123	-11.1285
NG	-11.1288
3.43	-11.1295
Shar	-11.1296
eam	-11.1299
Port	-11.1302
1.94	-11.1304
0.84	-11.1305
eliable	-11.1312
▁17"},"	-11.1317
factory	-11.1317
Creator	-11.1317
▁Routing	-11.1317
paper	-11.1317
1.95	-11.1318
▁Beach	-11.1319
agency	-11.132
9.89	-11.1325
SH	-11.1329
▁153	-11.1332
5.84	-11.1332
;00	-11.1334
▁141	-11.135
▁Garden	-11.1352
7.24	-11.1355
0.48	-11.1357
046	-11.1365
678	-11.1373
venue	-11.1374
▁Insurance	-11.1378
orthwest	-11.1378
070	-11.1381
▁Ris	-11.1385
olding	-11.1386
main	-11.1387
▁Cub	-11.1388
9.34	-11.1397
US	-11.1398
obson	-11.1403
$32	-11.1404
ore	-11.1408
▁de	-11.1412
7.94	-11.1413
▁Links	-11.1437
Essential	-11.1438
▁Wholesale	-11.1439
▁outstanding	-11.1439
hardware	-11.1439
management	-11.1439
▁Haulage	-11.1439
0.54	-11.144
▁123	-11.1441
096	-11.1441
inc	-11.1446
PU	-11.1456
▁Gar	-11.1457
090	-11.1462
▁Cancell	-11.1468
7.83	-11.147
2.42	-11.1474
nt	-11.1474
ura	-11.1474
▁Data	-11.1477
3.11	-11.1481
912	-11.1483
8.82	-11.1483
BI	-11.1484
8.36	-11.1488
ff	-11.1495
3.04	-11.1498
’	-11.15
▁Domin	-11.15
▁Goods	-11.15
Grill	-11.1501
RI	-11.1501
Silver	-11.1502
7.46	-11.1502
▁Lave	-11.1503
mple	-11.153
0.49	-11.1538
7.99	-11.1541
-7"},{"@	-11.1545
":"114	-11.1547
075	-11.1553
mont	-11.1554
8.04	-11.1559
ield	-11.156
▁13"},"	-11.156
beauty	-11.1562
▁Capital	-11.1562
Urban	-11.1562
▁Broadway	-11.1562
▁Deliveries	-11.1562
7.15	-11.1564
▁Cafe	-11.1564
created	-11.1572
▁108	-11.1575
que	-11.1577
5.89	-11.1581
725	-11.1582
▁140	-11.1583
▁39"},"	-11.1583
3.84	-11.1584
▁31"},"	-11.1585
▁151	-11.1589
▁William	-11.16
024	-11.161
917	-11.1623
ontinental	-11.1624
▁Wellness	-11.1625
":"126	-11.1631
":"134	-11.164
Plant	-11.1641
4.84	-11.1641
7.82	-11.1643
▁38"},"	-11.1645
8.42	-11.1648
examplesupport	-11.1651
5.82	-11.1661
3.55	-11.1662
press	-11.1663
9.01	-11.1663
017	-11.1664
7.02	-11.1665
5.35	-11.1668
esh	-11.1673
▁133	-11.1678
▁26"},"	-11.1682
▁Collective	-11.1687
▁Smith	-11.1687
health	-11.1688
lab	-11.1692
iti	-11.1692
▁Port	-11.1692
Breakfast	-11.1698
0.16	-11.1698
Cabin	-11.1698
1.99	-11.17
$30	-11.1707
076	-11.1708
▁Sandwich	-11.1709
examplereceipts	-11.171
▁k	-11.1712
5.43	-11.1716
7.42	-11.1722
3.42	-11.1733
▁TENDER	-11.1738
8.46	-11.1747
depot	-11.1749
mobility	-11.1749
Holiday	-11.1749
▁SSD	-11.175
▁29"},"	-11.1752
▁118	-11.1755
▁Pasi	-11.1758
▁Par	-11.176
CPT	-11.1763
8.85	-11.1767
5.42	-11.177
516	-11.1789
rue	-11.1801
6.02	-11.1803
7.66	-11.1806
ZT	-11.1806
ontact	-11.181
Webcam	-11.1812
▁Couriers	-11.1816
▁Baker	-11.1817
ock	-11.1818
3.58	-11.1829
▁131	-11.1832
Long	-11.1834
2.55	-11.1835
▁Wireless	-11.1837
9.04	-11.1837
3.88	-11.1842
058	-11.1842
bert	-11.1849
3.85	-11.185
6.52	-11.1856
6.82	-11.1862
IC	-11.1863
CAT	-11.1863
0.86	-11.187
4.97	-11.1875
▁119	-11.1876
▁Depart	-11.1877
▁owing	-11.1877
9.76	-11.1877
2.99	-11.1882
CJT	-11.1883
4.22	-11.189
4.09	-11.189
tender	-11.1892
="2	-11.1893
EA	-11.1894
▁33"},"	-11.1897
071	-11.1899
539	-11.1901
1.63	-11.1904
▁23"},"	-11.1905
8.34	-11.191
▁147	-11.1911
3.34	-11.1916
Compute	-11.192
king	-11.1928
tal	-11.193
068	-11.1934
ung	-11.1935
Outdoor	-11.194
quipment	-11.194
brands	-11.194
▁Consulting	-11.194
▁Enterprises	-11.1941
COUNT	-11.1941
▁Carriers	-11.1943
3.86	-11.1945
▁Blanket	-11.195
8.95	-11.1957
3.78	-11.1958
tion	-11.1963
039	-11.1965
8.59	-11.1973
▁Roy	-11.1973
6.42	-11.1973
TA	-11.1975
9.99	-11.198
▁16"},"	-11.1981
▁Shipments	-11.1987
5.55	-11.1989
Hand	-11.1989
1.02	-11.1991
ZM	-11.1997
cn	-11.2003
▁Option	-11.2005
photo	-11.2005
CGT	-11.2005
unning	-11.2005
▁Holder	-11.2005
▁144	-11.2011
lina	-11.2018
exampledeals	-11.2019
Cargo	-11.2021
corner	-11.2035
PC	-11.2039
9.46	-11.2039
▁Cond	-11.2057
4.85	-11.2057
EN	-11.206
far	-11.2061
▁Kall	-11.2063
AND	-11.2066
":"153	-11.2068
software	-11.207
":"129	-11.207
alcon	-11.207
7.38	-11.2078
▁Beauty	-11.2083
2.86	-11.2086
5.98	-11.2086
dynamics	-11.209
ZE	-11.2091
▁Dry	-11.2095
AC	-11.2096
▁114	-11.2097
ball	-11.2106
Seasonal	-11.2108
Care	-11.2113
4.37	-11.2135
tools	-11.2135
clothing	-11.2135
▁employee	-11.2135
adia	-11.2136
realty	-11.2136
▁+3	-11.2144
$33	-11.2146
▁Tamp	-11.2147
Tea	-11.2153
rose	-11.2153
networks	-11.2157
5.62	-11.216
5.85	-11.2184
▁Breakfast	-11.2189
design	-11.2201
Launch	-11.2201
monds	-11.2201
▁Kitchenware	-11.2201
UB	-11.2201
akari	-11.2202
4.26	-11.2206
6.77	-11.2208
OI	-11.221
9.62	-11.2215
5.76	-11.2235
1.76	-11.2237
▁202	-11.2237
▁143	-11.224
ND	-11.2245
914	-11.2245
BO	-11.2245
3.95	-11.2251
5.05	-11.2255
924	-11.2256
▁128	-11.2257
▁105	-11.2262
exampleshipping	-11.2264
029	-11.2266
acific	-11.2267
0.68	-11.2269
▁Secur	-11.2281
":"166	-11.2284
":"2026-07-1	-11.2296
river	-11.2297
5.15	-11.2304
2.74	-11.2305
8.98	-11.2309
2.03	-11.2317
▁Green	-11.2318
MA	-11.2329
even	-11.2332
agh	-11.2332
▁154	-11.2333
▁Series	-11.2334
▁Commerce	-11.2334
▁Management	-11.2334
▁Olive	-11.2337
Mil	-11.2341
stone	-11.2344
Shipper	-11.2346
":8	-11.235
▁116	-11.2353
9.55	-11.2354
EL	-11.236
ive	-11.2361
045	-11.2369
RK	-11.2372
4.93	-11.2376
▁"+	-11.2384
004	-11.2391
án	-11.2397
▁View	-11.2401
▁An	-11.2402
8.02	-11.2406
▁28"},"	-11.2408
cean	-11.2412
.16</	-11.2417
Photo	-11.2422
mega	-11.2422
9.36	-11.2426
4.67	-11.2429
▁139	-11.2432
▁sub	-11.2439
LK	-11.2441
5.16	-11.2443
exampleloyalty	-11.2446
rm	-11.2461
9.37	-11.2461
▁SHIPP	-11.2463
▁Plate	-11.2469
pizza	-11.2469
▁CONT	-11.2469
▁Hougan	-11.2469
OFF	-11.2478
073	-11.248
Router	-11.2482
Under	-11.2483
oise	-11.2484
lee	-11.2484
0.34	-11.2486
▁Kh	-11.2491
Express	-11.2491
518	-11.2492
▁Purchase	-11.2493
6.58	-11.2496
514	-11.2497
8.94	-11.2498
6.98	-11.2504
▁consign	-11.2506
2</	-11.251
bal	-11.251
4.74	-11.2514
4.38	-11.2525
tandard	-11.2526
xample	-11.2528
Cann	-11.2533
▁Headphones	-11.2537
catering	-11.2537
":"183	-11.2537
Snack	-11.2537
081	-11.2538
▁15"},"	-11.2558
6.99	-11.2559
Day	-11.2566
047	-11.2574
ras	-11.2575
▁World	-11.2589
examplecheckout	-11.2596
KE	-11.2597
technology	-11.2605
tooth	-11.2605
▁Hose	-11.2607
ure	-11.2608
2.45	-11.2612
7.58	-11.2613
▁Pot	-11.2615
QT	-11.2619
▁Rod	-11.2626
9.23	-11.2631
Thr	-11.2635
8.93	-11.2641
transaction	-11.2643
home	-11.2654
8.17	-11.2669
print	-11.2671
4.57	-11.2672
Monthly	-11.2674
Quick	-11.2677
tting	-11.2677
7.55	-11.2681
▁Kent	-11.2681
ZL	-11.2682
8.22	-11.2684
esar	-11.2686
0.74	-11.2689
nterstate	-11.269
0.02	-11.2698
":"201	-11.2698
Maintenance	-11.2699
3.99	-11.2701
5.66	-11.2705
examplemail	-11.2707
5.83	-11.2712
$38	-11.2712
pub	-11.2715
7.37	-11.2717
6.09	-11.2719
7.09	-11.272
UT	-11.2726
2.35	-11.2726
0.37	-11.273
6.51	-11.2731
▁125	-11.2731
▁mobile	-11.2744
courier	-11.2744
▁Drill	-11.2744
tours	-11.2744
▁Clark	-11.2746
▁110	-11.2755
▁135	-11.2758
▁170	-11.2759
▁Curtain	-11.2761
exampleorders	-11.2764
ZG	-11.2765
lake	-11.2769
amount	-11.277
exampl	-11.2778
▁Rear	-11.2782
7.77	-11.2789
▁Wood	-11.2796
7.89	-11.2796
6.68	-11.2799
▁Food	-11.2804
3.81	-11.2804
▁182	-11.2813
▁Solutions	-11.2814
▁Shorts	-11.2814
outfitters	-11.2814
COT	-11.2814
Co	-11.2817
▁White	-11.2825
0.76	-11.2841
7.11	-11.2844
2.95	-11.2847
▁Schedu	-11.2848
power	-11.2849
6.64	-11.2851
North	-11.2865
tab	-11.2867
":"160	-11.2876
60-	-11.2877
▁Depot	-11.2884
sports	-11.2886
▁167	-11.2888
6.35	-11.2889
arc	-11.289
Ash	-11.2892
heet	-11.2896
Rap	-11.2897
4.54	-11.29
LD	-11.2905
gal	-11.291
":"132	-11.2918
ás	-11.2927
052	-11.293
5.99	-11.2931
ZW	-11.2934
044	-11.2935
▁127	-11.2944
4.45	-11.2956
ukasz	-11.2957
6.03	-11.2958
▁Ayer	-11.2958
018	-11.2961
8.49	-11.2966
marketing	-11.2968
space	-11.2971
3.13	-11.2975
EQ	-11.2977
9.95	-11.298
Lu	-11.2983
MH	-11.2984
6.54	-11.2985
3.83	-11.2991
8.54	-11.2994
3.48	-11.3004
8.13	-11.301
6.91	-11.3014
olar	-11.3022
▁Pro	-11.3023
CL	-11.3025
":"2024-01-2	-11.3025
▁Provisions	-11.3026
▁Talbot	-11.3026
custorner	-11.3026
shoes	-11.3026
Hop	-11.3048
place	-11.3051
▁Char	-11.3051
9.48	-11.3055
▁136	-11.3059
6.83	-11.3063
0.58	-11.3065
5.63	-11.3069
2.63	-11.3073
":"164	-11.3082
over	-11.3083
ORE	-11.3095
2.73	-11.3096
joint	-11.3098
▁Selection	-11.3098
▁Outlet	-11.3098
restaurant	-11.3098
Prime	-11.3098
zone	-11.3101
▁Lam	-11.3106
pets	-11.3113
▁Plu	-11.3115
nket	-11.3116
▁109	-11.312
▁Top	-11.3129
▁Charging	-11.3136
Table	-11.3138
▁Kings	-11.3142
4.42	-11.316
▁Trip	-11.316
▁Ti	-11.3169
.26</	-11.3171
▁Hardware	-11.3171
6.39	-11.3172
Golden	-11.3172
099	-11.3177
▁Pon	-11.3177
OD	-11.3178
imah	-11.318
CLIENT	-11.3181
▁Entr	-11.3184
7.78	-11.3188
.48</	-11.319
ars	-11.3195
▁Dun	-11.3198
Meal	-11.3202
5.21	-11.3204
5.94	-11.321
rit	-11.3212
":"171	-11.3213
lin	-11.322
lassic	-11.3231
1.64	-11.3237
▁Collins	-11.3244
▁Town	-11.3244
Server	-11.3244
Memor	-11.3244
▁148	-11.3246
ountain	-11.3246
816	-11.3257
Luca	-11.3257
CLT	-11.3258
rin	-11.326
rnet	-11.3261
2.49	-11.3264
▁Bras	-11.3264
4.51	-11.3274
▁fulfil	-11.3276
2.69	-11.3279
5.53	-11.3279
8.76	-11.3286
TE	-11.3289
vr	-11.329
ence	-11.3294
GN	-11.3294
Del	-11.3298
":"182	-11.3298
$40	-11.3298
.36</	-11.3299
Gold	-11.3308
▁Brown	-11.3313
source	-11.3316
coffee	-11.3317
merchandise	-11.3317
▁Square	-11.3317
Flex	-11.3317
salon	-11.3318
2.61	-11.3318
engineering	-11.3318
nc	-11.3319
▁Roll	-11.332
.32</	-11.3323
▁Buck	-11.3324
▁Row	-11.3334
4.47	-11.3335
RA	-11.3341
▁At	-11.3341
ckup	-11.3342
▁163	-11.3342
▁183	-11.3344
7.13	-11.3356
▁27.	-11.3375
ocument	-11.3389
":"2024-03-0	-11.3389
fashion	-11.3391
recipient	-11.3391
freight	-11.3391
foundry	-11.3391
Side	-11.3398
▁Te	-11.3402
7.85	-11.3406
9.84	-11.3407
LY	-11.341
▁Cheese	-11.3421
7.68	-11.3427
9.63	-11.3429
▁PURCHASE	-11.343
OY	-11.3431
7.69	-11.3434
4.15	-11.3435
EB	-11.3437
":"179	-11.3437
▁145	-11.3448
uter	-11.3452
elocity	-11.3466
▁waybill	-11.3466
▁Purifier	-11.3466
OU	-11.3468
▁Besar	-11.3469
▁Pit	-11.3471
aisa	-11.3472
▁146	-11.3473
▁Ga	-11.3474
uck	-11.3474
FR	-11.3477
Ever	-11.3477
orthern	-11.3482
5.51	-11.3485
9.85	-11.3486
outhwest	-11.3488
Charging	-11.3502
ZK	-11.3503
orthstar	-11.351
ita	-11.3515
Ra	-11.3522
AY	-11.3524
Rob	-11.3528
▁Entry	-11.3529
tanding	-11.3538
elena	-11.3543
Sea	-11.3545
investment	-11.3547
7.59	-11.3552
lim	-11.3561
097	-11.3562
▁Pre	-11.3575
HJ	-11.3578
":"2026-03-2	-11.3579
TR	-11.3583
▁Bagg	-11.3584
▁CUSTOMER	-11.3586
LU	-11.3587
9.98	-11.3588
RM	-11.3595
Vide	-11.3601
6.13	-11.3604
6.47	-11.3604
▁"$	-11.3614
8.74	-11.3616
.2024	-11.3616
finance	-11.3617
▁Factory	-11.3617
craft	-11.3617
blue	-11.3617
Unifor	-11.3617
▁Burger	-11.3617
Class	-11.3621
2.91	-11.3623
ZN	-11.3628
Camping	-11.3635
8.58	-11.3645
▁Charles	-11.3646
▁you	-11.365
":"159	-11.3664
8.21	-11.3668
9.38	-11.3678
rc	-11.3682
ZY	-11.3685
▁Bakery	-11.3689
025	-11.3691
repair	-11.3693
pictures	-11.3693
▁destination	-11.3693
▁Centre	-11.3693
Glass	-11.3693
transport	-11.3693
Speed	-11.3695
▁Martin	-11.3696
Jo	-11.3705
ali	-11.3724
5.64	-11.3724
▁cart	-11.3737
2.21	-11.3739
4.59	-11.374
2.25	-11.3741
5.87	-11.3745
▁186	-11.3761
VA	-11.3762
9.67	-11.3768
.72</	-11.377
Harbor	-11.377
▁Changi	-11.377
▁settle	-11.3781
▁us	-11.3781
Sun	-11.3785
of	-11.3787
":"2026-05-1	-11.3793
.14</	-11.3793
sent	-11.3803
inner	-11.3806
buyer	-11.3811
DATE	-11.3811
▁166	-11.3813
neta	-11.3815
="+	-11.3831
▁Hol	-11.3834
9.83	-11.3834
8.45	-11.3839
ZR	-11.3843
4.13	-11.3848
Tour	-11.3852
▁187	-11.3853
9.26	-11.3854
urge	-11.3855
▁Lounge	-11.3856
1.87	-11.3856
▁Via	-11.3856
6.21	-11.3861
ink	-11.3863
5.13	-11.3866
0"	-11.3876
ino	-11.3878
KT	-11.3885
9.13	-11.3888
client	-11.3889
5.36	-11.3898
studios	-11.3901
.76</	-11.3906
▁Am	-11.3909
5.54	-11.3918
gifts	-11.3926
Rechargeab	-11.3926
▁Accessories	-11.3926
▁Center	-11.3926
▁tota	-11.3926
▁Tank	-11.3932
Kamil	-11.3934
▁Cross	-11.3939
hill	-11.3944
4.68	-11.3946
8.75	-11.3946
▁Bay	-11.3947
.12</	-11.3949
2.71	-11.3953
▁buyer	-11.3963
037	-11.3964
1.49	-11.3966
7.97	-11.3973
▁Sale	-11.3974
3.29	-11.3974
examplerewards	-11.3978
ski	-11.398
":"2024-03-1	-11.398
6.89	-11.3984
5.48	-11.3987
elm	-11.399
5.69	-11.399
▁East	-11.3993
7.01	-11.4
▁Beau	-11.4003
":"2024-05-2	-11.4004
▁Merri	-11.4004
Client	-11.4005
▁Dynamics	-11.4005
adison	-11.4007
IV	-11.4011
accounting	-11.4014
VIP	-11.4017
2.29	-11.4018
0.53	-11.4022
/01/2	-11.4025
8.55	-11.4031
earl	-11.4045
▁Spring	-11.4046
7.64	-11.4046
9.77	-11.4047
Cu	-11.4049
Bar	-11.4057
ZX	-11.4066
023	-11.4068
▁Buk	-11.4076
4.55	-11.4077
054	-11.4079
3.37	-11.408
ertex	-11.408
Train	-11.4081
▁Harris	-11.4084
▁Distributors	-11.4084
Horizon	-11.4084
Early	-11.4084
Orange	-11.4084
Change	-11.4085
7.67	-11.4085
":"193	-11.4086
style	-11.4086
▁Bourk	-11.4088
ME	-11.4089
":"2024-12-1	-11.4092
7.21	-11.4095
5.95	-11.4095
▁Hard	-11.41
iv	-11.4101
Secur	-11.411
2.84	-11.4116
ZV	-11.4116
▁Marketing	-11.4118
Univers	-11.4119
Cook	-11.4121
▁Lab	-11.4121
1.37	-11.4125
peak	-11.4126
Can	-11.4131
▁137	-11.4132
exampleservice	-11.414
":"180	-11.4146
5.71	-11.415
":"2024-09-2	-11.4151
ortheast	-11.4158
ZB	-11.4158
▁Wall	-11.416
appliances	-11.4164
apparel	-11.4164
▁PHONE	-11.4164
3.03	-11.4167
▁Repair	-11.4167
▁152	-11.4168
▁jala	-11.4174
9.58	-11.418
wine	-11.4184
5.37	-11.4187
2.77	-11.4188
east	-11.419
8.83	-11.4193
6.95	-11.4201
▁191	-11.4205
8.33	-11.4207
7.61	-11.4213
ubject	-11.4238
platform	-11.4244
wear	-11.4244
▁CASHIER	-11.4245
▁Workshop	-11.4245
▁Peter	-11.4245
▁Brands	-11.4245
ZU	-11.4247
EO	-11.4249
2.98	-11.4252
▁179	-11.4259
0.39	-11.426
094	-11.4261
8.71	-11.4265
062	-11.4265
TLE	-11.4269
2.85	-11.4271
KG	-11.4274
rv	-11.4274
":"2024-04-1	-11.4278
7.51	-11.4285
▁Bou	-11.4286
9.51	-11.4292
ioneer	-11.4298
9.57	-11.4311
UR	-11.4314
":"2026-10-2	-11.4325
2.47	-11.4325
▁Morris	-11.4326
builders	-11.4326
Itern	-11.4331
5.73	-11.4333
▁160	-11.4334
7.95	-11.4335
0.69	-11.4338
.04</	-11.434
089	-11.4341
0.47	-11.4345
1.74	-11.435
1.29	-11.4356
MY	-11.4363
.52</	-11.4372
7.57	-11.4376
$36	-11.4392
examplepromo	-11.4405
":"2025-05-2	-11.4407
Motherboard	-11.4407
4.11	-11.4407
ł	-11.4408
living	-11.4408
Battery	-11.4408
eljko	-11.4408
▁Patrick	-11.4408
junction	-11.4408
▁Circu	-11.4408
/12/2024	-11.4408
Ferry	-11.4408
▁Outfitters	-11.4408
5.58	-11.4409
0.98	-11.4411
5.61	-11.4412
3.91	-11.442
222.	-11.4424
":"2026-04-2	-11.4424
4.39	-11.4432
West	-11.4433
8.68	-11.4447
QJ	-11.4451
":"241	-11.4459
":"2026-05-2	-11.4461
":"2026-04-1	-11.4468
7.87	-11.4471
▁Corner	-11.4475
9.74	-11.4475
":"2026-07-2	-11.4478
▁149	-11.4483
":"2024-12-0	-11.4485
insurance	-11.449
▁Telok	-11.449
▁Arm	-11.4491
▁Bund	-11.4494
HM	-11.4495
▁164	-11.4496
át	-11.4497
LAC	-11.4499
NB	-11.4499
BD	-11.4507
▁James	-11.4517
engineers	-11.4517
4.17	-11.4519
ZI	-11.4523
fi	-11.4524
rna	-11.4524
0.97	-11.4525
Nikola	-11.4529
8.61	-11.4531
teama	-11.4535
ount	-11.4541
Direct	-11.4543
▁final	-11.4544
5.27	-11.4547
":"156	-11.4567
reserve	-11.4574
▁Visit	-11.4574
analytics	-11.4574
silver	-11.4574
Nguyen	-11.4574
▁Reader	-11.4574
▁Kensingto	-11.4574
▁handle	-11.4575
ZH	-11.4575
exampleoffers	-11.4576
Pressure	-11.4576
ZJ	-11.4576
.92</	-11.4581
1.13	-11.4582
Round	-11.4583
$35	-11.4584
▁grand	-11.4586
▁171	-11.4589
▁Cord	-11.4595
7.63	-11.4595
3.25	-11.4602
":"2026-01-1	-11.4604
":"261	-11.4607
▁Corn	-11.4609
7.73	-11.4614
▁+9	-11.4615
4.77	-11.4624
products	-11.4625
(	-11.4627
HA	-11.4638
▁Backpack	-11.4638
aka	-11.4643
038	-11.4649
▁Mount	-11.4657
▁Consultation	-11.4658
Annual	-11.4658
!	-11.4658
▁Foods	-11.4658
Compress	-11.4658
▁Rug	-11.4662
1.71	-11.4665
ZA	-11.4666
":"2024-03-2	-11.4667
":"2026-09-0	-11.4667
TH	-11.4671
▁Sports	-11.4672
▁Headset	-11.4672
XW	-11.4682
plus	-11.4682
Spark	-11.4687
9.61	-11.469
thank	-11.469
2.79	-11.4699
5.93	-11.4705
MO	-11.4712
":"2025-02-1	-11.4715
▁180	-11.4727
UI	-11.4731
7.03	-11.4736
$37	-11.4737
XN	-11.4738
Area	-11.4741
now	-11.4742
boutique	-11.4743
▁Warehouse	-11.4743
manufacturing	-11.4743
technologies	-11.4743
Mobile	-11.4743
▁Lambt	-11.4743
▁Carter	-11.4743
TX	-11.4744
GE	-11.4744
6.33	-11.4749
▁Vacuum	-11.4764
0.95	-11.4772
▁Premium	-11.4782
▁181	-11.4786
val	-11.4792
ike	-11.4792
▁Tara	-11.4793
99-	-11.4795
1.09	-11.4796
IG	-11.4798
Digital	-11.4799
FA	-11.4805
0000	-11.4816
▁Living	-11.4816
hI	-11.4824
6.84	-11.4825
Electric	-11.4827
carrier	-11.4828
streaming	-11.4828
▁Terminal	-11.4828
,2026-1	-11.4844
SET	-11.4847
▁Pad	-11.4856
▁Portable	-11.4856
Game	-11.4866
lia	-11.4867
▁226	-11.4872
mir	-11.4874
State	-11.4878
.34</	-11.488
Ground	-11.4886
-6"}],"	-11.4888
.02</	-11.4892
0.85	-11.4894
▁193	-11.4896
▁169	-11.4904
4.61	-11.4907
examplewarehouse	-11.4912
▁138	-11.4913
▁Pharmacy	-11.4914
/04/2026	-11.4914
wireless	-11.4914
▁Staff	-11.4914
▁Controller	-11.4914
brook	-11.4914
/01/2024	-11.4914
das	-11.4915
▁Plug	-11.4916
Bus	-11.492
purchaser	-11.4925
8.39	-11.4928
▁Mix	-11.4935
7.45	-11.494
RY	-11.4943
Gre	-11.4944
▁Con	-11.4946
YW	-11.4948
.22</	-11.4956
GA	-11.4956
.62</	-11.4959
8.35	-11.4962
▁156	-11.4967
8.29	-11.497
▁TRANSACTI	-11.4972
":"2024-05-0	-11.4975
.58</	-11.4981
▁150	-11.4991
1.58	-11.4995
bil	-11.4998
view	-11.5001
desserts	-11.5001
remedies	-11.5001
▁SERVED	-11.5001
*	-11.5001
Cutler	-11.5001
First	-11.5001
/08/2026	-11.5001
Pillow	-11.5001
De	-11.5003
TW	-11.5007
ndar	-11.5008
UM	-11.5011
3.33	-11.5018
4.95	-11.502
hipment	-11.5023
Key	-11.5026
ENT	-11.503
="10	-11.5043
ZO	-11.5045
XZ	-11.5047
5.81	-11.505
8.23	-11.5056
3.01	-11.5059
NN	-11.5064
ZZ	-11.5064
8.47	-11.507
37.3	-11.5079
":"2024-02-1	-11.5081
▁Patio	-11.5083
▁Voucher	-11.5089
2.65	-11.5089
Extension	-11.5089
▁DISCOUNT	-11.5089
/02/2026	-11.5089
▁Switch	-11.5089
5.01	-11.5094
▁MAIL	-11.5096
3.39	-11.5104
1.11	-11.5107
HD	-11.5108
":"2026-01-2	-11.5108
ite	-11.5109
▁Priva	-11.511
▁Comfort	-11.5111
▁124	-11.5113
9.53	-11.5114
061	-11.5115
essentials	-11.5118
":"2024-01-0	-11.5128
▁client	-11.513
7.79	-11.5132
.98</	-11.5136
▁INVO	-11.5144
$41	-11.5145
9.93	-11.5146
VW	-11.5154
DOC	-11.5157
36@	-11.5165
.46"	-11.5176
Dehumidifier	-11.5177
optics	-11.5177
clinic	-11.5177
cycles	-11.5177
▁Dawson	-11.5177
/06/2024	-11.5177
showroom	-11.5177
6.17	-11.5184
3.57	-11.5185
0.01	-11.5201
.44</	-11.5202
0.67	-11.5207
▁Cook	-11.5208
$42	-11.5209
win	-11.522
ji	-11.5223
▁197	-11.5225
▁Mop	-11.5228
▁Weste	-11.523
4.25	-11.5235
.46</	-11.5236
72@	-11.5239
UY	-11.524
paint	-11.5241
Fleet	-11.5247
ZD	-11.5251
ZC	-11.5256
0.36	-11.5257
East	-11.5264
Espresso	-11.5266
▁Guard	-11.5267
Nicol	-11.5267
drinks	-11.5267
white	-11.5267
jewelry	-11.5267
Honey	-11.527
BBQ	-11.5277
Uni	-11.5281
TAL	-11.5282
Jeans	-11.5304
South	-11.5308
8.03	-11.5313
8.41	-11.5321
":"2026-08-2	-11.5321
LJ	-11.5322
.24</	-11.5328
0.65	-11.5329
enu	-11.5332
Room	-11.5333
ZQ	-11.5339
253.	-11.5346
▁155	-11.5346
6.63	-11.5347
":"2026-02-0	-11.5348
▁Fast	-11.5348
EE	-11.5351
▁Kam	-11.5354
▁Kettle	-11.5357
▁Willis	-11.5357
/04/2024	-11.5357
Buyer	-11.5357
fitness	-11.5357
/03/2024	-11.5357
scent	-11.5357
▁Hay	-11.5361
DVD	-11.5361
Andrew	-11.5362
ayla	-11.5366
":"263	-11.5367
":"2024-08-0	-11.5369
aple	-11.537
62@	-11.5376
MM	-11.5381
AX	-11.5399
2.53	-11.5405
Eagl	-11.5408
▁184	-11.5411
9.47	-11.5414
NF	-11.5414
NW	-11.5427
":"2026-03-1	-11.5436
ZF	-11.544
Du	-11.5444
8.77	-11.5444
Deluxe	-11.5448
workshop	-11.5448
Scott	-11.5448
▁Materials	-11.5448
▁STAFF	-11.5448
▁Glanmir	-11.5448
devices	-11.5448
trucking	-11.5448
Jacob	-11.5448
▁Juice	-11.5448
Dry	-11.5449
JN	-11.5449
ku	-11.5449
▁sold	-11.5451
▁Charge	-11.5451
Reusab	-11.5451
XI	-11.5454
WI	-11.5457
rner	-11.5458
Processor	-11.5459
DX	-11.5468
▁rm	-11.5471
rental	-11.5473
9.21	-11.5473
▁159	-11.5476
▁Host	-11.5476
YK	-11.5482
0.19	-11.5483
▁2024-	-11.5491
8.65	-11.5495
NET	-11.5506
ttle	-11.5508
6.69	-11.5512
Purchase	-11.5514
JK	-11.5516
VM	-11.5516
Tool	-11.5517
RL	-11.5517
.06</	-11.552
6.15	-11.5521
GU	-11.5522
8.73	-11.5523
5.39	-11.5525
GC	-11.5526
▁Family	-11.5536
▁Served	-11.5539
▁Brough	-11.5539
▁Karangahap	-11.5539
▁change	-11.5539
Alliance	-11.5539
nahan	-11.554
▁Boy	-11.5542
5.91	-11.5542
0.75	-11.5544
":"2024-10-1	-11.5548
▁172	-11.5549
▁Phi	-11.555
6.67	-11.5554
▁pos	-11.5554
.92"	-11.5555
ennis	-11.5557
Shah	-11.556
UK	-11.5564
Khal	-11.5566
":"2024-06-1	-11.5566
corn	-11.5572
QM	-11.5582
093	-11.5583
▁Universit	-11.5591
6.87	-11.5596
WJ	-11.5599
ivi	-11.5608
9.59	-11.5609
Mix	-11.561
▁192	-11.5611
4.63	-11.5612
5.67	-11.5621
LN	-11.5623
6.65	-11.5629
reader	-11.5631
":"2026-10-1	-11.5632
developers	-11.5632
▁Ladder	-11.5632
warehousing	-11.5632
Virtua	-11.5632
▁Liverpoo	-11.5632
Anchor	-11.5632
/07/2026	-11.5632
events	-11.5632
Meet	-11.5634
▁Broad	-11.5634
▁Ad	-11.5635
harter	-11.5635
.84</	-11.5636
3.49	-11.5639
▁Camd	-11.5639
▁Colle	-11.5642
JM	-11.5643
BU	-11.5644
KX	-11.5644
ernail	-11.5649
VB	-11.5657
6.74	-11.5657
7.36	-11.5663
▁Boots	-11.5664
6.41	-11.5671
4.99	-11.5674
JD	-11.5676
XM	-11.5684
▁Photo	-11.5697
.96</	-11.5703
":"2025-09-1	-11.5706
0.55	-11.5707
▁School	-11.5709
0.73	-11.5716
8.99	-11.5719
emai	-11.5721
gallery	-11.5725
/10/2026	-11.5726
Turbo	-11.5726
▁VIA	-11.5726
LINE	-11.5726
▁payrnent	-11.5731
▁BEF	-11.5731
.18</	-11.5733
antas	-11.5736
":"2026-05-0	-11.574
Duffe	-11.574
.74</	-11.5743
Cho	-11.5744
▁Studios	-11.5744
.54</	-11.575
ist	-11.5751
▁Ban	-11.5756
rock	-11.576
eight	-11.5772
5.25	-11.5773
▁Tie	-11.5778
.82</	-11.578
▁AT	-11.5785
092	-11.5786
ervice	-11.5792
▁Bath	-11.5793
GW	-11.5799
▁Ami	-11.5819
financial	-11.582
▁Fryer	-11.582
Microwav	-11.582
▁Graft	-11.582
/12/2026	-11.582
Barcode	-11.582
▁Bracket	-11.582
▁Agency	-11.582
.42</	-11.5821
▁Expressway	-11.5826
hospitality	-11.5827
▁223	-11.5829
FU	-11.5836
if	-11.5836
6.27	-11.5848
8.53	-11.5865
XF	-11.5872
6.49	-11.5878
6.97	-11.5887
▁Hoodie	-11.5888
LQ	-11.5893
▁Cons	-11.5894
":"2024-02-0	-11.5895
Front	-11.5897
ble	-11.5901
JB	-11.5907
rton	-11.5909
Seat	-11.5912
▁clerk	-11.5915
act	-11.5919
vertex	-11.592
":"2026-02-1	-11.5921
RW	-11.5922
":"211	-11.5923
2.36	-11.5932
":"2026-11-0	-11.5935
sea	-11.594
":"2024-09-1	-11.5947
Plus	-11.5947
▁Henry	-11.5951
":"2026-07-0	-11.5951
ois	-11.5955
▁Towels	-11.5957
33@	-11.5959
9.39	-11.5963
4.19	-11.5965
CU	-11.5975
90@	-11.5978
GL	-11.5981
Matt	-11.5982
Tü	-11.5987
▁Products	-11.5997
6.73	-11.6001
MX	-11.6002
▁Joint	-11.6011
supplies	-11.6011
/11/2024	-11.6011
Accessory	-11.6012
Toner	-11.6012
▁CASH	-11.6013
":"2025-07-1	-11.6021
.86</	-11.6024
Shoe	-11.6024
FN	-11.6037
lpha	-11.6038
Star	-11.6043
":"265	-11.6046
Deni	-11.6056
UD	-11.6057
.08</	-11.606
iman	-11.6063
HH	-11.6079
9.45	-11.6085
▁211	-11.6093
JG	-11.6093
▁San	-11.6094
DY	-11.6096
4.03	-11.6098
Sneakers	-11.6108
▁Player	-11.6108
▁Apparel	-11.6108
▁Flash	-11.6108
atarina	-11.6108
/10/2024	-11.6108
▁AMT	-11.6109
▁Aungi	-11.6109
Fatima	-11.6116
YM	-11.6118
▁Rentals	-11.6123
perator	-11.6124
3.71	-11.6129
▁Bel	-11.6132
HB	-11.6138
NY	-11.6138
▁Research	-11.6143
":"186	-11.6144
QQ	-11.6154
▁Trade	-11.6156
nee	-11.6157
MK	-11.6159
091	-11.6159
.54"	-11.6162
BW	-11.6163
7.98	-11.6163
NX	-11.6164
▁Accounting	-11.6165
9.35	-11.6169
042	-11.6177
moon	-11.618
vn	-11.6182
▁Label	-11.6187
Cross	-11.619
41.5	-11.6191
Global	-11.6191
Sports	-11.6192
outheast	-11.6194
VK	-11.6201
▁Laundry	-11.6204
Display	-11.6206
architects	-11.6206
eatery	-11.6206
mmercial	-11.6206
Craft	-11.6206
theater	-11.6206
▁Engineers	-11.6206
flight	-11.6206
▁Decor	-11.6206
▁Technology	-11.6206
surplus	-11.6206
▁Doorbell	-11.6206
electrics	-11.6206
Everyday	-11.6206
▁Desserts	-11.6207
▁Jaya	-11.6207
Doormat	-11.6207
▁Cabinet	-11.6209
OX	-11.6218
QW	-11.622
Ethe	-11.6226
ü	-11.623
▁Liber	-11.6242
jan	-11.6245
11.5	-11.6253
electronics	-11.6255
":"2026-08-1	-11.6257
UA	-11.6263
▁190	-11.6265
$43	-11.6272
▁Mad	-11.6282
2.51	-11.6284
$39	-11.6288
PURCHASE	-11.6288
Belt	-11.6288
Blanket	-11.629
1.93	-11.6295
fu	-11.6296
grand	-11.6299
.05</	-11.63
":"2026-03-0	-11.6303
medical	-11.6305
Soft	-11.6305
▁Strategy	-11.6305
/03/2025	-11.6305
/05/2025	-11.6305
strategies	-11.6305
▁Bowen	-11.6307
host	-11.6311
FC	-11.6311
uki	-11.6314
RAM	-11.6314
8.07	-11.6314
well	-11.6316
WA	-11.6317
HDM	-11.632
Flow	-11.6321
WO	-11.6322
8.63	-11.6325
UJ	-11.6331
▁Hat	-11.6333
Basic	-11.6336
each	-11.6336
":"2024-04-0	-11.6345
tore	-11.6345
EU	-11.6346
▁218	-11.6346
run	-11.6347
GM	-11.6347
6.01	-11.6352
VQ	-11.6358
XB	-11.636
BR	-11.6377
UG	-11.6379
▁Hu	-11.638
▁ref	-11.6381
2.39	-11.6385
Main	-11.6392
settle	-11.6392
aving	-11.6393
9.79	-11.6396
7.53	-11.6399
UC	-11.6404
Necklace	-11.6405
wellness	-11.6405
▁Murphy	-11.6405
skincare	-11.6405
▁Showroom	-11.6405
Custorner	-11.6405
/04/2025	-11.6405
▁CODE	-11.6405
Club	-11.6406
▁Zone	-11.6409
YV	-11.6411
GF	-11.6412
lston	-11.6412
;00"	-11.6418
▁Roma	-11.6423
Petr	-11.6432
9.05	-11.6435
44@	-11.6435
ndra	-11.6443
FY	-11.6448
4.53	-11.6449
":"2024-10-2	-11.6454
sley	-11.6458
aced	-11.6464
afe	-11.6467
UO	-11.6468
":"2026-06-2	-11.648
west	-11.6485
Southern	-11.6486
▁Hel	-11.6487
64@	-11.6491
Upgrade	-11.6494
EX	-11.6498
▁Tier	-11.6499
▁Track	-11.65
▁Stylus	-11.6506
materials	-11.6506
/02/2025	-11.6506
▁Strcet	-11.6506
/11/2026	-11.6506
insights	-11.6507
Ro	-11.6509
6.45	-11.651
4.01	-11.6511
▁PRE	-11.6513
WX	-11.6513
▁Canal	-11.6515
XD	-11.6516
JX	-11.6516
ohan	-11.652
":"2026-12-2	-11.6521
WR	-11.6526
RDER	-11.6532
▁Crow	-11.6535
UF	-11.6547
FW	-11.6561
YB	-11.6565
▁240	-11.6566
RV	-11.6566
ten	-11.6573
ric	-11.6577
Balanc	-11.6578
FQ	-11.6587
▁doc	-11.6604
FD	-11.6605
":"2024-11-0	-11.6608
▁Industries	-11.6608
Excel	-11.6608
Vector	-11.6608
/07/2025	-11.6608
lounge	-11.6608
furniture	-11.6608
Pasta	-11.6609
Close	-11.6609
Alba	-11.661
▁balance	-11.661
printing	-11.6613
KJ	-11.6613
▁Oven	-11.6613
subtota	-11.6616
FL	-11.6618
":"2024-11-1	-11.6633
RX	-11.6633
UU	-11.6639
059	-11.6648
gold	-11.6672
▁Investments	-11.6677
angi	-11.6682
ics	-11.6686
.66</	-11.6688
fund	-11.6699
eiko	-11.6699
Lounge	-11.6701
41@	-11.6701
WL	-11.6708
▁Ridd	-11.6711
":"2025-01-1	-11.6711
sciences	-11.6711
tlantic	-11.6711
district	-11.6711
/05/2024	-11.6712
▁Creek	-11.6712
open	-11.6712
Slow	-11.6712
▁till	-11.6712
Consign	-11.6713
39@	-11.6714
▁Marin	-11.6717
8.11	-11.6721
3.45	-11.6727
UX	-11.673
▁Pak	-11.673
▁Cong	-11.6733
SIM	-11.6733
9.29	-11.6734
9.11	-11.6737
iao	-11.6739
arcel	-11.6741
▁Che	-11.6745
":"2025-12-1	-11.6747
XH	-11.6748
4.65	-11.6752
YZ	-11.6761
▁Man	-11.6769
QY	-11.6781
9.25	-11.6787
vl	-11.6788
,+	-11.6789
91@	-11.6789
8.69	-11.679
page	-11.679
JY	-11.6793
QL	-11.6794
MR	-11.6797
▁Projector	-11.6801
▁Device	-11.6802
XG	-11.6805
Tender	-11.6806
▁$2	-11.6808
0.63	-11.6808
▁Board	-11.6812
▁process	-11.6813
aga	-11.6813
":"2024-07-0	-11.6813
▁WE	-11.6815
▁Eliza	-11.6816
maintenance	-11.6816
▁Development	-11.6816
Ashok	-11.6816
Recovery	-11.6816
š	-11.6816
▁Granvi	-11.6816
▁Cruz	-11.6816
▁Mosley	-11.6816
packaging	-11.6816
uhani	-11.6817
":"210	-11.6818
▁MG	-11.6821
98@	-11.6822
86@	-11.6823
Toaster	-11.6825
▁Pub	-11.6825
GNE	-11.683
▁Foundry	-11.6832
LV	-11.6833
▁LB	-11.6839
1.79	-11.6848
▁Little	-11.6848
":"2024-01-1	-11.685
▁Investment	-11.6851
venture	-11.6851
XK	-11.6873
▁2017	-11.6878
MCC	-11.6881
mina	-11.6883
LX	-11.6891
IX	-11.6891
":"2026-04-0	-11.6893
8.79	-11.6894
ecure	-11.6898
JE	-11.6902
XY	-11.6904
LF	-11.6905
nova	-11.6906
AW	-11.6907
68@	-11.6909
MAIL	-11.691
Screen	-11.6912
Shelf	-11.6913
Route	-11.6917
EY	-11.6919
strategy	-11.6921
▁Jackson	-11.6921
▁Thread	-11.6921
Destination	-11.6921
opular	-11.6921
▁charged	-11.6921
French	-11.6921
Next	-11.6921
Productivi	-11.6926
▁216	-11.6928
5.74	-11.6932
▁Amt	-11.6936
2.31	-11.6937
":"2026-12-1	-11.6938
north	-11.6939
FF	-11.6941
9.69	-11.6941
ANCE	-11.6941
61@	-11.6943
motors	-11.6944
40.2	-11.6953
.38</	-11.6957
▁124.	-11.6958
QH	-11.6959
▁Stephen	-11.696
5.75	-11.6965
3.79	-11.6968
▁Settle	-11.6972
KY	-11.6973
FH	-11.6974
books	-11.6975
":"259	-11.6982
Amir	-11.6998
▁Restaurant	-11.7004
Show	-11.7008
FV	-11.7009
White	-11.702
char	-11.7023
iko	-11.7024
Edward	-11.7027
limited	-11.7027
/07/2024	-11.7027
▁Cooler	-11.7027
Empir	-11.7027
Child	-11.7027
creative	-11.7028
Bedroom	-11.7028
patio	-11.7029
Fresh	-11.7029
▁Lens	-11.7033
rich	-11.7033
":"2025-04-1	-11.7034
ivery	-11.7034
9.81	-11.7035
":"177	-11.7038
vt	-11.7052
▁Design	-11.7054
":"2024-10-0	-11.7057
▁Theater	-11.7061
UE	-11.7069
":"2024-08-2	-11.7078
EJ	-11.7078
HQ	-11.708
etu	-11.7083
WQ	-11.7084
WG	-11.7089
▁Drinks	-11.7091
▁Hills	-11.7096
rave	-11.7103
7.27	-11.7107
nton	-11.7108
JR	-11.7108
▁249	-11.7116
":"2024-02-2	-11.7119
payrnent	-11.7129
7.25	-11.7134
▁Hamper	-11.7135
operations	-11.7135
holiday	-11.7135
dining	-11.7135
telecom	-11.7135
decor	-11.7135
▁counter	-11.7135
▁Douglas	-11.7135
/02/2024	-11.7135
▁Soap	-11.7135
Karim	-11.7135
elix	-11.7135
XT	-11.7135
▁Curtains	-11.7136
▁Developers	-11.7136
▁Press	-11.714
1.65	-11.7142
8.27	-11.7144
3.17	-11.7146
Yasi	-11.7147
LH	-11.715
yber	-11.715
":"2024-05-1	-11.7152
ECC	-11.7152
DF	-11.7166
.78</	-11.7167
":"138	-11.7169
resources	-11.717
RZ	-11.7175
ini	-11.7183
▁232	-11.7189
RG	-11.7191
5.79	-11.7192
FJ	-11.7199
MJ	-11.7199
Steven	-11.7204
use	-11.7213
9.97	-11.7219
54@	-11.7221
YC	-11.7233
81@	-11.7238
Mop	-11.7239
mode	-11.7239
▁SH	-11.7242
Venture	-11.7243
Humidifier	-11.7243
fresh	-11.7243
Soundbar	-11.7243
textiles	-11.7243
latinum	-11.7243
▁Container	-11.7244
▁Clothing	-11.7244
/12/2025	-11.7244
cargo	-11.7244
▁Health	-11.7245
/09/2025	-11.7246
Sample	-11.7248
crown	-11.7249
HW	-11.7251
GV	-11.7255
gst	-11.7262
UQ	-11.7269
▁Hospitality	-11.7275
Atla	-11.7282
▁212	-11.7287
NU	-11.7289
6.75	-11.73
ingapore	-11.7304
KM	-11.7312
":"2024-08-1	-11.7316
JF	-11.7319
30@	-11.7327
Privat	-11.7327
":"2024-11-2	-11.7331
á	-11.7339
":"243	-11.7342
VL	-11.7346
Repair	-11.7349
▁195	-11.735
Space	-11.735
UN	-11.7351
FK	-11.7353
distribution	-11.7353
research	-11.7353
brewing	-11.7353
earning	-11.7353
▁Junction	-11.7353
/03/2026	-11.7353
/01/2025	-11.7354
7.65	-11.7354
trends	-11.7354
ullen	-11.7354
anja	-11.7355
ano	-11.7358
FE	-11.736
▁Paint	-11.7362
MF	-11.7364
Ali	-11.7366
▁Mile	-11.7368
ario	-11.7374
KD	-11.739
EM	-11.7395
73@	-11.7402
IY	-11.7404
VF	-11.7405
XA	-11.741
The	-11.7414
1.31	-11.7427
HY	-11.7436
.67"	-11.7437
":"2026-11-2	-11.7438
eva	-11.7439
KL	-11.7444
Tota	-11.7445
UH	-11.7447
vision	-11.7462
balance	-11.7463
rk	-11.7464
advisors	-11.7464
atural	-11.7465
▁Strategies	-11.7465
▁Architects	-11.7465
▁Frame	-11.7465
▁Wipes	-11.7465
Daniel	-11.7465
":"2026-12-0	-11.7465
EW	-11.7479
":"2024-04-2	-11.7481
YL	-11.7481
▁Reserve	-11.7489
.93</	-11.749
▁177	-11.7497
Warr	-11.7499
VU	-11.7507
▁Fashion	-11.7511
sage	-11.7517
":"2025-07-0	-11.752
GQ	-11.752
74@	-11.7522
dam	-11.7524
Lin	-11.7527
.65</	-11.7536
VH	-11.7546
Doc	-11.7557
":"2024-12-2	-11.7559
Book	-11.756
DJ	-11.7564
▁Machine	-11.7577
innovations	-11.7577
▁Pope	-11.7577
concepts	-11.7577
▁Merchandise	-11.7577
▁Technologies	-11.7577
restige	-11.7577
/08/2024	-11.7577
/11/2025	-11.7577
harlotte	-11.7577
Hasan	-11.7577
▁copy	-11.7577
TCC	-11.7577
▁Lyon	-11.7577
YE	-11.7578
.04.2025	-11.7581
KQ	-11.7589
Lars	-11.7591
3.41	-11.7592
▁303	-11.7593
$47	-11.7603
Line	-11.7605
▁Catering	-11.7606
$82	-11.761
inoa	-11.7612
2.83	-11.7615
Coll	-11.7622
YY	-11.7622
.43</	-11.7623
DN	-11.7634
$45	-11.7638
RR	-11.7644
":"2025-09-0	-11.7648
Step	-11.765
YQ	-11.7651
▁243	-11.7653
5.03	-11.7658
VX	-11.7664
doc	-11.7665
uild	-11.7679
$46	-11.7689
Sunglasses	-11.769
▁Hooks	-11.769
bistro	-11.769
borough	-11.7691
▁District	-11.7691
▁MERCHAN	-11.7691
▁Remedies	-11.7691
/10/2025	-11.7691
▁Eatery	-11.7691
Knif	-11.7691
footwear	-11.7691
▁Appliances	-11.7691
Box	-11.7694
6.07	-11.7695
▁Harc	-11.7697
game	-11.7699
▁Node	-11.7699
urak	-11.77
Brand	-11.7703
HN	-11.7704
Veer	-11.7704
day	-11.7705
heri	-11.7705
WW	-11.7708
$51	-11.7713
NAS	-11.7716
▁city	-11.7717
WN	-11.7724
":"303	-11.7733
XE	-11.7733
GK	-11.7737
▁DISPATCH	-11.7738
spen	-11.774
CX	-11.7742
6.23	-11.7743
6.57	-11.7754
▁Worldwide	-11.7755
$52	-11.7758
0.25	-11.7764
lark	-11.7776
▁Bow	-11.778
YJ	-11.7785
▁Coat	-11.7789
WV	-11.7799
XL	-11.78
roasters	-11.7805
refreshments	-11.7805
utilities	-11.7805
Samuel	-11.7805
urora	-11.7805
spring	-11.7805
▁Pears	-11.7806
Hudson	-11.7806
▁Richmond	-11.7806
petcare	-11.7806
Final	-11.7807
▁Mary	-11.7807
Adjust	-11.7807
Open	-11.7809
David	-11.7809
ataka	-11.781
▁Rock	-11.781
road	-11.7812
rus	-11.7815
▁Shand	-11.7816
2.75	-11.7822
HK	-11.783
YH	-11.7838
▁Electronics	-11.7839
dar	-11.7842
clear	-11.7848
Bath	-11.7854
▁Young	-11.7856
JW	-11.7857
XV	-11.7861
QX	-11.7862
UV	-11.7866
▁Print	-11.787
▁John	-11.787
.29</	-11.7874
QG	-11.7878
7.91	-11.788
JU	-11.788
▁Check	-11.788
":"2026-09-1	-11.7885
.89</	-11.7892
4.79	-11.7893
4.31	-11.7894
UL	-11.7902
ref	-11.7906
▁Swan	-11.7908
7.17	-11.7914
▁Gh	-11.7917
Croissant	-11.7921
automotive	-11.7922
External	-11.7922
▁Corporation	-11.7922
▁Fanshaw	-11.7922
▁Fitzwillia	-11.7922
▁Skincare	-11.7922
/08/2025	-11.7922
professionals	-11.7922
▁Salon	-11.7922
▁Batteries	-11.7922
▁Style	-11.7922
▁Salad	-11.7922
▁Berg	-11.7923
CREATED	-11.7925
Refill	-11.7925
▁Fare	-11.7927
Usman	-11.7927
KH	-11.7933
cad	-11.7934
▁Productivi	-11.7936
▁Net	-11.7941
▁263	-11.7951
FG	-11.7956
Mac	-11.7961
▁Drink	-11.7969
▁FULFILL	-11.7971
$63	-11.7977
▁Prep	-11.7977
sole	-11.7984
indo	-11.7985
▁312	-11.7986
":"232	-11.7993
RU	-11.7993
Anja	-11.7994
KK	-11.7994
ourt	-11.8004
▁Tel	-11.8006
mor	-11.8016
less	-11.8018
kko	-11.8019
":"195	-11.8022
":"2026-01-0	-11.8023
WM	-11.8024
▁Cre	-11.803
▁Tech	-11.803
obal	-11.8031
RJ	-11.8032
Commu	-11.8032
CJ	-11.8033
van	-11.8039
▁Flores	-11.8039
burgers	-11.8039
pantry	-11.8039
▁Packaging	-11.8039
Robinson	-11.8039
FINAL	-11.804
8.19	-11.804
▁SHIPPED	-11.804
Track	-11.804
liance	-11.8041
ierra	-11.8046
":"2024-06-2	-11.8047
":"2024-07-2	-11.8049
Rice	-11.8052
NCC	-11.8056
9.75	-11.8056
Greenwood	-11.806
Mail	-11.8064
EK	-11.8066
":"2025-01-2	-11.8069
76@	-11.8078
ILL	-11.8083
ior	-11.8086
0.23	-11.8087
▁Merchant	-11.8088
Web	-11.8094
▁241	-11.8101
▁Fitness	-11.8101
Paid	-11.8101
YR	-11.8108
ubscription	-11.8109
▁001	-11.811
QU	-11.8112
.97</	-11.8116
JH	-11.8118
.69</	-11.8129
▁Custom	-11.8133
ference	-11.8134
newa	-11.8136
5.31	-11.8145
▁Melbou	-11.8152
Picture	-11.8158
▁Causeway	-11.8158
▁Concepts	-11.8158
▁Trends	-11.8158
development	-11.8158
specialists	-11.8158
▁Dixon	-11.8158
▁Evans	-11.8158
▁bhd	-11.8158
/06/2025	-11.8158
prime	-11.8158
Gutierrez	-11.8159
itamin	-11.8159
metro	-11.8159
Clerk	-11.8159
Pepper	-11.8159
▁Pictures	-11.8159
birch	-11.8161
Carrier	-11.8164
▁Wash	-11.8166
":"2026-02-2	-11.8169
akumi	-11.8173
▁306	-11.8178
":"2025-05-1	-11.8179
▁Emm	-11.8179
oak	-11.8184
bell	-11.8193
▁Kildar	-11.8196
AWB	-11.8206
Email	-11.8208
▁Aro	-11.8209
Guid	-11.8213
":"2025-03-0	-11.8217
LW	-11.8223
Carry	-11.8225
41.4	-11.8227
Donald	-11.8229
▁Merchants	-11.8229
tak	-11.823
XX	-11.8233
GY	-11.8234
▁Devices	-11.8239
$44	-11.8243
Adh	-11.8252
evin	-11.8254
FX	-11.8255
UCC	-11.8258
▁Dining	-11.8261
":"2025-03-2	-11.8261
urke	-11.8269
KF	-11.8272
arolina	-11.8276
▁Thermostat	-11.8279
informatics	-11.8279
furnishings	-11.8279
plaza	-11.8279
publishing	-11.8279
▁OConnel	-11.8279
▁Operations	-11.8279
concierge	-11.8279
/05/2026	-11.8279
Elite	-11.8279
black	-11.8279
first	-11.8279
▁Linco	-11.8279
▁Moles	-11.8279
Rush	-11.8279
undberg	-11.828
Loyalty	-11.828
Kumar	-11.8289
Green	-11.829
84@	-11.829
▁Fit	-11.829
.99</	-11.8294
NK	-11.8308
onald	-11.8313
Nikol	-11.8319
pex	-11.8319
BX	-11.8323
Inter	-11.8326
sive	-11.8328
JJ	-11.833
▁Soup	-11.8339
industria	-11.8341
8.81	-11.8348
":"2026-08-0	-11.8348
Shin	-11.8365
nov	-11.8384
HV	-11.8393
eritage	-11.8395
60@	-11.8399
Excursion	-11.8401
nutrition	-11.8401
growers	-11.8401
▁Nutrition	-11.8401
Disinfectin	-11.8401
Zoltá	-11.8401
harbor	-11.8401
▁Medical	-11.8401
▁Rathm	-11.8401
▁Venue	-11.8401
Zahra	-11.8401
Morning	-11.8401
Mohamed	-11.8401
Davis	-11.8401
▁Maker	-11.8402
▁Purpose	-11.8402
▁Electrics	-11.8402
ugen	-11.8405
0.43	-11.8409
Patio	-11.8409
0.31	-11.8413
Brown	-11.8416
.21</	-11.8419
teri	-11.8424
organics	-11.8427
XJ	-11.8429
▁Rem	-11.8432
GH	-11.8442
Elm	-11.8448
HIP	-11.8449
YF	-11.8454
HG	-11.8461
▁Company	-11.8473
RF	-11.8474
Prun	-11.8486
":"2025-10-2	-11.8487
":"291	-11.8504
cuisine	-11.8524
▁Turner	-11.8524
▁Cleveland	-11.8524
▁Piccadilly	-11.8524
fuels	-11.8524
▁Sciences	-11.8524
produce	-11.8524
▁Clanbrassi	-11.8524
Mohammad	-11.8524
▁sdn	-11.8524
swift	-11.8524
▁Chape	-11.8524
▁Shears	-11.8524
arvest	-11.8525
fax	-11.8525
▁Tamak	-11.8526
YN	-11.8528
strong	-11.8528
▁253	-11.853
kiko	-11.8549
QCC	-11.8556
7.31	-11.8557
WY	-11.8562
uno	-11.857
RH	-11.8575
RN	-11.8575
▁Boarding	-11.8578
JL	-11.8578
":"2024-09-0	-11.8581
WF	-11.8588
▁Qu	-11.8594
Mason	-11.8594
.47</	-11.8604
MU	-11.8617
245,	-11.8619
UW	-11.8623
long	-11.8625
mran	-11.8628
.03</	-11.8631
GG	-11.8638
":"279	-11.8639
lara	-11.8641
.77</	-11.8643
GX	-11.8645
eneral	-11.8646
Blender	-11.8649
ú	-11.8649
Forward	-11.8649
▁Surplus	-11.8649
▁Supplies	-11.8649
▁Refreshments	-11.8649
▁Resources	-11.8649
Riley	-11.8649
aleria	-11.865
ruise	-11.865
▁Diner	-11.865
cedar	-11.865
uera	-11.8657
▁how	-11.866
Tech	-11.8661
▁Bennett	-11.8675
":"2025-01-0	-11.8681
▁291	-11.8693
▁Brig	-11.8693
▁country	-11.8695
ture	-11.8698
ACC	-11.8703
▁Creative	-11.8705
Tian	-11.8707
.17</	-11.8715
6.79	-11.8715
Steel	-11.8715
KV	-11.8729
XU	-11.8742
▁261	-11.875
Ebr	-11.8755
":"2025-04-0	-11.8761
VJ	-11.8762
":"2026-06-0	-11.8768
▁Glasses	-11.8776
Joseph	-11.8776
ristian	-11.8776
Employee	-11.8776
▁Specialists	-11.8776
▁Realty	-11.8776
Magaz	-11.8776
amazan	-11.8776
Fruit	-11.8776
ignal	-11.8776
Auto	-11.8776
Koen	-11.8777
Courier	-11.8789
▁Swanst	-11.8791
Trip	-11.8791
▁Rose	-11.8808
Rui	-11.8812
▁Rain	-11.8814
4.75	-11.8816
Zi	-11.8845
":"2026-11-1	-11.8848
.61</	-11.8852
Roy	-11.8868
":"2025-04-2	-11.8871
ook	-11.8873
WZ	-11.8876
DU	-11.8878
nter	-11.8888
":"2025-11-2	-11.8889
south	-11.8896
Emer	-11.8902
Tomato	-11.8904
propert	-11.8904
▁Watson	-11.8904
tavern	-11.8904
▁Optics	-11.8904
▁Vision	-11.8904
Student	-11.8904
onstantin	-11.8904
Salmon	-11.8904
▁Jones	-11.8904
neau	-11.8904
▁Books	-11.8905
▁Tours	-11.8906
Adamu	-11.8906
▁Bread	-11.8906
sky	-11.8917
▁Roberts	-11.8917
avel	-11.892
tern	-11.8923
Far	-11.8924
leasant	-11.8927
99@	-11.8936
":"2026-09-2	-11.8944
pioneer	-11.8949
onut	-11.8952
kash	-11.8961
Nationa	-11.8961
into	-11.8964
.71</	-11.8969
part	-11.8987
XQ	-11.8989
▁region	-11.8997
rno	-11.9001
$53	-11.9024
jun	-11.9028
▁Jac	-11.9031
$57	-11.9033
shirt	-11.9033
Veggie	-11.9034
atelier	-11.9034
lympic	-11.9034
▁Macleod	-11.9034
Mohammed	-11.9034
▁Insights	-11.9034
▁Source	-11.9034
Inspection	-11.9034
artisans	-11.9034
▁Engineering	-11.9034
▁Jewelry	-11.9034
▁Textiles	-11.9034
▁Telecom	-11.9034
▁Numpad	-11.9034
little	-11.9034
uigi	-11.9035
▁Cream	-11.9035
estates	-11.9035
uxury	-11.9037
argarida	-11.904
Rashid	-11.9041
lau	-11.9043
northstar	-11.9043
rbit	-11.9044
YD	-11.905
":"2025-03-1	-11.9051
Media	-11.9051
Amount	-11.9051
OCC	-11.9057
Reference	-11.906
Nari	-11.907
DW	-11.9071
kur	-11.9071
.87</	-11.9072
.23</	-11.9082
6.29	-11.9091
64.9	-11.9096
Ell	-11.91
urang	-11.9118
Bill	-11.9123
▁Jar	-11.9154
.73</	-11.916
▁Hangers	-11.9165
treasures	-11.9166
Valentin	-11.9166
hadija	-11.9166
▁Manufacturing	-11.9166
atoshi	-11.9166
metals	-11.9166
ustafa	-11.9166
▁Footwear	-11.9166
▁Motors	-11.9166
▁Nehr	-11.9166
auto	-11.9166
▁Pantry	-11.9166
Jamal	-11.9166
omasz	-11.9166
Cloth	-11.9166
Paul	-11.9167
$76	-11.9167
young	-11.9167
liona	-11.9176
aija	-11.9179
.75</	-11.918
Living	-11.9184
Food	-11.9184
Event	-11.9184
Projector	-11.9184
▁Pitt	-11.9185
Paper	-11.9185
▁Furniture	-11.9185
,2026-03-	-11.9186
Maaik	-11.9194
real	-11.9199
Tit	-11.9202
Jun	-11.9206
":"2024-06-0	-11.9208
33.9	-11.9231
YX	-11.9233
easide	-11.9233
anjay	-11.9238
":"2025-12-0	-11.9244
Yun	-11.9245
$71	-11.9246
radi	-11.9268
anis	-11.9276
oko	-11.9286
$61	-11.9295
Account	-11.9296
▁Stanley	-11.9299
chocolates	-11.9299
Lunch	-11.9299
royal	-11.9299
REFER	-11.9299
atrix	-11.93
.07.2026	-11.93
ehdi	-11.9301
iviu	-11.9303
riol	-11.931
Salim	-11.9313
VY	-11.9318
Dining	-11.9319
dispatch	-11.9319
Mouse	-11.9319
":"2025-12-2	-11.9321
":"412	-11.9321
Hoda	-11.9322
WK	-11.9326
ikolina	-11.9329
▁Call	-11.9337
":"2025-10-1	-11.9342
YG	-11.9344
KW	-11.9349
.39</	-11.9356
3.27	-11.9364
tten	-11.9371
nni	-11.9406
YCC	-11.9407
law	-11.941
":"2025-08-2	-11.9419
arry	-11.9421
HU	-11.9424
Luc	-11.9428
▁Lewis	-11.9434
hotel	-11.9434
Ö	-11.9434
Balá	-11.9434
watch	-11.9434
gnieszka	-11.9434
▁Tinakori	-11.9434
▁Petcare	-11.9434
hijs	-11.9434
cinema	-11.9434
▁Thorn	-11.9434
▁Irir	-11.9434
kawa	-11.9434
Grace	-11.9434
Grano	-11.9435
Minh	-11.9435
▁Carton	-11.9436
bagh	-11.9437
▁Printing	-11.9438
▁Abb	-11.944
irn	-11.9448
Aisha	-11.9448
olf	-11.9451
fer	-11.9455
▁Wine	-11.9458
3.65	-11.9466
Wallet	-11.9471
anna	-11.9475
risbane	-11.9482
oran	-11.9496
6.19	-11.9503
book	-11.9506
3.19	-11.9509
Sander	-11.9526
▁Kilda	-11.9528
":"192	-11.9546
Mitchell	-11.9571
Johor	-11.9571
franklin	-11.9571
Františ	-11.9571
▁Majoribank	-11.9571
▁Outstanding	-11.9571
Ultra	-11.9571
rzysztof	-11.9571
▁Manners	-11.9571
inventory	-11.9571
joy	-11.9571
▁Organics	-11.9572
.08.2026	-11.9573
arkar	-11.9573
▁Vivi	-11.9574
Marij	-11.9574
aresh	-11.9574
▁Builders	-11.9574
.03.2026	-11.9575
.03.2024	-11.9578
▁TEL	-11.9578
box	-11.9579
Kwa	-11.958
.57</	-11.9582
Mateo	-11.9589
School	-11.9595
big	-11.9604
5.19	-11.9607
ahim	-11.9613
lng	-11.9621
rec	-11.9628
modern	-11.9641
Dimitri	-11.9667
36.2	-11.9674
47.3	-11.9683
":"2025-02-0	-11.9685
▁"2024-03-	-11.9692
Nav	-11.9697
":"2026-10-0	-11.9697
tates	-11.9701
▁Sub	-11.9703
Bookcase	-11.9709
Extende	-11.971
architecture	-11.971
Certificate	-11.971
itsuki	-11.971
▁Cuisine	-11.971
▁Exchange	-11.971
▁Roasters	-11.971
bdelaziz	-11.971
▁Murray	-11.971
▁Beans	-11.971
▁vege	-11.971
▁Refresh	-11.971
Enz	-11.9711
▁Strat	-11.9711
golden	-11.9712
abor	-11.9716
":"2025-11-0	-11.9716
ngo	-11.9716
▁Napk	-11.9721
Custom	-11.9732
HX	-11.9733
TENDER	-11.9736
▁Welle	-11.9738
Cable	-11.9754
Alma	-11.9755
etter	-11.9758
▁Cox	-11.976
rjun	-11.9764
electronic	-11.9781
Bell	-11.9783
rown	-11.979
roll	-11.9797
43.5	-11.9804
WH	-11.9805
":"2024-07-1	-11.9808
410,	-11.981
369,	-11.9826
Viktori	-11.9831
Victor	-11.985
Rodriguez	-11.9851
ć	-11.9851
▁Torres	-11.9851
▁Wright	-11.9851
emporium	-11.9851
ntelligent	-11.9851
esolute	-11.9851
yunwoo	-11.9851
▁Utilities	-11.9851
Mathieu	-11.9851
rszula	-11.9851
▁Atelier	-11.9851
▁Featherston	-11.9851
trusted	-11.9851
wild	-11.9851
▁Stool	-11.9851
lessia	-11.9851
Bright	-11.9852
essen	-11.9852
unset	-11.9852
▁323	-11.9856
hota	-11.9857
6.81	-11.9867
DCC	-11.987
River	-11.9879
Software	-11.9879
transit	-11.9879
ahdi	-11.9885
$48	-11.9914
cket	-11.9923
▁07;	-11.9929
7.81	-11.9946
hrive	-11.995
▁339	-11.9954
KCC	-11.9956
▁And	-11.9959
nvoice	-11.9976
Eggs	-11.9993
XR	-11.9993
▁Bailey	-11.9994
▁Wilson	-11.9994
▁Produce	-11.9994
Malik	-11.9994
Docurnent	-11.9994
higeru	-11.9994
▁Concierge	-11.9994
▁Brunsw	-11.9994
▁Barlow	-11.9994
eartland	-11.9994
▁Iterns	-11.9995
▁Bloo	-11.9999
▁Ward	-12.0006
▁300	-12.001
ehman	-12.0013
HNE	-12.0014
Label	-12.0023
87.3	-12.003
786,	-12.0037
":"400	-12.0042
mford	-12.0042
BILL	-12.0056
áv	-12.0059
plc	-12.0065
ooley	-12.0074
Bab	-12.0076
baker	-12.008
Manage	-12.0087
99.5	-12.0096
eum	-12.0099
":"2025-06-1	-12.0106
tta	-12.0123
Raf	-12.0133
Robert	-12.0135
oga	-12.0137
System	-12.0138
Sweater	-12.0138
Matthew	-12.0138
nurnber	-12.0139
▁Automotive	-12.0139
▁Georgia	-12.0139
communications	-12.0139
trategic	-12.0139
▁again	-12.0139
▁Bhd	-12.0139
▁Kelly	-12.0139
Season	-12.0139
ichael	-12.0139
▁Richardson	-12.0139
▁Edwards	-12.014
bright	-12.014
Priy	-12.0147
fast	-12.0149
24.4	-12.015
▁MacCurta	-12.0155
iorgi	-12.0168
▁Till	-12.017
Restaurant	-12.017
WNE	-12.0181
YU	-12.0191
":"2025-06-0	-12.0192
food	-12.0216
2.00	-12.0217
▁"2024-01-	-12.0233
WU	-12.0233
Feder	-12.0237
$56	-12.0246
803,	-12.0254
Clear	-12.0264
lham	-12.0269
43.9	-12.0271
$58	-12.0282
Beanie	-12.0285
Windbreaker	-12.0285
▁Sauce	-12.0285
▁Mirror	-12.0285
Mariya	-12.0286
▁Gupta	-12.0286
Burrito	-12.0286
prosper	-12.0286
Welcome	-12.0286
adeusz	-12.0286
afsa	-12.0286
▁Finance	-12.0286
▁Garcia	-12.0286
▁Innovations	-12.0286
Ehsan	-12.0286
Srinivas	-12.0286
Ł	-12.0286
▁Assistan	-12.0286
▁Brewing	-12.0286
▁Cycles	-12.0286
▁OUTSTANDING	-12.0286
▁officia	-12.0286
himamanda	-12.0286
anchor	-12.0286
mitri	-12.0286
▁Bandon	-12.0286
oussa	-12.0286
▁Costa	-12.0286
alaxy	-12.0286
,2026-01-	-12.0286
▁Professionals	-12.0286
▁Karor	-12.0286
,2026	-12.0287
.04.2026	-12.0288
Trans	-12.0288
▁Leach	-12.0289
$67	-12.0291
oter	-12.0292
▁Advisors	-12.0302
▁Howe	-12.0302
nja	-12.0317
Backpack	-12.0319
World	-12.032
Analytics	-12.032
850,	-12.0321
imitrios	-12.0331
+	-12.0332
deal	-12.0336
ental	-12.0344
Baak	-12.0347
Stone	-12.0357
23.7	-12.0361
.83</	-12.0368
944,	-12.0368
":"2025-07-2	-12.0371
4.56"	-12.0374
mill	-12.0385
Rani	-12.0386
Audio	-12.0396
.01"	-12.0407
▁Process	-12.0413
Stream	-12.0433
3.00	-12.0433
▁Morales	-12.0435
▁Randolph	-12.0435
mperial	-12.0435
desert	-12.0435
pollo	-12.0435
RECIPIENT	-12.0435
ofija	-12.0435
▁Boutique	-12.0435
Hirok	-12.0435
oubacar	-12.0435
john	-12.0435
skari	-12.0435
▁Sdn	-12.0435
erenc	-12.0435
▁Strand	-12.0435
▁Fuels	-12.0435
.02.2026	-12.0436
speed	-12.0436
hidinma	-12.0437
brown	-12.0439
zhar	-12.044
▁Pike	-12.044
537,	-12.0447
atias	-12.045
olive	-12.0452
977,	-12.0461
Wild	-12.0463
Haruk	-12.0467
Protection	-12.0472
AMOUNT	-12.0472
▁Berr	-12.0473
Camera	-12.0475
":"2025-02-2	-12.0479
ilena	-12.048
.55</	-12.0481
Rich	-12.0491
▁Sav	-12.0494
,2026-08-	-12.0506
878,	-12.051
ouch	-12.0515
PURCHASER	-12.0533
oaa	-12.0537
$74	-12.0546
cale	-12.056
744,	-12.0571
="2025-10-	-12.0574
Zain	-12.0582
JWB	-12.0584
Enterprise	-12.0586
▁Stewart	-12.0586
Bogdan	-12.0586
Mika	-12.0586
▁Clinic	-12.0586
▁Treasures	-12.0586
▁Wakefield	-12.0586
Onboarding	-12.0586
arohi	-12.0586
ieuwertje	-12.0586
iroshi	-12.0586
▁Bistro	-12.0586
▁Growers	-12.0586
eighborhood	-12.0586
▁Nassa	-12.0586
▁Estates	-12.0586
▁Reyes	-12.0586
Ahmed	-12.0586
▁Cinema	-12.0587
onarch	-12.0587
Roast	-12.0587
.09.2025	-12.0587
Javi	-12.0587
.03.2025	-12.0587
Ceilin	-12.0587
berry	-12.0588
obust	-12.0588
linton	-12.0589
▁Cere	-12.0589
Tripod	-12.0593
ebsite	-12.0595
maple	-12.0597
forge	-12.06
ighland	-12.0612
onia	-12.0618
Silv	-12.0622
Diap	-12.0624
Wood	-12.0626
shore	-12.0648
Bridge	-12.0653
":"2025-11-1	-12.0655
ANE	-12.0655
ommunity	-12.0664
Dock	-12.0677
798,	-12.0687
ffice	-12.0724
entury	-12.0735
autumn	-12.074
Recipient	-12.074
awkeye	-12.074
hinwe	-12.074
▁Roosevelt	-12.074
▁WAYBILL	-12.074
issatou	-12.074
laudia	-12.074
ndrzej	-12.074
atsuki	-12.074
.05.2026	-12.0741
igrid	-12.0741
greenwood	-12.0741
▁landline	-12.0742
▁Logan	-12.0742
corp	-12.0742
▁Johnson	-12.0742
.06.2025	-12.0743
▁call	-12.0744
.02.2024	-12.0745
esrin	-12.0746
Aria	-12.0748
mcc	-12.075
.08.2024	-12.0751
reliable	-12.0754
▁Dru	-12.0759
eepak	-12.0759
Marcela	-12.0761
ibb	-12.0769
▁2024-12-	-12.077
QWB	-12.0774
":"2025-06-2	-12.0774
MNE	-12.0779
Shuttle	-12.0782
Watch	-12.0782
Socks	-12.0782
vanna	-12.079
hahin	-12.0796
752,	-12.0799
6.00	-12.0805
arek	-12.0816
cab	-12.0817
enic	-12.0822
":"407	-12.0823
":"2026-06-1	-12.0842
▁162.	-12.0844
learwater	-12.0863
Mode	-12.0863
ition	-12.0873
493,	-12.0873
FNE	-12.0877
aggage	-12.0893
Bracelet	-12.0896
foot	-12.0896
Franklin	-12.0896
arrett	-12.0896
urban	-12.0896
lighting	-12.0896
accessories	-12.0896
▁Informatics	-12.0896
▁Metals	-12.0896
▁Financial	-12.0896
▁Owing	-12.0896
interiors	-12.0897
▁Phillips	-12.0897
▁Parlia	-12.0897
tzel	-12.0897
Picn	-12.0897
Apron	-12.0897
▁Waybill	-12.0898
▁Pets	-12.0899
.09.2026	-12.09
enata	-12.09
ontent	-12.09
oriko	-12.0901
.08.2025	-12.0901
Naoko	-12.0901
erve	-12.0903
build	-12.0903
Arman	-12.0907
resence	-12.0909
urst	-12.0909
state	-12.091
▁Lighting	-12.0916
▁Parker	-12.0917
eef	-12.0923
lask	-12.093
Andri	-12.0931
LCN	-12.0934
59.9	-12.0935
kane	-12.0939
Created	-12.094
Jacket	-12.0941
eiji	-12.0949
horeline	-12.0992
ozen	-12.1003
achi	-12.1016
uffer	-12.1032
":"2025-09-2	-12.105
glob	-12.1054
▁Ramos	-12.1055
Ondřej	-12.1055
▁Furnishings	-12.1055
eodoro	-12.1055
▁Plaza	-12.1055
▁facebook	-12.1055
iddharth	-12.1055
Kacper	-12.1055
iobh	-12.1055
lifestyle	-12.1055
Ibrahim	-12.1055
holdings	-12.1055
▁Dudley	-12.1055
▁Strap	-12.1055
▁Morgan	-12.1056
":"2025-05-0	-12.1056
oxana	-12.1056
Harmon	-12.1056
Helm	-12.1056
hampion	-12.1056
ameer	-12.1056
.02.2025	-12.1058
andmark	-12.1059
ashir	-12.1059
Nils	-12.106
.12.2025	-12.1061
.05.2024	-12.1062
UNE	-12.1062
339,	-12.1074
pinnacle	-12.1074
lif	-12.1077
OLD	-12.1086
▁Hall	-12.1087
udio	-12.11
Hoodie	-12.11
llc	-12.1105
ndre	-12.1119
hika	-12.1121
emur	-12.1123
ju	-12.1133
947,	-12.1134
apat	-12.1136
Neda	-12.114
▁Tib	-12.1152
isle	-12.1168
Max	-12.1169
":"2025-08-1	-12.1177
222,	-12.1178
ONE	-12.1179
▁Manager	-12.1182
Loafers	-12.1216
▁201.	-12.1216
Professional	-12.1216
Handbag	-12.1216
▁Taylor	-12.1216
▁Lombard	-12.1216
Heavy	-12.1216
child	-12.1216
▁Tavern	-12.1216
▁Knight	-12.1216
ajestic	-12.1216
iroslav	-12.1216
ojciech	-12.1216
▁OWING	-12.1216
▁Greet	-12.1216
lireza	-12.1217
azuki	-12.1217
▁awb	-12.1217
rystal	-12.1217
.10.2024	-12.1217
anilo	-12.1217
▁Chips	-12.1217
umiya	-12.1217
nsumer	-12.1217
accountant	-12.1218
atkins	-12.1218
Daily	-12.1219
911,	-12.122
irch	-12.1222
.12.2024	-12.1227
Aary	-12.1233
Lee	-12.1233
▁come	-12.1238
dale	-12.124
ksha	-12.1247
path	-12.1254
oris	-12.127
Fli	-12.1272
491,	-12.1281
nez	-12.1288
30.9	-12.1293
Ng	-12.1301
▁Wang	-12.1313
6/2026	-12.1326
$77	-12.1341
":"2025-08-0	-12.135
▁Fro	-12.1353
29.5	-12.1356
▁Hunt	-12.1372
irela	-12.1377
consultant	-12.138
Mostafa	-12.138
ranziska	-12.138
urope	-12.138
▁Publishing	-12.138
Admission	-12.138
asemin	-12.138
aught	-12.138
Dmytr	-12.138
horizon	-12.138
rairie	-12.138
bennett	-12.138
.10.2025	-12.138
Alexander	-12.138
▁Flops	-12.1381
▁Amend	-12.1381
▁Brooks	-12.1381
▁Adams	-12.1381
▁Coverage	-12.1381
.07.2025	-12.1382
▁Moore	-12.1382
.01.2024	-12.1383
▁Walker	-12.1383
Yuri	-12.1383
▁Karol	-12.1385
▁"2024-04-	-12.1387
UYER	-12.1389
tsushi	-12.1389
▁Horn	-12.139
▁Gate	-12.1395
UNT	-12.1396
▁Pine	-12.1432
843,	-12.1439
352,	-12.1442
Irin	-12.1456
▁233.	-12.146
lmaz	-12.146
▁2026-03-	-12.1473
Nik	-12.1474
724,	-12.1476
890,	-12.1483
acek	-12.1494
Arda	-12.1506
Emin	-12.1531
▁Conn	-12.1531
Yi	-12.1531
NCE	-12.1533
Purchaser	-12.1533
ndia	-12.1538
.95</	-12.1539
988,	-12.1546
Swimwear	-12.1546
Chinos	-12.1547
Yogurt	-12.1547
centre	-12.1547
Marika	-12.1547
olonial	-12.1547
Fabio	-12.1547
noushka	-12.1547
▁Getaway	-12.1547
▁Inventory	-12.1547
Antivirus	-12.1547
special	-12.1547
Luggage	-12.1547
bsolute	-12.1547
ranav	-12.1547
ositive	-12.1547
ladimir	-12.1547
western	-12.1547
Study	-12.1547
Vlad	-12.1548
ereza	-12.1548
Hakan	-12.1548
.11.2024	-12.155
enji	-12.155
.01.2026	-12.155
.06.2026	-12.1552
▁Huber	-12.1554
Ilon	-12.1557
Gize	-12.1565
Ryan	-12.1569
Joaqui	-12.157
▁Fulfil	-12.1579
▁2026-04-	-12.1583
rben	-12.1585
Deep	-12.1588
Justi	-12.1591
":"825	-12.1597
Door	-12.1602
Booking	-12.1606
IWB	-12.1617
438,	-12.1617
Pawe	-12.1621
CWB	-12.1646
Cosmi	-12.1647
Chika	-12.1648
Nova	-12.1658
442,	-12.166
Aki	-12.1663
Jack	-12.1671
Mia	-12.1677
311,	-12.1678
amla	-12.1682
81.4	-12.1682
705,	-12.1688
Strong	-12.1688
Alim	-12.1691
Luka	-12.171
axis	-12.1717
Izabela	-12.1717
referred	-12.1717
xecutive	-12.1717
—	-12.1717
▁Stirling	-12.1717
wich	-12.1717
▁VALUE	-12.1717
▁johor	-12.1717
vetlana	-12.1717
Ahmad	-12.1717
asmin	-12.1717
ncient	-12.1717
▁Holdings	-12.1717
nanya	-12.1717
▁Suitcase	-12.1717
alaysia	-12.1717
alome	-12.1717
▁Peel	-12.1718
Polo	-12.1718
.01.2025	-12.172
.12.2026	-12.1723
▁Race	-12.1727
▁Brea	-12.1732
Lily	-12.1733
Anis	-12.174
435,	-12.1743
urcan	-12.1746
vez	-12.1754
TRANSACTI	-12.1777
Emr	-12.1789
811,	-12.1818
▁749	-12.1832
.2026	-12.1834
Base	-12.1837
26.5	-12.1843
Aleksandr	-12.1844
Hug	-12.1849
509,	-12.1852
445,	-12.1855
":"2025-10-0	-12.1868
703,	-12.1875
jara	-12.1887
Sandals	-12.1888
Joggers	-12.1888
Yusuf	-12.1889
▁Russell	-12.1889
ê	-12.1889
ė	-12.1889
▁Lifestyle	-12.1889
▁Lothian	-12.1889
Bikini	-12.1889
inzia	-12.1889
leksandar	-12.1889
machinery	-12.1889
Janek	-12.1889
oksana	-12.1889
▁Artisans	-12.1889
▁Koramanga	-12.1889
indful	-12.1889
Latte	-12.1889
amadou	-12.1889
Živi	-12.1889
ohsen	-12.1889
▁PLC	-12.1889
akize	-12.1889
Yuliya	-12.1889
eronika	-12.1889
858,	-12.1891
avvy	-12.1893
Jovan	-12.1893
adja	-12.1893
hiara	-12.1894
▁Barton	-12.1895
ragan	-12.1895
Yuli	-12.1895
Levent	-12.19
812,	-12.19
Camil	-12.1905
50.5	-12.1906
Paja	-12.1906
2.62"	-12.1911
Elir	-12.1918
289,	-12.1918
leksandr	-12.1935
SSL	-12.194
lebe	-12.1948
Floor	-12.195
778,	-12.1951
ORDERED	-12.1952
578,	-12.1954
arnp	-12.1959
High	-12.1963
zgi	-12.1964
860,	-12.1969
985,	-12.198
208,	-12.1981
488,	-12.1986
956,	-12.1991
Lead	-12.1998
60.9	-12.2006
▁"2024-02-	-12.2007
eather	-12.2009
":"702	-12.2015
▁173.	-12.2018
ntario	-12.2052
80.8	-12.2059
nika	-12.2064
Butter	-12.2064
Ž	-12.2064
▁Emporium	-12.2064
Björ	-12.2064
advance	-12.2064
ulevard	-12.2064
ä	-12.2064
Şul	-12.2064
▁Details	-12.2064
▁Shaganappi	-12.2064
atrik	-12.2064
▁jaya	-12.2064
einrich	-12.2064
ossein	-12.2064
▁Ashton	-12.2064
Hassan	-12.2065
▁Colaba	-12.2065
Anssi	-12.2065
ław	-12.2065
anele	-12.2065
.05.2025	-12.2065
asile	-12.2066
Bacon	-12.2066
independent	-12.2067
▁Spencer	-12.2068
Tamá	-12.2069
.06.2024	-12.2075
▁2024-11-	-12.2087
loyal	-12.2088
851,	-12.2108
243,	-12.2115
Check	-12.2127
final	-12.2128
Mona	-12.2135
718,	-12.2136
llard	-12.214
Invoice	-12.2141
VNE	-12.2142
":"862	-12.2144
Mads	-12.2148
ollow	-12.2163
awel	-12.2169
468,	-12.2169
clusive	-12.2187
bla	-12.2188
LNN	-12.2193
635,	-12.2194
vista	-12.22
akeside	-12.2209
▁Milk	-12.221
10.5	-12.2211
Operator	-12.2215
315,	-12.2223
▁2024-09-	-12.2237
Cardigan	-12.2242
records	-12.2243
Summer	-12.2243
▁Grant	-12.2243
Felipe	-12.2243
Jukka	-12.2243
▁1001000000	-12.2243
▁Sherbou	-12.2243
▁voucher	-12.2243
agdalena	-12.2243
lessandro	-12.2243
double	-12.2243
▁Gympi	-12.2243
arlotta	-12.2243
threads	-12.2243
▁Griffith	-12.2243
▁Vegetables	-12.2243
universal	-12.2243
iulia	-12.2243
.10.2026	-12.2243
akka	-12.2243
hinedu	-12.2243
atrien	-12.2243
tefan	-12.2243
Multi	-12.2247
original	-12.2247
Fried	-12.2249
▁Night	-12.2251
VPN	-12.2253
▁Snow	-12.226
192,	-12.2265
525,	-12.2267
▁Mara	-12.2268
▁Chand	-12.2271
Master	-12.2277
63.8	-12.228
Ref	-12.2283
17.8	-12.2284
Marcel	-12.2294
2/2	-12.2295
LDN	-12.2304
":"267.	-12.2342
fulfill	-12.2342
torage	-12.2375
971,	-12.2382
81200	-12.2389
337,	-12.2418
Vist	-12.2421
▁Grassmarket	-12.2425
▁Deansgate	-12.2425
unrise	-12.2425
▁Miya	-12.2425
Rasmus	-12.2425
Zbigniew	-12.2425
ehzad	-12.2425
ozef	-12.2425
▁Levesque	-12.2425
hadow	-12.2425
▁Campbell	-12.2425
shopping	-12.2425
Bagel	-12.2425
newtown	-12.2426
gutt	-12.2427
▁Dub	-12.2427
free	-12.2427
.07.2024	-12.2428
cosmic	-12.2428
ederica	-12.2428
adim	-12.2432
bike	-12.2432
today	-12.2433
.04.2024	-12.2438
RNE	-12.2462
ZWB	-12.2463
▁269.	-12.2466
▁Oil	-12.2477
Vital	-12.2477
Filip	-12.2478
▁Pos	-12.2494
Data	-12.2496
Link	-12.251
506,	-12.2524
62.7	-12.2535
570,	-12.2544
▁Lei	-12.2545
LTN	-12.2554
GWB	-12.2572
.01</	-12.2574
▁Walk	-12.2607
Leggings	-12.2609
Fuel	-12.261
▁Cooper	-12.261
▁Tampoi	-12.261
CARRIER	-12.261
freedom	-12.261
▁Lawrence	-12.261
▁OPERAT	-12.261
abiba	-12.261
▁Togh	-12.261
▁Janpath	-12.261
jobs	-12.261
▁Alam	-12.261
▁Diaz	-12.261
▁Hastings	-12.261
▁Cunningham	-12.261
Noodle	-12.261
ablo	-12.261
oivo	-12.261
Potatoes	-12.2611
Meyer	-12.2611
▁Review	-12.2611
winter	-12.2611
▁Carna	-12.2612
cius	-12.2613
390,	-12.2613
Essi	-12.2617
uperior	-12.2618
atej	-12.2619
317,	-12.2624
MWB	-12.2627
854,	-12.2646
▁Dev	-12.2652
Mikk	-12.2663
13.8	-12.2673
iku	-12.2675
Print	-12.268
William	-12.2683
575,	-12.2686
Printer	-12.2687
NWB	-12.2705
▁Down	-12.2707
287,	-12.2708
Lif	-12.2727
QNE	-12.273
Movi	-12.2751
GPS	-12.2763
ornerstone	-12.2777
482,	-12.2783
bhishek	-12.2799
Mikhai	-12.2799
ë	-12.2799
Şahi	-12.2799
eynep	-12.2799
Sakura	-12.2799
▁McKnight	-12.2799
▁Koti	-12.2799
Harper	-12.2799
▁Briefs	-12.2799
▁11:3	-12.2799
Maksi	-12.2799
saba	-12.28
▁Corp	-12.2801
sharp	-12.2801
grave	-12.2802
▁NUM	-12.2803
trans	-12.2803
guez	-12.2803
Isto	-12.2804
ainab	-12.2807
nkle	-12.2807
heritage	-12.2808
▁Mose	-12.2809
▁Eng	-12.2809
Stanis	-12.2812
533,	-12.2814
ircle	-12.2815
bold	-12.2823
769,	-12.2827
Reward	-12.2839
":"977	-12.2848
amara	-12.285
Franc	-12.2857
651,	-12.2859
664,	-12.2864
CUSTOMER	-12.2876
138,	-12.2882
,2026-02-	-12.2883
Flee	-12.2889
▁2026-11-	-12.2896
cake	-12.2896
engaluru	-12.2902
958,	-12.2907
▁Jean	-12.2908
solid	-12.2916
Yog	-12.2924
▁15:5	-12.2931
963,	-12.2937
uria	-12.294
46.2	-12.294
27.3	-12.2959
▁Whit	-12.2974
Jud	-12.298
":"637	-12.2986
Blouse	-12.299
down	-12.299
lari	-12.2991
Selangor	-12.2991
fairview	-12.2991
▁Contract	-12.2991
▁Ortiz	-12.2991
rincipal	-12.2991
Abdelrahman	-12.2991
Double	-12.2991
Installation	-12.2991
aximum	-12.2991
Autumn	-12.2991
ọ	-12.2991
▁Califomia	-12.2991
▁Cuff	-12.2991
▁Records	-12.2991
bdallah	-12.2991
▁Architecture	-12.2991
Zhanna	-12.2991
▁PROCES	-12.2991
pruce	-12.2991
▁Trunks	-12.2991
Sajjad	-12.2991
lmore	-12.2991
Whole	-12.2991
Kenne	-12.2991
southern	-12.2991
bigail	-12.2991
Trial	-12.2991
livia	-12.2992
egacy	-12.2992
.11.2025	-12.2993
":"0.00"}],"	-12.2993
bowl	-12.2994
Asami	-12.2994
focus	-12.2994
responsive	-12.2994
▁Head	-12.2995
Iwan	-12.2995
optimum	-12.2995
melia	-12.2997
▁Gua	-12.2997
teady	-12.2998
.2025	-12.2999
UWB	-12.3005
71.1	-12.3007
four	-12.3009
DWB	-12.3009
▁08:5	-12.3014
▁2024-08-	-12.3034
▁234.	-12.3035
Sale	-12.3051
661,	-12.3053
Prote	-12.3063
582,	-12.3063
Company	-12.3072
TRACKING	-12.3072
Accounting	-12.3076
itch	-12.308
wave	-12.3113
293,	-12.3117
iji	-12.3129
ilippa	-12.313
Salma	-12.3132
Mait	-12.3172
LPN	-12.3176
chester	-12.3186
▁Queensway	-12.3187
local	-12.3187
000656195584	-12.3187
hannel	-12.3187
▁Communications	-12.3187
▁Gallery	-12.3187
rnethod	-12.3187
▁@6%	-12.3187
▁DETAILS	-12.3187
▁selangor	-12.3187
▁tampoi	-12.3187
Instant	-12.3187
arnount	-12.3187
hukwudi	-12.3187
oussef	-12.3187
▁Stret	-12.3187
▁Miller	-12.3187
▁Guy	-12.3188
oncord	-12.3189
friendly	-12.3189
full	-12.319
Márt	-12.319
▁Guild	-12.3192
10.8	-12.3194
▁vat	-12.3195
79.9	-12.3195
Nazl	-12.3197
807,	-12.3201
atja	-12.3202
next	-12.3206
odern	-12.3251
John	-12.3272
640,	-12.3272
450,	-12.3288
▁deliver	-12.3288
300","	-12.329
LXN	-12.3293
558,	-12.3293
ojan	-12.33
39.8	-12.33
Rosa	-12.3311
:26:00	-12.3329
▁200.	-12.3332
wall	-12.3333
42.7	-12.3338
ndez	-12.3352
:38:00	-12.337
▁FULFIL	-12.338
ushi	-12.3382
▁Bottoms	-12.3387
Blackfri	-12.3387
erfect	-12.3387
▁Booth	-12.3387
▁PROMO	-12.3387
▁rounding	-12.3387
enduring	-12.3387
lewis	-12.3387
atriot	-12.3387
▁Jerv	-12.3387
hudson	-12.3387
kseli	-12.3387
▁Serra	-12.3387
ihoon	-12.3387
radiant	-12.3387
ticket	-12.3387
educ	-12.3388
▁Machinery	-12.3388
steel	-12.3388
asim	-12.3388
downtown	-12.3391
▁Legroo	-12.3392
336,	-12.3392
▁Farm	-12.3393
uston	-12.3395
load	-12.3397
annah	-12.3399
forest	-12.3401
Sora	-12.3406
iyu	-12.3414
Loren	-12.3426
dela	-12.343
3.08"	-12.3433
741,	-12.3461
gate	-12.3464
Worldwide	-12.3476
carter	-12.3479
545,	-12.349
dris	-12.3492
Rain	-12.3493
EWB	-12.3501
▁"2024-12-	-12.3509
atteo	-12.3517
▁2024-01-	-12.3525
LWB	-12.3537
Timo	-12.3554
LYN	-12.3556
153,	-12.3561
KWB	-12.3561
▁Corona	-12.3565
87.7	-12.3576
super	-12.3588
Bathrobe	-12.359
cations	-12.3591
liberty	-12.3591
Tatiana	-12.3591
iggins	-12.3591
Célin	-12.3591
Raheem	-12.3591
adwiga	-12.3591
wapnil	-12.3591
▁Aurob	-12.3591
▁Davie	-12.3591
lumbing	-12.3591
pirit	-12.3591
unified	-12.3591
Suit	-12.3592
Kian	-12.3592
valley	-12.3592
Lorenz	-12.3592
merald	-12.3593
▁Lodh	-12.3596
wind	-12.3598
ien	-12.3611
▁Respons	-12.3611
418,	-12.3611
818,	-12.3631
Cookie	-12.3638
24.9	-12.3653
otte	-12.3663
lind	-12.3668
star	-12.3683
consign	-12.3685
Energy	-12.3685
99.8	-12.37
cons	-12.3703
▁pleas	-12.3721
essential	-12.373
Hoste	-12.3738
24.1	-12.3741
605,	-12.3741
740,	-12.3783
▁Vit	-12.3793
▁Globa	-12.3794
Earrings	-12.3799
Nachos	-12.3799
Garlic	-12.3799
immerman	-12.3799
flowers	-12.3799
ranchise	-12.3799
▁Cordova	-12.3799
Thảo	-12.3799
Søren	-12.3799
ahmoud	-12.3799
lunar	-12.3799
▁CHARGED	-12.3799
adislav	-12.3799
ehmet	-12.3799
integrity	-12.3799
oshua	-12.3799
▁Sanchez	-12.38
▁Limited	-12.38
Swim	-12.38
flex	-12.38
helsea	-12.38
money	-12.38
▁Autom	-12.38
Prosper	-12.38
emih	-12.38
Kasia	-12.38
▁LLC	-12.38
▁Fitzgerald	-12.38
meka	-12.3801
Databas	-12.3803
lux	-12.3804
general	-12.3805
irill	-12.3807
▁274.	-12.3809
▁Parc	-12.3809
84.9	-12.3809
lmar	-12.3814
Adam	-12.3815
132,	-12.3821
▁"2024-08-	-12.3825
mour	-12.3831
,2026-11-	-12.3885
▁"2024-10-	-12.3888
adha	-12.3894
Device	-12.3897
982,	-12.3897
Vega	-12.3917
resource	-12.3945
30.6	-12.3966
856,	-12.3985
54.5	-12.3991
23.9	-12.3995
just	-12.4008
:03:00	-12.401
Umbrella	-12.4011
Slippers	-12.4012
▁Columb	-12.4012
▁Dalton	-12.4012
frontier	-12.4012
Sophia	-12.4012
Benjamin	-12.4012
Common	-12.4012
Nicholas	-12.4012
enelope	-12.4012
urelijus	-12.4012
▁Bristol	-12.4012
▁Sherbrook	-12.4012
arget	-12.4012
oboru	-12.4012
rtjom	-12.4012
fluent	-12.4012
premium	-12.4012
vector	-12.4012
deola	-12.4012
▁7/4,	-12.4013
▁Gray	-12.4013
momentum	-12.4014
ustyna	-12.4015
.11.2026	-12.4015
▁Flind	-12.4015
lbion	-12.4015
optimal	-12.4016
▁Field	-12.4019
Expo	-12.4025
6.26"	-12.406
rtur	-12.4075
Gae	-12.4087
Spring	-12.4115
55.6	-12.4119
▁373.	-12.4122
($	-12.4134
▁2026-02-	-12.4152
engineer	-12.4157
Select	-12.4164
Reserv	-12.4184
:53:00	-12.4203
Mouthwash	-12.4228
Ossi	-12.4228
Brook	-12.4229
Skirt	-12.4229
Short	-12.4229
▁Manning	-12.423
school	-12.423
istinct	-12.423
▁Fraser	-12.423
atemeh	-12.423
▁Macq	-12.423
intage	-12.423
rzegorz	-12.423
federal	-12.423
quick	-12.423
Connect	-12.423
haven	-12.423
nfinity	-12.423
Ioana	-12.423
▁promotion	-12.423
Mega	-12.423
▁Hyde	-12.423
Relaxe	-12.423
mony	-12.423
omoko	-12.4231
ibel	-12.4231
luca	-12.4232
initial	-12.4232
imena	-12.4232
ntegrated	-12.4232
website	-12.4234
303,	-12.4237
century	-12.4237
210,	-12.4239
esna	-12.4245
Slate	-12.4248
lease	-12.4272
76.5	-12.4276
:21:00	-12.4277
info	-12.4278
water	-12.4282
american	-12.4291
▁08:1	-12.4294
ntti	-12.4298
Fitness	-12.4337
Add	-12.4337
level	-12.4363
partments	-12.4367
:18:00	-12.4375
:44:00	-12.4385
▁2026-10-	-12.4385
Juh	-12.4412
28.9	-12.4431
2.09"	-12.4433
Organic	-12.4451
Scarf	-12.4451
▁Begum	-12.4452
uomas	-12.4452
uillermo	-12.4452
î	-12.4452
▁MOBILE	-12.4452
akahiro	-12.4452
▁RECE	-12.4452
hirazi	-12.4452
morning	-12.4452
roberts	-12.4452
usrat	-12.4452
▁Fuller	-12.4452
campo	-12.4452
morris	-12.4452
ission	-12.4452
▁Belmont	-12.4452
▁Temple	-12.4452
holm	-12.4452
show	-12.4453
Awb	-12.4453
Cotton	-12.4453
0.26"	-12.4458
jaf	-12.446
:02:00	-12.4463
▁Margar	-12.4463
slate	-12.4473
37.6	-12.4545
Trail	-12.4564
33.28	-12.4571
dynamic	-12.4609
good	-12.4611
:07:00	-12.4622
▁Promo	-12.4676
▁Rajpath	-12.4679
▁Slice	-12.4679
▁Gomez	-12.4679
empire	-12.4679
Thibault	-12.4679
civic	-12.4679
fleet	-12.4679
growing	-12.4679
wise	-12.4679
Hyeji	-12.4679
wonder	-12.4679
enchmark	-12.4679
Sławo	-12.4679
redwood	-12.4679
▁SUPP	-12.4679
mbay	-12.468
▁Spad	-12.468
uiet	-12.4682
actor	-12.4682
▁Wolf	-12.4682
ayato	-12.4683
Full	-12.4685
AIR	-12.4704
76.2	-12.4728
Premi	-12.4728
ather	-12.4733
njali	-12.474
,2026-09-	-12.4743
1.00	-12.4767
aiser	-12.4779
Massag	-12.4796
Trade	-12.4797
Soup	-12.4797
:50:00	-12.484
▁Glove	-12.4846
innacle	-12.4884
▁Hos	-12.4895
▁Middleway	-12.4911
umphrey	-12.4912
▁Burnet	-12.4912
▁Fountainbridge	-12.4912
complete	-12.4912
daptive	-12.4912
mitchell	-12.4912
social	-12.4912
leksi	-12.4912
▁Exhibition	-12.4912
▁Roncesva	-12.4912
gutierrez	-12.4912
aavo	-12.4912
ergei	-12.4912
▁Bruntsf	-12.4912
Sofia	-12.4912
robinson	-12.4912
▁Fillet	-12.4912
future	-12.4912
midland	-12.4912
grey	-12.4912
contr	-12.4913
▁Pender	-12.4914
elite	-12.4914
chief	-12.4916
compass	-12.4917
utton	-12.4917
case	-12.4918
better	-12.492
Boost	-12.493
Emil	-12.4936
Deja	-12.4966
imothy	-12.4986
Cancell	-12.5035
Settle	-12.5035
Apartment	-12.5035
MODE	-12.5036
1.55"	-12.5036
97.6	-12.505
▁Electronic	-12.508
Fulfill	-12.5104
amille	-12.5139
ndependent	-12.5147
Blazer	-12.5149
▁Souza	-12.515
corporation	-12.515
Gustav	-12.515
eatriz	-12.515
Assembly	-12.515
excel	-12.515
▁Partnership	-12.515
Shirin	-12.515
cooper	-12.515
▁Marks	-12.515
harmony	-12.515
▁time	-12.515
▁Remova	-12.515
Coupon	-12.5151
Fox	-12.5151
wealth	-12.5151
pears	-12.5152
ohail	-12.5152
vanguard	-12.5152
egin	-12.5152
omni	-12.5153
brave	-12.5162
20:3	-12.5195
:16:00	-12.5211
asaki	-12.5212
:54:00	-12.5224
▁Milt	-12.5231
antosh	-12.5258
hipping	-12.5317
SALE	-12.5337
:42:00	-12.5345
▁Simon	-12.5346
Tiin	-12.5349
truc	-12.5366
▁Bvndle	-12.5394
Sullivan	-12.5394
eifert	-12.5394
boost	-12.5394
launch	-12.5394
ioleta	-12.5394
nshaw	-12.5394
bailey	-12.5394
▁COPY	-12.5394
▁Context	-12.5394
Good	-12.5394
/25/2024	-12.5394
eikko	-12.5394
suppo	-12.5394
▁Detergent	-12.5394
atlas	-12.5394
hiago	-12.5394
Asif	-12.5395
Match	-12.5395
▁Permas	-12.5395
partnership	-12.5396
click	-12.5396
▁Rache	-12.5397
Bhat	-12.5404
noble	-12.5416
Rahu	-12.5457
84.4	-12.5463
LLN	-12.5476
five	-12.5485
Marg	-12.5534
eniz	-12.5551
8.91"	-12.5577
Wise	-12.559
ealth	-12.5633
size	-12.564
ocus	-12.564
bject	-12.564
▁Richard	-12.5642
jewel	-12.5643
▁Austra	-12.5644
willow	-12.5644
▁Elliott	-12.5644
Gábor	-12.5644
Öztürk	-12.5644
▁Counter	-12.5644
aisuke	-12.5644
bdoulaye	-12.5644
hristopher	-12.5644
dawn	-12.5644
rogress	-12.5644
/27/2025	-12.5644
orowski	-12.5644
/14/2024	-12.5644
/15/2024	-12.5644
/24/2026	-12.5644
mighty	-12.5644
Internet	-12.5644
sheer	-12.5653
#	-12.5676
Juli	-12.5692
▁Residen	-12.5726
uther	-12.574
Moon	-12.5747
oston	-12.5812
▁Mich	-12.5848
22.7	-12.5878
▁Nam	-12.5896
Shampoo	-12.5899
▁Fries	-12.59
recision	-12.59
▁Scarborough	-12.59
delta	-12.59
thompson	-12.59
torres	-12.59
witt	-12.59
▁Stuart	-12.59
claims	-12.59
leading	-12.59
nthony	-12.59
Chloe	-12.59
▁Bond	-12.59
hattacharya	-12.59
▁Dils	-12.59
▁Kingsway	-12.5901
▁Small	-12.5901
harris	-12.5901
bbott	-12.5901
sterling	-12.5901
Cobb	-12.5901
▁Sarj	-12.5903
vital	-12.5903
▁Divisi	-12.5906
ENE	-12.5907
Gym	-12.5921
67.7	-12.5933
pati	-12.5999
owntown	-12.6021
44.52	-12.6132
:12:00	-12.6135
samuel	-12.6163
▁Cohen	-12.6163
Meadow	-12.6163
companies	-12.6163
premier	-12.6163
Enduring	-12.6163
select	-12.6163
▁Audit	-12.6163
▁Bannerghat	-12.6163
▁Slaughter	-12.6163
▁~~	-12.6163
campbell	-12.6163
richardson	-12.6163
/20/2026	-12.6163
fox	-12.6163
▁Parfait	-12.6163
ukh	-12.6164
ndrieu	-12.6164
▁rice	-12.6164
smith	-12.6164
▁Shield	-12.6164
LJNE	-12.6164
voy	-12.6165
urple	-12.617
▁Essen	-12.6175
amera	-12.6189
daily	-12.6195
$128.	-12.6269
Ship	-12.6313
Thomas	-12.6319
5.00	-12.6329
llinois	-12.6357
Bottl	-12.6359
39.3	-12.6362
:32:00	-12.6428
14.32	-12.6433
recip	-12.6433
uattara	-12.6433
▁Houston	-12.6434
▁Ogden	-12.6434
velyn	-12.6434
▁DESTINATION	-12.6434
▁ELECTRON	-12.6434
▁Vik	-12.6434
▁STORE	-12.6434
/16/2025	-12.6434
/18/2024	-12.6434
davis	-12.6434
navy	-12.6434
▁Atkins	-12.6434
:47:00	-12.6439
▁uni	-12.6465
Aditya	-12.6466
Viktor	-12.6472
imona	-12.6487
:31:00	-12.6508
Freedo	-12.6516
DISPATCH	-12.6596
Fashion	-12.6596
:19:00	-12.6609
iggs	-12.6629
▁2026-07-1	-12.6639
pul	-12.6649
:08:00	-12.6679
ptimum	-12.6705
▁Centra	-12.6706
Integr	-12.6708
riendly	-12.6708
Cappuccino	-12.6711
▁Nuts	-12.6711
found	-12.6711
Mocha	-12.6711
whole	-12.6711
rouwer	-12.6711
▁Caruso	-12.6711
oekhout	-12.6711
▁Configuration	-12.6711
▁Ouest	-12.6711
\	-12.6711
▁Goodwin	-12.6711
volt	-12.6711
arctic	-12.6711
carlett	-12.6711
ependable	-12.6711
exclud	-12.6711
▁Narasimha	-12.6711
Technica	-12.6711
▁Johnston	-12.6711
aewon	-12.6711
▁Lauriston	-12.6711
▁PAYA	-12.6711
connect	-12.6711
▁Platter	-12.6711
jackson	-12.6711
eagle	-12.6711
marble	-12.6711
atalina	-12.6712
Member	-12.6712
Unifi	-12.6712
active	-12.6712
orange	-12.6712
Concer	-12.6713
Potato	-12.6721
:46:00	-12.6874
Gloves	-12.6881
Boarding	-12.6882
Young	-12.6882
Cheese	-12.6882
92.32	-12.6913
raining	-12.6922
▁Arb	-12.6935
:40:00	-12.6941
$121.	-12.6965
27.4	-12.6976
Cucumber	-12.6996
Lemonade	-12.6996
▁METH	-12.6997
▁Cheapside	-12.6997
▁Laurent	-12.6997
Raymond	-12.6997
peterson	-12.6997
COURIER	-12.6997
sabella	-12.6997
~	-12.6997
▁Hoddl	-12.6997
▁Officia	-12.6997
▁Telephone	-12.6997
▁Ventura	-12.6997
incorporated	-12.6997
lighthouse	-12.6997
▁Neig	-12.6997
granite	-12.6997
lorenz	-12.6997
/19/2025	-12.6997
family	-12.6997
▁Wharf	-12.6997
exampSe	-12.6997
jones	-12.6997
lute	-12.6998
national	-12.6998
nitial	-12.7
:33:00	-12.7047
84.78	-12.7092
61.96	-12.7172
FULFILL	-12.7175
Charles	-12.7176
George	-12.7176
:48:00	-12.7193
45.72	-12.724
Anu	-12.7282
▁Spence	-12.7286
ptimal	-12.7286
anguard	-12.7288
Dessert	-12.729
Mayonnaise	-12.729
Omelette	-12.7291
nstitu	-12.7291
exBmple	-12.7291
kingdom	-12.7291
euvo	-12.7291
▁Bishopsgate	-12.7291
▁returnable	-12.7291
meadow	-12.7291
lmond	-12.7291
morales	-12.7291
/28/2026	-12.7291
Chauhan	-12.7291
lizaveta	-12.7291
Sterling	-12.7291
reyes	-12.7291
▁bahru	-12.7291
ngelov	-12.7291
common	-12.7292
aavi	-12.7292
Haven	-12.7292
Grow	-12.7293
Zoe	-12.7295
Loyal	-12.7296
rui	-12.7327
▁Clai	-12.7347
shah	-12.7356
:59:00	-12.7363
ntry	-12.7411
:10:00	-12.7436
Henry	-12.7479
deep	-12.7496
Wave	-12.7513
59.54	-12.7544
hiprnent	-12.7556
▁Alber	-12.7568
hospital	-12.757
ahru	-12.7594
▁Canongate	-12.7594
ickinson	-12.7594
krishnan	-12.7594
▁Alfredo	-12.7594
▁Rubio	-12.7594
▁Almeida	-12.7594
pectrum	-12.7594
▁Archer	-12.7594
brisk	-12.7594
VOUCHER	-12.7594
worldwide	-12.7594
▁CONTEXT	-12.7594
▁MERCHANDI	-12.7594
Kaczmarek	-12.7594
Pancake	-12.7594
ground	-12.7594
phillips	-12.7594
/28/2024	-12.7594
urkhardt	-12.7594
▁Doumbia	-12.7594
▁Mizuno	-12.7594
epic	-12.7595
▁OFFIC	-12.7595
90.92	-12.7621
Cocon	-12.7625
▁2026-05-1	-12.7676
ndustrial	-12.7745
$141.	-12.7749
▁Santos	-12.7767
country	-12.7791
Stephen	-12.7791
Marketing	-12.7792
Sandwich	-12.7792
Package	-12.7792
&	-12.7792
:34:00	-12.7826
motor	-12.7837
tarter	-12.7892
hief	-12.7901
Super	-12.7905
Cheeseburger	-12.7906
Quesadilla	-12.7906
▁Kabore	-12.7907
trickland	-12.7907
▁Pavlov	-12.7907
expert	-12.7907
eixeira	-12.7907
Schwartz	-12.7907
Mahoney	-12.7907
Exhibit	-12.7907
bonus	-12.7907
exaBple	-12.7907
private	-12.7907
▁applied	-12.7907
discovery	-12.7907
exOmple	-12.7907
onzalez	-12.7907
▁Majid	-12.7907
storm	-12.7907
▁Lesson	-12.7907
/25/2025	-12.7907
rogers	-12.7907
▁Ennis	-12.7907
scott	-12.7907
▁Vargas	-12.7907
▁Hoch	-12.7907
easy	-12.7907
▁Bautista	-12.7907
▁Bowery	-12.7907
▁Wickha	-12.7909
Futur	-12.794
:41:00	-12.7993
cotland	-12.8
$148.	-12.8049
Research	-12.8114
▁america	-12.8139
organic	-12.8159
Leg	-12.8171
esponsive	-12.8192
▁Westm	-12.8205
▁Clayton	-12.8229
▁ADDRE	-12.8229
griffith	-12.8229
▁McKay	-12.8229
barwangrice	-12.8229
McNeil	-12.8229
associates	-12.8229
Guerrero	-12.8229
examOle	-12.8229
nguyen	-12.8229
▁Amrani	-12.8229
▁Bäckman	-12.8229
▁Ingalls	-12.8229
▁TELEPHONE	-12.8229
▁rnode	-12.8229
flying	-12.8229
Malmström	-12.8229
▁Hariri	-12.8229
/24/2025	-12.8229
▁Elb	-12.8229
/19/2024	-12.8229
gorski	-12.8229
watson	-12.8229
/13/2024	-12.8229
/13/2026	-12.8229
Lemon	-12.8229
Conroy	-12.8231
▁Digb	-12.8231
Ready	-12.8231
ilgin	-12.8232
Coast	-12.8253
Lake	-12.8276
="2025-02-1	-12.8329
0.87"	-12.8414
Boots	-12.8446
Avocados	-12.8457
quity	-12.853
leaning	-12.8554
Toothpaste	-12.8562
Ketchup	-12.8562
Mustard	-12.8562
Kjellberg	-12.8562
▁McLaughlin	-12.8562
Bruce	-12.8563
▁Associates	-12.8563
eIample	-12.8563
▁Dlrect	-12.8563
▁Tapia	-12.8563
Thao	-12.8563
village	-12.8563
eOample	-12.8563
Kawaguchi	-12.8563
Niemi	-12.8563
▁Utz	-12.8563
▁Companies	-12.8563
eanut	-12.8563
exampIe	-12.8563
/27/2024	-12.8563
▁Spread	-12.8563
▁Sarr	-12.8563
▁Concourse	-12.8563
strada	-12.8563
▁Madsen	-12.8563
Lassen	-12.8563
Chiang	-12.8563
Festiv	-12.8563
ozano	-12.8564
▁Bui	-12.8565
:01:00	-12.8579
▁Equ	-12.8595
Edition	-12.8793
usiness	-12.8895
2025-11-10	-12.8903
omentum	-12.8905
▁Editi	-12.8905
Shepherd	-12.8907
▁Olsen	-12.8907
▁Jaffar	-12.8907
adamu	-12.8907
▁Cabrera	-12.8907
Yamamoto	-12.8907
▁Castro	-12.8907
▁Petrov	-12.8907
zquierdo	-12.8907
▁Irving	-12.8907
▁Jeong	-12.8907
walker	-12.8907
Kawakami	-12.8907
exaIple	-12.8907
examBle	-12.8907
▁Travis	-12.8907
Mittal	-12.8907
▁Lopez	-12.8907
Scrambl	-12.8907
▁LANDLINE	-12.8907
▁Ladypoo	-12.8907
▁McFarland	-12.8907
wilson	-12.8907
Figueroa	-12.8907
rodriguez	-12.8907
flores	-12.8907
▁Murdock	-12.8907
/22/2025	-12.8907
/18/2025	-12.8907
▁Vogel	-12.8908
chmidt	-12.8908
Motsepe	-12.8908
Saito	-12.8908
▁Hoffman	-12.8908
Henley	-12.8908
Sugar	-12.8909
eandro	-12.8913
2/09/202	-12.8928
Holly	-12.8994
$140.	-12.9077
":"155.0	-12.9143
Operat	-12.9145
Theater	-12.9149
James	-12.9149
Point	-12.915
high	-12.9245
Bananas	-12.9264
Dynamic	-12.9264
Coleslaw	-12.9264
▁Multivitamin	-12.9264
▁Hood	-12.9264
▁Naylor	-12.9264
▁Syrup	-12.9264
▁Kozlov	-12.9264
▁McMahon	-12.9264
▁Beltrán	-12.9264
▁Crane	-12.9264
▁Elbaz	-12.9264
▁Montgomery	-12.9264
Assortment	-12.9264
▁Ferreira	-12.9264
Turnbull	-12.9264
Hodges	-12.9264
▁Ingram	-12.9264
▁Randall	-12.9264
▁Norris	-12.9264
▁Baldwin	-12.9264
▁Powder	-12.9264
▁Jørgensen	-12.9265
▁Incorporated	-12.9265
Arctic	-12.9265
jacob	-12.9265
▁Coleman	-12.9265
▁Judd	-12.9265
▁Napean	-12.9265
▁Surnmary	-12.9265
▁redeem	-12.9265
REDEEM	-12.9265
eacock	-12.9265
Sudhir	-12.9265
eBample	-12.9265
▁Herbert	-12.9265
▁Botan	-12.9265
instant	-12.9265
▁Burton	-12.9265
/20/2025	-12.9265
Foreman	-12.9265
exampOe	-12.9265
atomic	-12.9265
Buchanan	-12.9265
Pickett	-12.9265
▁Hinton	-12.9265
▁Kokkonen	-12.9265
▁Braithwaite	-12.9265
▁André	-12.9265
▁Mbogo	-12.9265
Gilbert	-12.9265
="2025-05-2	-12.9265
Boulos	-12.9266
ompass	-12.9295
2025-02-05	-12.94
":"121.5	-12.9415
easonal	-12.9422
osmic	-12.9427
2025-03-27	-12.9461
2024-01-19	-12.9464
▁Repla	-12.9489
Little	-12.952
METHOD	-12.952
▁America	-12.9614
riginal	-12.9625
▁Poirier	-12.9635
Ferrara	-12.9635
▁Ganesh	-12.9635
Espinosa	-12.9635
▁Alvarado	-12.9635
▁Hahn	-12.9635
excellence	-12.9635
▁Ralph	-12.9635
kunaga	-12.9635
priority	-12.9635
▁Eriksson	-12.9635
▁Grover	-12.9635
▁Svbscription	-12.9635
▁Winchester	-12.9635
Natarajan	-12.9635
▁Kingdorn	-12.9635
▁Bradley	-12.9635
▁Tyagi	-12.9635
stewart	-12.9635
/23/2025	-12.9635
/21/2025	-12.9635
/27/2026	-12.9635
/14/2025	-12.9635
▁Rozario	-12.9635
Globe	-12.9635
▁Naranjo	-12.9635
Storm	-12.9635
ould	-12.9636
romotion	-12.9643
inclusiv	-12.9753
Liber	-12.9905
$208.	-13.0001
Deodorant	-13.0019
Smoothie	-13.0019
▁Westerlund	-13.0019
▁Sherman	-13.0019
▁Foley	-13.0019
Aparicio	-13.0019
Harrington	-13.0019
Njeri	-13.0019
Goswami	-13.0019
Huerta	-13.0019
Nwosu	-13.0019
▁Reese	-13.0019
▁Sweet	-13.0019
▁Yıldız	-13.0019
Matsumoto	-13.0019
▁Jamison	-13.0019
McCray	-13.0019
hurley	-13.0019
tillwater	-13.0019
▁Kibet	-13.0019
▁Lindsay	-13.0019
▁Oliveira	-13.0019
▁Winkler	-13.0019
Whittaker	-13.0019
▁Marsh	-13.0019
▁Brandão	-13.002
exImple	-13.002
▁Duarte	-13.002
▁Kukatpal	-13.002
Palacios	-13.002
Rosenberg	-13.002
Accurat	-13.002
Excellence	-13.002
Fawcett	-13.002
▁(867388	-13.002
Kuroda	-13.002
turner	-13.002
▁Sidibe	-13.002
cobb	-13.002
▁Brantley	-13.002
▁Crackers	-13.002
orozov	-13.002
▁Bhatia	-13.002
▁Svensson	-13.002
Leafy	-13.002
▁Strasser	-13.002
▁Odom	-13.002
Branch	-13.002
Holmes	-13.0025
erican	-13.0028
regional	-13.0137
":"133.3	-13.0268
Hospitality	-13.0304
Access	-13.0305
ydney	-13.037
2025-08-17	-13.0414
▁packag	-13.0417
▁Control	-13.0419
Miranda	-13.0419
▁Mahajan	-13.0419
Papadopoulos	-13.0419
Zubair	-13.0419
▁Acheampong	-13.0419
▁Mortensen	-13.0419
▁Alonso	-13.0419
Sargent	-13.0419
▁Kashyap	-13.0419
▁Nyström	-13.0419
▁Windsor	-13.0419
▁Babić	-13.0419
▁Carpenter	-13.0419
▁Hidalgo	-13.0419
▁Tench	-13.0419
Müller	-13.0419
Schiller	-13.0419
owalczyk	-13.0419
▁Lemieux	-13.0419
▁Nagata	-13.0419
▁Nickerson	-13.042
Valladares	-13.042
▁Mercer	-13.042
chmitt	-13.042
welcome	-13.042
Dalgaard	-13.042
accurate	-13.042
Zúñiga	-13.042
▁Gross	-13.042
▁Radhakrishnan	-13.042
Moreno	-13.042
▁LeBlanc	-13.042
▁Peeters	-13.042
Agha	-13.042
▁Rahman	-13.042
ompton	-13.0439
292.1	-13.0586
2025-03-21	-13.0591
2024-04-20	-13.0716
Ticket	-13.0722
2025-09-16	-13.0743
Cleve	-13.077
2024-12-20	-13.0773
urpose	-13.0834
Project	-13.0835
Vinegar	-13.0835
▁Floss	-13.0836
Belkacem	-13.0836
▁Pollard	-13.0836
▁Bruijn	-13.0836
▁Program	-13.0836
▁Aydin	-13.0836
▁Dijk	-13.0836
▁Zamora	-13.0836
Celik	-13.0836
▁Malmberg	-13.0836
letcher	-13.0836
▁Trinh	-13.0836
Castillo	-13.0836
Crawford	-13.0836
▁Forster	-13.0836
▁Lebrun	-13.0836
endricks	-13.0836
▁Mikami	-13.0836
▁Vincent	-13.0836
Okamoto	-13.0836
garcia	-13.0836
▁Cvetković	-13.0836
▁Hurley	-13.0836
▁Iversen	-13.0836
▁Nicolau	-13.0836
avolio	-13.0836
▁Ahuja	-13.0836
▁Novotný	-13.0836
Jefferson	-13.0836
▁Ritchie	-13.0836
Active	-13.0836
chaefer	-13.0836
mohammed	-13.0836
▁Wilshir	-13.0836
▁Wilkins	-13.0836
arrientos	-13.0836
rgensen	-13.0836
Bernier	-13.0836
wright	-13.0836
ortiz	-13.0836
motsepe	-13.0836
stephen	-13.0836
taylor	-13.0836
▁Fournier	-13.0836
Stanford	-13.0836
McConnell	-13.0836
▁Siqueira	-13.0836
▁Jennings	-13.0836
▁Weeks	-13.0836
Whitaker	-13.0836
▁Solís	-13.0836
▁Faulkner	-13.0836
▁Gilmore	-13.0837
▁Ekberg	-13.0837
Utility	-13.0837
Walton	-13.0837
▁Lentils	-13.0837
2025-04-25	-13.0842
Alpin	-13.0843
2025-01-26	-13.0855
McDonald	-13.0896
2025-09-05	-13.09
Michel	-13.0922
2024-02-20	-13.0934
rdalan	-13.0957
2026-08-07	-13.1018
2025-08-07	-13.1019
2024-12-10	-13.1059
2025-05-17	-13.1105
312.1	-13.1133
2025-03-07	-13.1135
Catering	-13.1156
2026-02-23	-13.118
▁Prince	-13.1201
2024-11-27	-13.1209
2026-09-04	-13.1236
2025-08-09	-13.1245
▁Hirsch	-13.1271
Musonda	-13.1271
▁Everett	-13.1271
▁Dhillon	-13.1271
▁Hendrix	-13.1271
▁Szabó	-13.1271
Fairchild	-13.1271
Fitzpatrick	-13.1271
Karađorđević	-13.1271
▁Thakur	-13.1271
▁Glenn	-13.1271
▁Lennon	-13.1271
▁Nkomo	-13.1271
Reynolds	-13.1271
osthuizen	-13.1271
Gilliam	-13.1271
▁Kennedy	-13.1271
▁Villanueva	-13.1271
=	-13.1577
§	-13.1726
|	-13.2587
¥	-13.3228
¢	-13.4372
}	-13.6965
°	-13.8889
£	-13.9889
{	-14.0886
?	-14.1001
»	-14.1001
®	-14.3679
”	-14.5346
€	-15.3179
^	-15.7925
‘	-15.7926
«	-15.7927
Ż	-15.7928
ń	-15.7929
“	-15.793
ý	-15.7931
ç	-15.7932
č	-15.7933
ñ	-15.7934
ž	-15.7935
ả	-15.7936
đ	-15.7937
©	-15.7938
ř	-15.7939
ı	-15.794
ã	-15.7941
ğ	-15.7942
ø	-15.7943
Ş	-15.7944
ş	-15.7945
ó	-15.7946
ö	-15.7947
í	-15.7948
<	-15.7949
é	-15.7949
